<pad>	0
<unk>	0
<s>	0
</s>	0
▁t	-0
▁a	-1
in	-2
he	-3
▁the	-4
re	-5
on	-6
▁s	-7
er	-8
▁c	-9
▁o	-10
at	-11
▁w	-12
en	-13
▁p	-14
it	-15
es	-16
▁f	-17
or	-18
an	-19
is	-20
▁b	-21
▁in	-22
▁m	-23
▁an	-24
ing	-25
ou	-26
ed	-27
▁to	-28
al	-29
▁d	-30
▁of	-31
ion	-32
ar	-33
▁and	-34
ic	-35
le	-36
ro	-37
as	-38
▁h	-39
▁th	-40
▁re	-41
▁n	-42
▁e	-43
ct	-44
ent	-45
us	-46
il	-47
▁l	-48
om	-49
▁y	-50
ation	-51
ve	-52
▁is	-53
▁g	-54
et	-55
▁for	-56
▁you	-57
▁be	-58
ot	-59
ly	-60
ut	-61
▁i	-62
st	-63
▁on	-64
ce	-65
ur	-66
ch	-67
▁pro	-68
ol	-69
ow	-70
▁st	-71
id	-72
▁con	-73
ver	-74
ig	-75
▁it	-76
un	-77
am	-78
ith	-79
▁with	-80
▁as	-81
ment	-82
▁that	-83
▁we	-84
ad	-85
ay	-86
ul	-87
ir	-88
▁com	-89
▁al	-90
se	-91
im	-92
▁de	-93
ag	-94
ter	-95
▁ex	-96
▁v	-97
pp	-98
ill	-99
▁are	-100
▁us	-101
ess	-102
▁or	-103
ate	-104
▁se	-105
▁wh	-106
ers	-107
▁su	-108
ab	-109
ri	-110
▁this	-111
ap	-112
▁r	-113
▁j	-114
od	-115
her	-116
qu	-117
lo	-118
▁ne	-119
ac	-120
ure	-121
ity	-122
if	-123
▁can	-124
ak	-125
ort	-126
ect	-127
est	-128
▁ch	-129
▁(	-130
▁not	-131
ore	-132
ain	-133
rom	-134
▁sh	-135
ies	-136
▁by	-137
▁at	-138
em	-139
▁k	-140
▁en	-141
▁he	-142
▁from	-143
ld	-144
ist	-145
art	-146
oun	-147
▁will	-148
▁comp	-149
um	-150
ive	-151
▁un	-152
and	-153
ave	-154
el	-155
ant	-156
▁tr	-157
os	-158
igh	-159
ust	-160
oc	-161
op	-162
▁your	-163
age	-164
act	-165
ial	-166
res	-167
▁ad	-168
▁sp	-169
iv	-170
▁cont	-171
ud	-172
for	-173
▁wor	-174
all	-175
du	-176
▁le	-177
ions	-178
▁have	-179
▁ac	-180
per	-181
▁pl	-182
▁app	-183
ren	-184
th	-185
▁im	-186
form	-187
▁whe	-188
ard	-189
▁ab	-190
▁was	-191
▁all	-192
ated	-193
▁man	-194
pt	-195
ie	-196
▁res	-197
ire	-198
able	-199
iz	-200
ide	-201
ge	-202
out	-203
ile	-204
▁int	-205
og	-206
ight	-207
ine	-208
ult	-209
ice	-210
ich	-211
▁if	-212
ip	-213
ther	-214
end	-215
are	-216
ok	-217
lic	-218
▁inc	-219
▁ar	-220
our	-221
ib	-222
▁ser	-223
ase	-224
cess	-225
▁"	-226
ance	-227
ations	-228
ost	-229
up	-230
▁so	-231
der	-232
▁but	-233
▁dis	-234
▁has	-235
so	-236
ical	-237
apan	-238
▁te	-239
ail	-240
▁do	-241
▁which	-242
▁me	-243
ast	-244
ff	-245
▁our	-246
ome	-247
gh	-248
▁japan	-249
ould	-250
ans	-251
ime	-252
duct	-253
ous	-254
rou	-255
▁there	-256
ake	-257
▁imp	-258
ary	-259
ind	-260
▁part	-261
ear	-262
ack	-263
▁go	-264
▁new	-265
ign	-266
▁also	-267
▁per	-268
ec	-269
ount	-270
ue	-271
ong	-272
ame	-273
ition	-274
▁other	-275
▁pre	-276
▁-	-277
▁use	-278
ace	-279
ll	-280
ite	-281
▁when	-282
▁sy	-283
lect	-284
▁more	-285
▁work	-286
▁sc	-287
very	-288
▁inter	-289
ach	-290
▁exp	-291
▁co	-292
ound	-293
▁how	-294
ual	-295
ber	-296
low	-297
ens	-298
▁inform	-299
one	-300
▁comm	-301
ry	-302
▁qu	-303
▁out	-304
ik	-305
▁up	-306
▁ev	-307
▁their	-308
▁time	-309
▁they	-310
▁rec	-311
gr	-312
ia	-313
▁one	-314
▁cl	-315
vers	-316
▁act	-317
ress	-318
▁ind	-319
▁information	-320
▁add	-321
ru	-322
▁about	-323
ater	-324
▁inst	-325
ang	-326
ree	-327
▁des	-328
ors	-329
red	-330
▁ro	-331
fe	-332
▁serv	-333
▁fe	-334
av	-335
ass	-336
▁product	-337
▁dat	-338
▁such	-339
▁year	-340
ence	-341
▁pr	-342
ents	-343
▁reg	-344
▁am	-345
▁its	-346
▁no	-347
ark	-348
▁off	-349
ities	-350
stem	-351
▁acc	-352
▁em	-353
rent	-354
ub	-355
▁any	-356
▁supp	-357
▁rep	-358
ments	-359
▁prov	-360
▁af	-361
▁compan	-362
▁pe	-363
aw	-364
▁cons	-365
own	-366
▁system	-367
ish	-368
velo	-369
▁ph	-370
▁may	-371
ings	-372
▁who	-373
▁file	-374
▁bus	-375
lud	-376
ory	-377
▁col	-378
▁lo	-379
▁develo	-380
▁ag	-381
▁need	-382
ices	-383
▁data	-384
ating	-385
iness	-386
anc	-387
▁develop	-388
ep	-389
arch	-390
▁cre	-391
▁spec	-392
▁bec	-393
te	-394
ject	-395
irect	-396
▁over	-397
▁only	-398
▁been	-399
con	-400
ose	-401
ord	-402
▁after	-403
▁these	-404
ious	-405
▁fir	-406
ific	-407
▁ass	-408
▁mod	-409
ays	-410
▁business	-411
ike	-412
int	-413
▁them	-414
ft	-415
ational	-416
rough	-417
use	-418
▁trans	-419
les	-420
▁includ	-421
ck	-422
▁set	-423
ink	-424
▁bo	-425
▁under	-426
▁requ	-427
▁what	-428
ople	-429
▁direct	-430
▁dif	-431
olog	-432
▁mo	-433
bs	-434
ild	-435
▁people	-436
ility	-437
▁br	-438
ange	-439
▁pers	-440
chn	-441
ased	-442
▁intern	-443
ese	-444
row	-445
▁than	-446
▁.	-447
▁techn	-448
▁rel	-449
▁through	-450
etw	-451
iew	-452
▁eff	-453
▁art	-454
ible	-455
amp	-456
ms	-457
▁my	-458
▁into	-459
▁inv	-460
▁cor	-461
ures	-462
▁first	-463
▁fil	-464
ates	-465
▁fol	-466
▁gr	-467
ade	-468
▁loc	-469
▁bu	-470
▁support	-471
▁world	-472
yp	-473
▁op	-474
ning	-475
▁like	-476
pl	-477
▁aut	-478
▁make	-479
▁high	-480
▁some	-481
▁ent	-482
▁sa	-483
▁company	-484
▁pos	-485
▁stud	-486
▁tw	-487
▁person	-488
rib	-489
▁det	-490
hed	-491
▁used	-492
enc	-493
▁kn	-494
▁were	-495
▁met	-496
▁ext	-497
▁then	-498
gram	-499
▁oper	-500
▁should	-501
uring	-502
▁program	-503
▁rem	-504
▁applic	-505
ise	-506
▁process	-507
).	-508
ction	-509
xt	-510
fore	-511
▁dec	-512
roup	-513
ics	-514
▁gen	-515
▁using	-516
ally	-517
▁sm	-518
ows	-519
▁sol	-520
▁fin	-521
ustom	-522
▁exper	-523
▁form	-524
▁att	-525
▁group	-526
▁uni	-527
li	-528
▁mark	-529
▁see	-530
su	-531
▁most	-532
▁many	-533
▁custom	-534
ert	-535
▁pres	-536
▁ke	-537
▁fun	-538
▁var	-539
ful	-540
▁che	-541
ative	-542
▁pol	-543
▁num	-544
ons	-545
ause	-546
ick	-547
▁open	-548
▁design	-549
▁well	-550
▁hel	-551
▁min	-552
ient	-553
ular	-554
▁str	-555
▁get	-556
reat	-557
▁val	-558
▁his	-559
▁eng	-560
▁follow	-561
▁vis	-562
▁cent	-563
ough	-564
ption	-565
rop	-566
▁where	-567
▁typ	-568
the	-569
▁ed	-570
▁down	-571
▁po	-572
▁diffe	-573
ience	-574
lease	-575
▁sim	-576
▁car	-577
▁help	-578
get	-579
ution	-580
▁each	-581
▁av	-582
▁dep	-583
cur	-584
▁gu	-585
▁dev	-586
▁japanese	-587
▁“	-588
▁start	-589
▁every	-590
▁disc	-591
ower	-592
ved	-593
▁count	-594
▁rese	-595
▁back	-596
▁sub	-597
ble	-598
▁resp	-599
▁main	-600
▁even	-601
ork	-602
wn	-603
▁result	-604
ting	-605
▁manage	-606
▁provid	-607
▁cur	-608
▁technolog	-609
▁want	-610
nect	-611
vir	-612
▁conf	-613
old	-614
oth	-615
▁right	-616
iss	-617
▁mon	-618
▁mem	-619
▁inte	-620
▁would	-621
▁very	-622
ict	-623
urn	-624
viron	-625
▁id	-626
▁gener	-627
ages	-628
▁med	-629
ced	-630
ize	-631
▁dri	-632
ian	-633
▁import	-634
▁environ	-635
▁pri	-636
▁incre	-637
ra	-638
gan	-639
▁commun	-640
▁market	-641
▁pur	-642
▁service	-643
ited	-644
iet	-645
min	-646
ell	-647
por	-648
ax	-649
its	-650
▁perform	-651
▁connect	-652
▁two	-653
ron	-654
▁soc	-655
▁select	-656
ality	-657
▁now	-658
ware	-659
▁services	-660
sel	-661
▁prof	-662
air	-663
▁long	-664
▁wind	-665
▁number	-666
ces	-667
ward	-668
ys	-669
io	-670
▁project	-671
ied	-672
▁end	-673
▁environment	-674
▁install	-675
▁ob	-676
▁products	-677
▁development	-678
▁same	-679
sh	-680
▁adv	-681
▁partic	-682
▁different	-683
▁order	-684
▁sign	-685
▁management	-686
▁years	-687
▁dr	-688
▁addition	-689
ood	-690
▁ap	-691
ily	-692
▁activ	-693
aking	-694
▁ter	-695
app	-696
▁hand	-697
▁pub	-698
▁had	-699
een	-700
ash	-701
ives	-702
▁just	-703
▁look	-704
ute	-705
),	-706
▁research	-707
uc	-708
▁cap	-709
▁own	-710
▁ins	-711
ted	-712
▁take	-713
▁comple	-714
ks	-715
▁char	-716
▁sur	-717
hes	-718
▁def	-719
ature	-720
▁way	-721
▁poss	-722
line	-723
▁lif	-724
als	-725
▁list	-726
▁because	-727
com	-728
ever	-729
▁international	-730
▁contin	-731
erg	-732
▁please	-733
..	-734
▁must	-735
bo	-736
aterial	-737
▁access	-738
ince	-739
ruct	-740
▁vide	-741
▁know	-742
ized	-743
▁pat	-744
▁find	-745
▁prev	-746
▁while	-747
etween	-748
▁files	-749
▁does	-750
▁material	-751
▁here	-752
▁eas	-753
▁between	-754
▁free	-755
▁ret	-756
load	-757
▁fl	-758
▁univers	-759
ries	-760
▁made	-761
▁lar	-762
▁during	-763
▁rest	-764
ten	-765
ph	-766
▁est	-767
▁including	-768
▁require	-769
led	-770
▁ref	-771
▁inf	-772
ai	-773
▁user	-774
▁plan	-775
▁sal	-776
ky	-777
vel	-778
▁power	-779
▁effect	-780
▁before	-781
ix	-782
▁contact	-783
▁play	-784
ually	-785
ds	-786
▁she	-787
other	-788
ove	-789
ically	-790
▁good	-791
▁jo	-792
▁prot	-793
▁special	-794
▁|	-795
▁glo	-796
▁contro	-797
ital	-798
▁soft	-799
▁polic	-800
▁account	-801
▁hot	-802
ts	-803
▁however	-804
▁avail	-805
day	-806
ization	-807
lish	-808
▁proble	-809
lick	-810
▁invest	-811
▁view	-812
▁those	-813
rest	-814
▁rev	-815
ample	-816
▁personal	-817
▁phot	-818
▁since	-819
tern	-820
▁read	-821
read	-822
▁chang	-823
▁ful	-824
▁prom	-825
▁z	-826
▁comput	-827
▁bl	-828
▁share	-829
▁elect	-830
▁application	-831
▁impro	-832
arn	-833
ural	-834
▁without	-835
ines	-836
▁indust	-837
▁glob	-838
▁day	-839
▁rece	-840
ases	-841
▁important	-842
ex	-843
▁meth	-844
▁stand	-845
cho	-846
▁water	-847
▁pass	-848
▁organ	-849
▁technology	-850
▁dist	-851
ention	-852
port	-853
▁tem	-854
▁real	-855
▁child	-856
▁available	-857
▁webs	-858
▁based	-859
ract	-860
▁current	-861
▁following	-862
▁method	-863
loy	-864
▁call	-865
▁mat	-866
▁&	-867
▁necess	-868
▁top	-869
▁fact	-870
ank	-871
▁case	-872
▁fore	-873
▁equ	-874
▁report	-875
▁cour	-876
▁her	-877
▁lead	-878
▁conc	-879
iod	-880
▁fac	-881
▁best	-882
rit	-883
▁click	-884
▁u	-885
▁change	-886
▁[	-887
ric	-888
ension	-889
illion	-890
ets	-891
▁grow	-892
vern	-893
ving	-894
ants	-895
▁university	-896
▁both	-897
▁could	-898
ability	-899
▁sk	-900
ond	-901
els	-902
▁build	-903
ner	-904
▁–	-905
▁life	-906
▁secur	-907
▁place	-908
▁hum	-909
ss	-910
▁home	-911
ately	-912
aining	-913
▁autom	-914
ield	-915
▁name	-916
▁cond	-917
▁global	-918
arm	-919
▁sw	-920
▁example	-921
▁detail	-922
cept	-923
▁fam	-924
▁econ	-925
▁cle	-926
▁point	-927
▁create	-928
stand	-929
▁econom	-930
▁clo	-931
ished	-932
ug	-933
▁possible	-934
itions	-935
▁video	-936
ves	-937
▁provide	-938
▁store	-939
▁interest	-940
▁cho	-941
▁cert	-942
▁chin	-943
az	-944
▁opt	-945
▁download	-946
▁air	-947
uch	-948
▁blo	-949
oy	-950
▁sit	-951
▁corpor	-952
lement	-953
▁public	-954
▁again	-955
▁found	-956
etwork	-957
▁device	-958
▁fr	-959
reen	-960
chool	-961
▁par	-962
▁meet	-963
ters	-964
▁software	-965
▁level	-966
▁emp	-967
▁govern	-968
▁around	-969
▁period	-970
▁priv	-971
ify	-972
omet	-973
hen	-974
▁page	-975
ering	-976
iety	-977
▁state	-978
▁check	-979
▁network	-980
▁log	-981
bers	-982
▁being	-983
▁necessary	-984
self	-985
▁proper	-986
▁pay	-987
ty	-988
ouse	-989
ple	-990
ef	-991
▁school	-992
▁server	-993
rap	-994
alk	-995
▁control	-996
alth	-997
▁vers	-998
▁content	-999
▁policy	-1000
▁small	-1001
▁request	-1002
▁various	-1003
ne	-1004
▁er	-1005
ency	-1006
▁x	-1007
fact	-1008
▁anal	-1009
▁website	-1010
ified	-1011
▁site	-1012
▁computer	-1013
▁bas	-1014
▁financ	-1015
hip	-1016
▁windows	-1017
imes	-1018
▁companies	-1019
▁fut	-1020
▁care	-1021
▁protect	-1022
▁experience	-1023
▁meas	-1024
ains	-1025
▁think	-1026
akes	-1027
▁doc	-1028
▁ris	-1029
ision	-1030
▁di	-1031
▁city	-1032
▁run	-1033
▁mus	-1034
▁activities	-1035
hing	-1036
▁area	-1037
▁,	-1038
ason	-1039
ateg	-1040
ident	-1041
kyo	-1042
▁value	-1043
ered	-1044
▁able	-1045
uss	-1046
▁great	-1047
▁present	-1048
▁due	-1049
ium	-1050
eng	-1051
ists	-1052
▁cult	-1053
▁large	-1054
▁law	-1055
▁trad	-1056
▁type	-1057
▁security	-1058
▁mult	-1059
▁future	-1060
▁local	-1061
ator	-1062
▁tokyo	-1063
▁fur	-1064
ilities	-1065
▁artic	-1066
▁link	-1067
omm	-1068
▁ann	-1069
▁test	-1070
▁appro	-1071
▁tool	-1072
▁dem	-1073
▁collect	-1074
▁said	-1075
ivid	-1076
▁allow	-1077
▁another	-1078
ration	-1079
▁next	-1080
▁much	-1081
▁displ	-1082
co	-1083
▁const	-1084
▁visit	-1085
aut	-1086
▁accord	-1087
▁field	-1088
ling	-1089
less	-1090
▁aud	-1091
▁center	-1092
▁/	-1093
▁pop	-1094
▁three	-1095
▁employ	-1096
mm	-1097
▁quality	-1098
▁address	-1099
▁quest	-1100
▁promot	-1101
▁financial	-1102
ody	-1103
ather	-1104
ven	-1105
rence	-1106
fer	-1107
▁line	-1108
pos	-1109
▁within	-1110
▁key	-1111
oci	-1112
▁estab	-1113
▁health	-1114
ode	-1115
▁step	-1116
▁customers	-1117
not	-1118
▁show	-1119
▁bel	-1120
ufact	-1121
▁extension	-1122
▁head	-1123
▁docu	-1124
ock	-1125
▁secon	-1126
▁countries	-1127
▁lim	-1128
▁don	-1129
▁still	-1130
▁human	-1131
uk	-1132
▁associ	-1133
tc	-1134
▁further	-1135
▁manufact	-1136
▁class	-1137
ained	-1138
ergy	-1139
orts	-1140
▁students	-1141
ins	-1142
que	-1143
▁spe	-1144
▁light	-1145
no	-1146
ness	-1147
▁cook	-1148
eration	-1149
cal	-1150
▁men	-1151
▁cost	-1152
ieve	-1153
ected	-1154
▁communic	-1155
▁standard	-1156
man	-1157
▁try	-1158
acy	-1159
▁did	-1160
land	-1161
ton	-1162
▁post	-1163
▁ca	-1164
▁understand	-1165
ense	-1166
erv	-1167
par	-1168
me	-1169
▁last	-1170
▁cal	-1171
ism	-1172
▁aff	-1173
med	-1174
▁room	-1175
▁users	-1176
▁team	-1177
▁online	-1178
▁ma	-1179
▁vol	-1180
▁book	-1181
tle	-1182
▁event	-1183
to	-1184
▁issu	-1185
▁desc	-1186
ways	-1187
aster	-1188
▁improve	-1189
utions	-1190
▁energy	-1191
mit	-1192
▁tour	-1193
▁mess	-1194
ern	-1195
▁working	-1196
▁results	-1197
▁full	-1198
angu	-1199
▁oc	-1200
▁instit	-1201
ues	-1202
▁cop	-1203
▁food	-1204
▁bet	-1205
▁cr	-1206
ession	-1207
▁somet	-1208
ems	-1209
▁particip	-1210
▁card	-1211
▁systems	-1212
▁social	-1213
ined	-1214
▁put	-1215
▁performance	-1216
▁learn	-1217
▁engine	-1218
▁news	-1219
▁:	-1220
▁upd	-1221
▁sales	-1222
abor	-1223
icult	-1224
▁function	-1225
ission	-1226
▁hist	-1227
▁intro	-1228
way	-1229
▁resour	-1230
inc	-1231
▁display	-1232
▁production	-1233
duce	-1234
▁dig	-1235
▁members	-1236
▁amount	-1237
▁opp	-1238
▁search	-1239
ral	-1240
▁config	-1241
▁enj	-1242
ended	-1243
▁feel	-1244
ared	-1245
▁second	-1246
▁materials	-1247
▁email	-1248
▁become	-1249
▁let	-1250
ends	-1251
."	-1252
▁stat	-1253
▁tri	-1254
ath	-1255
▁el	-1256
ross	-1257
hib	-1258
▁etc	-1259
ending	-1260
▁mar	-1261
ames	-1262
aving	-1263
▁press	-1264
▁commit	-1265
tal	-1266
▁ach	-1267
uation	-1268
fect	-1269
▁enjoy	-1270
ird	-1271
▁langu	-1272
▁month	-1273
▁charact	-1274
put	-1275
atch	-1276
▁version	-1277
▁leg	-1278
▁beg	-1279
▁eu	-1280
ination	-1281
▁increase	-1282
▁always	-1283
▁him	-1284
▁course	-1285
▁hard	-1286
▁lit	-1287
▁orig	-1288
▁shall	-1289
sure	-1290
over	-1291
oss	-1292
▁mach	-1293
atures	-1294
pr	-1295
▁sl	-1296
▁specific	-1297
▁la	-1298
▁article	-1299
ially	-1300
▁ide	-1301
ently	-1302
iving	-1303
▁ve	-1304
lished	-1305
▁happ	-1306
▁sing	-1307
ances	-1308
▁children	-1309
ibility	-1310
▁regard	-1311
▁text	-1312
▁above	-1313
▁changes	-1314
▁government	-1315
▁es	-1316
ulation	-1317
▁enc	-1318
▁port	-1319
ery	-1320
▁note	-1321
ior	-1322
▁educ	-1323
▁region	-1324
▁body	-1325
▁contrib	-1326
pect	-1327
ier	-1328
▁express	-1329
arth	-1330
▁consid	-1331
▁turn	-1332
▁live	-1333
▁space	-1334
.,	-1335
▁come	-1336
▁flow	-1337
▁often	-1338
▁keep	-1339
▁record	-1340
▁required	-1341
▁industry	-1342
iven	-1343
▁sec	-1344
▁offic	-1345
▁return	-1346
▁national	-1347
▁general	-1348
▁bro	-1349
ee	-1350
▁complete	-1351
▁ask	-1352
aff	-1353
arly	-1354
▁move	-1355
▁better	-1356
▁trave	-1357
▁country	-1358
▁held	-1359
duced	-1360
▁origin	-1361
▁web	-1362
▁making	-1363
▁suc	-1364
ipp	-1365
▁wom	-1366
▁summ	-1367
ush	-1368
gest	-1369
▁problems	-1370
▁recomm	-1371
ructure	-1372
▁ste	-1373
▁conduct	-1374
▁lot	-1375
▁enter	-1376
▁exch	-1377
utes	-1378
itor	-1379
ama	-1380
▁customer	-1381
▁sever	-1382
▁old	-1383
▁gl	-1384
ortun	-1385
▁stre	-1386
▁therefore	-1387
ients	-1388
▁table	-1389
here	-1390
▁rights	-1391
▁bre	-1392
▁diff	-1393
▁date	-1394
▁below	-1395
▁vir	-1396
▁earth	-1397
▁related	-1398
▁individ	-1399
▁tar	-1400
▁sour	-1401
▁comb	-1402
▁ben	-1403
orth	-1404
orm	-1405
▁pract	-1406
raph	-1407
▁days	-1408
▁internet	-1409
▁automat	-1410
▁china	-1411
hor	-1412
▁ut	-1413
▁though	-1414
▁less	-1415
ale	-1416
▁million	-1417
▁ident	-1418
▁sett	-1419
▁exec	-1420
tt	-1421
ification	-1422
▁details	-1423
▁appear	-1424
▁hour	-1425
▁third	-1426
▁according	-1427
▁object	-1428
▁nat	-1429
▁english	-1430
▁init	-1431
▁works	-1432
▁pa	-1433
ively	-1434
ob	-1435
▁several	-1436
▁give	-1437
▁implement	-1438
vert	-1439
ars	-1440
▁agree	-1441
▁today	-1442
▁ce	-1443
let	-1444
sc	-1445
▁music	-1446
▁respons	-1447
▁non	-1448
▁rele	-1449
▁regist	-1450
▁cannot	-1451
▁continue	-1452
▁fri	-1453
▁choose	-1454
▁conditions	-1455
▁treat	-1456
▁particular	-1457
▁fis	-1458
▁brow	-1459
▁beaut	-1460
▁err	-1461
▁experi	-1462
▁deter	-1463
ables	-1464
▁board	-1465
▁operating	-1466
ees	-1467
▁driver	-1468
▁short	-1469
ners	-1470
irc	-1471
▁means	-1472
▁image	-1473
▁hotel	-1474
▁exce	-1475
▁integr	-1476
▁maj	-1477
▁option	-1478
ential	-1479
▁plat	-1480
▁individual	-1481
▁media	-1482
▁society	-1483
▁hold	-1484
ault	-1485
▁terms	-1486
ready	-1487
▁tak	-1488
▁toget	-1489
▁mic	-1490
▁house	-1491
▁host	-1492
face	-1493
▁together	-1494
ocus	-1495
▁code	-1496
phone	-1497
oto	-1498
ired	-1499
▁provided	-1500
▁mag	-1501
▁risk	-1502
▁review	-1503
▁problem	-1504
▁hig	-1505
▁study	-1506
▁times	-1507
▁digital	-1508
erc	-1509
▁copy	-1510
▁office	-1511
▁document	-1512
▁once	-1513
▁already	-1514
▁pack	-1515
▁growth	-1516
▁certain	-1517
▁things	-1518
eric	-1519
mber	-1520
▁corporate	-1521
ules	-1522
yc	-1523
▁needs	-1524
▁super	-1525
▁repres	-1526
▁why	-1527
▁low	-1528
ived	-1529
▁features	-1530
▁sun	-1531
ones	-1532
▁mob	-1533
▁manag	-1534
awa	-1535
▁offer	-1536
▁previous	-1537
▁language	-1538
aper	-1539
iple	-1540
▁circ	-1541
▁devices	-1542
side	-1543
ropri	-1544
ule	-1545
thing	-1546
▁subs	-1547
▁few	-1548
aces	-1549
▁ip	-1550
▁called	-1551
▁coll	-1552
▁strong	-1553
asing	-1554
▁ur	-1555
▁format	-1556
ript	-1557
▁platform	-1558
▁target	-1559
ogn	-1560
▁among	-1561
ji	-1562
▁purch	-1563
▁dom	-1564
▁too	-1565
ising	-1566
▁difficult	-1567
▁applications	-1568
▁consum	-1569
olid	-1570
▁size	-1571
▁sou	-1572
ories	-1573
▁focus	-1574
▁beh	-1575
▁bank	-1576
▁success	-1577
▁say	-1578
▁aim	-1579
▁include	-1580
▁model	-1581
ference	-1582
nam	-1583
▁character	-1584
▁building	-1585
▁family	-1586
▁expl	-1587
▁dam	-1588
▁major	-1589
ember	-1590
▁cut	-1591
▁exhib	-1592
▁li	-1593
▁kind	-1594
▁side	-1595
▁red	-1596
▁easy	-1597
rope	-1598
▁opportun	-1599
ng	-1600
▁begin	-1601
▁economic	-1602
▁screen	-1603
▁issues	-1604
▁lat	-1605
▁unt	-1606
ope	-1607
▁past	-1608
▁grad	-1609
▁quick	-1610
▁environmental	-1611
▁allows	-1612
▁color	-1613
▁big	-1614
▁land	-1615
▁price	-1616
▁relations	-1617
▁pot	-1618
▁sho	-1619
▁game	-1620
pro	-1621
ache	-1622
ipment	-1623
▁lib	-1624
▁pain	-1625
▁appropri	-1626
▁close	-1627
▁reason	-1628
▁range	-1629
▁common	-1630
▁face	-1631
▁continu	-1632
▁'	-1633
word	-1634
▁deli	-1635
nov	-1636
▁fiscal	-1637
▁europe	-1638
▁sure	-1639
▁travel	-1640
▁settings	-1641
▁ant	-1642
▁author	-1643
ring	-1644
▁exist	-1645
▁saf	-1646
▁fre	-1647
▁wee	-1648
▁total	-1649
▁history	-1650
▁button	-1651
▁united	-1652
▁yen	-1653
by	-1654
▁exc	-1655
itive	-1656
▁investment	-1657
▁installed	-1658
▁foreign	-1659
oney	-1660
reng	-1661
▁programs	-1662
anced	-1663
▁states	-1664
▁flo	-1665
pec	-1666
ival	-1667
▁events	-1668
ctions	-1669
▁iss	-1670
ser	-1671
▁discuss	-1672
▁americ	-1673
▁compet	-1674
▁effic	-1675
▁pan	-1676
▁transfer	-1677
yle	-1678
ety	-1679
▁resources	-1680
▁areas	-1681
iting	-1682
ised	-1683
▁ensure	-1684
▁indic	-1685
hold	-1686
▁until	-1687
▁provides	-1688
▁training	-1689
▁god	-1690
▁exchange	-1691
▁community	-1692
▁stock	-1693
▁streng	-1694
ides	-1695
oud	-1696
▁simple	-1697
▁mid	-1698
▁buy	-1699
▁depart	-1700
ruction	-1701
ke	-1702
duction	-1703
▁acqu	-1704
mb	-1705
▁recogn	-1706
▁popular	-1707
▁sust	-1708
▁win	-1709
▁admin	-1710
ah	-1711
ences	-1712
▁jun	-1713
osp	-1714
▁apply	-1715
▁rate	-1716
▁solution	-1717
▁natural	-1718
▁equipment	-1719
br	-1720
ann	-1721
▁strateg	-1722
▁ri	-1723
▁cam	-1724
orn	-1725
▁writ	-1726
▁mot	-1727
▁against	-1728
▁whether	-1729
medi	-1730
▁education	-1731
".	-1732
▁corre	-1733
au	-1734
▁operation	-1735
▁fu	-1736
▁benef	-1737
alf	-1738
▁q	-1739
▁wide	-1740
▁march	-1741
▁occur	-1742
▁coop	-1743
book	-1744
▁along	-1745
▁menu	-1746
▁items	-1747
▁represent	-1748
▁dele	-1749
▁sat	-1750
ape	-1751
pose	-1752
ators	-1753
ps	-1754
▁caus	-1755
▁bar	-1756
▁del	-1757
▁track	-1758
▁safety	-1759
ilt	-1760
▁profession	-1761
val	-1762
▁sn	-1763
▁brand	-1764
ister	-1765
▁sound	-1766
ograph	-1767
▁options	-1768
▁mount	-1769
imate	-1770
▁impact	-1771
▁created	-1772
▁syn	-1773
▁hy	-1774
▁might	-1775
▁manufacture	-1776
▁accept	-1777
▁photos	-1778
▁signific	-1779
▁tax	-1780
▁cell	-1781
▁meeting	-1782
▁mobile	-1783
▁message	-1784
▁war	-1785
▁types	-1786
▁left	-1787
▁employees	-1788
ront	-1789
und	-1790
work	-1791
▁private	-1792
▁distrib	-1793
▁given	-1794
ume	-1795
▁culture	-1796
ches	-1797
",	-1798
▁send	-1799
▁demand	-1800
ots	-1801
▁park	-1802
▁little	-1803
▁sustain	-1804
▁drive	-1805
▁started	-1806
ription	-1807
▁section	-1808
▁cases	-1809
...	-1810
lf	-1811
▁four	-1812
▁kore	-1813
▁really	-1814
▁party	-1815
izing	-1816
▁achieve	-1817
▁measures	-1818
uration	-1819
--	-1820
▁appropriate	-1821
▁something	-1822
we	-1823
▁communication	-1824
aring	-1825
mon	-1826
ips	-1827
▁phys	-1828
▁going	-1829
ml	-1830
▁location	-1831
▁women	-1832
▁ele	-1833
▁science	-1834
▁hours	-1835
▁sens	-1836
▁invol	-1837
iful	-1838
▁privacy	-1839
▁money	-1840
▁max	-1841
▁position	-1842
▁unique	-1843
▁arch	-1844
▁innov	-1845
▁obs	-1846
ho	-1847
▁clean	-1848
▁lay	-1849
▁located	-1850
▁prep	-1851
▁analys	-1852
tain	-1853
▁shop	-1854
▁mean	-1855
▁coun	-1856
▁solutions	-1857
of	-1858
aur	-1859
▁bal	-1860
▁developed	-1861
go	-1862
▁ren	-1863
cing	-1864
▁feature	-1865
▁having	-1866
▁ky	-1867
td	-1868
▁analy	-1869
ane	-1870
af	-1871
▁ic	-1872
▁regul	-1873
ler	-1874
most	-1875
▁operations	-1876
▁smart	-1877
▁fix	-1878
▁chall	-1879
be	-1880
bit	-1881
▁print	-1882
▁fig	-1883
▁protection	-1884
▁asia	-1885
▁minutes	-1886
ucle	-1887
ledge	-1888
▁electron	-1889
▁looking	-1890
▁bat	-1891
▁technologies	-1892
overy	-1893
rary	-1894
▁love	-1895
▁temper	-1896
▁mind	-1897
▁scen	-1898
ctor	-1899
▁significant	-1900
▁established	-1901
▁expand	-1902
▁mil	-1903
▁beautiful	-1904
▁never	-1905
oint	-1906
atory	-1907
▁automatically	-1908
▁draw	-1909
▁subject	-1910
▁respect	-1911
view	-1912
▁map	-1913
▁paper	-1914
▁gre	-1915
▁micro	-1916
oid	-1917
ervation	-1918
▁vari	-1919
gress	-1920
▁question	-1921
▁ju	-1922
▁source	-1923
▁announ	-1924
▁single	-1925
▁parts	-1926
,"	-1927
▁cookies	-1928
ima	-1929
though	-1930
▁enh	-1931
▁member	-1932
▁immedi	-1933
▁talk	-1934
rist	-1935
time	-1936
▁camp	-1937
ret	-1938
▁tradition	-1939
▁laun	-1940
▁bi	-1941
▁compon	-1942
▁basic	-1943
▁partners	-1944
▁done	-1945
▁others	-1946
▁fest	-1947
▁processing	-1948
ger	-1949
▁virt	-1950
▁measure	-1951
▁president	-1952
▁tre	-1953
▁muse	-1954
▁watch	-1955
▁prevent	-1956
▁makes	-1957
▁medical	-1958
▁plant	-1959
ls	-1960
▁outside	-1961
▁bring	-1962
▁series	-1963
▁via	-1964
▁award	-1965
▁fo	-1966
▁cause	-1967
▁simil	-1968
▁official	-1969
▁status	-1970
▁contract	-1971
▁additional	-1972
ze	-1973
ining	-1974
▁rad	-1975
olution	-1976
▁billion	-1977
▁although	-1978
▁treatment	-1979
▁dise	-1980
▁museum	-1981
ills	-1982
▁offers	-1983
▁mr	-1984
▁won	-1985
▁known	-1986
▁establish	-1987
▁sug	-1988
▁supply	-1989
▁categ	-1990
imum	-1991
▁analysis	-1992
ither	-1993
▁original	-1994
▁toward	-1995
▁machine	-1996
▁prior	-1997
▁committe	-1998
lied	-1999
▁administ	-2000
▁multiple	-2001
verse	-2002
▁questions	-2003
▁built	-2004
net	-2005
▁restaur	-2006
fully	-2007
cent	-2008
▁station	-2009
raft	-2010
▁mac	-2011
▁transl	-2012
lus	-2013
▁loss	-2014
▁directors	-2015
▁structure	-2016
▁path	-2017
▁directly	-2018
▁block	-2019
▁adj	-2020
ote	-2021
▁situation	-2022
▁entire	-2023
▁proced	-2024
▁net	-2025
inary	-2026
▁collabor	-2027
gen	-2028
istics	-2029
wh	-2030
▁phone	-2031
▁games	-2032
tic	-2033
▁film	-2034
▁default	-2035
▁describ	-2036
rug	-2037
▁methods	-2038
ury	-2039
▁across	-2040
▁projects	-2041
▁currently	-2042
cast	-2043
▁connection	-2044
▁efforts	-2045
chan	-2046
▁htt	-2047
pecially	-2048
atives	-2049
▁detect	-2050
▁walk	-2051
den	-2052
▁easily	-2053
▁becom	-2054
▁receive	-2055
▁issue	-2056
sw	-2057
▁error	-2058
hic	-2059
aged	-2060
hi	-2061
▁young	-2062
iation	-2063
▁knowledge	-2064
▁wr	-2065
▁infl	-2066
▁separ	-2067
▁base	-2068
▁purpose	-2069
▁later	-2070
▁consider	-2071
▁institute	-2072
▁role	-2073
▁correct	-2074
▁suit	-2075
▁update	-2076
▁expected	-2077
ift	-2078
ored	-2079
ires	-2080
▁heart	-2081
▁green	-2082
▁agreement	-2083
▁mor	-2084
▁oil	-2085
▁action	-2086
▁overse	-2087
▁ord	-2088
▁box	-2089
▁confir	-2090
▁cred	-2091
ura	-2092
hers	-2093
▁fund	-2094
▁os	-2095
▁includes	-2096
▁corporation	-2097
▁remo	-2098
rict	-2099
▁committee	-2100
pping	-2101
arning	-2102
ril	-2103
▁chem	-2104
ably	-2105
▁taking	-2106
▁tas	-2107
based	-2108
ched	-2109
verage	-2110
▁photo	-2111
amet	-2112
▁*	-2113
aka	-2114
pe	-2115
▁safe	-2116
▁ltd	-2117
avor	-2118
▁command	-2119
▁chinese	-2120
board	-2121
▁front	-2122
▁christ	-2123
▁load	-2124
▁especially	-2125
▁pict	-2126
▁speed	-2127
▁ey	-2128
aki	-2129
▁tools	-2130
▁bot	-2131
▁oct	-2132
▁property	-2133
▁cloud	-2134
back	-2135
ged	-2136
▁white	-2137
▁similar	-2138
▁week	-2139
▁capital	-2140
▁neg	-2141
▁designed	-2142
▁stor	-2143
▁http	-2144
▁increased	-2145
▁relationship	-2146
▁thus	-2147
ternal	-2148
▁everything	-2149
▁increasing	-2150
▁initi	-2151
ground	-2152
▁ways	-2153
▁forward	-2154
▁respon	-2155
ties	-2156
▁fail	-2157
▁facilities	-2158
term	-2159
▁sent	-2160
▁staff	-2161
epend	-2162
▁early	-2163
▁higher	-2164
▁camer	-2165
▁far	-2166
▁norm	-2167
▁quickly	-2168
▁limited	-2169
▁selected	-2170
ises	-2171
▁organization	-2172
▁dest	-2173
ights	-2174
▁tell	-2175
▁creating	-2176
ivity	-2177
▁director	-2178
▁save	-2179
▁effective	-2180
▁whole	-2181
gu	-2182
▁taken	-2183
▁trust	-2184
▁execut	-2185
▁variety	-2186
▁thing	-2187
▁assist	-2188
▁black	-2189
▁virtual	-2190
ology	-2191
▁installation	-2192
▁half	-2193
▁notice	-2194
▁overseas	-2195
▁attract	-2196
▁calc	-2197
▁ok	-2198
iy	-2199
▁mechan	-2200
▁ra	-2201
▁stay	-2202
▁immediately	-2203
mission	-2204
ht	-2205
▁itself	-2206
▁added	-2207
▁received	-2208
rial	-2209
▁condition	-2210
▁reduce	-2211
▁guest	-2212
▁setting	-2213
istic	-2214
▁prefect	-2215
▁eval	-2216
▁uses	-2217
▁electric	-2218
▁nature	-2219
▁intel	-2220
▁lic	-2221
ata	-2222
▁advanced	-2223
ats	-2224
atic	-2225
▁deep	-2226
▁anim	-2227
▁professional	-2228
▁april	-2229
▁cooperation	-2230
▁included	-2231
▁adjust	-2232
▁princ	-2233
▁recovery	-2234
▁wa	-2235
▁$	-2236
▁organiz	-2237
▁configuration	-2238
▁shown	-2239
▁response	-2240
▁away	-2241
▁needed	-2242
▁regarding	-2243
▁temperature	-2244
▁cit	-2245
rast	-2246
▁department	-2247
▁mass	-2248
▁abs	-2249
▁ver	-2250
▁modern	-2251
gi	-2252
▁inside	-2253
▁client	-2254
▁enough	-2255
ply	-2256
▁guid	-2257
ili	-2258
▁near	-2259
▁came	-2260
aim	-2261
▁usually	-2262
▁regular	-2263
▁fall	-2264
▁income	-2265
▁refer	-2266
▁secure	-2267
▁bit	-2268
▁nucle	-2269
▁library	-2270
top	-2271
▁remove	-2272
▁providing	-2273
▁latest	-2274
ump	-2275
▁displayed	-2276
fort	-2277
▁images	-2278
▁points	-2279
▁monitor	-2280
▁apache	-2281
▁ess	-2282
ogle	-2283
▁technical	-2284
ams	-2285
uate	-2286
lex	-2287
▁ge	-2288
▁independ	-2289
▁¥	-2290
vant	-2291
▁internal	-2292
▁road	-2293
▁believe	-2294
▁subst	-2295
▁consolid	-2296
▁pc	-2297
idence	-2298
▁payment	-2299
▁window	-2300
ung	-2301
ares	-2302
▁manufacturing	-2303
▁night	-2304
▁answ	-2305
▁fire	-2306
aging	-2307
▁central	-2308
action	-2309
selves	-2310
▁south	-2311
▁password	-2312
▁expect	-2313
▁attention	-2314
▁living	-2315
▁cou	-2316
▁either	-2317
▁dece	-2318
▁active	-2319
▁sche	-2320
▁repl	-2321
▁learning	-2322
▁recommend	-2323
▁age	-2324
▁optim	-2325
▁transport	-2326
▁iphone	-2327
▁everyone	-2328
▁tast	-2329
▁mode	-2330
▁feed	-2331
▁sell	-2332
▁values	-2333
▁word	-2334
▁frame	-2335
▁almost	-2336
▁fill	-2337
▁ir	-2338
▁util	-2339
▁contain	-2340
▁emb	-2341
▁assets	-2342
▁vi	-2343
▁russ	-2344
▁trade	-2345
▁sex	-2346
ober	-2347
▁wall	-2348
▁browser	-2349
pper	-2350
▁mom	-2351
▁break	-2352
roid	-2353
df	-2354
ites	-2355
▁frequ	-2356
▁island	-2357
▁functions	-2358
▁least	-2359
aps	-2360
▁suff	-2361
ening	-2362
▁clear	-2363
▁determin	-2364
▁consult	-2365
▁traditional	-2366
▁videos	-2367
▁marketing	-2368
aced	-2369
▁complex	-2370
arily	-2371
▁festival	-2372
▁prec	-2373
▁economy	-2374
▁perfect	-2375
▁requirements	-2376
▁external	-2377
▁industrial	-2378
▁accur	-2379
▁months	-2380
dle	-2381
ulated	-2382
▁connected	-2383
▁labor	-2384
▁div	-2385
▁construction	-2386
▁dy	-2387
▁conv	-2388
idered	-2389
▁self	-2390
▁north	-2391
▁storage	-2392
▁carri	-2393
ux	-2394
poses	-2395
▁stage	-2396
▁pie	-2397
▁rules	-2398
▁crit	-2399
▁developing	-2400
▁bud	-2401
ube	-2402
▁activity	-2403
▁simply	-2404
▁purchase	-2405
▁tele	-2406
raw	-2407
▁advert	-2408
▁useful	-2409
▁sea	-2410
▁basis	-2411
▁understanding	-2412
aries	-2413
▁leading	-2414
▁shows	-2415
▁sil	-2416
▁manufacturer	-2417
▁stri	-2418
igation	-2419
▁output	-2420
▁advant	-2421
▁october	-2422
▁nuclear	-2423
ging	-2424
▁conven	-2425
▁master	-2426
▁release	-2427
▁swit	-2428
▁surface	-2429
▁capac	-2430
astic	-2431
▁considered	-2432
de	-2433
▁approach	-2434
ges	-2435
ptember	-2436
ducing	-2437
▁collection	-2438
▁gas	-2439
▁broad	-2440
▁explo	-2441
▁module	-2442
ara	-2443
▁lab	-2444
▁recent	-2445
▁yourself	-2446
▁guide	-2447
▁vehic	-2448
▁five	-2449
holders	-2450
▁prim	-2451
▁association	-2452
▁techni	-2453
▁google	-2454
▁specified	-2455
▁fast	-2456
▁existing	-2457
ino	-2458
▁opportunity	-2459
oms	-2460
▁style	-2461
▁export	-2462
reme	-2463
▁words	-2464
▁june	-2465
▁got	-2466
▁hands	-2467
▁directory	-2468
ided	-2469
▁seen	-2470
▁chann	-2471
rences	-2472
▁progress	-2473
▁lower	-2474
▁yet	-2475
renc	-2476
▁compli	-2477
rec	-2478
▁convers	-2479
▁upon	-2480
▁hope	-2481
▁reflect	-2482
ony	-2483
ensive	-2484
▁purposes	-2485
come	-2486
▁sometimes	-2487
▁fields	-2488
▁emerg	-2489
▁stop	-2490
▁true	-2491
abilities	-2492
▁disclo	-2493
▁costs	-2494
▁tur	-2495
▁tou	-2496
▁actually	-2497
▁quite	-2498
umn	-2499
▁cry	-2500
▁legal	-2501
right	-2502
▁concept	-2503
▁parent	-2504
▁datab	-2505
▁september	-2506
ead	-2507
▁comes	-2508
ured	-2509
▁concern	-2510
▁steps	-2511
▁dou	-2512
▁effects	-2513
▁mal	-2514
ari	-2515
▁arr	-2516
▁depending	-2517
.”	-2518
cer	-2519
▁exhibition	-2520
iency	-2521
▁east	-2522
▁description	-2523
▁decre	-2524
▁studies	-2525
ew	-2526
▁avoid	-2527
erved	-2528
▁directive	-2529
▁fish	-2530
▁joint	-2531
▁recommended	-2532
▁longer	-2533
▁cat	-2534
ached	-2535
▁hotels	-2536
japan	-2537
arc	-2538
▁highly	-2539
▁core	-2540
▁contents	-2541
wa	-2542
ha	-2543
▁supported	-2544
▁ger	-2545
▁drug	-2546
na	-2547
issions	-2548
▁gir	-2549
▁parties	-2550
▁jan	-2551
▁deal	-2552
▁tren	-2553
▁december	-2554
▁fair	-2555
▁takes	-2556
▁ability	-2557
aves	-2558
▁exam	-2559
▁kyoto	-2560
asons	-2561
▁properties	-2562
▁prefecture	-2563
▁opening	-2564
tr	-2565
▁potential	-2566
▁prepar	-2567
▁applied	-2568
▁strengthe	-2569
ids	-2570
isions	-2571
mitted	-2572
new	-2573
▁paramet	-2574
▁decor	-2575
▁comfort	-2576
cl	-2577
▁promote	-2578
▁damage	-2579
▁chemical	-2580
▁mas	-2581
▁leave	-2582
▁tick	-2583
▁ho	-2584
▁wish	-2585
estic	-2586
ming	-2587
▁prem	-2588
oph	-2589
▁airport	-2590
▁subsc	-2591
wise	-2592
▁became	-2593
▁percent	-2594
pa	-2595
▁drop	-2596
▁tit	-2597
imin	-2598
▁script	-2599
▁engineering	-2600
▁background	-2601
▁completely	-2602
▁apple	-2603
▁rob	-2604
iro	-2605
▁businesses	-2606
▁drink	-2607
▁dial	-2608
▁surve	-2609
▁friends	-2610
▁processes	-2611
▁friend	-2612
▁sites	-2613
imately	-2614
▁season	-2615
▁cance	-2616
ceed	-2617
▁aug	-2618
▁termin	-2619
▁tv	-2620
▁reli	-2621
ened	-2622
aily	-2623
▁carry	-2624
▁generation	-2625
▁limit	-2626
▁standards	-2627
istry	-2628
ude	-2629
mp	-2630
wide	-2631
▁consolidated	-2632
▁heav	-2633
▁phil	-2634
▁expert	-2635
export	-2636
▁instead	-2637
▁deb	-2638
ma	-2639
ength	-2640
▁instruct	-2641
.)	-2642
▁town	-2643
▁changed	-2644
▁sustainable	-2645
actions	-2646
hest	-2647
▁backup	-2648
▁nav	-2649
rel	-2650
onst	-2651
▁hair	-2652
▁warm	-2653
▁running	-2654
▁took	-2655
ological	-2656
▁associated	-2657
▁diag	-2658
▁fa	-2659
▁spir	-2660
▁daily	-2661
ka	-2662
adem	-2663
▁thought	-2664
ashi	-2665
▁korea	-2666
▁deg	-2667
uck	-2668
▁memory	-2669
urance	-2670
oh	-2671
▁mov	-2672
▁suitable	-2673
▁components	-2674
▁fully	-2675
▁profile	-2676
▁cross	-2677
▁cover	-2678
ada	-2679
▁clos	-2680
▁credit	-2681
▁prices	-2682
light	-2683
▁sense	-2684
▁android	-2685
▁affect	-2686
▁profit	-2687
▁beginning	-2688
▁regulations	-2689
pn	-2690
▁grap	-2691
▁physical	-2692
▁wel	-2693
▁ever	-2694
▁incor	-2695
▁ground	-2696
▁spread	-2697
▁suggest	-2698
▁camera	-2699
▁throughout	-2700
▁requests	-2701
▁propos	-2702
▁extreme	-2703
bon	-2704
▁challeng	-2705
▁item	-2706
▁wat	-2707
▁bott	-2708
where	-2709
ooth	-2710
▁skin	-2711
▁began	-2712
ching	-2713
▁places	-2714
▁middle	-2715
▁laws	-2716
▁july	-2717
▁skills	-2718
▁enable	-2719
resh	-2720
abled	-2721
▁ult	-2722
▁hu	-2723
▁rather	-2724
izes	-2725
▁peace	-2726
▁documents	-2727
▁policies	-2728
▁ten	-2729
uary	-2730
▁audio	-2731
▁went	-2732
▁planning	-2733
tained	-2734
▁kit	-2735
more	-2736
▁—	-2737
▁led	-2738
ram	-2739
▁category	-2740
▁cultural	-2741
▁foundation	-2742
▁commerc	-2743
▁soon	-2744
▁asked	-2745
▁floor	-2746
▁cash	-2747
▁plans	-2748
ami	-2749
▁polit	-2750
▁excell	-2751
▁...	-2752
▁nove	-2753
▁adop	-2754
▁worth	-2755
uted	-2756
▁job	-2757
▁controll	-2758
▁gold	-2759
▁models	-2760
▁student	-2761
▁domestic	-2762
enue	-2763
▁imm	-2764
▁supports	-2765
▁instru	-2766
▁ready	-2767
▁favor	-2768
gn	-2769
▁november	-2770
hol	-2771
do	-2772
▁gard	-2773
▁reach	-2774
▁audit	-2775
▁groups	-2776
▁edit	-2777
▁relevant	-2778
airs	-2779
▁aust	-2780
▁links	-2781
▁promotion	-2782
▁pages	-2783
▁defin	-2784
▁caused	-2785
▁pattern	-2786
▁responsible	-2787
▁advance	-2788
▁ill	-2789
▁academ	-2790
▁contribute	-2791
▁twit	-2792
▁summary	-2793
itect	-2794
▁figure	-2795
▁compos	-2796
▁introduced	-2797
▁factors	-2798
▁respond	-2799
ously	-2800
▁themselves	-2801
▁organizations	-2802
▁matter	-2803
▁final	-2804
▁mix	-2805
▁database	-2806
▁hor	-2807
ief	-2808
eral	-2809
▁valid	-2810
▁restaurant	-2811
▁manager	-2812
▁partner	-2813
▁german	-2814
▁elements	-2815
▁har	-2816
▁contains	-2817
▁decided	-2818
▁star	-2819
▁occ	-2820
▁achie	-2821
▁exerc	-2822
▁approx	-2823
▁scient	-2824
▁glass	-2825
▁ang	-2826
ulate	-2827
▁medic	-2828
ison	-2829
▁compliance	-2830
▁charge	-2831
▁leaders	-2832
▁input	-2833
▁enhance	-2834
▁architect	-2835
▁bag	-2836
▁foot	-2837
ades	-2838
▁sym	-2839
▁fel	-2840
hens	-2841
▁jour	-2842
▁cool	-2843
ocol	-2844
▁involved	-2845
▁doing	-2846
▁stores	-2847
▁compared	-2848
▁commercial	-2849
part	-2850
resp	-2851
ina	-2852
▁flex	-2853
▁idea	-2854
▁rap	-2855
▁unit	-2856
rency	-2857
▁consist	-2858
▁american	-2859
mark	-2860
▁participants	-2861
▁arri	-2862
sequ	-2863
ii	-2864
▁influ	-2865
hentic	-2866
arant	-2867
▁viol	-2868
▁san	-2869
▁bir	-2870
set	-2871
house	-2872
▁summer	-2873
▁accordance	-2874
▁term	-2875
▁delivery	-2876
▁shopping	-2877
▁slow	-2878
▁rout	-2879
enced	-2880
▁normal	-2881
▁enterpr	-2882
ype	-2883
▁batter	-2884
▁visitors	-2885
▁subsid	-2886
▁infrast	-2887
▁starting	-2888
ney	-2889
▁certific	-2890
▁pred	-2891
▁disease	-2892
cont	-2893
▁efficient	-2894
▁benefits	-2895
▁apart	-2896
▁assess	-2897
▁speak	-2898
force	-2899
wan	-2900
down	-2901
▁blood	-2902
▁greater	-2903
ament	-2904
ycle	-2905
▁january	-2906
ext	-2907
▁tab	-2908
▁deliver	-2909
▁average	-2910
erve	-2911
▁reasons	-2912
ita	-2913
▁authentic	-2914
▁largest	-2915
▁story	-2916
▁conference	-2917
▁efficiency	-2918
▁fit	-2919
▁mainly	-2920
▁described	-2921
roll	-2922
▁pal	-2923
▁strategy	-2924
▁cast	-2925
my	-2926
▁actions	-2927
▁selection	-2928
▁capacity	-2929
▁session	-2930
▁attack	-2931
▁element	-2932
▁wood	-2933
▁ple	-2934
html	-2935
▁innovation	-2936
▁feb	-2937
▁detailed	-2938
▁researc	-2939
oll	-2940
▁volume	-2941
▁hous	-2942
▁published	-2943
▁bur	-2944
▁august	-2945
▁actual	-2946
▁ban	-2947
▁afric	-2948
▁levels	-2949
ream	-2950
▁pul	-2951
▁lost	-2952
▁vill	-2953
▁opportunities	-2954
▁earn	-2955
▁clients	-2956
▁satis	-2957
▁templ	-2958
▁seg	-2959
sy	-2960
▁vac	-2961
▁firm	-2962
▁snow	-2963
▁hit	-2964
▁markets	-2965
▁practice	-2966
reg	-2967
▁resource	-2968
▁pen	-2969
▁arts	-2970
▁desk	-2971
▁maximum	-2972
ians	-2973
▁street	-2974
kn	-2975
▁squ	-2976
ato	-2977
ship	-2978
▁shares	-2979
aches	-2980
▁force	-2981
lier	-2982
enses	-2983
▁written	-2984
▁interface	-2985
▁sus	-2986
▁disk	-2987
▁opened	-2988
▁behav	-2989
▁spring	-2990
sp	-2991
▁confirm	-2992
box	-2993
▁distribution	-2994
mine	-2995
▁blog	-2996
▁hall	-2997
▁profess	-2998
▁european	-2999
rehens	-3000
▁shared	-3001
amples	-3002
▁write	-3003
ife	-3004
▁likely	-3005
▁infrastructure	-3006
round	-3007
porary	-3008
▁transform	-3009
▁prob	-3010
▁conducted	-3011
soft	-3012
▁capt	-3013
▁balance	-3014
▁ec	-3015
▁miss	-3016
▁swe	-3017
▁reports	-3018
▁interesting	-3019
▁ear	-3020
▁+	-3021
▁eat	-3022
▁allowed	-3023
look	-3024
▁delete	-3025
▁length	-3026
▁heat	-3027
▁dry	-3028
▁recover	-3029
▁cas	-3030
▁mit	-3031
▁ago	-3032
▁taste	-3033
▁blue	-3034
▁disaster	-3035
▁maintain	-3036
▁six	-3037
▁den	-3038
vid	-3039
point	-3040
▁lives	-3041
▁performed	-3042
xy	-3043
▁pet	-3044
▁released	-3045
▁getting	-3046
▁administr	-3047
▁rooms	-3048
▁mention	-3049
▁facebook	-3050
▁recently	-3051
see	-3052
idents	-3053
vis	-3054
▁quant	-3055
▁jud	-3056
▁cells	-3057
▁reduction	-3058
▁moment	-3059
▁changing	-3060
▁pick	-3061
tenance	-3062
▁decision	-3063
head	-3064
▁lines	-3065
▁visual	-3066
▁electronic	-3067
▁counter	-3068
▁climate	-3069
idge	-3070
icient	-3071
ae	-3072
ned	-3073
pan	-3074
iction	-3075
▁decl	-3076
▁pressure	-3077
▁spirit	-3078
▁famous	-3079
▁flu	-3080
▁tim	-3081
▁photograph	-3082
ano	-3083
▁weight	-3084
▁hon	-3085
▁encour	-3086
▁claim	-3087
▁harm	-3088
▁ital	-3089
▁goal	-3090
shop	-3091
▁registration	-3092
▁task	-3093
▁sports	-3094
▁rapid	-3095
▁twitter	-3096
▁maintenance	-3097
ruary	-3098
▁behind	-3099
▁restrict	-3100
▁fresh	-3101
lies	-3102
ender	-3103
▁thank	-3104
▁steel	-3105
▁tree	-3106
▁applicable	-3107
▁movement	-3108
▁goods	-3109
▁registered	-3110
▁comprehens	-3111
▁collaboration	-3112
osh	-3113
▁copyright	-3114
▁guarant	-3115
mail	-3116
▁remember	-3117
▁inqu	-3118
▁completed	-3119
▁becomes	-3120
▁says	-3121
▁dynam	-3122
▁artists	-3123
▁strength	-3124
▁coming	-3125
pped	-3126
▁otherwise	-3127
▁vo	-3128
▁requires	-3129
▁austral	-3130
ros	-3131
ipe	-3132
odes	-3133
▁wire	-3134
like	-3135
▁trip	-3136
▁train	-3137
iki	-3138
▁thanks	-3139
▁creation	-3140
how	-3141
▁assign	-3142
▁divid	-3143
▁corresp	-3144
▁tai	-3145
▁panel	-3146
▁bor	-3147
▁yes	-3148
▁round	-3149
▁serious	-3150
▁regional	-3151
▁rat	-3152
▁adult	-3153
empt	-3154
▁atm	-3155
ertain	-3156
year	-3157
▁ast	-3158
▁mother	-3159
rupt	-3160
,”	-3161
▁convention	-3162
▁sle	-3163
▁independent	-3164
▁risks	-3165
▁annual	-3166
▁agency	-3167
▁qual	-3168
▁growing	-3169
▁trying	-3170
erous	-3171
▁consumption	-3172
▁acquis	-3173
met	-3174
▁rates	-3175
▁license	-3176
▁subsidi	-3177
▁february	-3178
▁constant	-3179
itude	-3180
▁discount	-3181
▁essential	-3182
▁rich	-3183
▁plants	-3184
arter	-3185
▁package	-3186
▁bottom	-3187
▁announced	-3188
ashion	-3189
▁forest	-3190
▁mountain	-3191
rate	-3192
▁surround	-3193
ipped	-3194
▁patients	-3195
loc	-3196
▁mer	-3197
▁earthqu	-3198
▁bon	-3199
▁difference	-3200
▁tea	-3201
▁carried	-3202
▁choice	-3203
▁approximately	-3204
▁excellent	-3205
ensions	-3206
▁america	-3207
▁secret	-3208
▁determine	-3209
atively	-3210
▁river	-3211
ichi	-3212
▁forecast	-3213
▁touch	-3214
▁ideas	-3215
▁club	-3216
▁acce	-3217
▁rot	-3218
▁altern	-3219
▁seems	-3220
▁chat	-3221
▁bed	-3222
▁medium	-3223
▁fixed	-3224
▁prepare	-3225
▁mail	-3226
▁easier	-3227
▁fuk	-3228
▁continued	-3229
▁amaz	-3230
▁messages	-3231
comm	-3232
▁picture	-3233
▁stream	-3234
▁conver	-3235
▁lect	-3236
▁king	-3237
▁fru	-3238
▁trading	-3239
▁insurance	-3240
▁repe	-3241
gs	-3242
▁serve	-3243
▁sd	-3244
▁planet	-3245
▁remote	-3246
iles	-3247
▁solve	-3248
▁specify	-3249
▁histor	-3250
▁reference	-3251
▁responsibility	-3252
lication	-3253
▁implementation	-3254
▁finally	-3255
▁shr	-3256
▁diagn	-3257
▁guests	-3258
room	-3259
▁garden	-3260
▁tal	-3261
ses	-3262
▁asset	-3263
▁signal	-3264
▁apps	-3265
▁bath	-3266
▁hom	-3267
▁ded	-3268
▁identify	-3269
▁traff	-3270
▁colle	-3271
▁princip	-3272
▁statement	-3273
ivers	-3274
▁nag	-3275
▁graduate	-3276
▁institutions	-3277
▁sav	-3278
▁procedure	-3279
▁uk	-3280
def	-3281
▁produced	-3282
▁sen	-3283
▁ing	-3284
▁overall	-3285
ques	-3286
▁infect	-3287
▁rub	-3288
▁pand	-3289
ancing	-3290
luding	-3291
▁struct	-3292
▁nor	-3293
itation	-3294
▁professor	-3295
▁interested	-3296
▁court	-3297
▁waste	-3298
▁dialog	-3299
▁ep	-3300
▁appe	-3301
▁ministry	-3302
▁delic	-3303
▁advantage	-3304
▁linked	-3305
oke	-3306
▁death	-3307
pre	-3308
related	-3309
▁opin	-3310
this	-3311
▁seem	-3312
▁accom	-3313
▁scale	-3314
▁industries	-3315
▁hosp	-3316
▁answer	-3317
▁moving	-3318
▁bad	-3319
▁scan	-3320
▁towards	-3321
▁resist	-3322
▁roll	-3323
▁prepared	-3324
▁dark	-3325
▁context	-3326
▁executive	-3327
▁match	-3328
▁demonst	-3329
▁atmosp	-3330
▁india	-3331
▁sem	-3332
▁typho	-3333
▁adap	-3334
▁presented	-3335
▁#	-3336
▁exact	-3337
▁fashion	-3338
▁wanted	-3339
▁rock	-3340
ommod	-3341
▁bright	-3342
▁accommod	-3343
▁presence	-3344
▁resol	-3345
▁automatic	-3346
▁ss	-3347
ded	-3348
▁improvement	-3349
▁someone	-3350
▁helps	-3351
▁©	-3352
▁temple	-3353
erning	-3354
ousand	-3355
▁characteristics	-3356
▁remain	-3357
▁properly	-3358
lock	-3359
▁rain	-3360
▁accounting	-3361
▁liqu	-3362
▁century	-3363
▁paid	-3364
▁nar	-3365
▁placed	-3366
▁index	-3367
▁positive	-3368
▁jes	-3369
▁vision	-3370
▁cold	-3371
▁gives	-3372
yond	-3373
▁integrated	-3374
▁ones	-3375
▁sold	-3376
▁produce	-3377
▁translation	-3378
▁teac	-3379
uan	-3380
▁nothing	-3381
dom	-3382
▁numbers	-3383
▁direction	-3384
▁workshop	-3385
▁acquisition	-3386
▁inquir	-3387
▁wid	-3388
▁wonder	-3389
▁challenges	-3390
▁shareholders	-3391
▁convenient	-3392
▁importance	-3393
▁facility	-3394
ori	-3395
▁join	-3396
che	-3397
dis	-3398
▁incorpor	-3399
log	-3400
bu	-3401
▁comprehensive	-3402
▁attrib	-3403
▁thousand	-3404
ken	-3405
osing	-3406
ifi	-3407
▁symb	-3408
▁survey	-3409
▁sky	-3410
yo	-3411
▁multi	-3412
▁taiwan	-3413
▁hol	-3414
aign	-3415
▁shape	-3416
▁<	-3417
ley	-3418
uations	-3419
▁weather	-3420
ression	-3421
▁manner	-3422
▁procedures	-3423
▁woman	-3424
▁perspect	-3425
▁desp	-3426
ya	-3427
▁concerning	-3428
▁initiatives	-3429
▁viet	-3430
▁obtained	-3431
▁names	-3432
▁listed	-3433
▁resolution	-3434
▁errors	-3435
▁beyond	-3436
▁introduction	-3437
▁explore	-3438
▁communities	-3439
encies	-3440
▁winter	-3441
iveness	-3442
▁articles	-3443
▁farm	-3444
yl	-3445
rain	-3446
▁framework	-3447
▁channel	-3448
▁asian	-3449
▁correspond	-3450
▁pow	-3451
asc	-3452
▁instructions	-3453
▁jesus	-3454
acific	-3455
ban	-3456
▁reservation	-3457
hern	-3458
▁funds	-3459
▁veget	-3460
▁carefully	-3461
taining	-3462
oka	-3463
▁accounts	-3464
▁communications	-3465
▁campaign	-3466
▁sector	-3467
▁cgi	-3468
▁researchers	-3469
oting	-3470
▁particularly	-3471
▁supporting	-3472
▁icon	-3473
▁register	-3474
▁rid	-3475
▁traffic	-3476
▁proceed	-3477
▁testing	-3478
▁engage	-3479
▁hyd	-3480
▁typhoon	-3481
▁else	-3482
▁graph	-3483
▁minister	-3484
fo	-3485
▁metal	-3486
▁zet	-3487
▁statements	-3488
▁tom	-3489
▁fuel	-3490
▁anything	-3491
▁launch	-3492
▁hong	-3493
tion	-3494
▁holid	-3495
ao	-3496
▁versions	-3497
▁extremely	-3498
▁saw	-3499
▁--	-3500
augh	-3501
▁cand	-3502
▁folder	-3503
▁updated	-3504
▁forms	-3505
▁tag	-3506
▁motor	-3507
▁compat	-3508
▁regions	-3509
eria	-3510
▁follows	-3511
▁nam	-3512
▁extra	-3513
▁gall	-3514
▁stable	-3515
▁quarter	-3516
osed	-3517
▁teach	-3518
▁transactions	-3519
▁west	-3520
▁units	-3521
▁sharing	-3522
ancy	-3523
▁meaning	-3524
enge	-3525
▁smooth	-3526
▁upgr	-3527
▁bul	-3528
▁player	-3529
▁cancer	-3530
▁solar	-3531
▁band	-3532
▁rule	-3533
▁guidel	-3534
key	-3535
itary	-3536
▁ended	-3537
amm	-3538
▁doesn	-3539
▁usage	-3540
ga	-3541
▁division	-3542
▁song	-3543
▁drivers	-3544
▁monitoring	-3545
▁connecting	-3546
▁highest	-3547
▁offering	-3548
▁worldwide	-3549
▁reported	-3550
▁population	-3551
▁imposs	-3552
▁craft	-3553
▁repair	-3554
▁enables	-3555
ferences	-3556
▁happy	-3557
▁mis	-3558
▁assum	-3559
▁theme	-3560
cil	-3561
▁attempt	-3562
ror	-3563
ih	-3564
▁furthermore	-3565
▁determined	-3566
▁seek	-3567
ido	-3568
▁doll	-3569
▁cere	-3570
▁behavior	-3571
▁eg	-3572
▁plug	-3573
▁fab	-3574
fered	-3575
▁analyt	-3576
▁combination	-3577
▁weak	-3578
▁double	-3579
▁experiences	-3580
▁worked	-3581
▁players	-3582
▁birth	-3583
▁url	-3584
▁estim	-3585
▁unf	-3586
▁estate	-3587
ellig	-3588
▁told	-3589
▁grand	-3590
▁cities	-3591
▁agr	-3592
▁renew	-3593
▁aspect	-3594
▁vietnam	-3595
ublic	-3596
▁slight	-3597
▁symbol	-3598
ipping	-3599
▁usb	-3600
semb	-3601
▁jav	-3602
▁comment	-3603
▁feedback	-3604
▁eyes	-3605
▁deploy	-3606
▁presentation	-3607
▁remains	-3608
▁semin	-3609
▁networks	-3610
▁shift	-3611
▁appears	-3612
lim	-3613
▁handle	-3614
▁osaka	-3615
▁impossible	-3616
▁comments	-3617
▁battery	-3618
▁chain	-3619
oku	-3620
▁effort	-3621
▁obtain	-3622
▁string	-3623
▁ingred	-3624
estern	-3625
▁doctor	-3626
▁morning	-3627
▁circum	-3628
▁offered	-3629
▁yam	-3630
▁separate	-3631
▁tourism	-3632
ero	-3633
▁jew	-3634
▁clin	-3635
▁filter	-3636
▁former	-3637
▁ens	-3638
▁successful	-3639
▁overview	-3640
▁becoming	-3641
▁thinking	-3642
ora	-3643
▁powerful	-3644
name	-3645
▁objects	-3646
▁born	-3647
une	-3648
▁insert	-3649
▁ms	-3650
▁rice	-3651
tage	-3652
▁advertising	-3653
▁microsoft	-3654
▁relax	-3655
▁despite	-3656
rix	-3657
▁mission	-3658
▁fat	-3659
nel	-3660
▁moreover	-3661
▁poly	-3662
▁susp	-3663
ishi	-3664
▁defined	-3665
ding	-3666
▁stored	-3667
▁intellig	-3668
▁acceler	-3669
▁initial	-3670
▁httpd	-3671
illed	-3672
▁korean	-3673
▁integration	-3674
▁manually	-3675
▁tow	-3676
▁anti	-3677
▁insp	-3678
rant	-3679
▁specif	-3680
▁consent	-3681
▁plastic	-3682
▁fine	-3683
▁announce	-3684
rm	-3685
acing	-3686
▁moon	-3687
▁earthquake	-3688
▁political	-3689
▁distance	-3690
▁colors	-3691
urs	-3692
mas	-3693
▁directives	-3694
▁=	-3695
▁dance	-3696
▁affected	-3697
▁edge	-3698
▁oce	-3699
▁pdf	-3700
ns	-3701
▁layer	-3702
▁kong	-3703
▁experts	-3704
▁expans	-3705
▁plate	-3706
▁citiz	-3707
▁replace	-3708
▁restore	-3709
iring	-3710
▁)	-3711
▁agricult	-3712
ta	-3713
▁provision	-3714
▁welcome	-3715
iko	-3716
ster	-3717
rought	-3718
▁parents	-3719
▁convert	-3720
▁writing	-3721
iling	-3722
duces	-3723
▁forum	-3724
▁huge	-3725
日本	-3726
▁views	-3727
oding	-3728
▁yun	-3729
▁retail	-3730
▁threat	-3731
▁parameters	-3732
bor	-3733
▁certificate	-3734
▁cele	-3735
▁looks	-3736
▁felt	-3737
▁electronics	-3738
active	-3739
▁late	-3740
▁protocol	-3741
▁movie	-3742
▁competition	-3743
▁beauty	-3744
▁interview	-3745
▁challenge	-3746
▁interests	-3747
▁exercise	-3748
rench	-3749
▁meetings	-3750
▁techniques	-3751
▁cards	-3752
▁civ	-3753
▁dut	-3754
▁engineers	-3755
▁creative	-3756
▁lack	-3757
▁atmosphere	-3758
▁pharm	-3759
▁books	-3760
▁awa	-3761
▁booking	-3762
▁fed	-3763
aku	-3764
▁divers	-3765
▁diseases	-3766
▁reading	-3767
▁fem	-3768
▁stick	-3769
▁ts	-3770
▁desired	-3771
▁anc	-3772
road	-3773
▁sched	-3774
▁administration	-3775
achi	-3776
yal	-3777
▁except	-3778
mat	-3779
▁der	-3780
▁title	-3781
▁imag	-3782
place	-3783
▁bab	-3784
uses	-3785
fl	-3786
▁fee	-3787
▁possibility	-3788
▁mentioned	-3789
obe	-3790
▁manufacturers	-3791
▁submit	-3792
▁surpr	-3793
▁degree	-3794
uki	-3795
▁goals	-3796
▁spr	-3797
▁column	-3798
▁notes	-3799
▁schools	-3800
▁elimin	-3801
▁rom	-3802
free	-3803
▁handling	-3804
▁didn	-3805
▁nations	-3806
▁prop	-3807
you	-3808
▁partnership	-3809
▁square	-3810
▁feeling	-3811
sec	-3812
file	-3813
▁coup	-3814
▁appearance	-3815
▁eye	-3816
▁benefit	-3817
ko	-3818
▁improving	-3819
▁dedic	-3820
vered	-3821
▁ideal	-3822
▁individuals	-3823
▁obl	-3824
▁exclus	-3825
▁improved	-3826
▁segment	-3827
▁owners	-3828
▁russia	-3829
▁inspect	-3830
▁owner	-3831
▁magnet	-3832
▁liquid	-3833
▁entry	-3834
oshi	-3835
▁eth	-3836
▁belie	-3837
▁investig	-3838
▁apprec	-3839
iences	-3840
▁sale	-3841
quality	-3842
urch	-3843
mo	-3844
application	-3845
▁mill	-3846
▁workers	-3847
▁council	-3848
▁gave	-3849
▁adding	-3850
▁nut	-3851
▁vehicle	-3852
▁experiment	-3853
▁・	-3854
after	-3855
▁entr	-3856
▁practical	-3857
vision	-3858
▁assistance	-3859
haps	-3860
▁mir	-3861
overed	-3862
▁desktop	-3863
▁cs	-3864
▁western	-3865
▁passed	-3866
▁ak	-3867
icon	-3868
▁comfortable	-3869
▁solid	-3870
▁anyone	-3871
▁sheet	-3872
▁significantly	-3873
▁securities	-3874
umin	-3875
▁promoting	-3876
▁spot	-3877
ipl	-3878
▁spend	-3879
ij	-3880
▁scre	-3881
▁vict	-3882
▁generated	-3883
icip	-3884
▁sources	-3885
▁evaluation	-3886
▁ball	-3887
▁hid	-3888
▁deleted	-3889
▁grant	-3890
▁patient	-3891
▁french	-3892
▁issued	-3893
▁characters	-3894
▁sout	-3895
▁sustainability	-3896
lying	-3897
▁paint	-3898
▁machines	-3899
▁shin	-3900
▁whose	-3901
▁piece	-3902
▁root	-3903
▁generally	-3904
▁crow	-3905
da	-3906
▁recognized	-3907
▁argu	-3908
▁australia	-3909
za	-3910
▁conversion	-3911
▁russian	-3912
▁trou	-3913
off	-3914
▁expansion	-3915
▁wait	-3916
▁participate	-3917
▁enterprise	-3918
apore	-3919
inst	-3920
▁gate	-3921
cale	-3922
▁invent	-3923
etary	-3924
▁capabilities	-3925
▁depos	-3926
▁factory	-3927
ana	-3928
▁circumst	-3929
▁sleep	-3930
umb	-3931
▁compar	-3932
▁‘	-3933
▁stress	-3934
▁manual	-3935
inter	-3936
xhtml	-3937
▁launched	-3938
▁pros	-3939
▁audience	-3940
▁africa	-3941
▁reve	-3942
▁mut	-3943
▁exceed	-3944
▁unc	-3945
▁medicine	-3946
▁reduced	-3947
▁voice	-3948
▁modules	-3949
▁carbon	-3950
▁brought	-3951
▁pictures	-3952
▁coff	-3953
▁tap	-3954
▁career	-3955
▁covered	-3956
po	-3957
▁experienced	-3958
▁turned	-3959
▁amb	-3960
▁playing	-3961
▁hiro	-3962
▁assemb	-3963
▁guidelines	-3964
▁primary	-3965
▁ceremon	-3966
ene	-3967
▁heavy	-3968
▁pin	-3969
▁depends	-3970
▁registry	-3971
▁websites	-3972
▁giving	-3973
ball	-3974
▁matters	-3975
▁appoint	-3976
▁ordinary	-3977
▁ship	-3978
▁academic	-3979
▁indones	-3980
▁日本	-3981
▁radio	-3982
▁instruments	-3983
▁york	-3984
▁prevention	-3985
▁happen	-3986
▁military	-3987
▁preparation	-3988
▁chair	-3989
emark	-3990
▁fulf	-3991
▁pleas	-3992
▁negative	-3993
▁collected	-3994
▁wear	-3995
uated	-3996
▁trademark	-3997
▁closed	-3998
▁strengthen	-3999
▁classes	-4000
▁locations	-4001
▁therap	-4002
▁favorite	-4003
▁premium	-4004
▁ocean	-4005
▁meat	-4006
▁mechanism	-4007
▁architecture	-4008
iber	-4009
dule	-4010
▁rare	-4011
▁minim	-4012
▁buildings	-4013
party	-4014
▁thread	-4015
▁resulting	-4016
▁arbit	-4017
▁ticket	-4018
▁concent	-4019
▁pursu	-4020
sm	-4021
▁flash	-4022
▁restaurants	-4023
▁spl	-4024
▁keyword	-4025
▁reliable	-4026
▁emissions	-4027
▁sch	-4028
▁posted	-4029
▁editor	-4030
▁upload	-4031
flow	-4032
lec	-4033
▁clearly	-4034
▁employee	-4035
▁rise	-4036
▁depend	-4037
▁flowers	-4038
▁newly	-4039
▁ingredients	-4040
▁singapore	-4041
▁establishment	-4042
▁authentication	-4043
▁switch	-4044
▁father	-4045
▁finished	-4046
▁cable	-4047
▁attend	-4048
▁domain	-4049
▁chance	-4050
standing	-4051
▁crypt	-4052
▁budd	-4053
▁thick	-4054
▁introduce	-4055
▁nom	-4056
▁api	-4057
▁transportation	-4058
eed	-4059
▁aims	-4060
▁cutting	-4061
▁critical	-4062
▁volun	-4063
▁weeks	-4064
▁tasks	-4065
▁reviews	-4066
▁bill	-4067
uz	-4068
▁dang	-4069
unch	-4070
▁causes	-4071
▁coffee	-4072
▁advis	-4073
▁execution	-4074
▁moved	-4075
▁component	-4076
▁sequ	-4077
▁vehicles	-4078
▁studio	-4079
▁consumer	-4080
▁removed	-4081
▁coord	-4082
▁driving	-4083
▁cos	-4084
ying	-4085
there	-4086
▁drag	-4087
what	-4088
▁artist	-4089
rical	-4090
▁schedule	-4091
▁surv	-4092
▁realize	-4093
inal	-4094
▁ai	-4095
▁village	-4096
▁sud	-4097
▁circumstances	-4098
▁stated	-4099
▁innovative	-4100
▁disp	-4101
▁smartphone	-4102
ctors	-4103
▁combined	-4104
▁rank	-4105
▁stra	-4106
▁previously	-4107
orial	-4108
▁reserved	-4109
▁civil	-4110
▁dead	-4111
▁transpa	-4112
tube	-4113
▁examples	-4114
▁ios	-4115
▁gain	-4116
▁earlier	-4117
▁unless	-4118
▁cab	-4119
lusion	-4120
▁goes	-4121
▁satisf	-4122
▁served	-4123
▁forget	-4124
▁prefer	-4125
▁representative	-4126
▁sty	-4127
▁implemented	-4128
▁raw	-4129
ilit	-4130
▁girl	-4131
▁cars	-4132
▁plus	-4133
▁compens	-4134
▁bri	-4135
▁france	-4136
press	-4137
▁therm	-4138
▁valu	-4139
▁probably	-4140
▁shipping	-4141
▁vent	-4142
ont	-4143
▁fuj	-4144
▁hardware	-4145
▁sample	-4146
▁header	-4147
scale	-4148
▁principle	-4149
▁equipped	-4150
▁watches	-4151
▁increases	-4152
▁cm	-4153
▁expression	-4154
▁cru	-4155
ingu	-4156
▁arrange	-4157
▁belong	-4158
▁ta	-4159
▁facult	-4160
▁prompt	-4161
hy	-4162
▁measurement	-4163
iance	-4164
cohol	-4165
▁strict	-4166
▁covid	-4167
▁actively	-4168
▁topics	-4169
char	-4170
▁lock	-4171
atsu	-4172
▁cart	-4173
▁spect	-4174
▁visited	-4175
▁pieces	-4176
olute	-4177
▁perspective	-4178
▁exchang	-4179
▁decrease	-4180
▁finance	-4181
vere	-4182
▁coast	-4183
▁schedul	-4184
▁sand	-4185
▁sympt	-4186
▁documentation	-4187
▁discussion	-4188
▁lin	-4189
▁negot	-4190
▁encry	-4191
fs	-4192
▁servers	-4193
▁gar	-4194
▁gift	-4195
▁discover	-4196
▁kan	-4197
▁listen	-4198
▁vpn	-4199
xic	-4200
▁provider	-4201
▁installing	-4202
▁construct	-4203
▁reform	-4204
▁continues	-4205
ibilities	-4206
▁achieved	-4207
▁pacific	-4208
ailand	-4209
▁languages	-4210
▁trial	-4211
play	-4212
usion	-4213
▁cooking	-4214
▁affairs	-4215
▁minimum	-4216
▁kinds	-4217
▁simpl	-4218
▁meters	-4219
▁expenses	-4220
▁youtube	-4221
▁sufficient	-4222
▁reality	-4223
▁circu	-4224
▁flower	-4225
ca	-4226
▁conflic	-4227
▁gallery	-4228
▁contem	-4229
▁technique	-4230
care	-4231
▁catal	-4232
▁germany	-4233
▁absolute	-4234
▁fy	-4235
▁holding	-4236
▁allowing	-4237
▁diet	-4238
reness	-4239
▁lake	-4240
▁prote	-4241
▁ratio	-4242
▁rail	-4243
▁scene	-4244
▁instance	-4245
osis	-4246
▁pool	-4247
type	-4248
▁healthy	-4249
undred	-4250
▁trees	-4251
▁institution	-4252
▁platforms	-4253
▁configure	-4254
▁sight	-4255
▁district	-4256
gor	-4257
▁transaction	-4258
▁tor	-4259
▁orders	-4260
with	-4261
▁faster	-4262
▁accurate	-4263
▁disclosure	-4264
▁dishes	-4265
▁mig	-4266
used	-4267
▁mel	-4268
▁sets	-4269
nal	-4270
▁investors	-4271
▁emergency	-4272
▁delicious	-4273
▁updates	-4274
▁slightly	-4275
▁unity	-4276
▁upper	-4277
▁alcohol	-4278
▁bridge	-4279
▁teams	-4280
▁governance	-4281
craft	-4282
des	-4283
▁aware	-4284
ki	-4285
▁dedicated	-4286
▁brain	-4287
▁wal	-4288
▁scientific	-4289
▁scope	-4290
known	-4291
▁operate	-4292
▁liter	-4293
▁trends	-4294
▁las	-4295
▁extract	-4296
▁hundred	-4297
iliar	-4298
atell	-4299
▁trend	-4300
ilies	-4301
▁awareness	-4302
ental	-4303
▁associate	-4304
▁gal	-4305
▁followed	-4306
▁cris	-4307
▁predict	-4308
▁performing	-4309
▁da	-4310
▁fees	-4311
▁corresponding	-4312
▁son	-4313
▁commission	-4314
▁shar	-4315
ystem	-4316
▁reducing	-4317
▁influence	-4318
rated	-4319
▁exactly	-4320
▁cooper	-4321
▁toy	-4322
fol	-4323
▁church	-4324
▁consideration	-4325
▁returns	-4326
▁wine	-4327
▁lecture	-4328
▁ceremony	-4329
▁functionality	-4330
▁mm	-4331
▁stake	-4332
▁jp	-4333
▁affili	-4334
▁faculty	-4335
▁cream	-4336
▁larger	-4337
▁analytics	-4338
▁facilit	-4339
▁lap	-4340
▁enabled	-4341
▁recip	-4342
▁era	-4343
going	-4344
omic	-4345
▁corner	-4346
▁courses	-4347
▁cy	-4348
▁entered	-4349
▁diverse	-4350
fi	-4351
icing	-4352
▁budget	-4353
▁learned	-4354
▁patent	-4355
▁pray	-4356
▁sto	-4357
▁door	-4358
ba	-4359
▁centre	-4360
▁horiz	-4361
otive	-4362
▁practices	-4363
▁publication	-4364
▁dynamic	-4365
▁citrix	-4366
▁thin	-4367
▁shut	-4368
▁tel	-4369
itely	-4370
▁agent	-4371
ev	-4372
▁recorded	-4373
▁managed	-4374
▁formed	-4375
▁drugs	-4376
▁outlook	-4377
▁celebr	-4378
▁tips	-4379
▁flight	-4380
▁finish	-4381
band	-4382
uro	-4383
▁decide	-4384
uting	-4385
▁mp	-4386
▁educational	-4387
▁failure	-4388
uth	-4389
▁extensions	-4390
▁families	-4391
ought	-4392
▁日本語	-4393
idential	-4394
gin	-4395
▁accident	-4396
iled	-4397
ford	-4398
▁newslet	-4399
▁info	-4400
▁leaves	-4401
▁chart	-4402
▁satell	-4403
▁abroad	-4404
▁parag	-4405
iate	-4406
▁variables	-4407
▁currency	-4408
cc	-4409
▁christmas	-4410
▁himself	-4411
ws	-4412
eff	-4413
▁nation	-4414
▁template	-4415
▁advice	-4416
▁wave	-4417
▁consequ	-4418
▁leader	-4419
▁thailand	-4420
▁principles	-4421
aru	-4422
phas	-4423
▁occurs	-4424
▁cancel	-4425
▁records	-4426
chen	-4427
ula	-4428
▁accum	-4429
▁electricity	-4430
▁designated	-4431
ille	-4432
▁alone	-4433
▁correctly	-4434
▁drawing	-4435
▁guarantee	-4436
ocr	-4437
dd	-4438
▁frequency	-4439
oo	-4440
ulations	-4441
▁straight	-4442
▁nice	-4443
▁explain	-4444
▁beach	-4445
▁authorities	-4446
▁preview	-4447
▁revenue	-4448
▁fundament	-4449
pass	-4450
ensity	-4451
▁reporting	-4452
aling	-4453
▁spons	-4454
----	-4455
▁shrine	-4456
!!	-4457
itors	-4458
rees	-4459
▁tan	-4460
ushima	-4461
▁gam	-4462
▁destination	-4463
▁persons	-4464
▁height	-4465
▁heard	-4466
▁okin	-4467
fri	-4468
unction	-4469
▁variable	-4470
▁hok	-4471
▁furn	-4472
▁nort	-4473
▁ancient	-4474
anch	-4475
uly	-4476
▁sudden	-4477
inated	-4478
▁expertise	-4479
▁emphas	-4480
▁sort	-4481
▁embed	-4482
▁entertain	-4483
▁intended	-4484
):	-4485
▁cup	-4486
▁hydro	-4487
▁magn	-4488
▁urban	-4489
▁returned	-4490
▁initiative	-4491
▁residents	-4492
osen	-4493
▁candid	-4494
▁seed	-4495
▁perman	-4496
▁fabric	-4497
▁intellect	-4498
agram	-4499
▁cycle	-4500
▁calend	-4501
▁relig	-4502
▁supervis	-4503
ech	-4504
hel	-4505
▁accepted	-4506
rep	-4507
▁stability	-4508
▁recognize	-4509
▁successfully	-4510
▁phase	-4511
▁philos	-4512
▁wed	-4513
▁named	-4514
▁mountains	-4515
▁assessment	-4516
▁shops	-4517
▁republic	-4518
▁prize	-4519
▁flexible	-4520
▁voltage	-4521
▁situations	-4522
▁yok	-4523
▁receiving	-4524
dr	-4525
▁ice	-4526
exp	-4527
including	-4528
▁union	-4529
▁lux	-4530
▁faq	-4531
▁frequently	-4532
isms	-4533
▁terminal	-4534
▁damaged	-4535
▁hear	-4536
▁wireless	-4537
▁wrong	-4538
omen	-4539
▁dream	-4540
▁historical	-4541
▁hospital	-4542
▁magaz	-4543
imb	-4544
▁codes	-4545
▁strategic	-4546
▁participation	-4547
▁vul	-4548
▁starts	-4549
▁neigh	-4550
inations	-4551
fig	-4552
▁explan	-4553
▁automotive	-4554
ifying	-4555
▁bow	-4556
▁react	-4557
▁tun	-4558
▁authority	-4559
▁weap	-4560
▁indonesia	-4561
▁exception	-4562
▁requested	-4563
▁paragraph	-4564
ui	-4565
▁tests	-4566
ny	-4567
▁familiar	-4568
▁relationships	-4569
gorith	-4570
▁accuracy	-4571
▁cloth	-4572
ica	-4573
ifications	-4574
▁happens	-4575
nd	-4576
▁fight	-4577
▁dish	-4578
▁perhaps	-4579
lines	-4580
oring	-4581
▁strategies	-4582
hood	-4583
▁committed	-4584
▁transmission	-4585
anging	-4586
▁forces	-4587
▁contemporary	-4588
▁din	-4589
▁effectively	-4590
▁gif	-4591
”.	-4592
omo	-4593
▁algorith	-4594
▁gradually	-4595
▁occup	-4596
▁saved	-4597
▁considering	-4598
tax	-4599
▁accompan	-4600
oration	-4601
▁phen	-4602
▁regardless	-4603
▁subscription	-4604
▁numerous	-4605
▁visiting	-4606
▁attach	-4607
▁wild	-4608
▁reached	-4609
bar	-4610
▁subscrib	-4611
draw	-4612
▁specifically	-4613
▁landsc	-4614
▁constantly	-4615
▁nak	-4616
▁myself	-4617
▁mi	-4618
▁replic	-4619
▁focused	-4620
▁intellectual	-4621
▁gather	-4622
▁female	-4623
▁login	-4624
▁universities	-4625
▁brief	-4626
▁fruit	-4627
▁complic	-4628
▁offices	-4629
▁esc	-4630
asion	-4631
ku	-4632
▁baby	-4633
▁musc	-4634
▁recyc	-4635
org	-4636
▁computers	-4637
▁dress	-4638
▁cleaning	-4639
▁bound	-4640
▁paris	-4641
▁employment	-4642
▁broadcast	-4643
▁college	-4644
iant	-4645
▁prime	-4646
▁zone	-4647
othes	-4648
ellow	-4649
▁partition	-4650
tes	-4651
▁citizens	-4652
▁instagram	-4653
▁disapp	-4654
▁dim	-4655
▁auto	-4656
▁symptoms	-4657
▁recording	-4658
▁protected	-4659
▁encourage	-4660
▁laboratory	-4661
▁psy	-4662
▁played	-4663
▁excess	-4664
▁evidence	-4665
▁lord	-4666
uff	-4667
▁animals	-4668
▁vit	-4669
▁explained	-4670
▁composition	-4671
▁adopted	-4672
▁engaged	-4673
▁hop	-4674
▁constit	-4675
▁define	-4676
▁providers	-4677
▁washing	-4678
apers	-4679
▁stone	-4680
▁ves	-4681
▁brands	-4682
access	-4683
▁differences	-4684
▁topic	-4685
kaido	-4686
▁hidden	-4687
▁fort	-4688
▁impress	-4689
▁contribution	-4690
▁seven	-4691
▁sciences	-4692
▁zero	-4693
▁mist	-4694
ota	-4695
formation	-4696
▁categories	-4697
bal	-4698
endor	-4699
class	-4700
▁personnel	-4701
▁prohib	-4702
rid	-4703
mer	-4704
▁saying	-4705
▁subsidiaries	-4706
▁resistance	-4707
▁recognition	-4708
▁tight	-4709
▁conventional	-4710
cm	-4711
▁connections	-4712
sui	-4713
▁robot	-4714
▁magnetic	-4715
▁philosoph	-4716
▁kids	-4717
▁developers	-4718
▁wiki	-4719
▁brit	-4720
▁thor	-4721
▁ko	-4722
pers	-4723
▁tourist	-4724
▁channels	-4725
▁priority	-4726
▁vulner	-4727
▁iron	-4728
▁brows	-4729
ibly	-4730
▁parameter	-4731
▁【	-4732
▁emot	-4733
▁sections	-4734
▁girls	-4735
ym	-4736
click	-4737
aker	-4738
▁smaller	-4739
▁flat	-4740
▁fold	-4741
aled	-4742
▁molec	-4743
▁commitment	-4744
▁clar	-4745
ards	-4746
▁capable	-4747
▁frag	-4748
▁span	-4749
cs	-4750
▁bes	-4751
▁factor	-4752
▁tail	-4753
ondon	-4754
▁highlight	-4755
▁seminar	-4756
▁relatively	-4757
▁passeng	-4758
▁ii	-4759
lymp	-4760
level	-4761
▁fra	-4762
▁alliance	-4763
▁generate	-4764
▁paral	-4765
▁proc	-4766
▁canada	-4767
bum	-4768
▁usual	-4769
▁unlike	-4770
▁addresses	-4771
▁clicking	-4772
▁calendar	-4773
mar	-4774
▁proxy	-4775
▁interior	-4776
▁definitely	-4777
▁managing	-4778
▁environments	-4779
▁pregn	-4780
▁clinical	-4781
▁okinawa	-4782
▁banks	-4783
rael	-4784
iest	-4785
▁ali	-4786
▁certification	-4787
▁designs	-4788
▁accommodation	-4789
▁decisions	-4790
▁noise	-4791
▁journal	-4792
▁castle	-4793
▁cookie	-4794
▁entertainment	-4795
bl	-4796
▁ign	-4797
▁housing	-4798
▁aspects	-4799
▁scheduled	-4800
▁joh	-4801
▁planned	-4802
ivered	-4803
hand	-4804
▁cancell	-4805
▁consists	-4806
▁theater	-4807
▁comply	-4808
note	-4809
▁contained	-4810
▁chosen	-4811
▁cd	-4812
▁expressed	-4813
▁household	-4814
▁productivity	-4815
▁displays	-4816
erce	-4817
▁tried	-4818
▁olymp	-4819
▁raise	-4820
▁universal	-4821
▁repro	-4822
▁couple	-4823
quar	-4824
▁indicated	-4825
▁senior	-4826
▁cryst	-4827
▁score	-4828
▁seconds	-4829
▁typical	-4830
▁vessel	-4831
▁cher	-4832
▁subsequ	-4833
▁structures	-4834
▁sides	-4835
▁faith	-4836
▁attached	-4837
▁container	-4838
▁lighting	-4839
▁poor	-4840
▁london	-4841
▁expanding	-4842
lain	-4843
▁sweet	-4844
▁classic	-4845
▁apartment	-4846
▁rental	-4847
▁ahead	-4848
reed	-4849
▁consumers	-4850
▁truth	-4851
▁electrical	-4852
rete	-4853
uchi	-4854
▁lifest	-4855
▁lose	-4856
▁widely	-4857
▁delivered	-4858
▁proposed	-4859
rs	-4860
▁eco	-4861
▁fulfill	-4862
▁turns	-4863
▁resort	-4864
▁governments	-4865
bles	-4866
▁inj	-4867
▁chap	-4868
▁crisis	-4869
▁psych	-4870
▁communicate	-4871
▁israel	-4872
▁cyc	-4873
▁referred	-4874
▁vib	-4875
▁yellow	-4876
enty	-4877
▁holiday	-4878
ios	-4879
▁desire	-4880
▁kitchen	-4881
▁spent	-4882
▁investments	-4883
▁alternative	-4884
ervations	-4885
▁signs	-4886
▁visible	-4887
gle	-4888
▁stead	-4889
▁monetary	-4890
▁payments	-4891
▁publish	-4892
▁earnings	-4893
iced	-4894
▁increasingly	-4895
acks	-4896
▁entrance	-4897
▁processed	-4898
▁race	-4899
spec	-4900
▁compatible	-4901
eda	-4902
▁discussions	-4903
▁dv	-4904
▁thorough	-4905
▁gets	-4906
▁annivers	-4907
▁expensive	-4908
▁compensation	-4909
iff	-4910
▁leads	-4911
▁detection	-4912
▁waiting	-4913
ulating	-4914
sa	-4915
list	-4916
apping	-4917
▁walking	-4918
▁houses	-4919
▁die	-4920
▁letter	-4921
andom	-4922
▁navigation	-4923
olf	-4924
oles	-4925
▁phenomen	-4926
ishes	-4927
▁venue	-4928
▁analyz	-4929
▁notification	-4930
▁journey	-4931
▁advertise	-4932
▁infection	-4933
iger	-4934
▁noted	-4935
▁delay	-4936
▁lik	-4937
outh	-4938
▁friendly	-4939
▁stim	-4940
▁wonderful	-4941
▁italy	-4942
asaki	-4943
arian	-4944
▁setup	-4945
▁editing	-4946
alled	-4947
▁sak	-4948
body	-4949
▁officer	-4950
umi	-4951
vpn	-4952
▁bang	-4953
▁applying	-4954
roud	-4955
▁blu	-4956
ida	-4957
▁fing	-4958
▁confirmed	-4959
▁portfol	-4960
▁controls	-4961
ray	-4962
col	-4963
oya	-4964
inct	-4965
▁absor	-4966
▁instant	-4967
▁>	-4968
▁discussed	-4969
▁logo	-4970
▁horizon	-4971
iba	-4972
omb	-4973
▁selecting	-4974
▁extent	-4975
▁mos	-4976
▁mouse	-4977
equ	-4978
page	-4979
▁alloc	-4980
▁salt	-4981
▁printing	-4982
connect	-4983
▁destro	-4984
▁severe	-4985
▁oppos	-4986
▁ceo	-4987
asa	-4988
luded	-4989
abling	-4990
▁campus	-4991
▁youth	-4992
▁acquired	-4993
▁substances	-4994
▁laptop	-4995
▁vacc	-4996
eth	-4997
▁ana	-4998
itsu	-4999
▁disabled	-5000
mod	-5001
▁anniversary	-5002
while	-5003
rome	-5004
▁organized	-5005
odies	-5006
▁cultiv	-5007
▁tickets	-5008
ugh	-5009
▁concert	-5010
▁poll	-5011
unk	-5012
▁freed	-5013
▁mini	-5014
▁dog	-5015
▁containing	-5016
inder	-5017
bre	-5018
▁concerns	-5019
irt	-5020
▁continuous	-5021
▁tube	-5022
▁films	-5023
▁stories	-5024
ops	-5025
▁remaining	-5026
▁operational	-5027
made	-5028
▁truly	-5029
▁intelligence	-5030
▁surrounding	-5031
▁withdraw	-5032
jp	-5033
▁centers	-5034
liers	-5035
▁instrument	-5036
▁pret	-5037
▁issn	-5038
▁label	-5039
▁functional	-5040
▁az	-5041
unes	-5042
▁selling	-5043
▁joined	-5044
▁speech	-5045
▁hokkaido	-5046
▁leadership	-5047
▁edition	-5048
▁ot	-5049
▁km	-5050
▁fear	-5051
vious	-5052
▁pole	-5053
aceut	-5054
phones	-5055
▁typically	-5056
▁approval	-5057
▁maintaining	-5058
sed	-5059
istan	-5060
▁transition	-5061
▁creates	-5062
ov	-5063
▁marri	-5064
▁older	-5065
▁route	-5066
▁sending	-5067
▁marine	-5068
▁species	-5069
aceutical	-5070
host	-5071
▁sounds	-5072
▁brother	-5073
irus	-5074
▁illust	-5075
rect	-5076
▁jewel	-5077
▁tok	-5078
▁outstanding	-5079
▁mand	-5080
▁eight	-5081
▁concerned	-5082
▁upgrade	-5083
▁ensuring	-5084
▁wi	-5085
▁showing	-5086
▁differ	-5087
▁additionally	-5088
▁philosophy	-5089
iture	-5090
▁animal	-5091
rd	-5092
ultane	-5093
coming	-5094
bt	-5095
▁formation	-5096
▁primarily	-5097
▁herit	-5098
▁peak	-5099
att	-5100
▁calls	-5101
▁fraud	-5102
▁theory	-5103
▁purchased	-5104
style	-5105
▁equival	-5106
▁sensor	-5107
▁advantages	-5108
▁templates	-5109
▁choosing	-5110
▁vary	-5111
ails	-5112
▁assembly	-5113
▁conservation	-5114
▁identity	-5115
▁restrictions	-5116
▁push	-5117
▁pip	-5118
▁circuit	-5119
▁satellite	-5120
▁amazing	-5121
▁entering	-5122
iration	-5123
▁administrative	-5124
▁begins	-5125
▁rou	-5126
▁champ	-5127
ading	-5128
▁developer	-5129
▁usa	-5130
▁clock	-5131
▁humans	-5132
▁scheme	-5133
▁simultane	-5134
▁agencies	-5135
▁organic	-5136
pat	-5137
▁ram	-5138
▁wants	-5139
▁valuable	-5140
%.	-5141
▁philipp	-5142
▁regularly	-5143
▁sharp	-5144
▁acquire	-5145
▁tourists	-5146
▁oblig	-5147
▁opinion	-5148
▁expectations	-5149
▁walls	-5150
▁recru	-5151
▁expos	-5152
▁jobs	-5153
▁optical	-5154
▁filled	-5155
▁distributed	-5156
▁ntt	-5157
▁kept	-5158
▁teachers	-5159
lets	-5160
fast	-5161
▁observed	-5162
▁acid	-5163
▁sole	-5164
▁inspection	-5165
▁adapt	-5166
sole	-5167
▁ht	-5168
▁mitsui	-5169
▁officers	-5170
▁sau	-5171
▁chief	-5172
▁isn	-5173
▁equal	-5174
▁temporary	-5175
”,	-5176
▁breat	-5177
▁milk	-5178
isters	-5179
▁recei	-5180
▁dispos	-5181
▁guidance	-5182
wards	-5183
▁suppliers	-5184
▁asus	-5185
▁portfolio	-5186
▁talking	-5187
abil	-5188
agawa	-5189
▁contacts	-5190
uoka	-5191
▁approved	-5192
▁outdo	-5193
▁convenience	-5194
cp	-5195
▁occurred	-5196
▁mechanical	-5197
crib	-5198
▁stakeholders	-5199
▁capture	-5200
▁professionals	-5201
rics	-5202
▁vegetables	-5203
▁seeing	-5204
▁parking	-5205
▁decline	-5206
▁flights	-5207
▁virus	-5208
amic	-5209
▁figures	-5210
▁volunte	-5211
▁teaching	-5212
▁acts	-5213
▁painting	-5214
▁slo	-5215
▁seat	-5216
▁italian	-5217
▁democr	-5218
hou	-5219
▁founded	-5220
missions	-5221
▁reasonable	-5222
▁kil	-5223
▁detective	-5224
▁startup	-5225
▁eld	-5226
atalk	-5227
▁boost	-5228
▁rapidly	-5229
▁sin	-5230
▁submitted	-5231
▁layout	-5232
▁fer	-5233
▁strengthening	-5234
▁calculated	-5235
men	-5236
▁kim	-5237
▁thousands	-5238
och	-5239
▁agreed	-5240
▁boot	-5241
▁unable	-5242
urt	-5243
ography	-5244
▁fundamental	-5245
eline	-5246
ayama	-5247
▁permission	-5248
▁graphics	-5249
▁burn	-5250
▁cheap	-5251
▁precise	-5252
▁spots	-5253
▁compact	-5254
▁reliability	-5255
▁trig	-5256
friend	-5257
wing	-5258
▁conclusion	-5259
spe	-5260
▁reset	-5261
▁cu	-5262
▁helping	-5263
▁patterns	-5264
▁enforce	-5265
▁studying	-5266
▁holdings	-5267
▁nipp	-5268
▁automation	-5269
▁signed	-5270
▁amounts	-5271
▁schol	-5272
ional	-5273
▁indicate	-5274
paper	-5275
▁zetatalk	-5276
cript	-5277
▁happened	-5278
▁targets	-5279
lands	-5280
▁sugar	-5281
▁awards	-5282
▁extensive	-5283
▁heritage	-5284
▁replica	-5285
▁nan	-5286
▁supervisory	-5287
▁ring	-5288
▁statistics	-5289
▁recommendations	-5290
▁vice	-5291
▁hirosh	-5292
▁tend	-5293
ifier	-5294
▁estimated	-5295
▁opens	-5296
lin	-5297
akers	-5298
▁contrast	-5299
▁maxim	-5300
▁appeared	-5301
▁configured	-5302
▁royal	-5303
▁disas	-5304
▁respective	-5305
▁degrees	-5306
ague	-5307
▁ka	-5308
▁arab	-5309
▁cot	-5310
icial	-5311
▁nearly	-5312
▁tut	-5313
▁improvements	-5314
▁radiation	-5315
▁forth	-5316
▁pharmaceutical	-5317
▁worry	-5318
cd	-5319
▁extended	-5320
▁laser	-5321
▁hub	-5322
▁opinions	-5323
▁equity	-5324
▁ipad	-5325
sum	-5326
▁thermal	-5327
▁showed	-5328
chron	-5329
▁announcement	-5330
▁specialized	-5331
▁simulation	-5332
▁utility	-5333
▁islands	-5334
▁continuing	-5335
▁inquiries	-5336
▁tower	-5337
▁soil	-5338
▁divided	-5339
order	-5340
▁originally	-5341
▁miy	-5342
▁csr	-5343
▁decreased	-5344
▁weapons	-5345
▁subsidiary	-5346
fr	-5347
▁viewing	-5348
ograp	-5349
▁diversity	-5350
▁provisions	-5351
pm	-5352
▁aimed	-5353
▁indicates	-5354
emic	-5355
▁membership	-5356
▁sake	-5357
▁coupon	-5358
▁repeated	-5359
▁inquiry	-5360
water	-5361
▁ads	-5362
▁album	-5363
▁synthe	-5364
oda	-5365
▁exclusive	-5366
itsub	-5367
▁consc	-5368
essions	-5369
▁ending	-5370
ider	-5371
▁assigned	-5372
▁residence	-5373
▁northern	-5374
▁split	-5375
▁participated	-5376
▁anywhere	-5377
fall	-5378
▁native	-5379
▁ber	-5380
add	-5381
▁ric	-5382
▁niss	-5383
jo	-5384
▁careful	-5385
information	-5386
▁artific	-5387
arent	-5388
▁permanent	-5389
tok	-5390
▁distingu	-5391
▁kingdom	-5392
▁finding	-5393
sue	-5394
▁normally	-5395
▁visa	-5396
vest	-5397
▁pure	-5398
▁aw	-5399
▁tracking	-5400
▁restart	-5401
▁pm	-5402
▁tableau	-5403
▁tempor	-5404
iji	-5405
▁greatly	-5406
pace	-5407
▁pair	-5408
can	-5409
▁clothes	-5410
▁fan	-5411
▁controlled	-5412
install	-5413
▁evening	-5414
▁revolution	-5415
▁necessarily	-5416
▁scal	-5417
▁focusing	-5418
▁concrete	-5419
▁keeping	-5420
▁exhibitions	-5421
▁availability	-5422
writ	-5423
▁hyper	-5424
▁treated	-5425
▁malays	-5426
▁definition	-5427
▁casino	-5428
ql	-5429
▁looked	-5430
▁debt	-5431
zen	-5432
▁expanded	-5433
lation	-5434
▁complain	-5435
ieties	-5436
▁participating	-5437
▁rein	-5438
itsubishi	-5439
entially	-5440
▁saving	-5441
▁majority	-5442
gal	-5443
bed	-5444
▁keys	-5445
exec	-5446
▁enabling	-5447
▁watching	-5448
▁examination	-5449
▁spaces	-5450
▁lad	-5451
▁wife	-5452
▁certainly	-5453
▁healthcare	-5454
onal	-5455
default	-5456
▁shell	-5457
▁firms	-5458
but	-5459
▁maps	-5460
aya	-5461
uo	-5462
▁conducting	-5463
▁obvious	-5464
pdf	-5465
▁syntax	-5466
▁butt	-5467
such	-5468
ateral	-5469
?"	-5470
▁investigation	-5471
▁helpful	-5472
▁circle	-5473
▁apparent	-5474
▁flag	-5475
▁occasion	-5476
japanese	-5477
▁emails	-5478
▁silver	-5479
▁permitted	-5480
▁consulting	-5481
▁mad	-5482
▁everyday	-5483
▁alumin	-5484
▁stars	-5485
▁transferred	-5486
erly	-5487
erves	-5488
▁police	-5489
making	-5490
▁destroy	-5491
▁procure	-5492
▁fal	-5493
▁chron	-5494
▁hd	-5495
requ	-5496
▁achieving	-5497
▁rent	-5498
▁fans	-5499
car	-5500
▁competitive	-5501
▁moist	-5502
▁flows	-5503
▁magazine	-5504
mes	-5505
▁mun	-5506
▁pump	-5507
▁strongly	-5508
organ	-5509
▁utilizing	-5510
▁ham	-5511
▁logistics	-5512
▁raised	-5513
▁implementing	-5514
▁technological	-5515
▁specifications	-5516
inding	-5517
▁completion	-5518
date	-5519
grad	-5520
▁foods	-5521
▁analyze	-5522
▁succeed	-5523
▁landscape	-5524
▁movements	-5525
rie	-5526
▁warrant	-5527
▁buddh	-5528
amoto	-5529
▁releases	-5530
▁autumn	-5531
▁interact	-5532
▁alt	-5533
▁identified	-5534
▁clus	-5535
▁ken	-5536
▁@	-5537
awai	-5538
son	-5539
etic	-5540
▁ven	-5541
▁positions	-5542
▁semicon	-5543
▁screens	-5544
abit	-5545
link	-5546
▁dur	-5547
anged	-5548
▁hosts	-5549
sen	-5550
▁satisfact	-5551
onom	-5552
▁biggest	-5553
▁conve	-5554
bur	-5555
ushi	-5556
▁branch	-5557
▁controller	-5558
▁throw	-5559
▁helped	-5560
▁adults	-5561
▁catalog	-5562
rations	-5563
▁onto	-5564
▁teacher	-5565
pie	-5566
▁ze	-5567
▁continuously	-5568
▁han	-5569
▁runs	-5570
▁quiet	-5571
▁fukushima	-5572
▁realized	-5573
▁effectiveness	-5574
▁answers	-5575
▁relative	-5576
▁closely	-5577
▁twe	-5578
▁solving	-5579
▁fant	-5580
▁borrow	-5581
▁optimal	-5582
▁semiconduct	-5583
▁jewelry	-5584
▁packaging	-5585
▁conflict	-5586
▁reception	-5587
▁sexual	-5588
▁preferences	-5589
rene	-5590
▁exchanges	-5591
▁orient	-5592
▁reply	-5593
apes	-5594
▁outline	-5595
▁aircraft	-5596
▁discovered	-5597
▁remark	-5598
▁battle	-5599
▁expressvpn	-5600
▁hide	-5601
▁transformation	-5602
▁iso	-5603
▁lifestyle	-5604
▁corrupt	-5605
▁serving	-5606
▁relating	-5607
cre	-5608
▁mt	-5609
chain	-5610
▁criteria	-5611
▁hus	-5612
urally	-5613
▁confidence	-5614
▁sauce	-5615
▁vert	-5616
▁strive	-5617
▁substant	-5618
▁therapy	-5619
▁newsletter	-5620
▁refund	-5621
▁embedded	-5622
▁minor	-5623
▁emerging	-5624
licit	-5625
▁braz	-5626
▁freedom	-5627
▁diam	-5628
▁easiest	-5629
▁sessions	-5630
▁southern	-5631
▁ry	-5632
▁unfortun	-5633
▁universe	-5634
from	-5635
▁calif	-5636
▁je	-5637
▁inventory	-5638
ruption	-5639
▁developments	-5640
nes	-5641
▁wheel	-5642
▁eleg	-5643
▁buff	-5644
▁ol	-5645
▁invited	-5646
ohama	-5647
▁comparison	-5648
hot	-5649
▁automob	-5650
▁objective	-5651
▁diss	-5652
ani	-5653
▁ha	-5654
▁represents	-5655
▁nearby	-5656
▁dram	-5657
amin	-5658
▁novel	-5659
▁assume	-5660
▁claims	-5661
▁cache	-5662
▁electro	-5663
▁brings	-5664
▁jack	-5665
▁luck	-5666
faces	-5667
▁explanation	-5668
▁wil	-5669
▁sam	-5670
▁talent	-5671
▁agricultural	-5672
▁pandora	-5673
antic	-5674
▁roles	-5675
▁leaving	-5676
▁artificial	-5677
sl	-5678
▁imper	-5679
▁treas	-5680
▁protein	-5681
vent	-5682
▁chips	-5683
▁wifi	-5684
▁wash	-5685
▁speaking	-5686
▁john	-5687
gage	-5688
▁performances	-5689
▁dust	-5690
▁pretty	-5691
▁rose	-5692
enn	-5693
▁ox	-5694
umes	-5695
elling	-5696
▁facing	-5697
▁territ	-5698
▁entity	-5699
▁compress	-5700
▁mur	-5701
▁hun	-5702
▁contracts	-5703
▁theat	-5704
▁align	-5705
▁victim	-5706
ornia	-5707
ogen	-5708
▁neighbor	-5709
▁operator	-5710
▁confirmation	-5711
▁photographs	-5712
▁contest	-5713
▁empt	-5714
▁whom	-5715
know	-5716
▁lessons	-5717
▁loans	-5718
▁passion	-5719
▁cabin	-5720
iated	-5721
▁hill	-5722
▁undert	-5723
▁itunes	-5724
▁arm	-5725
▁standing	-5726
▁suddenly	-5727
▁representatives	-5728
▁eliminate	-5729
▁enterprises	-5730
db	-5731
▁html	-5732
▁neut	-5733
▁produ	-5734
▁telephone	-5735
▁certified	-5736
▁jump	-5737
▁amazon	-5738
▁lunch	-5739
▁profits	-5740
bi	-5741
sis	-5742
ker	-5743
▁separately	-5744
▁browse	-5745
ket	-5746
▁thereby	-5747
cut	-5748
▁mitsubishi	-5749
heast	-5750
▁bay	-5751
▁cuis	-5752
▁nippon	-5753
uku	-5754
▁programming	-5755
▁stages	-5756
▁evol	-5757
▁node	-5758
▁kobe	-5759
▁defense	-5760
▁mexic	-5761
▁renewable	-5762
▁mouth	-5763
▁christian	-5764
▁linux	-5765
▁indeed	-5766
▁merg	-5767
▁dash	-5768
▁equivalent	-5769
imet	-5770
▁applies	-5771
▁lan	-5772
aint	-5773
print	-5774
▁involve	-5775
▁observation	-5776
la	-5777
▁org	-5778
▁precision	-5779
▁cp	-5780
▁plays	-5781
▁joy	-5782
inery	-5783
▁california	-5784
▁hal	-5785
▁sumit	-5786
direct	-5787
ago	-5788
plug	-5789
nucle	-5790
▁photography	-5791
▁cameras	-5792
▁licens	-5793
▁accordingly	-5794
▁monthly	-5795
ours	-5796
▁execute	-5797
pret	-5798
▁catch	-5799
▁•	-5800
▁eating	-5801
orders	-5802
▁designer	-5803
▁losses	-5804
oro	-5805
▁dangerous	-5806
▁narrow	-5807
bank	-5808
commun	-5809
▁agriculture	-5810
wind	-5811
▁carrying	-5812
▁contributing	-5813
▁county	-5814
▁forg	-5815
▁hen	-5816
▁incom	-5817
▁sympos	-5818
ito	-5819
▁missing	-5820
▁galax	-5821
▁chick	-5822
▁leak	-5823
ias	-5824
▁ongoing	-5825
▁chapter	-5826
▁bonds	-5827
▁inner	-5828
fc	-5829
▁temporarily	-5830
▁reaction	-5831
▁feat	-5832
chi	-5833
▁mutual	-5834
▁liability	-5835
▁et	-5836
▁repeat	-5837
ador	-5838
▁attacks	-5839
▁bear	-5840
▁sumitomo	-5841
▁closer	-5842
▁dro	-5843
▁banking	-5844
▁yuan	-5845
▁extend	-5846
▁satur	-5847
▁absolutely	-5848
▁magic	-5849
▁skip	-5850
▁depth	-5851
▁perfectly	-5852
▁console	-5853
tered	-5854
osystem	-5855
oking	-5856
king	-5857
▁administrator	-5858
▁enjoyed	-5859
▁fif	-5860
under	-5861
▁dinner	-5862
▁alert	-5863
▁legit	-5864
▁utilization	-5865
▁coal	-5866
▁aluminum	-5867
isco	-5868
▁portion	-5869
▁feet	-5870
▁chemicals	-5871
▁aid	-5872
▁anticip	-5873
etooth	-5874
▁supplement	-5875
▁outdoor	-5876
▁pix	-5877
▁ax	-5878
▁besides	-5879
▁summit	-5880
▁economies	-5881
▁cherry	-5882
rise	-5883
▁redirect	-5884
▁advent	-5885
holder	-5886
▁pil	-5887
▁motiv	-5888
aped	-5889
▁scientists	-5890
▁repos	-5891
▁cms	-5892
coin	-5893
▁verification	-5894
▁tog	-5895
▁enhanced	-5896
▁turning	-5897
lude	-5898
▁wooden	-5899
▁procurement	-5900
build	-5901
▁discovery	-5902
▁invite	-5903
▁owned	-5904
▁tsu	-5905
▁spanish	-5906
▁ride	-5907
edia	-5908
▁sensitive	-5909
▁resolve	-5910
▁interaction	-5911
▁regulatory	-5912
▁brazil	-5913
▁thoughts	-5914
fit	-5915
▁glue	-5916
eries	-5917
▁motion	-5918
▁soph	-5919
▁tech	-5920
▁athe	-5921
▁gent	-5922
▁sport	-5923
▁automated	-5924
▁yokohama	-5925
▁recycling	-5926
▁scr	-5927
▁holds	-5928
▁maybe	-5929
otic	-5930
▁ends	-5931
▁accessories	-5932
▁steam	-5933
▁quantity	-5934
▁tosh	-5935
▁cer	-5936
igate	-5937
▁dollar	-5938
onym	-5939
▁pp	-5940
▁pull	-5941
▁preparing	-5942
▁conversation	-5943
▁appli	-5944
▁fro	-5945
▁sequence	-5946
▁shan	-5947
▁wra	-5948
▁disclose	-5949
▁forced	-5950
▁bluetooth	-5951
sd	-5952
▁golf	-5953
▁entries	-5954
▁mold	-5955
▁argument	-5956
▁suite	-5957
▁samples	-5958
▁swim	-5959
▁formats	-5960
zy	-5961
▁malaysia	-5962
▁mathe	-5963
▁asp	-5964
▁calculation	-5965
▁sizes	-5966
▁arrow	-5967
▁tables	-5968
▁exposure	-5969
▁coordin	-5970
acle	-5971
▁scenery	-5972
dri	-5973
▁loved	-5974
ira	-5975
▁none	-5976
▁exciting	-5977
wall	-5978
emed	-5979
▁sensors	-5980
▁studied	-5981
▁hydrogen	-5982
▁keyboard	-5983
▁py	-5984
▁unfortunately	-5985
")	-5986
▁tip	-5987
▁pus	-5988
▁coron	-5989
friendly	-5990
▁kam	-5991
▁synchron	-5992
roph	-5993
▁sac	-5994
▁cyber	-5995
▁entirely	-5996
▁officials	-5997
▁dialogue	-5998
rooms	-5999
▁loan	-6000
she	-6001
▁british	-6002
▁agreements	-6003
▁bodies	-6004
▁accessible	-6005
▁attended	-6006
athe	-6007
▁row	-6008
step	-6009
▁consistent	-6010
▁establishing	-6011
quarters	-6012
▁shot	-6013
▁bringing	-6014
▁width	-6015
▁producing	-6016
▁symposium	-6017
▁possibilities	-6018
▁refr	-6019
▁cuisine	-6020
▁compound	-6021
▁nagoya	-6022
▁tank	-6023
▁duties	-6024
▁ease	-6025
▁beer	-6026
▁shad	-6027
▁preced	-6028
▁prescrib	-6029
▁lesson	-6030
▁climb	-6031
▁kill	-6032
life	-6033
▁relation	-6034
when	-6035
▁african	-6036
▁minute	-6037
▁manif	-6038
▁buying	-6039
▁dre	-6040
please	-6041
▁elementary	-6042
▁ecosystem	-6043
iplom	-6044
▁introducing	-6045
yn	-6046
▁attractive	-6047
▁kid	-6048
▁conscious	-6049
▁operated	-6050
▁breakfast	-6051
▁furniture	-6052
▁crystal	-6053
▁marked	-6054
▁drives	-6055
%,	-6056
▁newest	-6057
▁packages	-6058
▁transparent	-6059
▁agents	-6060
▁bought	-6061
ijing	-6062
encing	-6063
▁animation	-6064
▁wealth	-6065
▁machinery	-6066
greg	-6067
▁dollars	-6068
▁oh	-6069
▁verify	-6070
▁guard	-6071
▁angel	-6072
rition	-6073
▁fourth	-6074
olit	-6075
▁husband	-6076
▁hang	-6077
▁deposit	-6078
▁simultaneously	-6079
▁recipe	-6080
▁pit	-6081
▁incorrect	-6082
▁sum	-6083
ads	-6084
▁kaw	-6085
▁).	-6086
▁paralle	-6087
stream	-6088
fir	-6089
▁serves	-6090
ifies	-6091
uma	-6092
win	-6093
isp	-6094
▁structural	-6095
▁taxes	-6096
▁tracks	-6097
▁heating	-6098
▁respectively	-6099
▁fishing	-6100
▁damages	-6101
▁utilize	-6102
▁limits	-6103
root	-6104
kb	-6105
▁diplom	-6106
▁disasters	-6107
▁consultation	-6108
▁heaven	-6109
▁firmware	-6110
▁sectors	-6111
▁broken	-6112
ull	-6113
▁pursue	-6114
▁television	-6115
▁reserve	-6116
▁layers	-6117
▁skill	-6118
▁wet	-6119
▁aer	-6120
iter	-6121
works	-6122
▁philippines	-6123
▁checking	-6124
▁nov	-6125
▁caf	-6126
▁strug	-6127
▁pleasant	-6128
▁complicated	-6129
zer	-6130
▁shoes	-6131
▁om	-6132
▁dav	-6133
▁pun	-6134
▁pricing	-6135
▁clothing	-6136
rif	-6137
▁perce	-6138
▁movies	-6139
▁sony	-6140
▁naturally	-6141
▁coating	-6142
▁financing	-6143
▁rising	-6144
ushu	-6145
cr	-6146
▁toh	-6147
▁funding	-6148
uri	-6149
ascript	-6150
▁fruits	-6151
site	-6152
▁proposal	-6153
icious	-6154
▁meanwhile	-6155
ishing	-6156
chest	-6157
▁eventually	-6158
▁hawai	-6159
▁translated	-6160
▁adjustment	-6161
▁imagine	-6162
▁trademarks	-6163
▁algorithm	-6164
▁buttons	-6165
real	-6166
▁strictly	-6167
▁ware	-6168
▁incident	-6169
▁mixed	-6170
▁?	-6171
▁encryption	-6172
▁aiming	-6173
▁letters	-6174
▁eastern	-6175
▁afford	-6176
isation	-6177
▁flood	-6178
▁mechanisms	-6179
orter	-6180
▁ssl	-6181
▁rely	-6182
▁tender	-6183
▁bio	-6184
▁demands	-6185
▁nissan	-6186
▁edo	-6187
▁encoun	-6188
atever	-6189
▁uncertain	-6190
▁operators	-6191
▁elig	-6192
▁shim	-6193
▁facilitate	-6194
▁holidays	-6195
▁satisfaction	-6196
called	-6197
▁designers	-6198
card	-6199
▁lots	-6200
▁iw	-6201
▁disable	-6202
▁ji	-6203
▁photograp	-6204
▁portal	-6205
▁wit	-6206
ocks	-6207
▁knows	-6208
▁fluct	-6209
▁flexibility	-6210
▁covers	-6211
▁rating	-6212
▁accompl	-6213
▁astron	-6214
▁regulation	-6215
ado	-6216
▁assistant	-6217
▁signals	-6218
▁iran	-6219
iya	-6220
▁ath	-6221
▁interpret	-6222
▁percentage	-6223
▁evolution	-6224
otes	-6225
▁unus	-6226
▁beijing	-6227
▁knew	-6228
wood	-6229
▁stret	-6230
▁luxury	-6231
speed	-6232
▁bid	-6233
ette	-6234
itory	-6235
▁arbitration	-6236
▁brown	-6237
sour	-6238
hz	-6239
▁listening	-6240
▁iot	-6241
▁elderly	-6242
▁forecasts	-6243
▁capability	-6244
▁empty	-6245
▁chairman	-6246
▁remained	-6247
▁chocol	-6248
▁fost	-6249
▁bloss	-6250
▁ped	-6251
▁retrie	-6252
▁independently	-6253
▁massive	-6254
▁atomic	-6255
▁los	-6256
▁ille	-6257
▁fujitsu	-6258
▁combine	-6259
▁grown	-6260
eping	-6261
▁bact	-6262
ils	-6263
▁songs	-6264
▁yosh	-6265
gent	-6266
▁na	-6267
▁array	-6268
▁mask	-6269
▁warning	-6270
▁nine	-6271
fu	-6272
nucleus	-6273
▁measured	-6274
case	-6275
▁superior	-6276
▁cruc	-6277
▁blocks	-6278
▁province	-6279
▁prospect	-6280
▁hospit	-6281
▁soul	-6282
▁sor	-6283
fa	-6284
▁pour	-6285
▁specialist	-6286
▁angle	-6287
▁manifest	-6288
▁tours	-6289
usa	-6290
▁legitimate	-6291
lights	-6292
gl	-6293
▁globally	-6294
hu	-6295
▁duration	-6296
vendor	-6297
▁mental	-6298
▁arrived	-6299
▁gender	-6300
▁pu	-6301
▁embass	-6302
ius	-6303
urb	-6304
▁golden	-6305
▁ambass	-6306
▁appreciate	-6307
▁hiroshima	-6308
▁manip	-6309
tm	-6310
▁loop	-6311
▁elev	-6312
▁distinct	-6313
▁awarded	-6314
▁modify	-6315
izer	-6316
rad	-6317
▁scripts	-6318
▁filters	-6319
▁transmit	-6320
▁tutorial	-6321
agi	-6322
ghai	-6323
▁shif	-6324
▁ultra	-6325
communic	-6326
▁ourselves	-6327
▁featuring	-6328
▁waves	-6329
▁hundreds	-6330
▁mu	-6331
▁contributed	-6332
ameter	-6333
▁opposite	-6334
▁customize	-6335
▁amend	-6336
▁incred	-6337
▁mine	-6338
▁lived	-6339
▁und	-6340
▁od	-6341
▁fly	-6342
▁believed	-6343
▁tablet	-6344
▁abst	-6345
▁putting	-6346
▁stations	-6347
▁creat	-6348
atoes	-6349
▁objectives	-6350
▁false	-6351
▁granted	-6352
▁modified	-6353
▁periods	-6354
▁mes	-6355
▁dates	-6356
▁mathemat	-6357
▁parallel	-6358
xture	-6359
▁contributions	-6360
▁shock	-6361
▁density	-6362
▁leather	-6363
▁rough	-6364
▁rig	-6365
htaccess	-6366
front	-6367
▁sams	-6368
▁prohibited	-6369
▁honor	-6370
▁crimin	-6371
inafter	-6372
▁indian	-6373
uten	-6374
▁whatever	-6375
▁kur	-6376
esc	-6377
long	-6378
▁nutrition	-6379
==	-6380
▁zetas	-6381
rote	-6382
▁bond	-6383
▁voc	-6384
▁reput	-6385
▁venture	-6386
▁unknown	-6387
▁frid	-6388
▁supplier	-6389
▁trail	-6390
▁encoding	-6391
ria	-6392
brid	-6393
▁recruit	-6394
▁downloaded	-6395
▁pregnancy	-6396
▁fiber	-6397
▁stopped	-6398
▁compare	-6399
▁evaluate	-6400
▁jur	-6401
▁passing	-6402
▁pill	-6403
uke	-6404
▁gap	-6405
▁troubles	-6406
▁male	-6407
▁latter	-6408
▁replaced	-6409
▁headquarters	-6410
▁trouble	-6411
tp	-6412
▁accelerate	-6413
▁managers	-6414
▁kaz	-6415
▁exists	-6416
charge	-6417
▁liabilities	-6418
▁subsequent	-6419
▁hyp	-6420
▁cosmet	-6421
ean	-6422
stood	-6423
▁purchasing	-6424
▁explicit	-6425
myapplication	-6426
▁programvendor	-6427
▁dropbox	-6428
▁approaches	-6429
▁atheros	-6430
ographic	-6431
▁query	-6432
edge	-6433
▁spain	-6434
apped	-6435
▁checked	-6436
▁removal	-6437
▁boat	-6438
▁timely	-6439
▁acknow	-6440
▁ib	-6441
▁bread	-6442
▁reconst	-6443
▁hosting	-6444
▁scholar	-6445
▁adequ	-6446
oul	-6447
▁printed	-6448
pal	-6449
▁pandemic	-6450
▁guides	-6451
▁inject	-6452
ju	-6453
▁porn	-6454
▁cluster	-6455
▁isol	-6456
▁newer	-6457
▁twice	-6458
▁vast	-6459
▁seam	-6460
▁seeking	-6461
▁existence	-6462
laim	-6463
▁ski	-6464
▁folders	-6465
▁feelings	-6466
▁refers	-6467
▁declar	-6468
▁enforcement	-6469
▁hung	-6470
▁random	-6471
▁enroll	-6472
itis	-6473
▁signature	-6474
▁kar	-6475
▁blockchain	-6476
▁impression	-6477
▁efficiently	-6478
▁bitcoin	-6479
▁barri	-6480
ilateral	-6481
iversity	-6482
▁mexico	-6483
▁mart	-6484
seeing	-6485
path	-6486
▁elegant	-6487
search	-6488
iding	-6489
▁instruction	-6490
▁trib	-6491
▁fuji	-6492
▁arrival	-6493
user	-6494
▁logs	-6495
▁proport	-6496
ulpt	-6497
▁neck	-6498
eding	-6499
▁border	-6500
▁exit	-6501
aga	-6502
▁printer	-6503
▁responses	-6504
▁fell	-6505
▁notices	-6506
pet	-6507
▁secondary	-6508
▁communist	-6509
▁phones	-6510
sk	-6511
▁observe	-6512
”)	-6513
▁computing	-6514
▁vital	-6515
ario	-6516
▁auth	-6517
▁merch	-6518
owned	-6519
▁samsung	-6520
▁cin	-6521
▁causing	-6522
▁smell	-6523
cond	-6524
sub	-6525
guard	-6526
▁lies	-6527
▁suexec	-6528
▁welf	-6529
onds	-6530
▁cham	-6531
▁hole	-6532
▁styles	-6533
▁targeted	-6534
▁trump	-6535
▁attractions	-6536
▁pleasure	-6537
▁sapp	-6538
▁vessels	-6539
▁roof	-6540
▁welfare	-6541
▁dai	-6542
▁surg	-6543
▁specification	-6544
▁zo	-6545
▁repository	-6546
▁describe	-6547
▁processor	-6548
▁deployment	-6549
▁reaches	-6550
▁fellow	-6551
▁admission	-6552
▁nik	-6553
▁abund	-6554
▁charged	-6555
▁interactive	-6556
▁enhancing	-6557
uge	-6558
▁academy	-6559
▁refriger	-6560
▁deemed	-6561
▁featured	-6562
▁achievements	-6563
▁matches	-6564
▁sculpt	-6565
▁compatibility	-6566
ride	-6567
▁loaded	-6568
▁friday	-6569
▁workflow	-6570
▁confidential	-6571
▁departments	-6572
▁mirror	-6573
▁terror	-6574
▁juice	-6575
▁gone	-6576
▁maintained	-6577
▁fle	-6578
▁junior	-6579
current	-6580
▁difficulties	-6581
▁bure	-6582
▁horse	-6583
▁achievement	-6584
▁slowly	-6585
▁indo	-6586
▁visits	-6587
▁temperatures	-6588
▁falls	-6589
▁stain	-6590
onic	-6591
▁gentle	-6592
▁appointed	-6593
▁intr	-6594
▁transparency	-6595
ifiers	-6596
▁archive	-6597
▁programme	-6598
▁semiconductor	-6599
()	-6600
▁stip	-6601
asonic	-6602
trans	-6603
▁insights	-6604
▁revised	-6605
▁homes	-6606
▁gained	-6607
▁measuring	-6608
▁font	-6609
▁meal	-6610
▁subjects	-6611
▁combining	-6612
mental	-6613
▁render	-6614
▁lights	-6615
▁manus	-6616
▁loading	-6617
▁shanghai	-6618
▁revision	-6619
pc	-6620
▁hat	-6621
ione	-6622
▁bags	-6623
▁negoti	-6624
▁describes	-6625
▁tohoku	-6626
▁scenes	-6627
▁engagement	-6628
▁manuscript	-6629
▁※	-6630
han	-6631
▁truck	-6632
▁relief	-6633
▁failed	-6634
▁spo	-6635
eless	-6636
▁physics	-6637
▁nurs	-6638
ras	-6639
▁publications	-6640
▁supplies	-6641
▁analog	-6642
▁encrypt	-6643
▁closing	-6644
▁inspired	-6645
▁chocolate	-6646
▁ny	-6647
▁smartphones	-6648
▁posts	-6649
izu	-6650
▁gree	-6651
▁hur	-6652
gb	-6653
▁viewed	-6654
__	-6655
▁cancellation	-6656
▁fukuoka	-6657
▁tsun	-6658
imination	-6659
▁blow	-6660
▁warming	-6661
▁themes	-6662
▁revealed	-6663
▁abstract	-6664
abet	-6665
▁chicken	-6666
▁drinking	-6667
▁reduces	-6668
▁digest	-6669
author	-6670
▁inn	-6671
▁pace	-6672
▁grid	-6673
▁powder	-6674
▁traveling	-6675
▁matching	-6676
▁initially	-6677
▁aggreg	-6678
▁rubber	-6679
ey	-6680
▁obligations	-6681
▁thoroughly	-6682
aea	-6683
elect	-6684
aughter	-6685
▁characteristic	-6686
▁gun	-6687
▁entities	-6688
▁valley	-6689
▁entit	-6690
▁stronger	-6691
ught	-6692
▁diameter	-6693
▁dining	-6694
asy	-6695
serv	-6696
▁specialists	-6697
▁proud	-6698
▁booth	-6699
pack	-6700
lor	-6701
fin	-6702
▁van	-6703
asp	-6704
▁!	-6705
▁workshops	-6706
ulator	-6707
▁screening	-6708
▁concentration	-6709
▁sophistic	-6710
▁died	-6711
▁legs	-6712
▁greatest	-6713
▁suggestions	-6714
▁dashboard	-6715
▁flavor	-6716
▁franc	-6717
▁understood	-6718
cers	-6719
iers	-6720
itative	-6721
▁behalf	-6722
▁sightseeing	-6723
▁boy	-6724
▁appeal	-6725
hus	-6726
oted	-6727
▁experiments	-6728
aven	-6729
which	-6730
ox	-6731
▁router	-6732
▁municip	-6733
▁moder	-6734
▁robust	-6735
▁("	-6736
▁wearing	-6737
▁basically	-6738
▁observ	-6739
▁corporations	-6740
▁deriv	-6741
ham	-6742
▁tags	-6743
anmar	-6744
▁candidates	-6745
sion	-6746
▁sheets	-6747
▁lectures	-6748
▁crop	-6749
▁reservations	-6750
▁isl	-6751
▁reject	-6752
▁exposed	-6753
▁asean	-6754
aught	-6755
▁adobe	-6756
▁javascript	-6757
mic	-6758
vol	-6759
▁indicators	-6760
▁giant	-6761
▁commands	-6762
▁travelers	-6763
▁experimental	-6764
▁subscribe	-6765
▁ran	-6766
▁doubt	-6767
ocur	-6768
▁meant	-6769
▁ps	-6770
▁embassy	-6771
rol	-6772
▁defect	-6773
▁spending	-6774
▁locate	-6775
▁hybrid	-6776
▁difficulty	-6777
▁stands	-6778
ono	-6779
▁optional	-6780
▁removing	-6781
▁seemed	-6782
▁haz	-6783
▁election	-6784
▁gear	-6785
jin	-6786
▁federal	-6787
bus	-6788
▁overcome	-6789
▁cock	-6790
▁sunday	-6791
▁assumed	-6792
▁mostly	-6793
▁mixture	-6794
▁southeast	-6795
▁paul	-6796
▁cheese	-6797
▁multip	-6798
▁freely	-6799
▁unlock	-6800
lc	-6801
▁deleg	-6802
▁immediate	-6803
▁intermedi	-6804
▁diagnosis	-6805
▁batteries	-6806
▁pink	-6807
▁presents	-6808
▁compr	-6809
▁whenever	-6810
▁drawn	-6811
▁convey	-6812
zo	-6813
▁olympic	-6814
well	-6815
▁cooling	-6816
▁calm	-6817
▁safely	-6818
▁judg	-6819
▁executed	-6820
▁ampl	-6821
▁reverse	-6822
▁keio	-6823
▁ranking	-6824
gid	-6825
▁binary	-6826
velop	-6827
aken	-6828
▁vertical	-6829
▁replacement	-6830
▁requirement	-6831
▁bush	-6832
▁concepts	-6833
va	-6834
▁cryptocur	-6835
▁trips	-6836
▁notebook	-6837
▁presentations	-6838
---	-6839
▁snap	-6840
▁riding	-6841
icks	-6842
▁tons	-6843
ighter	-6844
▁concluded	-6845
▁streaming	-6846
plugins	-6847
▁gro	-6848
▁lists	-6849
perform	-6850
dp	-6851
▁intention	-6852
▁hak	-6853
uating	-6854
▁tape	-6855
▁wedding	-6856
commerce	-6857
▁absence	-6858
expected	-6859
▁copper	-6860
xx	-6861
▁harvest	-6862
▁affects	-6863
▁everywhere	-6864
!"	-6865
orge	-6866
▁immig	-6867
idity	-6868
▁antib	-6869
rates	-6870
▁deeply	-6871
▁mining	-6872
▁willing	-6873
▁criminal	-6874
▁ment	-6875
▁operates	-6876
▁generations	-6877
▁tot	-6878
▁flor	-6879
▁declaration	-6880
▁biod	-6881
tech	-6882
▁pollution	-6883
bel	-6884
▁tweet	-6885
▁reflected	-6886
ris	-6887
▁possess	-6888
▁rak	-6889
raid	-6890
▁ambassador	-6891
▁streets	-6892
▁libr	-6893
▁charges	-6894
▁activate	-6895
avirus	-6896
▁disappear	-6897
▁~	-6898
▁connector	-6899
asts	-6900
▁warn	-6901
piece	-6902
▁detected	-6903
ounder	-6904
agues	-6905
▁illegal	-6906
▁wrote	-6907
▁satisfied	-6908
▁busy	-6909
▁unusual	-6910
▁alle	-6911
▁tra	-6912
fers	-6913
▁headers	-6914
▁spiritual	-6915
cher	-6916
▁marks	-6917
▁secretary	-6918
▁seeds	-6919
meas	-6920
▁cultures	-6921
▁dvd	-6922
▁accurately	-6923
▁ende	-6924
▁toile	-6925
▁prescribed	-6926
▁ensures	-6927
▁paste	-6928
rating	-6929
▁identification	-6930
▁hero	-6931
▁bless	-6932
▁workplace	-6933
▁raising	-6934
▁decades	-6935
▁asc	-6936
▁separated	-6937
▁notifications	-6938
reprene	-6939
▁passenger	-6940
▁surrounded	-6941
▁bol	-6942
▁ion	-6943
aching	-6944
▁diagnost	-6945
▁sponsored	-6946
▁associations	-6947
▁bios	-6948
▁meals	-6949
▁decoration	-6950
▁gifts	-6951
▁welcom	-6952
▁spin	-6953
▁draft	-6954
▁proof	-6955
▁seats	-6956
▁musical	-6957
▁particles	-6958
code	-6959
▁knowing	-6960
▁directions	-6961
▁jr	-6962
▁globe	-6963
▁inflamm	-6964
▁rear	-6965
▁railway	-6966
▁moves	-6967
berry	-6968
▁hed	-6969
wor	-6970
▁logging	-6971
issue	-6972
▁pock	-6973
▁afgh	-6974
▁reputation	-6975
ott	-6976
yama	-6977
▁sitting	-6978
dep	-6979
▁texture	-6980
▁principal	-6981
▁tested	-6982
imp	-6983
▁intelligent	-6984
▁advertisement	-6985
▁boxes	-6986
open	-6987
▁ye	-6988
▁couldn	-6989
uba	-6990
▁drinks	-6991
avity	-6992
generation	-6993
▁privile	-6994
olic	-6995
state	-6996
▁calling	-6997
▁plenty	-6998
fix	-6999
loud	-7000
▁precious	-7001
▁legis	-7002
▁proven	-7003
▁jam	-7004
▁rin	-7005
aza	-7006
▁coc	-7007
▁panels	-7008
▁proposals	-7009
eness	-7010
▁entreprene	-7011
▁accompanied	-7012
urning	-7013
▁fault	-7014
▁ton	-7015
ename	-7016
▁zeal	-7017
▁palace	-7018
lined	-7019
advant	-7020
▁arising	-7021
necess	-7022
rely	-7023
▁attribute	-7024
▁happiness	-7025
▁cafe	-7026
ouds	-7027
▁asah	-7028
▁optimization	-7029
▁metrop	-7030
▁soup	-7031
▁lens	-7032
▁massage	-7033
▁impacts	-7034
▁coverage	-7035
▁authorization	-7036
jima	-7037
▁infring	-7038
▁]	-7039
▁loun	-7040
▁resid	-7041
▁pione	-7042
illa	-7043
▁certificates	-7044
▁accumulated	-7045
▁dil	-7046
▁victims	-7047
▁orange	-7048
▁visitor	-7049
▁auditors	-7050
▁measurements	-7051
▁suffering	-7052
wr	-7053
▁protecting	-7054
▁ether	-7055
▁diamond	-7056
▁threads	-7057
▁lamp	-7058
▁cake	-7059
▁afraid	-7060
▁deals	-7061
▁dealing	-7062
▁scanning	-7063
▁tang	-7064
▁highlights	-7065
ulates	-7066
ales	-7067
▁converter	-7068
▁deterior	-7069
▁unif	-7070
igs	-7071
ulf	-7072
▁lease	-7073
▁afterno	-7074
▁lever	-7075
▁ministers	-7076
▁plates	-7077
▁myanmar	-7078
▁lets	-7079
▁belongs	-7080
▁collaborative	-7081
isd	-7082
ema	-7083
▁delivering	-7084
▁gaming	-7085
▁yield	-7086
▁crucial	-7087
ini	-7088
uries	-7089
▁stainless	-7090
▁suz	-7091
▁hack	-7092
▁interpre	-7093
▁hearing	-7094
▁flour	-7095
disc	-7096
inity	-7097
▁involves	-7098
▁nomura	-7099
▁trace	-7100
▁ricoh	-7101
▁federation	-7102
▁horm	-7103
▁phr	-7104
▁careers	-7105
▁coronavirus	-7106
athered	-7107
▁mood	-7108
▁autonom	-7109
▁examine	-7110
▁rect	-7111
▁allerg	-7112
▁brush	-7113
▁molecular	-7114
▁gri	-7115
vas	-7116
▁attitude	-7117
erving	-7118
▁optimize	-7119
design	-7120
▁sant	-7121
▁incorporated	-7122
▁prin	-7123
▁remind	-7124
▁ultimate	-7125
haust	-7126
atically	-7127
uct	-7128
bc	-7129
▁wo	-7130
▁protot	-7131
▁crafts	-7132
▁insight	-7133
▁disadvant	-7134
▁libraries	-7135
▁entitled	-7136
nic	-7137
▁scroll	-7138
▁artistic	-7139
▁retire	-7140
▁enthus	-7141
secut	-7142
using	-7143
▁beat	-7144
▁browsers	-7145
ja	-7146
▁oxy	-7147
ikawa	-7148
▁ports	-7149
▁ba	-7150
oper	-7151
una	-7152
▁cotton	-7153
▁«	-7154
▁violation	-7155
▁que	-7156
▁containers	-7157
▁afghan	-7158
▁personally	-7159
▁ah	-7160
▁bible	-7161
iler	-7162
contin	-7163
▁mobility	-7164
▁burden	-7165
▁apartments	-7166
▁taught	-7167
▁oven	-7168
▁doctors	-7169
sing	-7170
▁unexpected	-7171
di	-7172
▁cope	-7173
▁prosper	-7174
▁trusted	-7175
▁paying	-7176
▁folk	-7177
▁immun	-7178
▁archives	-7179
▁religious	-7180
▁tam	-7181
ypt	-7182
▁promo	-7183
limited	-7184
ole	-7185
▁reader	-7186
▁receipt	-7187
▁bowl	-7188
▁dividend	-7189
▁biological	-7190
▁encounter	-7191
▁excel	-7192
▁shooting	-7193
ei	-7194
▁bonus	-7195
apt	-7196
▁customs	-7197
▁complaints	-7198
gar	-7199
udi	-7200
star	-7201
▁afternoon	-7202
▁stuff	-7203
▁inher	-7204
▁jer	-7205
▁dating	-7206
▁grass	-7207
▁involving	-7208
itz	-7209
▁explorer	-7210
▁hosted	-7211
▁java	-7212
▁blank	-7213
▁arom	-7214
▁kilomet	-7215
▁contributes	-7216
▁adoption	-7217
▁logic	-7218
▁telecommunic	-7219
▁fib	-7220
▁carrier	-7221
▁strip	-7222
▁residential	-7223
si	-7224
itivity	-7225
▁aggress	-7226
▁athlet	-7227
oma	-7228
rich	-7229
▁segments	-7230
▁challenging	-7231
▁customized	-7232
ibet	-7233
▁ownership	-7234
ako	-7235
▁integrity	-7236
sts	-7237
▁excited	-7238
oded	-7239
▁phenomenon	-7240
▁unnecess	-7241
▁ultimately	-7242
▁switching	-7243
▁enem	-7244
▁hp	-7245
▁voting	-7246
▁noting	-7247
▁affiliates	-7248
▁millions	-7249
▁clip	-7250
▁fluid	-7251
▁miles	-7252
▁obtaining	-7253
▁yamag	-7254
▁inflation	-7255
▁mori	-7256
▁grade	-7257
▁composed	-7258
olitan	-7259
▁agend	-7260
mi	-7261
▁crime	-7262
supp	-7263
▁kum	-7264
sized	-7265
▁rib	-7266
▁spark	-7267
▁essence	-7268
▁downloading	-7269
▁farmers	-7270
▁explains	-7271
▁routes	-7272
▁jpy	-7273
irable	-7274
▁commonly	-7275
▁chemistry	-7276
▁publishing	-7277
het	-7278
▁scenario	-7279
▁attributes	-7280
miss	-7281
▁bic	-7282
▁fert	-7283
▁buck	-7284
▁holes	-7285
looking	-7286
▁justice	-7287
iox	-7288
▁evaluated	-7289
▁popularity	-7290
▁gateway	-7291
imi	-7292
▁ga	-7293
▁pressing	-7294
▁timing	-7295
▁gb	-7296
▁literature	-7297
▁coin	-7298
▁chrome	-7299
▁bottle	-7300
▁jurisd	-7301
▁automobile	-7302
▁receives	-7303
▁tum	-7304
▁washington	-7305
▁usd	-7306
▁alph	-7307
▁institutional	-7308
▁pok	-7309
▁butter	-7310
▁creativity	-7311
weight	-7312
▁moisture	-7313
zz	-7314
ued	-7315
▁zealand	-7316
--------	-7317
▁purchases	-7318
▁mich	-7319
yu	-7320
abe	-7321
tokyo	-7322
▁produces	-7323
▁rural	-7324
▁ni	-7325
ilation	-7326
▁inh	-7327
▁pear	-7328
anda	-7329
▁sophisticated	-7330
▁refuge	-7331
▁imperial	-7332
▁engines	-7333
▁ru	-7334
▁exhaust	-7335
▁lie	-7336
power	-7337
▁gathered	-7338
▁neither	-7339
▁escape	-7340
▁bloom	-7341
▁authorized	-7342
▁liver	-7343
▁belief	-7344
▁papers	-7345
▁confident	-7346
▁eligible	-7347
▁asking	-7348
▁calculate	-7349
▁token	-7350
▁restoration	-7351
▁saturday	-7352
▁departure	-7353
▁blind	-7354
▁nap	-7355
irty	-7356
▁appropriately	-7357
▁paintings	-7358
papers	-7359
▁converted	-7360
.(	-7361
▁viewer	-7362
uru	-7363
▁temp	-7364
info	-7365
▁adjusted	-7366
▁inval	-7367
▁dc	-7368
▁exports	-7369
▁holy	-7370
hereinafter	-7371
▁trop	-7372
▁champions	-7373
hin	-7374
sor	-7375
▁cargo	-7376
▁yu	-7377
▁telesc	-7378
▁substance	-7379
▁migration	-7380
▁preferred	-7381
▁serial	-7382
▁bench	-7383
▁browsing	-7384
ordinary	-7385
▁sad	-7386
▁drum	-7387
▁monday	-7388
▁brew	-7389
▁colleagues	-7390
▁interv	-7391
aked	-7392
▁arrive	-7393
▁%	-7394
▁leaf	-7395
▁territory	-7396
enues	-7397
▁stro	-7398
▁legend	-7399
opy	-7400
▁activated	-7401
▁australian	-7402
▁integrate	-7403
▁speakers	-7404
▁returning	-7405
▁bureau	-7406
▁represented	-7407
▁chi	-7408
▁supplied	-7409
▁consequences	-7410
▁dreams	-7411
▁witness	-7412
▁stack	-7413
▁facts	-7414
▁corp	-7415
▁investor	-7416
▁anonym	-7417
▁oxygen	-7418
rum	-7419
▁faced	-7420
world	-7421
▁dimensions	-7422
cel	-7423
▁thickness	-7424
▁readers	-7425
▁characterized	-7426
field	-7427
days	-7428
theless	-7429
▁expressions	-7430
defined	-7431
proof	-7432
ona	-7433
ulum	-7434
san	-7435
▁shel	-7436
▁finger	-7437
▁aging	-7438
▁reserves	-7439
▁satisfy	-7440
▁strange	-7441
▁cro	-7442
race	-7443
▁fax	-7444
▁happening	-7445
ups	-7446
▁recovered	-7447
▁constructed	-7448
night	-7449
▁decorate	-7450
▁settlement	-7451
▁fusion	-7452
etime	-7453
valid	-7454
▁diagnose	-7455
▁disposal	-7456
umps	-7457
▁reward	-7458
▁subt	-7459
▁indicator	-7460
riptions	-7461
▁seminars	-7462
▁tsunami	-7463
▁tin	-7464
▁impressive	-7465
▁sync	-7466
iciency	-7467
▁hitachi	-7468
▁surveys	-7469
bage	-7470
▁bub	-7471
▁robots	-7472
▁varieties	-7473
▁arise	-7474
ried	-7475
▁tissue	-7476
▁drill	-7477
rencies	-7478
▁adverse	-7479
▁egg	-7480
▁minimal	-7481
▁birds	-7482
▁preventing	-7483
▁tells	-7484
▁correction	-7485
▁dual	-7486
uates	-7487
▁wasn	-7488
▁birthday	-7489
▁theatre	-7490
▁muscles	-7491
▁arms	-7492
cell	-7493
china	-7494
▁bug	-7495
▁domin	-7496
▁commem	-7497
▁charging	-7498
▁believes	-7499
kok	-7500
ensional	-7501
▁quantum	-7502
oned	-7503
▁driven	-7504
▁astronom	-7505
through	-7506
▁memories	-7507
▁campaigns	-7508
lessly	-7509
▁hawaii	-7510
▁suspension	-7511
▁orchest	-7512
kind	-7513
▁adm	-7514
▁exercises	-7515
only	-7516
uous	-7517
▁findings	-7518
▁cheng	-7519
▁notify	-7520
▁knit	-7521
lar	-7522
▁unix	-7523
▁tack	-7524
general	-7525
▁searching	-7526
▁ich	-7527
▁thr	-7528
that	-7529
▁passengers	-7530
▁bathroom	-7531
▁enjoying	-7532
▁unnecessary	-7533
▁documentary	-7534
mble	-7535
▁surprise	-7536
▁listing	-7537
▁festiv	-7538
▁wallet	-7539
▁suggested	-7540
▁faces	-7541
▁galaxy	-7542
▁navigate	-7543
▁alter	-7544
▁nevertheless	-7545
▁seaf	-7546
atories	-7547
▁configur	-7548
▁locals	-7549
omi	-7550
ibu	-7551
▁attempts	-7552
▁arguments	-7553
▁greenhouse	-7554
hr	-7555
▁doors	-7556
▁memor	-7557
▁retain	-7558
▁nood	-7559
▁icloud	-7560
▁jointly	-7561
▁rul	-7562
▁tournam	-7563
▁habit	-7564
▁flav	-7565
eper	-7566
war	-7567
▁frequent	-7568
▁winning	-7569
▁ships	-7570
juku	-7571
building	-7572
▁decorated	-7573
being	-7574
▁persist	-7575
▁graphic	-7576
▁apu	-7577
▁judge	-7578
unt	-7579
▁beings	-7580
any	-7581
▁grew	-7582
▁municipal	-7583
keeping	-7584
▁networking	-7585
bod	-7586
▁honest	-7587
▁por	-7588
▁branc	-7589
▁stamp	-7590
▁suffer	-7591
▁portable	-7592
▁thai	-7593
ioned	-7594
▁ira	-7595
▁candidate	-7596
▁somewhat	-7597
<<	-7598
▁stretch	-7599
▁talked	-7600
▁steady	-7601
▁powered	-7602
▁outer	-7603
▁cabinet	-7604
▁covering	-7605
▁clouds	-7606
▁springs	-7607
▁forgot	-7608
▁charm	-7609
:---	-7610
▁lounge	-7611
wid	-7612
▁handler	-7613
ests	-7614
▁genetic	-7615
▁historic	-7616
lif	-7617
▁plane	-7618
▁\	-7619
first	-7620
▁passport	-7621
ships	-7622
born	-7623
▁duty	-7624
kin	-7625
high	-7626
▁biodiversity	-7627
▁pointed	-7628
angle	-7629
pres	-7630
irts	-7631
▁checks	-7632
▁fasc	-7633
▁egypt	-7634
▁surprised	-7635
▁demonstrate	-7636
jiang	-7637
bound	-7638
▁obst	-7639
▁retention	-7640
uts	-7641
▁hem	-7642
▁pipe	-7643
▁swiss	-7644
▁accidents	-7645
▁delet	-7646
▁underlying	-7647
ester	-7648
▁younger	-7649
▁connectivity	-7650
▁keeps	-7651
▁laid	-7652
acc	-7653
▁au	-7654
▁steadily	-7655
▁breast	-7656
minute	-7657
oses	-7658
▁comr	-7659
▁tub	-7660
▁brid	-7661
▁losing	-7662
▁adds	-7663
▁chef	-7664
▁applicants	-7665
uka	-7666
▁emper	-7667
▁tone	-7668
▁meets	-7669
▁citizen	-7670
▁meiji	-7671
▁passage	-7672
▁kin	-7673
▁biom	-7674
▁minimize	-7675
▁manufactured	-7676
▁trials	-7677
▁resolved	-7678
▁pover	-7679
▁choices	-7680
icians	-7681
tw	-7682
▁distribute	-7683
▁bin	-7684
▁speaker	-7685
ipher	-7686
▁shoot	-7687
▁cooperate	-7688
].	-7689
▁dol	-7690
bic	-7691
hem	-7692
▁emission	-7693
▁kr	-7694
ptions	-7695
▁poverty	-7696
▁acer	-7697
▁pleased	-7698
▁vm	-7699
▁advisory	-7700
▁collections	-7701
▁static	-7702
bin	-7703
)<<	-7704
oko	-7705
▁downloads	-7706
▁chose	-7707
lan	-7708
▁swed	-7709
▁dna	-7710
▁nerv	-7711
▁asahi	-7712
▁abilities	-7713
▁obligation	-7714
▁compiled	-7715
▁competit	-7716
▁arrangements	-7717
▁refrigerator	-7718
▁destruction	-7719
orrow	-7720
▁obama	-7721
tery	-7722
▁toyota	-7723
▁curric	-7724
▁si	-7725
▁keywords	-7726
▁profitability	-7727
cons	-7728
▁belt	-7729
▁daughter	-7730
person	-7731
▁xml	-7732
▁(“	-7733
oked	-7734
▁nic	-7735
▁potatoes	-7736
▁filename	-7737
▁adjustments	-7738
▁metals	-7739
bour	-7740
▁chronic	-7741
▁iraq	-7742
▁optimized	-7743
▁agenda	-7744
▁workspace	-7745
▁iv	-7746
▁debug	-7747
map	-7748
▁fitness	-7749
▁religion	-7750
▁extraordinary	-7751
about	-7752
bec	-7753
▁warranty	-7754
▁wiz	-7755
▁scar	-7756
▁cardboard	-7757
▁imported	-7758
ager	-7759
▁infected	-7760
hiro	-7761
▁negotiations	-7762
▁dup	-7763
▁weld	-7764
▁eggs	-7765
ikan	-7766
▁metropolitan	-7767
▁vegetable	-7768
▁caught	-7769
▁sick	-7770
▁revenues	-7771
▁fi	-7772
▁seasonal	-7773
▁nether	-7774
▁seriously	-7775
▁aren	-7776
▁informed	-7777
▁independence	-7778
gers	-7779
fox	-7780
check	-7781
▁kans	-7782
▁dns	-7783
▁subaru	-7784
▁grat	-7785
▁bam	-7786
▁nao	-7787
specific	-7788
▁roots	-7789
▁delight	-7790
▁statist	-7791
▁canon	-7792
▁muscle	-7793
▁captured	-7794
cor	-7795
▁exhibit	-7796
▁grace	-7797
▁actors	-7798
▁promoted	-7799
▁macro	-7800
city	-7801
iors	-7802
▁threats	-7803
▁stem	-7804
▁azure	-7805
▁permit	-7806
▁feels	-7807
▁falling	-7808
▁reconstruction	-7809
tains	-7810
▁focuses	-7811
exc	-7812
iru	-7813
▁overl	-7814
▁incur	-7815
▁lawy	-7816
▁charts	-7817
dy	-7818
config	-7819
lements	-7820
▁marriage	-7821
▁permissions	-7822
▁ukrain	-7823
▁nervous	-7824
ashes	-7825
▁malf	-7826
lix	-7827
▁killed	-7828
ddi	-7829
▁hearts	-7830
▁uniform	-7831
▁hence	-7832
▁penet	-7833
conf	-7834
▁hes	-7835
'.	-7836
▁zoom	-7837
▁bases	-7838
▁lam	-7839
sat	-7840
▁fav	-7841
▁turb	-7842
ometer	-7843
▁reflecting	-7844
▁rotation	-7845
▁submission	-7846
▁politics	-7847
▁filling	-7848
▁incon	-7849
▁unauthor	-7850
▁chip	-7851
mented	-7852
▁discounts	-7853
width	-7854
▁dragon	-7855
▁spa	-7856
▁shareholder	-7857
ci	-7858
▁estimate	-7859
ologist	-7860
▁bacteria	-7861
▁penal	-7862
▁deprec	-7863
▁sister	-7864
▁branches	-7865
screen	-7866
▁qualified	-7867
shi	-7868
▁talks	-7869
▁partial	-7870
▁portug	-7871
▁tu	-7872
effect	-7873
therefore	-7874
▁competitiveness	-7875
▁evil	-7876
▁arc	-7877
rock	-7878
▁pig	-7879
▁handled	-7880
comp	-7881
▁tibet	-7882
fx	-7883
zech	-7884
▁yog	-7885
▁renov	-7886
▁transfers	-7887
▁rakuten	-7888
length	-7889
▁wis	-7890
▁recipes	-7891
▁yester	-7892
▁tie	-7893
▁netherlands	-7894
▁kyushu	-7895
▁researcher	-7896
▁enclo	-7897
▁slide	-7898
▁pak	-7899
▁festivals	-7900
▁harmful	-7901
▁refuse	-7902
▁plugin	-7903
▁investing	-7904
▁edges	-7905
▁ceiling	-7906
▁distinguished	-7907
▁organize	-7908
▁bomb	-7909
▁tomorrow	-7910
▁hir	-7911
▁appointment	-7912
▁bird	-7913
they	-7914
zip	-7915
ented	-7916
▁collecting	-7917
▁economics	-7918
▁guy	-7919
▁guess	-7920
venir	-7921
▁chipset	-7922
▁solo	-7923
▁alex	-7924
station	-7925
invalid	-7926
unning	-7927
▁microph	-7928
▁investigate	-7929
)[	-7930
ste	-7931
sun	-7932
▁atl	-7933
▁specifies	-7934
anges	-7935
▁wik	-7936
▁disput	-7937
▁stom	-7938
vidia	-7939
adian	-7940
▁retirement	-7941
dir	-7942
isure	-7943
orient	-7944
▁resulted	-7945
▁turkey	-7946
▁recre	-7947
▁emperor	-7948
▁resc	-7949
▁specialty	-7950
▁yang	-7951
▁ble	-7952
▁”	-7953
mal	-7954
nc	-7955
▁cute	-7956
▁formula	-7957
▁discr	-7958
rot	-7959
▁disclosed	-7960
aired	-7961
▁mapping	-7962
▁judgment	-7963
▁targeting	-7964
eu	-7965
terest	-7966
▁dj	-7967
table	-7968
▁outcome	-7969
▁harmon	-7970
▁celebrate	-7971
▁dor	-7972
▁negotiation	-7973
▁contrary	-7974
▁souvenir	-7975
▁nit	-7976
▁army	-7977
▁coat	-7978
▁precisely	-7979
▁estimates	-7980
▁vacation	-7981
bert	-7982
itime	-7983
▁beam	-7984
▁czech	-7985
▁congress	-7986
▁sensitivity	-7987
▁fract	-7988
▁bell	-7989
▁shapes	-7990
▁antiv	-7991
▁preceding	-7992
▁nin	-7993
sect	-7994
▁narita	-7995
▁nodes	-7996
▁ward	-7997
▁yesterday	-7998
lis	-7999
▁nib	-8000
▁theore	-8001
▁toilet	-8002
▁determines	-8003
▁vulnerability	-8004
▁designing	-8005
▁gene	-8006
▁smoothly	-8007
▁tablets	-8008
▁dh	-8009
▁affordable	-8010
▁buddha	-8011
▁strengths	-8012
▁dose	-8013
▁wishes	-8014
dec	-8015
▁cub	-8016
▁worker	-8017
▁substantial	-8018
▁accessing	-8019
▁travell	-8020
▁beef	-8021
▁bars	-8022
▁haven	-8023
▁dies	-8024
▁ku	-8025
▁joining	-8026
▁directed	-8027
▁elite	-8028
▁beneficial	-8029
▁remun	-8030
▁kddi	-8031
▁forming	-8032
▁perspectives	-8033
rc	-8034
▁treaty	-8035
▁placing	-8036
▁heads	-8037
▁shopify	-8038
pri	-8039
▁remed	-8040
▁adventure	-8041
▁anx	-8042
▁compression	-8043
▁leisure	-8044
▁imaging	-8045
▁defining	-8046
▁suggests	-8047
start	-8048
▁°	-8049
▁logged	-8050
▁excessive	-8051
▁ages	-8052
▁greet	-8053
▁seoul	-8054
▁volumes	-8055
books	-8056
▁zip	-8057
▁nvidia	-8058
▁countermeas	-8059
▁username	-8060
▁dub	-8061
▁bangkok	-8062
▁discip	-8063
▁dancing	-8064
intern	-8065
▁guaranteed	-8066
▁applicant	-8067
▁madrid	-8068
▁toggle	-8069
▁seasons	-8070
▁wider	-8071
▁hik	-8072
▁volunt	-8073
iment	-8074
▁football	-8075
▁saudi	-8076
norm	-8077
▁recon	-8078
▁gel	-8079
▁rac	-8080
acious	-8081
▁engineer	-8082
itable	-8083
▁arranged	-8084
▁honey	-8085
suff	-8086
▁spoke	-8087
▁teeth	-8088
▁pra	-8089
▁breaking	-8090
utable	-8091
arest	-8092
▁representation	-8093
▁adequate	-8094
▁nose	-8095
▁rubles	-8096
▁intu	-8097
▁leverage	-8098
▁deck	-8099
▁david	-8100
',	-8101
▁stabil	-8102
iyama	-8103
▁columns	-8104
mentioned	-8105
▁environmentally	-8106
ista	-8107
▁sink	-8108
▁toler	-8109
vi	-8110
▁dan	-8111
▁humanity	-8112
▁deposits	-8113
pacific	-8114
▁inconven	-8115
nis	-8116
▁vitamin	-8117
▁surprising	-8118
▁bulk	-8119
▁viewpoint	-8120
▁cla	-8121
▁destroyed	-8122
▁progid	-8123
▁exceptional	-8124
▁noticed	-8125
▁dynamics	-8126
▁swimming	-8127
▁profiles	-8128
▁coordination	-8129
▁onsen	-8130
▁promptly	-8131
▁interpretation	-8132
▁violations	-8133
▁myapplication	-8134
▁phenomena	-8135
etsu	-8136
▁symbols	-8137
ique	-8138
agnet	-8139
▁restricted	-8140
oust	-8141
▁jet	-8142
▁membr	-8143
▁substit	-8144
▁limitations	-8145
▁kom	-8146
arios	-8147
▁experiencing	-8148
emap	-8149
▁authors	-8150
▁develops	-8151
uda	-8152
▁depict	-8153
▁harmony	-8154
▁reactions	-8155
▁crown	-8156
▁dispute	-8157
▁acceptance	-8158
market	-8159
▁requiring	-8160
▁buddhist	-8161
dam	-8162
▁stylish	-8163
▁wallpaper	-8164
▁sear	-8165
cap	-8166
▁scratch	-8167
▁floating	-8168
▁savings	-8169
▁yas	-8170
▁propose	-8171
outs	-8172
▁taxi	-8173
▁toys	-8174
);	-8175
▁demonstration	-8176
▁laboratories	-8177
▁curriculum	-8178
▁lith	-8179
▁rf	-8180
▁organs	-8181
▁maximize	-8182
▁begun	-8183
▁orientation	-8184
sim	-8185
▁margin	-8186
▁muslim	-8187
str	-8188
▁volunteer	-8189
▁horizontal	-8190
ores	-8191
▁copies	-8192
▁motors	-8193
▁totally	-8194
▁protective	-8195
service	-8196
▁founder	-8197
▁scenarios	-8198
▁xi	-8199
graduate	-8200
▁boards	-8201
plus	-8202
▁internationally	-8203
era	-8204
▁ordered	-8205
ichuan	-8206
uel	-8207
▁regarded	-8208
▁anime	-8209
▁factories	-8210
▁nasa	-8211
▁prox	-8212
▁memorial	-8213
▁dried	-8214
▁firefox	-8215
▁vulnerable	-8216
▁xp	-8217
▁propri	-8218
▁shower	-8219
▁derived	-8220
▁indirect	-8221
▁sew	-8222
▁pursuant	-8223
▁forests	-8224
▁commemor	-8225
▁generating	-8226
▁ssi	-8227
▁pension	-8228
▁roads	-8229
will	-8230
zhou	-8231
▁slides	-8232
▁unlimited	-8233
▁brus	-8234
windows	-8235
▁references	-8236
▁remuneration	-8237
hyth	-8238
▁advise	-8239
▁reaching	-8240
dim	-8241
▁formal	-8242
▁■	-8243
▁violence	-8244
▁cord	-8245
azz	-8246
feren	-8247
▁vr	-8248
▁nick	-8249
uum	-8250
▁olive	-8251
itate	-8252
▁prison	-8253
▁democratic	-8254
▁algorithms	-8255
▁invo	-8256
▁alien	-8257
emp	-8258
▁encouraged	-8259
▁cambod	-8260
▁responding	-8261
▁euro	-8262
▁cum	-8263
▁fails	-8264
▁casual	-8265
▁fet	-8266
▁sdk	-8267
▁visibility	-8268
performance	-8269
▁maker	-8270
▁chest	-8271
ww	-8272
semin	-8273
system	-8274
▁conce	-8275
▁disabilities	-8276
uzz	-8277
▁trillion	-8278
▁proteins	-8279
ician	-8280
▁sushi	-8281
▁lift	-8282
▁stones	-8283
dig	-8284
▁welcomed	-8285
▁promotional	-8286
▁corruption	-8287
lusive	-8288
▁acting	-8289
▁upcoming	-8290
▁arrangement	-8291
▁waters	-8292
adata	-8293
▁pv	-8294
▁fry	-8295
▁representing	-8296
▁attracted	-8297
data	-8298
▁polar	-8299
▁stomach	-8300
▁aband	-8301
▁prayer	-8302
▁moments	-8303
rem	-8304
▁injury	-8305
process	-8306
▁genes	-8307
▁rarely	-8308
▁mort	-8309
▁solved	-8310
▁improves	-8311
▁offline	-8312
▁smoking	-8313
▁sapporo	-8314
▁signing	-8315
hd	-8316
▁transmitted	-8317
▁weekend	-8318
▁ink	-8319
▁specially	-8320
▁metab	-8321
▁viruses	-8322
acent	-8323
▁oral	-8324
▁titles	-8325
▁exclusively	-8326
▁mol	-8327
▁testim	-8328
▁gathering	-8329
▁emotions	-8330
▁modes	-8331
asant	-8332
▁promise	-8333
▁roman	-8334
▁chamber	-8335
zerland	-8336
▁illness	-8337
▁critic	-8338
▁reveal	-8339
▁soy	-8340
▁realization	-8341
▁intense	-8342
retion	-8343
aved	-8344
anguage	-8345
▁commerce	-8346
▁demo	-8347
▁immune	-8348
▁abundant	-8349
igo	-8350
▁suppress	-8351
akura	-8352
town	-8353
▁mile	-8354
▁worse	-8355
▁liable	-8356
▁stipulated	-8357
cow	-8358
▁marketplace	-8359
▁bike	-8360
▁engaging	-8361
▁largely	-8362
▁hopes	-8363
▁smoke	-8364
▁controlling	-8365
▁nih	-8366
▁analytical	-8367
▁bron	-8368
boo	-8369
patible	-8370
▁»	-8371
▁kilometers	-8372
auth	-8373
aid	-8374
aded	-8375
▁sends	-8376
▁significance	-8377
▁producer	-8378
▁sed	-8379
▁parli	-8380
ishment	-8381
▁appliances	-8382
▁gp	-8383
▁fairly	-8384
▁og	-8385
▁passes	-8386
▁comrades	-8387
▁naoj	-8388
▁pron	-8389
▁offset	-8390
▁zen	-8391
▁painted	-8392
▁nursing	-8393
▁seafood	-8394
▁crash	-8395
▁consisting	-8396
▁bookmark	-8397
▁variant	-8398
▁peaceful	-8399
▁diction	-8400
▁ranging	-8401
itar	-8402
burg	-8403
▁smile	-8404
▁intent	-8405
▁angeles	-8406
▁sichuan	-8407
cription	-8408
ika	-8409
aze	-8410
update	-8411
▁colon	-8412
yalty	-8413
▁geomet	-8414
▁appreciation	-8415
▁surgery	-8416
dc	-8417
▁lug	-8418
▁mush	-8419
test	-8420
▁disputes	-8421
▁repeatedly	-8422
▁foam	-8423
even	-8424
▁inspiration	-8425
▁staying	-8426
▁meter	-8427
▁determination	-8428
▁underground	-8429
▁tro	-8430
▁incent	-8431
▁frank	-8432
▁monu	-8433
▁auditor	-8434
▁collective	-8435
▁vacuum	-8436
wear	-8437
▁volunteers	-8438
▁crack	-8439
▁landing	-8440
▁desirable	-8441
▁holder	-8442
▁telescope	-8443
▁organizational	-8444
▁db	-8445
▁mc	-8446
▁intend	-8447
▁supposed	-8448
▁troublesho	-8449
▁ish	-8450
▁conform	-8451
▁shield	-8452
▁recipient	-8453
▁disconnect	-8454
▁danger	-8455
▁paths	-8456
▁●	-8457
▁adopt	-8458
▁observations	-8459
▁lemon	-8460
▁recruitment	-8461
▁homepage	-8462
▁hi	-8463
▁promotions	-8464
uesday	-8465
astics	-8466
▁complexity	-8467
▁nu	-8468
▁theoret	-8469
▁airlines	-8470
west	-8471
▁kansai	-8472
▁assurance	-8473
km	-8474
▁expend	-8475
erals	-8476
▁snowfl	-8477
asm	-8478
▁chic	-8479
▁prove	-8480
▁twist	-8481
▁mong	-8482
▁impair	-8483
▁unauthorized	-8484
issu	-8485
▁switzerland	-8486
▁preserve	-8487
▁deliber	-8488
▁durable	-8489
text	-8490
plan	-8491
▁scat	-8492
▁wholes	-8493
▁preservation	-8494
▁reh	-8495
now	-8496
▁pad	-8497
▁favorable	-8498
▁foreigners	-8499
ials	-8500
....	-8501
cy	-8502
comes	-8503
▁revital	-8504
▁fortun	-8505
▁addressing	-8506
▁pepper	-8507
▁surely	-8508
▁reads	-8509
▁ramen	-8510
▁ict	-8511
▁receiver	-8512
▁curve	-8513
▁endpoint	-8514
▁parliament	-8515
iot	-8516
▁gray	-8517
▁neuro	-8518
language	-8519
▁converting	-8520
▁malfunction	-8521
▁cpu	-8522
orters	-8523
pay	-8524
▁twin	-8525
▁kab	-8526
▁comprom	-8527
▁cryptocurrency	-8528
exist	-8529
▁alarm	-8530
▁aest	-8531
▁limu	-8532
▁broadcasting	-8533
▁considerable	-8534
▁ultr	-8535
ochu	-8536
▁activation	-8537
local	-8538
▁du	-8539
▁survival	-8540
atus	-8541
)"	-8542
▁fingers	-8543
▁classification	-8544
▁jurisdiction	-8545
▁influenced	-8546
▁excellence	-8547
▁championship	-8548
oki	-8549
▁enhancement	-8550
▁ly	-8551
▁frozen	-8552
▁officially	-8553
▁nibiru	-8554
▁cul	-8555
▁reforms	-8556
▁nish	-8557
oriented	-8558
iano	-8559
clock	-8560
▁tasty	-8561
▁silicon	-8562
▁pocket	-8563
▁individually	-8564
▁newsletters	-8565
▁canadian	-8566
▁conflicts	-8567
ayashi	-8568
▁drawings	-8569
group	-8570
▁les	-8571
▁sakura	-8572
aph	-8573
▁burning	-8574
▁flying	-8575
▁limitation	-8576
▁gh	-8577
▁orbit	-8578
▁toolbar	-8579
▁gem	-8580
oyama	-8581
▁friendship	-8582
▁trigger	-8583
▁calib	-8584
▁cad	-8585
▁solely	-8586
nesday	-8587
▁married	-8588
agon	-8589
ouses	-8590
▁decorative	-8591
▁emotional	-8592
iplinary	-8593
▁variants	-8594
▁infections	-8595
▁reflects	-8596
whe	-8597
▁contam	-8598
▁combines	-8599
▁emphasis	-8600
▁interfaces	-8601
igen	-8602
uine	-8603
▁compounds	-8604
▁colour	-8605
▁metadata	-8606
▁scholarship	-8607
▁knife	-8608
▁foster	-8609
▁prest	-8610
▁elastic	-8611
▁accessed	-8612
▁surfaces	-8613
change	-8614
▁wordpress	-8615
▁followers	-8616
▁statistical	-8617
gy	-8618
▁supervision	-8619
▁crypto	-8620
▁panasonic	-8621
▁mankind	-8622
▁intensity	-8623
iph	-8624
ensable	-8625
▁dense	-8626
▁dividends	-8627
▁overw	-8628
▁elsewhere	-8629
▁generator	-8630
▁translate	-8631
▁deletion	-8632
▁pursuing	-8633
▁mall	-8634
avel	-8635
▁gig	-8636
▁tropical	-8637
▁resident	-8638
▁sms	-8639
▁radi	-8640
usal	-8641
▁warehouse	-8642
▁inserted	-8643
▁forever	-8644
▁cycl	-8645
▁survive	-8646
▁racing	-8647
▁ips	-8648
▁bamboo	-8649
▁tsuk	-8650
sten	-8651
▁ceramic	-8652
inger	-8653
▁chengdu	-8654
▁adapter	-8655
▁grounds	-8656
size	-8657
▁aqu	-8658
▁adhes	-8659
amura	-8660
▁vote	-8661
▁iii	-8662
▁incorporation	-8663
▁amid	-8664
section	-8665
▁potentially	-8666
ola	-8667
lab	-8668
▁bun	-8669
▁preparations	-8670
▁brothers	-8671
▁twenty	-8672
▁myster	-8673
▁likewise	-8674
▁gardens	-8675
▁ssd	-8676
anned	-8677
▁palm	-8678
▁gast	-8679
▁disclaim	-8680
▁liquidity	-8681
▁expense	-8682
▁ash	-8683
▁spectrum	-8684
▁addressed	-8685
▁summar	-8686
▁sweets	-8687
▁interviews	-8688
▁shadow	-8689
▁bigger	-8690
rants	-8691
▁chains	-8692
amins	-8693
rian	-8694
▁synd	-8695
▁amd	-8696
▁conj	-8697
▁fluctuations	-8698
atile	-8699
▁zones	-8700
▁collaborate	-8701
▁rug	-8702
▁defend	-8703
▁spok	-8704
▁skype	-8705
▁decade	-8706
▁fifth	-8707
▁spray	-8708
▁colorful	-8709
iao	-8710
▁validity	-8711
▁predicted	-8712
▁hob	-8713
▁graduated	-8714
▁circulation	-8715
resist	-8716
▁wizard	-8717
▁colored	-8718
▁dissemin	-8719
▁mast	-8720
▁canvas	-8721
▁subsequently	-8722
kyu	-8723
▁licenses	-8724
▁evac	-8725
▁moscow	-8726
▁nearest	-8727
▁afghanistan	-8728
▁demonstrated	-8729
▁triproud	-8730
ander	-8731
▁tournament	-8732
▁lou	-8733
▁mineral	-8734
▁instances	-8735
▁bone	-8736
▁childhood	-8737
▁hook	-8738
▁sunlight	-8739
▁relaxing	-8740
▁somewhere	-8741
▁gym	-8742
▁utilized	-8743
▁indisp	-8744
▁determining	-8745
ernel	-8746
▁commod	-8747
hour	-8748
iner	-8749
▁museums	-8750
▁issuance	-8751
▁antivirus	-8752
uty	-8753
▁plas	-8754
▁vine	-8755
avail	-8756
▁pregnant	-8757
▁proportion	-8758
wed	-8759
▁toshiba	-8760
▁deeper	-8761
▁delivers	-8762
▁competitors	-8763
fil	-8764
▁invalid	-8765
▁benchmark	-8766
▁prevents	-8767
▁consequently	-8768
▁cooperative	-8769
▁interactions	-8770
▁fantastic	-8771
apse	-8772
these	-8773
▁namely	-8774
▁preference	-8775
▁identifying	-8776
▁outlet	-8777
▁genuine	-8778
▁epis	-8779
▁homem	-8780
▁occurrence	-8781
write	-8782
▁athletes	-8783
icy	-8784
▁periodically	-8785
hop	-8786
orous	-8787
▁logical	-8788
▁liberal	-8789
▁pakistan	-8790
plant	-8791
rator	-8792
▁identifiers	-8793
▁powers	-8794
▁suffered	-8795
▁wake	-8796
▁linear	-8797
viet	-8798
pleasant	-8799
▁lifetime	-8800
acqu	-8801
herent	-8802
▁yuk	-8803
▁encrypted	-8804
▁autonomous	-8805
ols	-8806
▁itochu	-8807
▁acceptable	-8808
▁creator	-8809
▁sql	-8810
▁prefectural	-8811
▁declined	-8812
oshima	-8813
▁audits	-8814
stone	-8815
▁introduces	-8816
cam	-8817
▁mats	-8818
law	-8819
▁clarify	-8820
▁fare	-8821
cgi	-8822
apy	-8823
▁overwhel	-8824
▁packet	-8825
agnetic	-8826
▁lob	-8827
flix	-8828
▁barrier	-8829
▁tens	-8830
▁firewall	-8831
▁mounting	-8832
▁trained	-8833
iku	-8834
▁semi	-8835
▁reinforce	-8836
▁updating	-8837
▁attending	-8838
▁gin	-8839
▁expiration	-8840
main	-8841
▁blocked	-8842
▁vs	-8843
▁classical	-8844
▁restored	-8845
ige	-8846
▁databases	-8847
▁chile	-8848
▁infectious	-8849
techn	-8850
▁promotes	-8851
▁similarly	-8852
▁indispensable	-8853
▁sar	-8854
▁consulate	-8855
cult	-8856
onomic	-8857
▁interrupt	-8858
▁termination	-8859
▁discretion	-8860
▁distribut	-8861
▁ster	-8862
▁unpleasant	-8863
▁latin	-8864
▁tuesday	-8865
▁rolling	-8866
▁immigration	-8867
▁analyzing	-8868
ppers	-8869
develop	-8870
berg	-8871
▁microphone	-8872
▁earned	-8873
cle	-8874
▁winner	-8875
▁stocks	-8876
▁embr	-8877
web	-8878
▁consecut	-8879
▁dough	-8880
▁parad	-8881
athy	-8882
▁deny	-8883
▁incredible	-8884
▁deadline	-8885
▁nagasaki	-8886
▁cosmetics	-8887
▁partnerships	-8888
esty	-8889
public	-8890
mem	-8891
rets	-8892
▁gran	-8893
▁anten	-8894
▁counsel	-8895
▁alongside	-8896
ua	-8897
▁nyk	-8898
itarian	-8899
▁indoor	-8900
▁conducts	-8901
▁validation	-8902
▁slot	-8903
▁tong	-8904
▁assumptions	-8905
▁jin	-8906
▁diabet	-8907
▁sitemap	-8908
▁outcomes	-8909
▁softbank	-8910
lete	-8911
▁instantly	-8912
isa	-8913
▁constitution	-8914
▁homemade	-8915
▁innovations	-8916
▁ul	-8917
enter	-8918
▁urls	-8919
▁alive	-8920
▁combinations	-8921
grade	-8922
▁molecules	-8923
▁dot	-8924
▁ud	-8925
fg	-8926
dimensional	-8927
isc	-8928
▁neighborhood	-8929
▁batch	-8930
▁metrics	-8931
▁hash	-8932
▁shortcut	-8933
%)	-8934
▁rational	-8935
▁balls	-8936
▁plot	-8937
▁resil	-8938
▁beginners	-8939
ener	-8940
osc	-8941
▁lady	-8942
ancer	-8943
▁hygi	-8944
▁reviewed	-8945
▁treatments	-8946
drop	-8947
▁meg	-8948
just	-8949
▁labour	-8950
▁directories	-8951
▁publis	-8952
▁manga	-8953
shore	-8954
▁decent	-8955
▁tough	-8956
▁worlds	-8957
▁cyl	-8958
rising	-8959
▁unified	-8960
▁classified	-8961
▁tent	-8962
ici	-8963
nish	-8964
▁tall	-8965
▁resistant	-8966
▁ordin	-8967
opt	-8968
▁fisher	-8969
▁strugg	-8970
▁ethics	-8971
rons	-8972
▁diagram	-8973
▁netflix	-8974
send	-8975
▁creators	-8976
product	-8977
▁emit	-8978
▁recommendation	-8979
▁inclusion	-8980
▁tooth	-8981
▁exhibited	-8982
▁dependent	-8983
profit	-8984
▁tunnel	-8985
▁screenshot	-8986
▁scenic	-8987
▁realizing	-8988
doc	-8989
tem	-8990
store	-8991
aro	-8992
ulous	-8993
▁disorders	-8994
▁nt	-8995
▁vitamins	-8996
▁bold	-8997
▁straw	-8998
semble	-8999
▁vend	-9000
▁complement	-9001
condition	-9002
acular	-9003
vs	-9004
controll	-9005
zes	-9006
▁eb	-9007
▁firmly	-9008
display	-9009
▁noodles	-9010
child	-9011
▁malicious	-9012
▁england	-9013
▁sha	-9014
▁promin	-9015
▁exploration	-9016
▁seal	-9017
▁bund	-9018
▁incorporate	-9019
▁osc	-9020
naire	-9021
▁hills	-9022
▁injection	-9023
ursday	-9024
▁biology	-9025
▁override	-9026
▁personality	-9027
month	-9028
▁samp	-9029
▁slee	-9030
▁mandatory	-9031
▁accessibility	-9032
▁lion	-9033
▁defines	-9034
▁wrap	-9035
▁proceedings	-9036
▁mhi	-9037
▁vibration	-9038
▁basket	-9039
▁rivers	-9040
▁producers	-9041
eter	-9042
▁olympics	-9043
▁anticipated	-9044
gp	-9045
▁arrest	-9046
▁succeeded	-9047
▁zh	-9048
▁opera	-9049
cat	-9050
ahoo	-9051
▁modeling	-9052
▁laugh	-9053
▁refres	-9054
oured	-9055
▁fighting	-9056
▁finds	-9057
▁fertil	-9058
▁meaningful	-9059
bered	-9060
▁lucky	-9061
▁seller	-9062
▁modification	-9063
aba	-9064
stud	-9065
▁legislation	-9066
▁configurations	-9067
leration	-9068
▁subscribers	-9069
▁countermeasures	-9070
▁petro	-9071
▁infringe	-9072
▁blossom	-9073
isite	-9074
▁exploring	-9075
omin	-9076
▁binding	-9077
▁architectural	-9078
hara	-9079
mt	-9080
▁frames	-9081
▁transit	-9082
▁constrain	-9083
image	-9084
▁discharge	-9085
▁posting	-9086
▁abe	-9087
ungsten	-9088
▁legacy	-9089
▁tired	-9090
aug	-9091
azaki	-9092
hetic	-9093
vation	-9094
▁guided	-9095
glo	-9096
ael	-9097
▁penc	-9098
shaped	-9099
▁surf	-9100
▁ties	-9101
▁attributable	-9102
▁axis	-9103
▁wednesday	-9104
▁clinic	-9105
▁merge	-9106
bas	-9107
▁soap	-9108
▁virgin	-9109
▁dictionary	-9110
▁proprietary	-9111
▁conversations	-9112
▁rhyth	-9113
bing	-9114
▁ordering	-9115
▁microw	-9116
▁prince	-9117
▁households	-9118
peg	-9119
▁entrust	-9120
▁protocols	-9121
reshold	-9122
▁pork	-9123
▁consistently	-9124
▁balanced	-9125
▁digit	-9126
▁writer	-9127
▁employed	-9128
break	-9129
▁identifier	-9130
▁cataly	-9131
▁league	-9132
▁refresh	-9133
▁stood	-9134
▁diabetes	-9135
▁sorry	-9136
imeter	-9137
▁lowest	-9138
▁sought	-9139
▁stops	-9140
▁earthquakes	-9141
▁routine	-9142
▁destinations	-9143
▁affiliated	-9144
▁ome	-9145
▁portra	-9146
▁lid	-9147
▁sup	-9148
mc	-9149
▁prediction	-9150
▁clips	-9151
▁retained	-9152
▁filesystem	-9153
▁stir	-9154
▁slack	-9155
▁competent	-9156
▁vaccine	-9157
▁viewers	-9158
▁wob	-9159
stop	-9160
▁borders	-9161
▁poster	-9162
▁identical	-9163
▁gains	-9164
abilitation	-9165
arr	-9166
▁cogn	-9167
▁pipeline	-9168
▁café	-9169
▁um	-9170
efficient	-9171
▁grab	-9172
▁accommodate	-9173
asia	-9174
last	-9175
▁lean	-9176
▁performs	-9177
▁belg	-9178
▁filed	-9179
▁oldest	-9180
▁plaza	-9181
▁berlin	-9182
▁placement	-9183
▁jbic	-9184
▁diox	-9185
▁neutral	-9186
▁credential	-9187
▁urgent	-9188
▁brace	-9189
▁broker	-9190
▁pupp	-9191
▁humidity	-9192
▁inflammation	-9193
▁cambodia	-9194
▁trim	-9195
▁empower	-9196
▁masters	-9197
▁suited	-9198
▁noh	-9199
ibuya	-9200
▁parks	-9201
▁mounted	-9202
run	-9203
▁occurring	-9204
▁dropped	-9205
▁nas	-9206
▁fuck	-9207
▁ethnic	-9208
▁essentially	-9209
iar	-9210
odo	-9211
▁ay	-9212
illance	-9213
▁securing	-9214
▁bilateral	-9215
▁diagnostic	-9216
perhaps	-9217
▁excite	-9218
dem	-9219
secur	-9220
▁grasp	-9221
▁maritime	-9222
▁worship	-9223
▁uninstall	-9224
▁consciousness	-9225
▁connects	-9226
▁peter	-9227
▁annually	-9228
ologies	-9229
▁prosperity	-9230
quet	-9231
▁coins	-9232
▁cha	-9233
▁nurt	-9234
ledged	-9235
▁microsc	-9236
▁possibly	-9237
▁advoc	-9238
▁boil	-9239
▁enthusi	-9240
▁wang	-9241
▁vietnamese	-9242
▁consecutive	-9243
adesh	-9244
agen	-9245
▁intens	-9246
▁md	-9247
▁particle	-9248
eut	-9249
▁sdgs	-9250
▁retrieve	-9251
iri	-9252
▁handles	-9253
▁va	-9254
gas	-9255
▁medicines	-9256
::	-9257
▁delicate	-9258
▁aside	-9259
▁myst	-9260
▁locally	-9261
▁jose	-9262
▁boss	-9263
normal	-9264
▁therapeut	-9265
▁plain	-9266
▁dramatically	-9267
location	-9268
▁indicating	-9269
▁questionnaire	-9270
▁functioning	-9271
▁regime	-9272
▁malware	-9273
▁licensing	-9274
▁executives	-9275
▁buyer	-9276
▁completing	-9277
▁unlikely	-9278
▁conferences	-9279
▁crew	-9280
however	-9281
▁circles	-9282
▁utc	-9283
▁spectacular	-9284
▁rome	-9285
▁hire	-9286
▁founding	-9287
▁remem	-9288
▁nara	-9289
▁breath	-9290
▁glasses	-9291
▁surveillance	-9292
▁drying	-9293
▁pixels	-9294
▁contacting	-9295
▁threshold	-9296
ductions	-9297
▁magnific	-9298
▁terminals	-9299
▁uncle	-9300
▁bandwidth	-9301
▁mathematics	-9302
▁varies	-9303
tings	-9304
eland	-9305
▁mongol	-9306
▁realistic	-9307
ateful	-9308
▁stunning	-9309
▁ng	-9310
▁cra	-9311
▁nail	-9312
▁desert	-9313
▁merger	-9314
▁sque	-9315
▁ethernet	-9316
▁guitar	-9317
▁rehabilitation	-9318
▁recognizes	-9319
▁romantic	-9320
aneous	-9321
▁gratitude	-9322
onia	-9323
▁dear	-9324
▁allocation	-9325
iat	-9326
▁kag	-9327
▁newspaper	-9328
▁poison	-9329
▁ub	-9330
中文	-9331
▁penins	-9332
▁rotary	-9333
activ	-9334
▁outsour	-9335
▁intervention	-9336
core	-9337
neys	-9338
▁exceeds	-9339
▁withdrawal	-9340
▁iz	-9341
support	-9342
▁advertisements	-9343
▁deepen	-9344
▁unpre	-9345
▁patch	-9346
▁drama	-9347
▁circuits	-9348
▁weekly	-9349
▁intermediate	-9350
▁struggle	-9351
aming	-9352
▁publicly	-9353
oft	-9354
▁corners	-9355
▁roughly	-9356
▁switches	-9357
▁mature	-9358
▁winners	-9359
▁queen	-9360
▁wisdom	-9361
▁kick	-9362
▁gently	-9363
▁nationwide	-9364
▁pine	-9365
▁duplic	-9366
inating	-9367
▁disrupt	-9368
▁lightning	-9369
▁launching	-9370
▁brill	-9371
▁cursor	-9372
▁drops	-9373
▁schemes	-9374
▁motivation	-9375
.).	-9376
▁fewer	-9377
sufficient	-9378
▁diplomatic	-9379
▁insect	-9380
lers	-9381
▁qualities	-9382
▁consolidation	-9383
oline	-9384
▁spacious	-9385
mmet	-9386
▁attor	-9387
▁recur	-9388
▁lng	-9389
▁mistakes	-9390
ele	-9391
▁hazard	-9392
▁vendors	-9393
▁baseball	-9394
bration	-9395
▁llc	-9396
▁separation	-9397
▁declared	-9398
▁healing	-9399
▁slic	-9400
▁orchestra	-9401
▁hello	-9402
▁suspended	-9403
▁francisco	-9404
▁spreading	-9405
▁licensed	-9406
▁gross	-9407
ュー	-9408
▁wars	-9409
▁wrapper	-9410
▁accomplish	-9411
▁globalization	-9412
▁domains	-9413
▁formatting	-9414
▁affecting	-9415
▁luggage	-9416
▁distinctive	-9417
▁hint	-9418
▁strings	-9419
▁metro	-9420
▁masks	-9421
▁kanagawa	-9422
mers	-9423
▁spam	-9424
▁suits	-9425
▁impairment	-9426
▁boys	-9427
eing	-9428
▁beta	-9429
▁imagination	-9430
vide	-9431
▁cables	-9432
▁acknowledge	-9433
▁chiba	-9434
▁rescue	-9435
saving	-9436
▁trains	-9437
▁terrace	-9438
▁spat	-9439
▁soj	-9440
▁tat	-9441
▁mesh	-9442
▁chances	-9443
▁minerals	-9444
▁literally	-9445
employ	-9446
▁donate	-9447
▁spices	-9448
▁silk	-9449
▁gravity	-9450
▁involvement	-9451
▁baking	-9452
▁shibuya	-9453
acles	-9454
▁plasma	-9455
▁billing	-9456
▁hab	-9457
▁discrimination	-9458
cover	-9459
▁situated	-9460
▁aspire	-9461
▁garlic	-9462
▁remarkable	-9463
fp	-9464
▁bare	-9465
▁synthetic	-9466
▁combat	-9467
▁dess	-9468
▁wak	-9469
▁vendor	-9470
▁¶	-9471
▁peninsula	-9472
▁glance	-9473
▁hospitality	-9474
hum	-9475
bling	-9476
▁celebration	-9477
▁gt	-9478
tles	-9479
azawa	-9480
▁screw	-9481
tering	-9482
directory	-9483
sell	-9484
▁obviously	-9485
▁defe	-9486
kei	-9487
pur	-9488
▁crowd	-9489
▁fried	-9490
▁bits	-9491
▁highlighted	-9492
▁tension	-9493
also	-9494
imoto	-9495
▁polymer	-9496
▁physi	-9497
▁forums	-9498
▁attraction	-9499
▁numer	-9500
▁dissol	-9501
▁variations	-9502
adium	-9503
▁affiliate	-9504
▁amed	-9505
▁santa	-9506
▁shade	-9507
rogen	-9508
forced	-9509
▁societies	-9510
▁pushed	-9511
▁farming	-9512
.'	-9513
▁wides	-9514
▁explicitly	-9515
▁calculations	-9516
▁encouraging	-9517
▁noticesrising	-9518
▁appet	-9519
▁editors	-9520
▁mistake	-9521
worth	-9522
▁premie	-9523
▁baggage	-9524
▁centered	-9525
情報	-9526
▁uncom	-9527
▁airline	-9528
▁gly	-9529
▁alloy	-9530
▁ik	-9531
sens	-9532
▁fandom	-9533
▁pilot	-9534
▁observatory	-9535
block	-9536
ariat	-9537
▁cooked	-9538
▁gaining	-9539
▁fantasy	-9540
▁equally	-9541
▁sees	-9542
vable	-9543
forward	-9544
▁amendment	-9545
▁loves	-9546
▁nutri	-9547
sterdam	-9548
▁buyers	-9549
lay	-9550
▁×	-9551
shan	-9552
▁waterfall	-9553
▁accepting	-9554
amatsu	-9555
▁js	-9556
▁rows	-9557
▁tennis	-9558
▁rum	-9559
▁enorm	-9560
agn	-9561
pot	-9562
brow	-9563
▁trem	-9564
▁microwave	-9565
▁allocated	-9566
▁ja	-9567
bow	-9568
▁thursday	-9569
▁glad	-9570
▁speeds	-9571
▁grows	-9572
▁graduation	-9573
available	-9574
matic	-9575
▁pinterest	-9576
▁psychological	-9577
▁gdp	-9578
▁ipv	-9579
▁restriction	-9580
issues	-9581
itud	-9582
▁unch	-9583
▁mb	-9584
▁anonymous	-9585
▁chrom	-9586
▁leveraging	-9587
▁derivative	-9588
▁secured	-9589
▁quad	-9590
▁dessert	-9591
▁verified	-9592
▁attracting	-9593
▁widget	-9594
▁bottles	-9595
▁hier	-9596
▁coupl	-9597
pes	-9598
▁armed	-9599
▁playback	-9600
▁lcd	-9601
▁gorge	-9602
▁guang	-9603
▁walker	-9604
conduct	-9605
▁php	-9606
▁recall	-9607
▁blossoms	-9608
▁lub	-9609
yles	-9610
▁pride	-9611
▁boundaries	-9612
▁visually	-9613
▁wobble	-9614
▁emo	-9615
▁cultivation	-9616
▁deployed	-9617
▁finishing	-9618
▁hospitals	-9619
▁powerpoint	-9620
▁inev	-9621
▁craftsm	-9622
consc	-9623
▁hr	-9624
▁coinc	-9625
▁treasure	-9626
▁integrating	-9627
anted	-9628
igue	-9629
▁monitors	-9630
function	-9631
▁kg	-9632
▁caution	-9633
▁puzz	-9634
▁nest	-9635
▁lovers	-9636
▁coastal	-9637
▁passwords	-9638
▁rit	-9639
imeters	-9640
▁photographer	-9641
▁traders	-9642
▁yahoo	-9643
▁palest	-9644
▁telling	-9645
▁(*	-9646
▁rewards	-9647
▁workload	-9648
rell	-9649
▁sojitz	-9650
▁bicycle	-9651
▁democracy	-9652
compatible	-9653
english	-9654
▁paypal	-9655
▁amsterdam	-9656
▁shinjuku	-9657
▁pulled	-9658
▁consistency	-9659
▁magnitude	-9660
writing	-9661
▁labels	-9662
excluding	-9663
▁jaea	-9664
value	-9665
▁guarantees	-9666
▁buddhism	-9667
▁advised	-9668
▁texts	-9669
rob	-9670
▁kun	-9671
▁ukraine	-9672
▁squee	-9673
▁cave	-9674
▁merc	-9675
▁temples	-9676
▁quarterly	-9677
▁actor	-9678
▁securely	-9679
▁guys	-9680
▁feeding	-9681
pread	-9682
erver	-9683
▁stere	-9684
▁worried	-9685
▁tob	-9686
▁seeks	-9687
▁tungsten	-9688
▁pod	-9689
conscious	-9690
select	-9691
▁anytime	-9692
▁exhibits	-9693
▁governor	-9694
▁coupons	-9695
▁ml	-9696
▁tract	-9697
▁bou	-9698
▁holders	-9699
▁aged	-9700
▁buffer	-9701
▁bent	-9702
▁distinguish	-9703
gered	-9704
▁presenting	-9705
▁uncertainty	-9706
▁gloss	-9707
▁mysterious	-9708
▁examined	-9709
▁tries	-9710
▁mixing	-9711
▁il	-9712
▁rod	-9713
▁acceleration	-9714
▁victory	-9715
▁lung	-9716
▁toxic	-9717
▁failures	-9718
▁incurred	-9719
▁considerations	-9720
loys	-9721
rus	-9722
▁organizing	-9723
▁attendance	-9724
▁ignored	-9725
▁acute	-9726
▁esg	-9727
▁transferring	-9728
▁cisco	-9729
▁configuring	-9730
teen	-9731
▁victor	-9732
▁dogs	-9733
▁cinema	-9734
▁ct	-9735
▁charity	-9736
▁widespread	-9737
▁unw	-9738
▁intensive	-9739
▁excluded	-9740
▁appreciated	-9741
▁peripher	-9742
▁som	-9743
▁cuts	-9744
▁loads	-9745
non	-9746
anium	-9747
▁greek	-9748
▁mars	-9749
▁intends	-9750
▁theoretical	-9751
▁gn	-9752
▁fon	-9753
▁gosp	-9754
▁reactor	-9755
▁traditions	-9756
▁participant	-9757
gener	-9758
▁rt	-9759
▁linking	-9760
▁attachment	-9761
▁settle	-9762
▁vector	-9763
qlo	-9764
download	-9765
actively	-9766
▁sacrif	-9767
▁radioactive	-9768
kan	-9769
▁mak	-9770
▁thereof	-9771
▁floors	-9772
▁membrane	-9773
▁pairs	-9774
▁puts	-9775
business	-9776
▁vag	-9777
▁offerings	-9778
itch	-9779
▁leakage	-9780
▁practically	-9781
ogo	-9782
mentation	-9783
▁heated	-9784
▁currencies	-9785
▁lending	-9786
▁lineup	-9787
▁analyses	-9788
▁mime	-9789
▁sentence	-9790
range	-9791
▁sunset	-9792
▁strap	-9793
oning	-9794
▁favour	-9795
▁salad	-9796
▁secretariat	-9797
cedented	-9798
▁institutes	-9799
▁moderate	-9800
▁aroma	-9801
ico	-9802
▁diesel	-9803
loved	-9804
▁paraly	-9805
▁pulse	-9806
▁steering	-9807
eds	-9808
▁collapse	-9809
security	-9810
effective	-9811
▁administrators	-9812
igence	-9813
people	-9814
▁rush	-9815
▁slope	-9816
▁endeavor	-9817
▁deleting	-9818
▁discontin	-9819
▁jacket	-9820
▁jiuz	-9821
▁hardly	-9822
creating	-9823
acies	-9824
▁ipod	-9825
▁magnificent	-9826
▁wheels	-9827
▁phrase	-9828
▁everybody	-9829
vn	-9830
▁stroke	-9831
▁watched	-9832
▁guru	-9833
▁informations	-9834
▁centuries	-9835
▁tightly	-9836
home	-9837
comput	-9838
▁dioxide	-9839
▁excitement	-9840
▁pixel	-9841
▁rings	-9842
igou	-9843
▁bangl	-9844
▁whereas	-9845
▁inconvenience	-9846
aa	-9847
▁reson	-9848
▁hell	-9849
▁panor	-9850
▁sprink	-9851
▁projected	-9852
▁cruise	-9853
▁specifying	-9854
▁apec	-9855
▁unprecedented	-9856
▁wouldn	-9857
mits	-9858
urious	-9859
▁accompanying	-9860
ila	-9861
max	-9862
▁divisions	-9863
▁simplest	-9864
kes	-9865
▁answered	-9866
▁debut	-9867
▁titled	-9868
▁uploaded	-9869
▁asks	-9870
▁dramatic	-9871
▁relatives	-9872
▁likes	-9873
▁invested	-9874
▁mg	-9875
▁clubs	-9876
ctic	-9877
▁prelim	-9878
▁conditional	-9879
urai	-9880
▁preserved	-9881
▁tiny	-9882
ilder	-9883
▁liked	-9884
ilingual	-9885
▁replacing	-9886
▁quantities	-9887
▁regards	-9888
chem	-9889
▁veter	-9890
▁durability	-9891
your	-9892
international	-9893
▁guo	-9894
▁preliminary	-9895
▁ignore	-9896
▁lip	-9897
▁grateful	-9898
anes	-9899
▁dutch	-9900
▁tact	-9901
post	-9902
▁uniqlo	-9903
▁invention	-9904
▁valve	-9905
ipedia	-9906
ication	-9907
rew	-9908
chat	-9909
▁analyzed	-9910
▁planets	-9911
▁foss	-9912
▁bones	-9913
▁anyway	-9914
▁assignment	-9915
▁audiences	-9916
▁entrepreneur	-9917
erred	-9918
▁swift	-9919
▁mathematical	-9920
pi	-9921
▁disney	-9922
▁piano	-9923
▁multim	-9924
▁ray	-9925
▁surviv	-9926
▁ladies	-9927
▁michael	-9928
▁advancement	-9929
▁basics	-9930
▁eur	-9931
iser	-9932
▁renewal	-9933
▁gy	-9934
▁ow	-9935
▁lively	-9936
kit	-9937
▁pag	-9938
chair	-9939
").	-9940
▁shades	-9941
▁electrom	-9942
uls	-9943
umber	-9944
rams	-9945
built	-9946
space	-9947
▁rede	-9948
▁ginza	-9949
▁americans	-9950
thon	-9951
allow	-9952
▁irre	-9953
▁cow	-9954
▁cod	-9955
ltd	-9956
▁immers	-9957
▁deputy	-9958
▁relaxed	-9959
▁villages	-9960
zan	-9961
▁icons	-9962
▁complications	-9963
oon	-9964
version	-9965
▁upgrading	-9966
▁crowded	-9967
▁eve	-9968
gue	-9969
▁compete	-9970
▁cel	-9971
▁midi	-9972
▁amate	-9973
▁nihon	-9974
▁circular	-9975
▁distant	-9976
▁altitude	-9977
▁tanks	-9978
▁owing	-9979
appropri	-9980
▁connectors	-9981
▁offshore	-9982
cos	-9983
ailing	-9984
▁crude	-9985
alt	-9986
▁oz	-9987
▁ears	-9988
js	-9989
▁worst	-9990
▁dso	-9991
▁moz	-9992
▁retro	-9993
▁prominent	-9994
▁descriptions	-9995
▁considers	-9996
▁shorter	-9997
▁shuttle	-9998
▁tissues	-9999
▁physically	-10000
▁impr	-10001
▁ribbon	-10002
▁voluntary	-10003
▁personalized	-10004
▁sket	-10005
▁fastest	-10006
▁instructor	-10007
▁brightness	-10008
▁amedas	-10009
ferent	-10010
rance	-10011
▁kob	-10012
▁jul	-10013
izations	-10014
▁emer	-10015
▁stayed	-10016
▁voices	-10017
dered	-10018
del	-10019
▁rab	-10020
▁muc	-10021
▁makeup	-10022
▁repay	-10023
▁manages	-10024
▁mileage	-10025
▁needle	-10026
▁invitation	-10027
ensus	-10028
green	-10029
▁turk	-10030
▁pcs	-10031
haigou	-10032
▁geograph	-10033
▁worn	-10034
ascular	-10035
iga	-10036
▁hierarch	-10037
▁lightweight	-10038
▁incoming	-10039
▁conjunction	-10040
▁dos	-10041
▁miz	-10042
▁prefix	-10043
▁amen	-10044
opic	-10045
▁eliminating	-10046
▁grain	-10047
▁overs	-10048
▁donations	-10049
▁virtually	-10050
emption	-10051
▁sri	-10052
▁fake	-10053
▁rainfall	-10054
▁stance	-10055
▁beads	-10056
regular	-10057
base	-10058
▁singing	-10059
▁credentials	-10060
▁troubleshooting	-10061
▁kir	-10062
▁allot	-10063
▁jiuzhaigou	-10064
▁prospects	-10065
▁pier	-10066
▁constitute	-10067
▁adjacent	-10068
▁compass	-10069
▁aggressive	-10070
jan	-10071
orsche	-10072
google	-10073
iah	-10074
▁islam	-10075
ocial	-10076
awn	-10077
ountered	-10078
▁resin	-10079
▁statue	-10080
▁aquar	-10081
▁compile	-10082
▁cheaper	-10083
▁premises	-10084
▁nur	-10085
▁ui	-10086
mates	-10087
▁communicating	-10088
▁importantly	-10089
▁deterioration	-10090
▁breaks	-10091
anto	-10092
▁supreme	-10093
omy	-10094
▁lubric	-10095
▁wherever	-10096
▁expo	-10097
▁inhib	-10098
▁encountered	-10099
boot	-10100
▁impressed	-10101
▁acids	-10102
▁storing	-10103
▁wikipedia	-10104
▁perception	-10105
▁enormous	-10106
▁carries	-10107
▁probability	-10108
fly	-10109
▁advances	-10110
▁congr	-10111
▁incidents	-10112
▁momentum	-10113
▁breakdown	-10114
fish	-10115
▁acquiring	-10116
appro	-10117
ava	-10118
ント	-10119
ipei	-10120
ais	-10121
▁extr	-10122
▁nails	-10123
▁resume	-10124
▁secrets	-10125
▁anxiety	-10126
▁kon	-10127
index	-10128
▁startups	-10129
zing	-10130
ologists	-10131
▁lee	-10132
▁webin	-10133
priv	-10134
▁detectives	-10135
▁reb	-10136
aping	-10137
elled	-10138
lywood	-10139
autions	-10140
▁neat	-10141
▁abuse	-10142
▁pencil	-10143
▁magazines	-10144
▁promising	-10145
▁safeguard	-10146
▁continually	-10147
▁bend	-10148
▁unreal	-10149
▁bearing	-10150
global	-10151
▁machining	-10152
ocal	-10153
rible	-10154
▁gospel	-10155
eling	-10156
▁positioned	-10157
▁loud	-10158
▁insulation	-10159
▁forb	-10160
▁generates	-10161
▁rus	-10162
arness	-10163
▁gad	-10164
▁picked	-10165
national	-10166
ouch	-10167
▁invoice	-10168
▁humanitarian	-10169
▁enemy	-10170
▁incorporating	-10171
▁votes	-10172
estone	-10173
====	-10174
▁infin	-10175
▁utilities	-10176
format	-10177
tail	-10178
▁loops	-10179
ni	-10180
▁vig	-10181
▁wholesale	-10182
▁pursuit	-10183
▁repairing	-10184
vo	-10185
▁rocks	-10186
▁synthesis	-10187
▁mont	-10188
▁defects	-10189
▁ruby	-10190
▁drain	-10191
▁renowned	-10192
▁reflection	-10193
▁casting	-10194
▁wond	-10195
▁salesforce	-10196
▁fortunately	-10197
▁scanner	-10198
▁makers	-10199
▁priorit	-10200
osan	-10201
▁alumn	-10202
▁cc	-10203
▁investigations	-10204
▁tied	-10205
▁yan	-10206
▁credits	-10207
▁protects	-10208
▁climbing	-10209
▁classroom	-10210
▁oils	-10211
▁illumin	-10212
dering	-10213
itively	-10214
apor	-10215
▁menus	-10216
emon	-10217
▁arbitrary	-10218
▁depression	-10219
▁formulated	-10220
aws	-10221
▁bangladesh	-10222
▁seas	-10223
kins	-10224
▁ritual	-10225
▁skilled	-10226
▁donation	-10227
▁lu	-10228
▁quark	-10229
▁prosec	-10230
▁sponsors	-10231
cha	-10232
▁therapeutic	-10233
contact	-10234
▁absorption	-10235
vals	-10236
bridge	-10237
▁okayama	-10238
▁insufficient	-10239
▁clic	-10240
isha	-10241
▁simplified	-10242
leading	-10243
▁purple	-10244
pin	-10245
▁proved	-10246
oe	-10247
▁backed	-10248
lib	-10249
▁teen	-10250
▁postp	-10251
▁syndrome	-10252
▁revers	-10253
▁aws	-10254
▁intuitive	-10255
▁lun	-10256
▁bubble	-10257
master	-10258
▁premier	-10259
mob	-10260
▁ancest	-10261
▁divide	-10262
▁biomass	-10263
▁sendai	-10264
▁rope	-10265
▁shir	-10266
onset	-10267
▁stuck	-10268
▁depreciation	-10269
otherapy	-10270
▁rounded	-10271
▁bust	-10272
▁tailored	-10273
kg	-10274
akusa	-10275
▁distort	-10276
▁enrich	-10277
clo	-10278
▁thy	-10279
▁lithium	-10280
▁filmm	-10281
▁dental	-10282
▁alignment	-10283
▁comparing	-10284
▁respir	-10285
▁boom	-10286
dist	-10287
▁bind	-10288
▁courts	-10289
adays	-10290
aille	-10291
▁walked	-10292
▁wires	-10293
gart	-10294
▁hedge	-10295
▁cellular	-10296
▁consort	-10297
ingly	-10298
driven	-10299
▁pav	-10300
▁shoulder	-10301
▁sponsor	-10302
▁artwork	-10303
▁sr	-10304
▁islamic	-10305
▁luc	-10306
▁suzuki	-10307
▁oscill	-10308
figure	-10309
▁prototype	-10310
▁intake	-10311
▁motorc	-10312
▁timeline	-10313
▁decorations	-10314
▁synchronization	-10315
▁spy	-10316
▁excluding	-10317
▁feas	-10318
▁myth	-10319
▁friction	-10320
fere	-10321
▁advisor	-10322
▁lod	-10323
▁welding	-10324
▁somehow	-10325
▁compressed	-10326
▁shi	-10327
▁reproduction	-10328
▁wound	-10329
sol	-10330
igned	-10331
▁datas	-10332
ergies	-10333
▁shine	-10334
▁inputs	-10335
▁partially	-10336
▁refugees	-10337
▁recipients	-10338
▁disadvantages	-10339
▁luxurious	-10340
▁corrupted	-10341
▁exchanged	-10342
▁lobby	-10343
▁asrock	-10344
utory	-10345
▁condens	-10346
▁tm	-10347
▁merely	-10348
▁displaying	-10349
▁unst	-10350
ulative	-10351
▁partitions	-10352
▁mete	-10353
▁aichi	-10354
▁soviet	-10355
▁shiz	-10356
▁weakness	-10357
▁beautifully	-10358
▁surge	-10359
▁pronoun	-10360
ashed	-10361
▁ov	-10362
asty	-10363
ridge	-10364
▁apolog	-10365
▁weigh	-10366
▁harness	-10367
▁interval	-10368
▁permanently	-10369
▁rendering	-10370
▁hostname	-10371
verages	-10372
▁acoust	-10373
▁prints	-10374
heric	-10375
▁pipes	-10376
.-	-10377
▁dyn	-10378
igious	-10379
▁congrat	-10380
▁bookings	-10381
▁royalty	-10382
ping	-10383
plete	-10384
sters	-10385
▁formatted	-10386
nt	-10387
▁intest	-10388
▁highway	-10389
▁socket	-10390
▁renewed	-10391
▁grants	-10392
▁tackle	-10393
▁realm	-10394
▁differently	-10395
▁fp	-10396
▁vista	-10397
iphone	-10398
▁abol	-10399
▁graduates	-10400
carbon	-10401
▁taipei	-10402
▁yoga	-10403
▁pearl	-10404
▁undefined	-10405
▁beloved	-10406
▁kok	-10407
ala	-10408
ether	-10409
▁assert	-10410
▁tire	-10411
▁accelerated	-10412
▁packed	-10413
▁shortage	-10414
shot	-10415
▁bah	-10416
mac	-10417
▁herself	-10418
▁ie	-10419
▁pic	-10420
▁remarks	-10421
▁linkedin	-10422
▁sword	-10423
▁interim	-10424
▁painful	-10425
iard	-10426
▁metabol	-10427
▁neural	-10428
▁bout	-10429
▁proceeds	-10430
▁append	-10431
▁resorts	-10432
▁stroll	-10433
▁automobiles	-10434
▁opposition	-10435
▁wines	-10436
▁heavily	-10437
▁nowadays	-10438
▁kernel	-10439
esco	-10440
▁anch	-10441
▁ethical	-10442
▁modular	-10443
▁waterproof	-10444
laugh	-10445
▁easing	-10446
▁takah	-10447
▁corros	-10448
▁breathing	-10449
▁slots	-10450
▁strand	-10451
standard	-10452
▁brilliant	-10453
▁tile	-10454
▁dismiss	-10455
▁pst	-10456
▁exter	-10457
▁kawasaki	-10458
▁silent	-10459
▁gps	-10460
▁referring	-10461
▁referen	-10462
▁behavi	-10463
▁employer	-10464
▁evaluating	-10465
▁echo	-10466
▁stadium	-10467
▁patents	-10468
▁clay	-10469
▁rinse	-10470
▁periodic	-10471
▁dimension	-10472
▁registering	-10473
▁alternatively	-10474
ithub	-10475
▁appliance	-10476
.),	-10477
ypes	-10478
▁valued	-10479
sey	-10480
▁mushrooms	-10481
source	-10482
▁matrix	-10483
▁aquarium	-10484
▁blend	-10485
▁charter	-10486
arma	-10487
▁fatigue	-10488
▁pushing	-10489
▁notified	-10490
bd	-10491
▁sli	-10492
▁methodology	-10493
▁hay	-10494
▁resear	-10495
▁washed	-10496
▁braille	-10497
▁donated	-10498
▁wool	-10499
▁pec	-10500
▁cultivated	-10501
▁incredibly	-10502
▁exceeded	-10503
▁kat	-10504
▁musicians	-10505
special	-10506
▁perpet	-10507
▁rolex	-10508
▁yak	-10509
▁aster	-10510
▁accounted	-10511
xi	-10512
▁playlist	-10513
▁panda	-10514
▁moonrise	-10515
▁treasury	-10516
oz	-10517
abi	-10518
▁rays	-10519
▁copied	-10520
▁env	-10521
▁marg	-10522
▁beds	-10523
▁unchanged	-10524
▁doub	-10525
eno	-10526
▁tex	-10527
eon	-10528
▁beans	-10529
▁bypass	-10530
▁forestry	-10531
▁installer	-10532
▁valuation	-10533
▁tremend	-10534
▁advancing	-10535
▁devast	-10536
▁proactively	-10537
▁actu	-10538
▁confirming	-10539
moonset	-10540
▁sorts	-10541
named	-10542
▁carriers	-10543
▁jazz	-10544
▁hygiene	-10545
▁salon	-10546
▁profitable	-10547
▁showcase	-10548
▁simplify	-10549
▁boiling	-10550
wd	-10551
▁cyclone	-10552
▁numerical	-10553
▁extending	-10554
▁edited	-10555
▁talented	-10556
▁kumamoto	-10557
▁sculpture	-10558
▁indonesian	-10559
▁wu	-10560
igata	-10561
▁blocking	-10562
▁spare	-10563
▁hesitate	-10564
▁concerts	-10565
▁seamless	-10566
pressure	-10567
▁subtit	-10568
▁motif	-10569
▁genome	-10570
eared	-10571
▁neighboring	-10572
▁tort	-10573
▁flowing	-10574
▁broke	-10575
▁hanging	-10576
▁cater	-10577
▁testimon	-10578
▁storm	-10579
▁paralymp	-10580
▁approaching	-10581
liferation	-10582
▁fits	-10583
▁brick	-10584
▁juven	-10585
ref	-10586
▁dong	-10587
▁brake	-10588
▁omega	-10589
prot	-10590
▁bytes	-10591
resistant	-10592
▁alumni	-10593
▁auditing	-10594
▁disclaimer	-10595
economic	-10596
▁undergraduate	-10597
▁trick	-10598
▁poet	-10599
▁installations	-10600
▁hurt	-10601
▁snowflake	-10602
grow	-10603
▁galaxies	-10604
▁adjusting	-10605
▁pitch	-10606
ruck	-10607
▁vint	-10608
▁superv	-10609
▁venues	-10610
▁clicks	-10611
▁triggered	-10612
▁streams	-10613
▁downtown	-10614
pad	-10615
erial	-10616
▁canceled	-10617
▁sleeping	-10618
izable	-10619
▁privileges	-10620
▁harsh	-10621
▁paras	-10622
▁oak	-10623
govern	-10624
▁plastics	-10625
▁seaw	-10626
kets	-10627
▁consortium	-10628
▁substantially	-10629
▁decreases	-10630
▁aviation	-10631
▁premiere	-10632
▁demanding	-10633
▁planting	-10634
▁terrorism	-10635
houses	-10636
itives	-10637
▁enters	-10638
ourse	-10639
▁confidentiality	-10640
▁breach	-10641
▁doctoral	-10642
rog	-10643
▁inclusive	-10644
▁revisions	-10645
▁rh	-10646
▁ceram	-10647
▁macos	-10648
▁workforce	-10649
▁quantitative	-10650
▁kh	-10651
mus	-10652
▁statutory	-10653
▁apparently	-10654
share	-10655
▁reuse	-10656
▁minds	-10657
may	-10658
▁strengthened	-10659
ali	-10660
▁mandar	-10661
▁visualization	-10662
▁recycled	-10663
▁belgium	-10664
▁lying	-10665
▁marking	-10666
annel	-10667
▁github	-10668
▁exported	-10669
imity	-10670
▁ctr	-10671
▁relay	-10672
▁strain	-10673
▁wise	-10674
▁breeding	-10675
▁associates	-10676
aria	-10677
▁categor	-10678
▁shipment	-10679
▁pound	-10680
next	-10681
prof	-10682
▁accelerating	-10683
mw	-10684
ugg	-10685
▁relaxation	-10686
bn	-10687
frame	-10688
iac	-10689
▁oracle	-10690
▁favorites	-10691
disciplinary	-10692
▁saves	-10693
endo	-10694
▁invis	-10695
▁ire	-10696
▁irrit	-10697
his	-10698
good	-10699
▁facial	-10700
▁messeng	-10701
watch	-10702
module	-10703
▁..	-10704
atility	-10705
▁executable	-10706
ymph	-10707
▁interference	-10708
▁rc	-10709
▁encod	-10710
rane	-10711
older	-10712
▁subtle	-10713
▁partly	-10714
▁christians	-10715
▁bil	-10716
▁aggregate	-10717
ena	-10718
▁inherent	-10719
▁sincerely	-10720
▁hond	-10721
▁sweden	-10722
personal	-10723
▁routing	-10724
▁arabia	-10725
▁matsu	-10726
▁endless	-10727
▁habits	-10728
yes	-10729
▁lag	-10730
▁antenna	-10731
appropriate	-10732
▁anth	-10733
▁mah	-10734
▁soldiers	-10735
▁executing	-10736
▁respiratory	-10737
▁qing	-10738
▁bullet	-10739
▁recorder	-10740
py	-10741
▁bedroom	-10742
▁exped	-10743
▁declining	-10744
olly	-10745
▁mpm	-10746
▁shipped	-10747
sapp	-10748
▁garbage	-10749
▁multimedia	-10750
tv	-10751
▁continent	-10752
▁commitments	-10753
▁kimono	-10754
atar	-10755
▁unesco	-10756
oa	-10757
tar	-10758
▁pond	-10759
▁dispatch	-10760
▁billiard	-10761
izers	-10762
▁hostel	-10763
▁matched	-10764
proxy	-10765
▁james	-10766
▁salary	-10767
▁electromagnetic	-10768
▁kinder	-10769
▁epic	-10770
ogenic	-10771
▁disturb	-10772
▁fishe	-10773
▁integrations	-10774
asu	-10775
▁saint	-10776
▁delayed	-10777
▁cheer	-10778
▁cleaned	-10779
▁fibers	-10780
▁absorb	-10781
▁combust	-10782
▁laying	-10783
▁refined	-10784
▁gases	-10785
▁mainland	-10786
▁productive	-10787
▁governmental	-10788
asis	-10789
otechn	-10790
▁harass	-10791
▁rhythm	-10792
icit	-10793
▁sins	-10794
▁clone	-10795
▁ds	-10796
▁cath	-10797
▁お	-10798
▁swing	-10799
▁peer	-10800
▁localization	-10801
show	-10802
▁propag	-10803
▁stimulate	-10804
▁planted	-10805
▁buses	-10806
▁debate	-10807
lings	-10808
▁indication	-10809
ection	-10810
▁fortune	-10811
▁disin	-10812
▁elected	-10813
large	-10814
ospace	-10815
▁barriers	-10816
bean	-10817
▁emerged	-10818
lications	-10819
hs	-10820
▁striving	-10821
control	-10822
erson	-10823
▁python	-10824
▁confused	-10825
dev	-10826
▁gadget	-10827
▁dign	-10828
▁ibm	-10829
agent	-10830
shirts	-10831
▁clim	-10832
▁peop	-10833
▁adopting	-10834
classes	-10835
compass	-10836
▁harder	-10837
udo	-10838
▁towel	-10839
▁sampling	-10840
▁mary	-10841
▁guideline	-10842
▁conditioning	-10843
▁endeav	-10844
▁acry	-10845
▁observing	-10846
nas	-10847
onge	-10848
▁salmon	-10849
▁queries	-10850
▁emphasize	-10851
▁explanations	-10852
itance	-10853
▁handmade	-10854
▁airports	-10855
▁continuity	-10856
▁submitting	-10857
▁sulf	-10858
▁cats	-10859
▁blade	-10860
▁differs	-10861
▁concentrated	-10862
▁pressed	-10863
▁positioning	-10864
▁footprint	-10865
late	-10866
▁inexp	-10867
▁anymore	-10868
▁necessity	-10869
▁panic	-10870
▁corn	-10871
▁loyalty	-10872
▁studios	-10873
athon	-10874
▁hiring	-10875
▁msi	-10876
▁backgrounds	-10877
▁printers	-10878
▁flavors	-10879
▁commence	-10880
ek	-10881
▁analysts	-10882
nat	-10883
▁::	-10884
cert	-10885
asions	-10886
iffs	-10887
▁shrink	-10888
▁locked	-10889
▁tastes	-10890
▁cure	-10891
▁gang	-10892
▁prompted	-10893
▁disappoint	-10894
▁undertake	-10895
▁stretc	-10896
▁outlined	-10897
▁fork	-10898
▁ghost	-10899
▁peoples	-10900
▁eternal	-10901
▁improper	-10902
▁transplant	-10903
imeo	-10904
▁expects	-10905
▁contractual	-10906
some	-10907
▁rises	-10908
▁derivatives	-10909
▁sato	-10910
ocation	-10911
▁courage	-10912
▁snacks	-10913
▁heading	-10914
artic	-10915
▁pioneer	-10916
estab	-10917
▁otfe	-10918
▁prestigious	-10919
▁crust	-10920
▁quart	-10921
▁enjoyable	-10922
▁retailers	-10923
▁boasts	-10924
▁schema	-10925
▁assumption	-10926
▁lank	-10927
▁chicago	-10928
▁orb	-10929
▁festive	-10930
▁cleaner	-10931
aky	-10932
▁cough	-10933
▁bonuses	-10934
▁decom	-10935
▁umb	-10936
▁extends	-10937
▁viv	-10938
▁compiler	-10939
▁satellites	-10940
▁controllers	-10941
acts	-10942
▁coordinate	-10943
amel	-10944
▁counterpart	-10945
▁civilization	-10946
▁balancing	-10947
▁probe	-10948
▁traditionally	-10949
▁「	-10950
▁pending	-10951
▁lawyers	-10952
walk	-10953
▁ito	-10954
▁vimeo	-10955
▁ireland	-10956
▁proceeding	-10957
▁settled	-10958
▁generic	-10959
▁yamagata	-10960
▁entrepreneurs	-10961
▁burst	-10962
▁organis	-10963
▁rack	-10964
▁ranges	-10965
▁jap	-10966
▁shelf	-10967
▁euros	-10968
▁shore	-10969
▁yoshi	-10970
ben	-10971
prem	-10972
▁amateur	-10973
▁translations	-10974
▁missions	-10975
▁wrapped	-10976
▁sincere	-10977
▁meteor	-10978
ashima	-10979
▁crimes	-10980
▁matsum	-10981
▁recovering	-10982
iti	-10983
ulent	-10984
▁lantern	-10985
▁meta	-10986
▁mack	-10987
lists	-10988
▁sacred	-10989
▁yamaguchi	-10990
▁pose	-10991
▁baked	-10992
▁agile	-10993
inos	-10994
▁creatures	-10995
▁refreshing	-10996
▁infringement	-10997
▁occasionally	-10998
amo	-10999
▁organisation	-11000
rar	-11001
olis	-11002
▁processors	-11003
lu	-11004
sur	-11005
▁acron	-11006
▁portugu	-11007
iqu	-11008
▁ctrl	-11009
angible	-11010
▁vintage	-11011
▁uf	-11012
script	-11013
photo	-11014
▁ike	-11015
▁strike	-11016
▁drift	-11017
▁alerts	-11018
riber	-11019
▁arises	-11020
▁intimate	-11021
▁isolated	-11022
▁transformed	-11023
vm	-11024
▁atlantic	-11025
ifiable	-11026
inton	-11027
▁liv	-11028
▁weapon	-11029
▁reorgan	-11030
▁mud	-11031
onent	-11032
▁maintains	-11033
▁sufficiently	-11034
vd	-11035
▁funny	-11036
▁thirty	-11037
ulic	-11038
▁fran	-11039
▁thumb	-11040
▁chuo	-11041
▁tokens	-11042
▁definitions	-11043
▁vic	-11044
▁conserv	-11045
▁scot	-11046
ennale	-11047
yuki	-11048
cano	-11049
▁terminate	-11050
▁apis	-11051
▁porsche	-11052
▁outputs	-11053
▁diamonds	-11054
▁withstand	-11055
▁fossil	-11056
▁beverages	-11057
▁utmost	-11058
▁invisible	-11059
alias	-11060
▁willi	-11061
▁mice	-11062
▁mailing	-11063
?”	-11064
▁towns	-11065
omas	-11066
▁trucks	-11067
▁safer	-11068
▁missed	-11069
▁remembered	-11070
▁lifting	-11071
▁ceramics	-11072
ocy	-11073
via	-11074
▁recept	-11075
▁sewing	-11076
icide	-11077
▁elimination	-11078
▁laure	-11079
▁afore	-11080
▁crossing	-11081
▁emphasized	-11082
▁px	-11083
▁assumes	-11084
▁mik	-11085
▁bracelet	-11086
▁grinding	-11087
pd	-11088
▁evolved	-11089
▁accepts	-11090
omei	-11091
▁ranked	-11092
▁programmes	-11093
▁overwhelming	-11094
▁announcements	-11095
▁fonts	-11096
enna	-11097
▁panc	-11098
▁remotely	-11099
],	-11100
▁showc	-11101
▁leasing	-11102
oche	-11103
▁picking	-11104
▁fascinating	-11105
▁mild	-11106
▁sap	-11107
astically	-11108
▁undertaken	-11109
▁scrap	-11110
licity	-11111
prices	-11112
▁seism	-11113
itudes	-11114
▁souls	-11115
▁textile	-11116
oids	-11117
▁forgotten	-11118
ulu	-11119
game	-11120
▁cav	-11121
▁corresponds	-11122
▁broader	-11123
▁calcium	-11124
dk	-11125
▁britain	-11126
▁fisheries	-11127
▁sweat	-11128
▁claimed	-11129
usr	-11130
▁onboard	-11131
around	-11132
▁issuing	-11133
cloud	-11134
▁huang	-11135
idden	-11136
▁payable	-11137
ville	-11138
▁dent	-11139
uni	-11140
osph	-11141
▁hkey	-11142
vc	-11143
▁penalty	-11144
atches	-11145
▁runtime	-11146
ylene	-11147
▁smallest	-11148
▁exceeding	-11149
▁messaging	-11150
ancers	-11151
angular	-11152
▁clause	-11153
▁tanaka	-11154
▁sunrise	-11155
▁exclude	-11156
▁lymph	-11157
▁aerospace	-11158
▁hunting	-11159
▁jac	-11160
▁internship	-11161
▁countless	-11162
▁photoshop	-11163
ycles	-11164
▁cancelled	-11165
▁persistent	-11166
▁conclude	-11167
▁reductions	-11168
▁mothers	-11169
sels	-11170
mult	-11171
▁pid	-11172
▁precautions	-11173
▁denied	-11174
▁unto	-11175
▁instructors	-11176
mother	-11177
▁ingredient	-11178
▁oy	-11179
▁dict	-11180
▁tcp	-11181
▁epid	-11182
▁recycle	-11183
ikes	-11184
ptic	-11185
▁snack	-11186
▁millenn	-11187
▁reit	-11188
▁whis	-11189
▁disks	-11190
▁bak	-11191
aser	-11192
enders	-11193
▁fashionable	-11194
▁foundations	-11195
▁absorbed	-11196
▁unre	-11197
▁copying	-11198
esome	-11199
▁cycles	-11200
▁roast	-11201
▁flooding	-11202
▁sod	-11203
pool	-11204
otion	-11205
heng	-11206
far	-11207
▁wipe	-11208
▁explosion	-11209
▁accumulation	-11210
compan	-11211
▁fabrics	-11212
▁isolation	-11213
opes	-11214
▁gour	-11215
rypt	-11216
▁princess	-11217
▁abnormal	-11218
▁immunity	-11219
▁announces	-11220
▁reasonably	-11221
▁lakes	-11222
▁adhere	-11223
▁sustained	-11224
acco	-11225
▁pel	-11226
▁buffet	-11227
▁lifes	-11228
▁pavil	-11229
▁stopping	-11230
▁implements	-11231
uta	-11232
maker	-11233
got	-11234
▁footer	-11235
▁corrosion	-11236
▁existed	-11237
▁bod	-11238
▁aesthetic	-11239
color	-11240
▁navig	-11241
isen	-11242
▁lacqu	-11243
▁wing	-11244
▁disability	-11245
▁intangible	-11246
▁concurrent	-11247
▁diving	-11248
▁physician	-11249
irth	-11250
▁varied	-11251
▁receiv	-11252
▁amongst	-11253
▁implies	-11254
▁consumed	-11255
into	-11256
yen	-11257
▁chore	-11258
casting	-11259
▁niigata	-11260
▁ty	-11261
▁arrows	-11262
imal	-11263
▁merchand	-11264
aha	-11265
▁hamm	-11266
▁bridges	-11267
▁atmospheric	-11268
apache	-11269
▁ki	-11270
▁vp	-11271
▁encoded	-11272
best	-11273
then	-11274
▁electroly	-11275
▁quote	-11276
▁couples	-11277
▁attendees	-11278
▁constraints	-11279
▁bands	-11280
▁collects	-11281
encoding	-11282
▁enrollment	-11283
▁cleans	-11284
▁cosmetic	-11285
▁hobby	-11286
▁kas	-11287
▁specim	-11288
▁greece	-11289
▁infr	-11290
▁neutr	-11291
▁mystery	-11292
safe	-11293
▁onions	-11294
▁gum	-11295
▁disorder	-11296
▁occasions	-11297
▁pharma	-11298
▁commented	-11299
ictions	-11300
▁equality	-11301
▁lg	-11302
▁nh	-11303
▁beaches	-11304
▁terrible	-11305
▁apologize	-11306
▁qr	-11307
ception	-11308
▁eliminated	-11309
▁foo	-11310
▁rankings	-11311
▁mayor	-11312
▁fallen	-11313
▁imposed	-11314
ubu	-11315
▁steep	-11316
▁theft	-11317
▁sells	-11318
▁inappropriate	-11319
van	-11320
▁handy	-11321
▁accidentally	-11322
▁dispers	-11323
▁filing	-11324
▁),	-11325
project	-11326
▁acrylic	-11327
▁legally	-11328
▁variation	-11329
▁darkness	-11330
▁backpack	-11331
▁soba	-11332
who	-11333
bris	-11334
▁adapted	-11335
▁associating	-11336
▁boarding	-11337
▁exceptions	-11338
▁symp	-11339
▁bapt	-11340
▁shutdown	-11341
▁confusion	-11342
▁concentrate	-11343
▁accessory	-11344
▁foil	-11345
▁hoping	-11346
▁delegation	-11347
mr	-11348
exe	-11349
▁lingu	-11350
unc	-11351
▁kiy	-11352
▁sensing	-11353
hyd	-11354
▁insist	-11355
▁csv	-11356
▁wholly	-11357
▁gi	-11358
▁convin	-11359
▁revitalization	-11360
▁proactive	-11361
▁respondents	-11362
stage	-11363
▁safari	-11364
▁boiled	-11365
▁interfere	-11366
akawa	-11367
▁initiated	-11368
▁traces	-11369
▁volcano	-11370
▁amino	-11371
▁internally	-11372
▁organizer	-11373
▁hydra	-11374
▁dirty	-11375
▁disciples	-11376
▁pap	-11377
▁cottage	-11378
▁afterwards	-11379
▁structured	-11380
▁frust	-11381
▁eaten	-11382
▁spirits	-11383
▁preventive	-11384
▁vaccination	-11385
▁subkey	-11386
▁suppose	-11387
▁consensus	-11388
▁triangle	-11389
anks	-11390
ginza	-11391
▁appearing	-11392
▁exterior	-11393
isan	-11394
▁hors	-11395
▁crazy	-11396
▁alice	-11397
▁evolving	-11398
▁survivors	-11399
▁undergo	-11400
▁assessments	-11401
▁gods	-11402
▁advisable	-11403
▁reinstall	-11404
▁qualitative	-11405
▁checkout	-11406
▁kindergart	-11407
▁―	-11408
イベ	-11409
held	-11410
▁seo	-11411
depth	-11412
▁soccer	-11413
▁infrared	-11414
inch	-11415
rosc	-11416
▁tibetan	-11417
▁fiction	-11418
▁frying	-11419
▁decreasing	-11420
bashi	-11421
airy	-11422
▁tiles	-11423
▁allergic	-11424
▁surplus	-11425
▁fleet	-11426
▁stickers	-11427
▁regulated	-11428
▁queue	-11429
▁emergence	-11430
ulus	-11431
イベント	-11432
agers	-11433
▁strives	-11434
▁consume	-11435
▁bodyguard	-11436
▁shifting	-11437
ethe	-11438
rive	-11439
▁argent	-11440
▁elections	-11441
rights	-11442
▁builds	-11443
irm	-11444
▁whatsapp	-11445
▁debugging	-11446
▁adam	-11447
▁wages	-11448
▁ratings	-11449
▁brack	-11450
▁palestin	-11451
▁loose	-11452
▁rainy	-11453
▁restoring	-11454
▁disappeared	-11455
▁contamination	-11456
acer	-11457
▁neighb	-11458
▁tsukuba	-11459
eni	-11460
▁discussing	-11461
▁lighter	-11462
▁fulfilling	-11463
▁recognizing	-11464
▁syria	-11465
▁simulator	-11466
▁tenants	-11467
cn	-11468
▁carc	-11469
▁labs	-11470
▁poker	-11471
amed	-11472
▁sunny	-11473
esk	-11474
▁simulations	-11475
▁candy	-11476
▁texas	-11477
▁oxid	-11478
▁tubes	-11479
▁knock	-11480
▁beverage	-11481
▁evolve	-11482
▁versatile	-11483
▁balcon	-11484
▁simultaneous	-11485
string	-11486
▁masturb	-11487
▁finland	-11488
▁simp	-11489
▁disco	-11490
▁dar	-11491
▁rust	-11492
▁unfair	-11493
isers	-11494
▁villa	-11495
tor	-11496
▁horn	-11497
▁adaptation	-11498
oi	-11499
ogene	-11500
▁enemies	-11501
▁unp	-11502
lp	-11503
▁foodion	-11504
▁".	-11505
▁utilizes	-11506
▁garage	-11507
elly	-11508
▁sevent	-11509
▁traveler	-11510
▁tobacco	-11511
▁sig	-11512
▁debris	-11513
acon	-11514
▁ventilation	-11515
ructuring	-11516
▁landscapes	-11517
▁amenities	-11518
located	-11519
▁evern	-11520
▁fragrance	-11521
ellas	-11522
▁imports	-11523
zens	-11524
▁bankrupt	-11525
▁backups	-11526
▁evernote	-11527
▁celebrated	-11528
▁pir	-11529
▁inches	-11530
▁strips	-11531
illing	-11532
▁spatial	-11533
▁filtering	-11534
▁productions	-11535
▁prolong	-11536
▁exert	-11537
▁inhabit	-11538
lishes	-11539
▁goodwill	-11540
cost	-11541
▁awesome	-11542
ongi	-11543
▁ug	-11544
▁discom	-11545
▁plugins	-11546
▁jar	-11547
▁suites	-11548
▁tremendous	-11549
▁hood	-11550
▁robert	-11551
▁nobody	-11552
▁sab	-11553
▁chlor	-11554
▁urg	-11555
leep	-11556
▁enact	-11557
ihood	-11558
▁avoiding	-11559
▁overnight	-11560
written	-11561
▁herein	-11562
elihood	-11563
chemical	-11564
▁tumor	-11565
▁blessed	-11566
arer	-11567
知ら	-11568
▁passionate	-11569
bet	-11570
▁illustrations	-11571
winning	-11572
exper	-11573
▁fixing	-11574
▁builder	-11575
imura	-11576
▁nationality	-11577
sheet	-11578
▁exqu	-11579
▁metall	-11580
▁cycling	-11581
▁lenses	-11582
▁freight	-11583
▁omitted	-11584
▁pd	-11585
ranean	-11586
▁committees	-11587
▁naked	-11588
▁caps	-11589
▁folding	-11590
accur	-11591
▁calculating	-11592
▁turkish	-11593
eg	-11594
▁pane	-11595
▁reviewing	-11596
▁shortly	-11597
▁till	-11598
▁outbreak	-11599
▁requesting	-11600
▁gest	-11601
▁judges	-11602
video	-11603
regist	-11604
▁shaped	-11605
▁accomplished	-11606
知らせ	-11607
arity	-11608
▁refine	-11609
▁wavelength	-11610
▁nutrients	-11611
▁comprised	-11612
track	-11613
laughs	-11614
▁artif	-11615
▁quar	-11616
▁stall	-11617
manage	-11618
▁portrait	-11619
white	-11620
▁monument	-11621
▁convinced	-11622
▁dirt	-11623
erel	-11624
▁kanji	-11625
▁vegan	-11626
▁spoken	-11627
▁css	-11628
▁tangible	-11629
▁devoted	-11630
▁likelihood	-11631
▁amendments	-11632
rection	-11633
cultural	-11634
arms	-11635
▁ecological	-11636
▁aliens	-11637
mag	-11638
rup	-11639
▁twel	-11640
▁emotion	-11641
▁kiss	-11642
▁tongue	-11643
▁trash	-11644
otechnology	-11645
igenous	-11646
▁inland	-11647
▁extraction	-11648
▁(@	-11649
anol	-11650
▁geographical	-11651
▁martial	-11652
▁irregular	-11653
▁aforementioned	-11654
iotics	-11655
▁cardio	-11656
▁rejected	-11657
emn	-11658
▁shog	-11659
▁robotics	-11660
▁supplementary	-11661
▁`	-11662
▁profound	-11663
▁paradise	-11664
▁illustration	-11665
▁crops	-11666
▁explos	-11667
▁relate	-11668
▁wlan	-11669
▁detects	-11670
▁thro	-11671
▁abdom	-11672
▁suspect	-11673
alone	-11674
aby	-11675
▁userdir	-11676
fold	-11677
▁calibration	-11678
fire	-11679
▁posture	-11680
▁handed	-11681
▁rotate	-11682
▁examining	-11683
▁albums	-11684
online	-11685
sql	-11686
ppongi	-11687
vin	-11688
count	-11689
▁appra	-11690
▁deciding	-11691
ミュー	-11692
▁moral	-11693
▁curry	-11694
▁grams	-11695
▁gorgeous	-11696
▁dive	-11697
▁injured	-11698
▁searches	-11699
▁benefici	-11700
why	-11701
admin	-11702
shirt	-11703
working	-11704
▁samurai	-11705
▁mercur	-11706
▁pertaining	-11707
▁shizuoka	-11708
▁kamakura	-11709
don	-11710
icure	-11711
▁dynasty	-11712
▁restructuring	-11713
▁centimeters	-11714
▁encompass	-11715
create	-11716
▁amn	-11717
nan	-11718
▁paints	-11719
▁graduating	-11720
spr	-11721
▁jewish	-11722
▁auction	-11723
jet	-11724
▁simulate	-11725
pieces	-11726
▁supporters	-11727
▁broth	-11728
▁protest	-11729
▁umbrell	-11730
itama	-11731
▁json	-11732
▁togoshi	-11733
▁suspend	-11734
▁accommodations	-11735
▁compliant	-11736
inum	-11737
▁cabbage	-11738
▁apr	-11739
▁raid	-11740
ti	-11741
▁wage	-11742
▁progressive	-11743
▁belonging	-11744
▁projection	-11745
owered	-11746
edy	-11747
▁facilitating	-11748
mos	-11749
▁avi	-11750
▁optimum	-11751
father	-11752
▁enrolled	-11753
▁洋	-11754
▁gaps	-11755
▁rits	-11756
▁touched	-11757
▁subway	-11758
▁opposed	-11759
▁®	-11760
▁nights	-11761
icting	-11762
mew	-11763
▁resemb	-11764
usalem	-11765
▁refused	-11766
▁simplicity	-11767
▁minus	-11768
▁scales	-11769
rev	-11770
▁お知らせ	-11771
▁travelling	-11772
▁computational	-11773
▁sensations	-11774
▁crus	-11775
▁alias	-11776
▁phrases	-11777
▁indigenous	-11778
▁rocket	-11779
▁priorities	-11780
bm	-11781
fd	-11782
▁polish	-11783
▁frameworks	-11784
▁refrain	-11785
▁chen	-11786
▁standpoint	-11787
▁wins	-11788
▁fuels	-11789
▁degrad	-11790
bear	-11791
▁inaug	-11792
▁alternatives	-11793
▁landmark	-11794
▁schedules	-11795
▁cig	-11796
human	-11797
▁vienna	-11798
▁injuries	-11799
onna	-11800
▁prost	-11801
▁pathology	-11802
▁oda	-11803
▁unwanted	-11804
▁george	-11805
▁ari	-11806
▁nuts	-11807
▁frontier	-11808
subsc	-11809
▁sas	-11810
▁scattered	-11811
▁praise	-11812
▁gau	-11813
▁reveals	-11814
▁duck	-11815
▁vin	-11816
▁wheat	-11817
▁dozens	-11818
example	-11819
▁silic	-11820
▁culinary	-11821
▁quit	-11822
▁hip	-11823
▁integral	-11824
incompatible	-11825
▁performers	-11826
▁weng	-11827
▁volcan	-11828
ribe	-11829
electric	-11830
▁yours	-11831
umeikan	-11832
▁fud	-11833
▁hemisp	-11834
▁deferred	-11835
▁boats	-11836
▁competitions	-11837
▁winding	-11838
▁georg	-11839
▁evacuation	-11840
▁tier	-11841
▁reaff	-11842
▁pulling	-11843
iso	-11844
▁coral	-11845
▁pants	-11846
▁coach	-11847
dav	-11848
tocho	-11849
▁divor	-11850
▁backdrop	-11851
▁photon	-11852
▁clamp	-11853
▁jerusalem	-11854
▁occupation	-11855
ald	-11856
▁thrown	-11857
▁symptom	-11858
▁combustion	-11859
aly	-11860
▁secondly	-11861
▁asakusa	-11862
rer	-11863
▁dump	-11864
▁cultivate	-11865
demand	-11866
▁glory	-11867
option	-11868
▁conqu	-11869
▁nikkei	-11870
▁desires	-11871
▁fireworks	-11872
▁genre	-11873
▁lovely	-11874
fam	-11875
▁mediter	-11876
▁xin	-11877
▁resolutions	-11878
イベント情報	-11879
▁radical	-11880
inth	-11881
▁parser	-11882
▁cocon	-11883
▁regener	-11884
▁math	-11885
▁episode	-11886
▁arriving	-11887
▁duplicate	-11888
▁mainstream	-11889
aud	-11890
email	-11891
consolid	-11892
▁shink	-11893
▁markers	-11894
▁legendary	-11895
ミューボ	-11896
mewbo	-11897
arel	-11898
----------------	-11899
▁洋楽	-11900
▁vaio	-11901
▁coexist	-11902
▁americas	-11903
▁sep	-11904
alg	-11905
▁lanka	-11906
"),	-11907
▁merchant	-11908
▁investigated	-11909
▁modifications	-11910
▁洋楽ミューボ	-11911
▁employers	-11912
▁salvation	-11913
environ	-11914
▁israeli	-11915
▁piz	-11916
▁delays	-11917
▁sne	-11918
makers	-11919
▁discomfort	-11920
▁assembled	-11921
▁trader	-11922
▁camps	-11923
handler	-11924
rative	-11925
▁subscriber	-11926
▁pent	-11927
▁expressing	-11928
▁tabs	-11929
▁promised	-11930
▁yaman	-11931
ogether	-11932
▁diagnostics	-11933
▁minority	-11934
▁clan	-11935
▁hoimi	-11936
▁matsumoto	-11937
▁tires	-11938
▁inexpensive	-11939
▁distract	-11940
▁medication	-11941
turn	-11942
▁pharmaceuticals	-11943
▁carp	-11944
▁lamps	-11945
▁supplying	-11946
▁kuro	-11947
▁nano	-11948
▁stan	-11949
aste	-11950
olester	-11951
▁gifu	-11952
mount	-11953
▁spite	-11954
▁viral	-11955
▁attempting	-11956
▁aomei	-11957
mentary	-11958
▁messenger	-11959
lfri	-11960
▁vivid	-11961
▁dys	-11962
▁rinp	-11963
ecd	-11964
okes	-11965
▁clut	-11966
▁borrowing	-11967
yan	-11968
tochoh	-11969
▁scientist	-11970
oir	-11971
▁transc	-11972
▁checkbox	-11973
▁scores	-11974
▁rated	-11975
lusions	-11976
ometown	-11977
▁angles	-11978
▁icu	-11979
▁marker	-11980
▁dischar	-11981
▁manipulation	-11982
▁herbs	-11983
mate	-11984
isons	-11985
custom	-11986
▁workflows	-11987
arta	-11988
ilst	-11989
▁theories	-11990
▁souvenirs	-11991
▁genet	-11992
etc	-11993
consum	-11994
▁tendency	-11995
▁psychology	-11996
▁puppet	-11997
▁paralympic	-11998
!)	-11999
ags	-12000
cb	-12001
▁orth	-12002
itored	-12003
▁commodity	-12004
▁excav	-12005
▁practition	-12006
▁perf	-12007
▁nepal	-12008
▁memorable	-12009
▁minato	-12010
▁tiger	-12011
vr	-12012
▁sorting	-12013
lad	-12014
▁avoided	-12015
▁recommends	-12016
sr	-12017
▁customization	-12018
▁curious	-12019
▁ell	-12020
▁uns	-12021
worthy	-12022
hire	-12023
away	-12024
▁mufg	-12025
▁mediterranean	-12026
▁collaps	-12027
▁broch	-12028
▁collaborating	-12029
▁jews	-12030
▁honda	-12031
▁kidney	-12032
▁gates	-12033
otal	-12034
wire	-12035
▁inherited	-12036
▁expectation	-12037
▁ftp	-12038
▁farms	-12039
▁harassment	-12040
▁extens	-12041
▁dome	-12042
▁sixth	-12043
▁beginner	-12044
acity	-12045
▁shirt	-12046
▁geometry	-12047
▁rinpoche	-12048
▁struck	-12049
abul	-12050
▁amplifier	-12051
▁consultant	-12052
▁wings	-12053
▁regret	-12054
▁lined	-12055
▁pavilion	-12056
▁pi	-12057
▁silence	-12058
▁describing	-12059
▁sandw	-12060
▁laz	-12061
▁fles	-12062
▁unemploy	-12063
▁accred	-12064
server	-12065
▁wanting	-12066
▁allowance	-12067
urity	-12068
▁acronis	-12069
ouchi	-12070
▁downloader	-12071
▁thereafter	-12072
▁nagano	-12073
graph	-12074
visor	-12075
▁gulf	-12076
▁ritsumeikan	-12077
▁prefectures	-12078
▁admit	-12079
ludes	-12080
▁thir	-12081
▁importing	-12082
▁hib	-12083
ainted	-12084
▁tricks	-12085
▁guardian	-12086
▁slices	-12087
▁newspapers	-12088
▁disadvantage	-12089
bra	-12090
▁equip	-12091
▁multif	-12092
len	-12093
▁cafes	-12094
▁closure	-12095
▁knitting	-12096
▁composite	-12097
▁deduct	-12098
▁additives	-12099
▁outsourcing	-12100
▁;	-12101
▁gasoline	-12102
▁talents	-12103
idal	-12104
▁arena	-12105
gun	-12106
▁priest	-12107
▁abandoned	-12108
iii	-12109
▁logos	-12110
▁wengui	-12111
▁scoreline	-12112
▁dad	-12113
▁mitigate	-12114
elines	-12115
▁testament	-12116
▁bugs	-12117
▁boundary	-12118
wallpapers	-12119
▁dynamically	-12120
▁vibrant	-12121
▁folded	-12122
▁monitored	-12123
▁whilst	-12124
vereign	-12125
▁alliphone	-12126
▁galleries	-12127
▁surroundings	-12128
▁organisations	-12129
▁welcoming	-12130
▁gramm	-12131
▁dairy	-12132
▁speaks	-12133
▁lifestyles	-12134
record	-12135
▁lawyer	-12136
▁hara	-12137
▁shed	-12138
▁marathon	-12139
▁portuguese	-12140
▁ft	-12141
uxe	-12142
▁pg	-12143
basic	-12144
▁alphabet	-12145
hours	-12146
▁provisioning	-12147
▁eru	-12148
oli	-12149
ressed	-12150
▁plum	-12151
▁mongolia	-12152
▁revolutionary	-12153
▁tes	-12154
▁replen	-12155
▁admitted	-12156
▁tt	-12157
▁ultrasonic	-12158
cul	-12159
anship	-12160
▁accelerator	-12161
▁astellas	-12162
▁inspections	-12163
ochem	-12164
▁upward	-12165
▁lacquer	-12166
▁senses	-12167
▁zoo	-12168
▁testimonials	-12169
▁vaccines	-12170
▁implied	-12171
▁overhead	-12172
▁mercury	-12173
▁accent	-12174
▁imped	-12175
▁hometown	-12176
▁pist	-12177
▁sek	-12178
▁courtes	-12179
▁formulation	-12180
▁dm	-12181
▁tray	-12182
▁kanto	-12183
▁upgrades	-12184
iry	-12185
▁stays	-12186
▁bb	-12187
esium	-12188
▁evident	-12189
▁lifespan	-12190
▁consultations	-12191
▁rs	-12192
▁gd	-12193
▁emerge	-12194
▁sanctions	-12195
▁appar	-12196
▁assure	-12197
▁postal	-12198
iana	-12199
owa	-12200
▁ate	-12201
▁costume	-12202
▁fulfillment	-12203
▁implications	-12204
▁switched	-12205
since	-12206
▁poland	-12207
▁systematic	-12208
▁€	-12209
lot	-12210
save	-12211
▁xia	-12212
▁promises	-12213
▁roppongi	-12214
ysis	-12215
▁girlfri	-12216
ader	-12217
▁lifec	-12218
▁obstacles	-12219
▁wiring	-12220
▁expires	-12221
oct	-12222
▁ginger	-12223
every	-12224
▁chur	-12225
▁tends	-12226
▁vinegar	-12227
▁substitute	-12228
eek	-12229
▁surgical	-12230
consolidated	-12231
▁pumps	-12232
oston	-12233
▁blur	-12234
▁hiroshi	-12235
dney	-12236
▁amnesty	-12237
▁upgraded	-12238
____	-12239
▁prophe	-12240
▁pets	-12241
▁magical	-12242
▁metabolism	-12243
▁flexibly	-12244
▁kod	-12245
▁behaviour	-12246
position	-12247
▁charming	-12248
▁perceived	-12249
▁unclear	-12250
▁whit	-12251
▁slideshow	-12252
▁considerably	-12253
▁animated	-12254
▁tutorials	-12255
▁chubu	-12256
▁nerve	-12257
▁artworks	-12258
▁unstable	-12259
▁treating	-12260
office	-12261
▁blast	-12262
▁hs	-12263
▁exotic	-12264
▁sisters	-12265
▁roller	-12266
iatric	-12267
engine	-12268
omon	-12269
ylon	-12270
▁erase	-12271
▁mk	-12272
▁grav	-12273
▁fate	-12274
▁torque	-12275
▁allergies	-12276
▁practicing	-12277
▁consequence	-12278
▁vou	-12279
▁owns	-12280
▁ker	-12281
▁patience	-12282
▁pillars	-12283
▁lump	-12284
vascular	-12285
▁resilience	-12286
▁interconnect	-12287
▁mater	-12288
otation	-12289
▁unavailable	-12290
▁proximity	-12291
amine	-12292
▁sovereign	-12293
▁orgasm	-12294
▁readily	-12295
▁ics	-12296
▁blackberry	-12297
tub	-12298
▁repet	-12299
▁alcoholic	-12300
▁migrate	-12301
▁penis	-12302
▁limiting	-12303
▁explaining	-12304
▁franç	-12305
▁peripheral	-12306
▁respected	-12307
▁assured	-12308
▁assuming	-12309
▁hazardous	-12310
izen	-12311
▁dolls	-12312
▁footage	-12313
▁lasting	-12314
▁governed	-12315
▁abundance	-12316
▁›	-12317
▁finest	-12318
▁hillary	-12319
▁poured	-12320
▁keen	-12321
▁coconut	-12322
▁vel	-12323
▁extracted	-12324
▁inflammatory	-12325
akh	-12326
harm	-12327
▁letting	-12328
▁rfid	-12329
▁bc	-12330
▁bleeding	-12331
▁reproduce	-12332
▁banner	-12333
▁attorney	-12334
動画	-12335
▁envelo	-12336
▁headed	-12337
▁kanazawa	-12338
▁insects	-12339
▁violent	-12340
celona	-12341
rium	-12342
▁rolls	-12343
▁stol	-12344
▁honored	-12345
▁bronze	-12346
▁downward	-12347
▁exquisite	-12348
▁portugal	-12349
jee	-12350
axis	-12351
▁deaths	-12352
▁uv	-12353
resolution	-12354
▁cease	-12355
itures	-12356
azu	-12357
▁complaint	-12358
▁substrate	-12359
▁poké	-12360
memory	-12361
dic	-12362
anoi	-12363
liest	-12364
▁accumulate	-12365
black	-12366
▁catalyst	-12367
axa	-12368
▁prerequ	-12369
▁spreads	-12370
▁touching	-12371
▁sydney	-12372
▁pointing	-12373
▁hits	-12374
▁chairs	-12375
▁negl	-12376
▁coding	-12377
▁grades	-12378
▁adhesive	-12379
▁fixes	-12380
▁underway	-12381
▁attributed	-12382
▁discipline	-12383
atin	-12384
▁sheep	-12385
▁noticeable	-12386
▁toyo	-12387
▁amuse	-12388
▁swedish	-12389
leum	-12390
ichiro	-12391
▁ted	-12392
▁administer	-12393
▁shu	-12394
rators	-12395
▁comfortably	-12396
▁ripp	-12397
yang	-12398
▁inver	-12399
▁scand	-12400
▁counting	-12401
secure	-12402
▁skirt	-12403
▁chop	-12404
▁gover	-12405
▁prizes	-12406
▁gluc	-12407
▁responded	-12408
uer	-12409
▁comprises	-12410
computer	-12411
▁negatively	-12412
▁carib	-12413
▁workpiece	-12414
▁precip	-12415
▁coloring	-12416
▁mitigation	-12417
▁breakthrough	-12418
cafe	-12419
dated	-12420
▁cholester	-12421
▁troops	-12422
ighth	-12423
▁alpha	-12424
ports	-12425
ston	-12426
▁radar	-12427
irl	-12428
▁slip	-12429
▁hemisphere	-12430
▁advisors	-12431
added	-12432
▁ld	-12433
▁alike	-12434
▁bills	-12435
env	-12436
▁charms	-12437
▁wondering	-12438
▁medal	-12439
▁occupied	-12440
oys	-12441
▁thunder	-12442
▁diversified	-12443
mind	-12444
accept	-12445
▁kindly	-12446
▁superb	-12447
▁invented	-12448
▁prosecution	-12449
▁winds	-12450
▁searched	-12451
eong	-12452
▁spell	-12453
▁balcony	-12454
▁bos	-12455
▁neighbors	-12456
▁swap	-12457
▁disarm	-12458
claim	-12459
▁portions	-12460
▁subscriptions	-12461
okan	-12462
▁encourages	-12463
▁asleep	-12464
▁capacitors	-12465
▁judged	-12466
▁denmark	-12467
▁milan	-12468
▁symmet	-12469
▁predictions	-12470
▁ryu	-12471
▁thinks	-12472
▁inspire	-12473
▁mackerel	-12474
▁phosph	-12475
▁kase	-12476
writer	-12477
▁discipl	-12478
▁wip	-12479
▁shifted	-12480
▁shen	-12481
▁closest	-12482
▁presidential	-12483
xpress	-12484
▁yamamoto	-12485
▁expenditure	-12486
▁elabor	-12487
▁cognitive	-12488
▁null	-12489
chin	-12490
▁horses	-12491
▁organisms	-12492
uard	-12493
▁reboot	-12494
++	-12495
ulators	-12496
▁timeout	-12497
▁professors	-12498
▁specializing	-12499
▁kabuki	-12500
▁fitting	-12501
stock	-12502
▁notable	-12503
▁shifts	-12504
liness	-12505
▁volcanic	-12506
bul	-12507
▁resur	-12508
▁attracts	-12509
contract	-12510
▁stressed	-12511
▁mh	-12512
rors	-12513
▁courtesy	-12514
▁allocate	-12515
▁traveled	-12516
tegr	-12517
▁shaft	-12518
avio	-12519
▁jal	-12520
purpose	-12521
▁playlists	-12522
americ	-12523
▁breed	-12524
▁efficacy	-12525
▁ling	-12526
▁boston	-12527
▁handic	-12528
▁barcelona	-12529
kers	-12530
▁progression	-12531
▁lush	-12532
▁bass	-12533
▁publisher	-12534
▁joints	-12535
▁latency	-12536
▁twelve	-12537
md	-12538
▁hydraulic	-12539
bro	-12540
▁engr	-12541
▁hypothes	-12542
mu	-12543
anger	-12544
▁dignity	-12545
think	-12546
▁yo	-12547
▁examinations	-12548
▁interpreted	-12549
icking	-12550
▁flesh	-12551
▁worthy	-12552
▁correspondence	-12553
▁thesis	-12554
▁decides	-12555
▁cylinder	-12556
atics	-12557
▁comparable	-12558
!!!	-12559
▁removes	-12560
▁newborn	-12561
▁impl	-12562
▁earning	-12563
▁nursery	-12564
disk	-12565
▁symbolic	-12566
▁https	-12567
▁canal	-12568
▁costumes	-12569
▁hin	-12570
▁severity	-12571
isho	-12572
▁slower	-12573
▁shutter	-12574
ims	-12575
▁hormone	-12576
▁saitama	-12577
▁forbidden	-12578
▁manicure	-12579
arts	-12580
▁uc	-12581
▁draws	-12582
▁gpu	-12583
▁ferry	-12584
issors	-12585
▁fragrant	-12586
▁marsh	-12587
▁cass	-12588
▁tears	-12589
▁fulfilled	-12590
abulary	-12591
▁pronounced	-12592
▁eyel	-12593
▁louis	-12594
▁cholesterol	-12595
▁exporting	-12596
xml	-12597
processing	-12598
idec	-12599
▁mastercard	-12600
▁comet	-12601
▁simpler	-12602
▁brazilian	-12603
▁nationals	-12604
▁gays	-12605
▁yama	-12606
▁brussels	-12607
▁ballo	-12608
request	-12609
▁avenue	-12610
▁hiking	-12611
▁motivated	-12612
▁fever	-12613
camp	-12614
▁influences	-12615
beat	-12616
▁revol	-12617
▁sender	-12618
▁stretching	-12619
▁cust	-12620
▁semiconductors	-12621
big	-12622
▁fog	-12623
▁navy	-12624
▁dietary	-12625
learning	-12626
iasm	-12627
▁ultras	-12628
▁shrines	-12629
▁platinum	-12630
▁ecl	-12631
▁churches	-12632
▁laund	-12633
inction	-12634
birth	-12635
▁dealer	-12636
▁pecul	-12637
▁⋆	-12638
ensored	-12639
▁defeat	-12640
▁enhances	-12641
▁copyrights	-12642
▁headphones	-12643
ella	-12644
▁pedest	-12645
▁laptops	-12646
▁fatal	-12647
▁amended	-12648
▁lecturer	-12649
▁ventures	-12650
▁pins	-12651
▁ideally	-12652
▁vulnerabilities	-12653
▁bree	-12654
neum	-12655
▁sequences	-12656
▁buried	-12657
▁showa	-12658
▁contribut	-12659
▁nost	-12660
▁stereo	-12661
▁dubai	-12662
▁merged	-12663
▁resolving	-12664
▁ids	-12665
▁venus	-12666
▁revise	-12667
cas	-12668
▁norms	-12669
▁diod	-12670
▁ammon	-12671
▁hurry	-12672
▁helic	-12673
▁lotte	-12674
▁overflow	-12675
▁estimation	-12676
▁lining	-12677
▁kasei	-12678
▁nash	-12679
▁melting	-12680
istor	-12681
osphere	-12682
▁governing	-12683
▁sg	-12684
▁vocal	-12685
▁scheduling	-12686
▁mobil	-12687
▁seamlessly	-12688
arians	-12689
▁prague	-12690
▁daiichi	-12691
▁amounted	-12692
▁warranties	-12693
▁hate	-12694
▁envelope	-12695
php	-12696
▁quarant	-12697
▁michel	-12698
bitious	-12699
▁penetration	-12700
var	-12701
▁dw	-12702
▁aux	-12703
▁passive	-12704
▁pottery	-12705
▁nomination	-12706
▁kindergarten	-12707
▁desper	-12708
kk	-12709
▁fatty	-12710
▁apparel	-12711
▁appetite	-12712
▁vocabulary	-12713
▁gloves	-12714
▁understands	-12715
▁jak	-12716
▁satan	-12717
▁timer	-12718
nals	-12719
electron	-12720
ati	-12721
uno	-12722
▁bing	-12723
▁wolf	-12724
▁sharply	-12725
)?	-12726
▁recordings	-12727
▁demonstrates	-12728
▁biden	-12729
left	-12730
▁irr	-12731
▁stove	-12732
▁iconic	-12733
▁litigation	-12734
▁legisl	-12735
▁ufj	-12736
▁crystals	-12737
▁neur	-12738
▁sail	-12739
▁shipments	-12740
oral	-12741
sea	-12742
mobile	-12743
▁entrusted	-12744
stan	-12745
▁weaving	-12746
▁joseph	-12747
▁peel	-12748
▁stolen	-12749
▁ecosystems	-12750
▁rinc	-12751
▁velo	-12752
▁capturing	-12753
▁slim	-12754
▁warmth	-12755
▁briefly	-12756
yard	-12757
▁puzzle	-12758
大学	-12759
▁oxford	-12760
▁struggling	-12761
ependent	-12762
many	-12763
▁quake	-12764
▁distributors	-12765
ctr	-12766
▁cn	-12767
▁itiner	-12768
▁monster	-12769
enth	-12770
▁iwate	-12771
▁peculiar	-12772
▁dani	-12773
▁commemorative	-12774
”).	-12775
▁pharmac	-12776
▁inviting	-12777
▁corrected	-12778
▁dancers	-12779
▁kii	-12780
▁rigid	-12781
▁capacitor	-12782
▁twitcasting	-12783
uto	-12784
▁nets	-12785
▁slash	-12786
▁tenant	-12787
bons	-12788
▁attain	-12789
▁austria	-12790
▁dealers	-12791
▁ngos	-12792
▁norway	-12793
▁chiy	-12794
▁pays	-12795
▁vod	-12796
▁descript	-12797
▁longest	-12798
▁ping	-12799
▁pokémon	-12800
▁steak	-12801
uit	-12802
▁carro	-12803
although	-12804
▁hanoi	-12805
▁neglect	-12806
▁shadows	-12807
▁lifecycle	-12808
▁enthusiasm	-12809
emia	-12810
itional	-12811
▁tolerance	-12812
vard	-12813
▁columb	-12814
▁trunk	-12815
▁nancy	-12816
▁hierarchy	-12817
▁riken	-12818
phony	-12819
▁wan	-12820
apple	-12821
▁boast	-12822
▁cakes	-12823
▁outlets	-12824
▁briefing	-12825
▁detector	-12826
▁dorjee	-12827
inate	-12828
▁beside	-12829
▁incentives	-12830
▁flagship	-12831
▁candle	-12832
▁rinchen	-12833
▁scholars	-12834
due	-12835
▁nise	-12836
▁faqs	-12837
▁rugby	-12838
▁clarity	-12839
▁wildlife	-12840
▁nig	-12841
▁fostering	-12842
▁representations	-12843
▁potato	-12844
▁incorporates	-12845
orig	-12846
▁wand	-12847
ulsion	-12848
det	-12849
bted	-12850
atched	-12851
▁renovation	-12852
import	-12853
▁varnish	-12854
except	-12855
oot	-12856
enza	-12857
▁expenditures	-12858
thew	-12859
▁ket	-12860
▁repairs	-12861
ージ	-12862
▁cleared	-12863
foo	-12864
▁quartz	-12865
▁rotating	-12866
▁quotes	-12867
▁sof	-12868
channel	-12869
▁sticks	-12870
▁mant	-12871
collect	-12872
▁urine	-12873
▁launches	-12874
▁hdd	-12875
▁eduard	-12876
▁lane	-12877
zhen	-12878
▁behaviors	-12879
▁collaborations	-12880
▁sexually	-12881
▁phases	-12882
▁molding	-12883
▁odd	-12884
▁centralized	-12885
▁lav	-12886
▁repayment	-12887
▁otsu	-12888
▁hereby	-12889
isk	-12890
▁infinite	-12891
▁dum	-12892
▁putin	-12893
▁empire	-12894
▁desktops	-12895
▁shelter	-12896
incial	-12897
▁ebook	-12898
ea	-12899
▁clusters	-12900
▁automate	-12901
▁qualification	-12902
▁maz	-12903
▁ambitious	-12904
▁weekends	-12905
actic	-12906
▁terminated	-12907
sha	-12908
iver	-12909
▁rfc	-12910
▁grey	-12911
▁nike	-12912
▁hoped	-12913
delete	-12914
nut	-12915
▁pant	-12916
▁microorgan	-12917
zed	-12918
assis	-12919
▁motorcycle	-12920
▁positively	-12921
social	-12922
▁occupational	-12923
▁chan	-12924
▁declare	-12925
▁argue	-12926
program	-12927
▁rolled	-12928
▁coupled	-12929
dong	-12930
onan	-12931
▁travels	-12932
network	-12933
▁fasten	-12934
▁angry	-12935
▁burned	-12936
▁striking	-12937
▁ordinance	-12938
company	-12939
▁harbor	-12940
▁clauses	-12941
▁branding	-12942
▁apples	-12943
▁clearing	-12944
▁tapping	-12945
▁surprisingly	-12946
▁vene	-12947
har	-12948
▁dx	-12949
▁optimizing	-12950
htt	-12951
▁reef	-12952
pective	-12953
▁hil	-12954
energy	-12955
operation	-12956
▁ube	-12957
▁beliefs	-12958
iliary	-12959
▁frequencies	-12960
▁cups	-12961
▁fairness	-12962
▁gameplay	-12963
▁nakamura	-12964
▁{	-12965
approx	-12966
▁waist	-12967
▁wrist	-12968
▁optionally	-12969
jav	-12970
osho	-12971
▁miyagi	-12972
▁arrested	-12973
▁oxide	-12974
▁decentral	-12975
▁idle	-12976
iseido	-12977
▁harmonious	-12978
▁correlation	-12979
▁bucket	-12980
▁tomatoes	-12981
pand	-12982
backs	-12983
▁stating	-12984
▁fox	-12985
▁nidec	-12986
▁sic	-12987
▁backend	-12988
▁yon	-12989
▁nich	-12990
fortable	-12991
▁fairy	-12992
▁bib	-12993
▁fudosan	-12994
▁respects	-12995
▁annex	-12996
▁battles	-12997
▁contrad	-12998
▁signatures	-12999
▁argentina	-13000
▁gradual	-13001
adv	-13002
mart	-13003
▁lands	-13004
▁sphere	-13005
▁ue	-13006
prec	-13007
▁killing	-13008
▁sodium	-13009
▁sticker	-13010
▁aligned	-13011
▁arabic	-13012
▁dvds	-13013
▁mechanics	-13014
▁florida	-13015
ders	-13016
shima	-13017
▁tempt	-13018
▁alleged	-13019
▁resum	-13020
management	-13021
▁beforehand	-13022
▁wealthy	-13023
▁dun	-13024
▁kenya	-13025
▁ranks	-13026
▁futures	-13027
flo	-13028
oster	-13029
▁hans	-13030
▁unfor	-13031
▁suicide	-13032
▁dated	-13033
▁amusement	-13034
▁popul	-13035
cession	-13036
▁juicy	-13037
nsic	-13038
▁kik	-13039
▁violate	-13040
▁incentive	-13041
because	-13042
▁petroleum	-13043
▁antibiotics	-13044
▁acoustic	-13045
▁boots	-13046
artment	-13047
names	-13048
▁anchor	-13049
▁slowdown	-13050
ssi	-13051
▁motherboard	-13052
▁turbo	-13053
berries	-13054
▁nitrogen	-13055
▁cumulative	-13056
alle	-13057
▁cooler	-13058
▁terrorist	-13059
sei	-13060
▁disarmament	-13061
▁matt	-13062
▁scissors	-13063
include	-13064
▁tomato	-13065
eva	-13066
▁pla	-13067
▁nobel	-13068
iop	-13069
▁gui	-13070
▁dominant	-13071
▁useless	-13072
▁architects	-13073
▁populations	-13074
▁gay	-13075
raising	-13076
▁boutique	-13077
▁clearance	-13078
▁provincial	-13079
uga	-13080
▁livest	-13081
▁bunch	-13082
▁identifies	-13083
itter	-13084
▁alternate	-13085
▁standardized	-13086
azing	-13087
▁rape	-13088
▁silicone	-13089
▁investigating	-13090
▁timber	-13091
▁halls	-13092
invest	-13093
▁astronaut	-13094
▁kobayashi	-13095
▁enclosed	-13096
np	-13097
abs	-13098
▁corrid	-13099
▁triple	-13100
▁sib	-13101
omori	-13102
▁bru	-13103
account	-13104
rous	-13105
plane	-13106
▁journalists	-13107
▁fraction	-13108
▁juvenile	-13109
▁caribbean	-13110
fulness	-13111
▁xr	-13112
▁tuning	-13113
▁caching	-13114
▁sapphire	-13115
hots	-13116
sign	-13117
▁reserv	-13118
▁ishi	-13119
▁sofa	-13120
▁mysql	-13121
▁callig	-13122
▁kay	-13123
▁conductor	-13124
▁borrowings	-13125
▁coil	-13126
rust	-13127
▁multilateral	-13128
▁unite	-13129
ugawa	-13130
▁origins	-13131
▁hormones	-13132
▁taxation	-13133
imm	-13134
eller	-13135
meter	-13136
▁liters	-13137
▁martin	-13138
▁writes	-13139
▁milestone	-13140
fm	-13141
▁seating	-13142
▁possession	-13143
health	-13144
▁annoy	-13145
▁fool	-13146
▁shoe	-13147
▁hyogo	-13148
▁taiwanese	-13149
▁garn	-13150
▁drilling	-13151
▁unve	-13152
▁embrace	-13153
▁broadband	-13154
▁illum	-13155
annon	-13156
▁throat	-13157
▁craftsmen	-13158
▁sang	-13159
▁tones	-13160
▁discard	-13161
▁honorary	-13162
lit	-13163
rose	-13164
▁earliest	-13165
▁ultrasound	-13166
▁denial	-13167
▁takahashi	-13168
▁ifrs	-13169
▁compositions	-13170
▁midst	-13171
api	-13172
▁furnace	-13173
▁stimulation	-13174
gence	-13175
rip	-13176
▁cavity	-13177
▁turbine	-13178
▁thomas	-13179
▁tribun	-13180
▁leap	-13181
▁apparatus	-13182
▁enqu	-13183
▁gastro	-13184
▁stagn	-13185
▁berries	-13186
▁brewery	-13187
omp	-13188
▁contracting	-13189
▁photographers	-13190
orph	-13191
▁delighted	-13192
▁prospective	-13193
▁privilege	-13194
▁eliminates	-13195
▁okay	-13196
▁lasts	-13197
▁sprinkle	-13198
▁melt	-13199
▁floods	-13200
enabled	-13201
・・	-13202
▁cardiovascular	-13203
▁carriage	-13204
aware	-13205
▁playstation	-13206
▁lamb	-13207
▁assessed	-13208
▁snapshot	-13209
▁niseko	-13210
▁ming	-13211
▁sleeve	-13212
▁originated	-13213
▁conclusions	-13214
▁resell	-13215
▁warnings	-13216
▁guil	-13217
▁shoulders	-13218
places	-13219
▁deactiv	-13220
zbe	-13221
▁catast	-13222
▁spiral	-13223
▁socks	-13224
▁moistur	-13225
entions	-13226
▁quietly	-13227
▁champion	-13228
▁evaluations	-13229
▁uncertainties	-13230
▁pulp	-13231
▁borne	-13232
▁overlook	-13233
rey	-13234
▁filming	-13235
▁lawsu	-13236
▁takeda	-13237
▁plaster	-13238
▁graphical	-13239
compl	-13240
▁drew	-13241
heart	-13242
soever	-13243
▁dressed	-13244
brand	-13245
▁exempt	-13246
▁revel	-13247
▁jones	-13248
ussy	-13249
▁aids	-13250
▁mamm	-13251
▁quakes	-13252
▁chassis	-13253
infl	-13254
▁sketch	-13255
▁silhou	-13256
angel	-13257
▁packing	-13258
▁shiseido	-13259
▁compensate	-13260
wheel	-13261
▁streamline	-13262
mv	-13263
▁sata	-13264
▁uploading	-13265
wiki	-13266
▁deflation	-13267
children	-13268
▁competing	-13269
agne	-13270
established	-13271
”),	-13272
▁freel	-13273
▁expressly	-13274
▁wheelchair	-13275
▁organism	-13276
▁vicinity	-13277
abu	-13278
super	-13279
▁français	-13280
▁yoshida	-13281
sales	-13282
▁slider	-13283
▁confront	-13284
▁merchandise	-13285
▁standardization	-13286
▁pneum	-13287
yon	-13288
▁bean	-13289
second	-13290
▁diego	-13291
▁impressions	-13292
▁rip	-13293
▁behave	-13294
▁greens	-13295
▁coordinated	-13296
▁collision	-13297
▁jiang	-13298
▁bake	-13299
▁haneda	-13300
▁tran	-13301
▁compromise	-13302
▁integrates	-13303
▁differential	-13304
object	-13305
shine	-13306
▁nishi	-13307
▁gourmet	-13308
oly	-13309
▁collectively	-13310
▁iee	-13311
▁trades	-13312
▁panoramic	-13313
▁nozz	-13314
oman	-13315
official	-13316
▁surpass	-13317
▁miso	-13318
ancial	-13319
▁rendered	-13320
▁basin	-13321
▁onlines	-13322
▁shelves	-13323
▁races	-13324
markets	-13325
othe	-13326
rier	-13327
▁researches	-13328
▁punishment	-13329
▁permits	-13330
cards	-13331
▁firstly	-13332
▁attempted	-13333
▁releasing	-13334
ubeni	-13335
▁districts	-13336
▁divine	-13337
▁bookmarks	-13338
spot	-13339
igi	-13340
enable	-13341
dry	-13342
▁wax	-13343
▁yarn	-13344
▁academia	-13345
keys	-13346
▁upt	-13347
▁bali	-13348
▁coatings	-13349
▁emoji	-13350
▁laravel	-13351
▁heroes	-13352
▁scripting	-13353
bat	-13354
igan	-13355
▁femin	-13356
▁satisfying	-13357
zu	-13358
pop	-13359
▁baths	-13360
▁casio	-13361
▁guiding	-13362
▁artifacts	-13363
▁chronograph	-13364
▁visualize	-13365
▁minh	-13366
▁grains	-13367
▁cigare	-13368
los	-13369
▁documented	-13370
▁glow	-13371
▁eag	-13372
▁gaku	-13373
▁mere	-13374
indust	-13375
spring	-13376
natural	-13377
▁skiing	-13378
▁grave	-13379
▁petals	-13380
▁remedies	-13381
▁unders	-13382
▁sculptures	-13383
isy	-13384
▁rar	-13385
▁bears	-13386
▁tariff	-13387
▁torrent	-13388
▁astronomical	-13389
▁escal	-13390
▁acquisitions	-13391
▁sights	-13392
▁len	-13393
▁shots	-13394
▁funded	-13395
▁erad	-13396
▁drastically	-13397
unds	-13398
▁inaccur	-13399
▁curios	-13400
▁projections	-13401
sofar	-13402
▁ramp	-13403
▁urge	-13404
▁chiyoda	-13405
▁generous	-13406
rones	-13407
▁shik	-13408
▁conversions	-13409
▁arctic	-13410
aleus	-13411
hatt	-13412
▁onlinesaleus	-13413
edit	-13414
▁wellness	-13415
▁jen	-13416
▁soda	-13417
▁postcard	-13418
▁fluctuation	-13419
▁sons	-13420
▁metres	-13421
ogram	-13422
▁electrons	-13423
event	-13424
akyushu	-13425
▁induct	-13426
▁atoms	-13427
▁byte	-13428
▁illumination	-13429
▁dus	-13430
forcing	-13431
two	-13432
▁undertaking	-13433
▁kor	-13434
▁oem	-13435
▁daniel	-13436
▁northeast	-13437
▁sorted	-13438
▁kits	-13439
▁singles	-13440
▁pend	-13441
▁sv	-13442
april	-13443
▁journals	-13444
uing	-13445
▁cort	-13446
erm	-13447
▁prostate	-13448
▁μ	-13449
cessor	-13450
▁geographic	-13451
fledged	-13452
eous	-13453
▁shake	-13454
▁advertisers	-13455
▁judicial	-13456
▁suspected	-13457
▁girlfriend	-13458
iology	-13459
▁dealt	-13460
▁listened	-13461
▁doses	-13462
▁evenly	-13463
plate	-13464
ucid	-13465
▁oceans	-13466
▁anticipate	-13467
ien	-13468
▁pizza	-13469
▁depicted	-13470
▁multilingual	-13471
▁writers	-13472
research	-13473
▁favourite	-13474
cache	-13475
media	-13476
▁caring	-13477
▁hotelsearch	-13478
iyo	-13479
▁elevation	-13480
▁cracks	-13481
▁inhabitants	-13482
▁rooted	-13483
▁orch	-13484
▁catastrop	-13485
▁relying	-13486
▁congest	-13487
take	-13488
▁kot	-13489
▁actress	-13490
▁semester	-13491
▁consultants	-13492
▁pasta	-13493
science	-13494
▁laundry	-13495
▁diary	-13496
asses	-13497
tan	-13498
▁screws	-13499
▁stairs	-13500
▁straightforward	-13501
▁venice	-13502
override	-13503
▁uncomfortable	-13504
▁antar	-13505
▁reinforced	-13506
ask	-13507
▁umbrella	-13508
sement	-13509
▁babies	-13510
▁referenced	-13511
sures	-13512
▁elevator	-13513
▁ener	-13514
▁medi	-13515
▁ruling	-13516
▁abandon	-13517
isal	-13518
▁solic	-13519
▁preval	-13520
▁whatsoever	-13521
nom	-13522
▁archae	-13523
▁fragments	-13524
▁preserving	-13525
ulin	-13526
▁flip	-13527
▁remedy	-13528
▁volatility	-13529
hai	-13530
▁conveniently	-13531
▁suck	-13532
ructive	-13533
▁constitutes	-13534
private	-13535
modified	-13536
▁colours	-13537
▁forecasting	-13538
▁walks	-13539
▁repaired	-13540
▁territories	-13541
▁grip	-13542
akami	-13543
▁promoter	-13544
▁seismic	-13545
▁nominal	-13546
▁pas	-13547
▁tune	-13548
▁diver	-13549
week	-13550
▁elevated	-13551
subscribe	-13552
▁readiness	-13553
elt	-13554
▁bubbles	-13555
▁commissioned	-13556
▁gw	-13557
▁pursued	-13558
▁mega	-13559
▁descend	-13560
▁carbo	-13561
▁loving	-13562
▁expired	-13563
production	-13564
▁selects	-13565
▁facilitates	-13566
▁lips	-13567
▁municipalities	-13568
bery	-13569
raphy	-13570
lining	-13571
▁incons	-13572
▁vegas	-13573
heim	-13574
▁·	-13575
▁ancestors	-13576
▁degradation	-13577
▁designation	-13578
▁rio	-13579
▁organizers	-13580
tls	-13581
▁embark	-13582
▁cree	-13583
▁incomplete	-13584
▁dressing	-13585
▁freeze	-13586
ogeneous	-13587
▁titanium	-13588
▁supervisor	-13589
▁bitter	-13590
▁takashi	-13591
▁pt	-13592
▁compilation	-13593
▁manufactures	-13594
▁renovated	-13595
▁distributor	-13596
▁versus	-13597
oresc	-13598
▁vip	-13599
▁inbound	-13600
autom	-13601
▁hats	-13602
▁assessing	-13603
live	-13604
hell	-13605
▁expresses	-13606
▁distributions	-13607
▁eleph	-13608
▁scans	-13609
president	-13610
aust	-13611
▁retailing	-13612
sule	-13613
▁whist	-13614
▁muslims	-13615
▁eligibility	-13616
▁physiological	-13617
▁palette	-13618
ayer	-13619
▁consul	-13620
▁unforget	-13621
▁betting	-13622
▁dozen	-13623
▁noon	-13624
osa	-13625
frequ	-13626
▁qualifications	-13627
gc	-13628
series	-13629
development	-13630
bled	-13631
rings	-13632
▁attachments	-13633
▁borrowed	-13634
▁approximate	-13635
estamp	-13636
▁politicians	-13637
▁uter	-13638
▁counseling	-13639
▁parade	-13640
▁learners	-13641
▁bob	-13642
▁females	-13643
▁saus	-13644
▁franch	-13645
rued	-13646
▁unfold	-13647
▁spouse	-13648
▁nickname	-13649
▁guangzhou	-13650
▁shogun	-13651
▁meditation	-13652
▁fron	-13653
▁approached	-13654
▁keynote	-13655
owed	-13656
accessible	-13657
▁ghz	-13658
▁float	-13659
foot	-13660
▁displace	-13661
▁reservoir	-13662
▁saga	-13663
▁void	-13664
▁chefs	-13665
ferential	-13666
▁innoc	-13667
▁upstream	-13668
▁pse	-13669
▁pyram	-13670
▁warned	-13671
▁gambling	-13672
fy	-13673
▁integer	-13674
▁masterpiece	-13675
▁nuances	-13676
yping	-13677
border	-13678
▁presum	-13679
▁fs	-13680
▁cement	-13681
▁creations	-13682
▁bundle	-13683
▁outdoors	-13684
ilians	-13685
▁sauna	-13686
▁booked	-13687
▁methane	-13688
lihood	-13689
▁tian	-13690
▁warri	-13691
▁forefront	-13692
▁unforgettable	-13693
▁insofar	-13694
▁dosage	-13695
▁fitted	-13696
▁scriptalias	-13697
▁listings	-13698
▁elucid	-13699
quart	-13700
▁qualcomm	-13701
▁prolonged	-13702
▁glor	-13703
▁editorial	-13704
▁counted	-13705
▁acknowledged	-13706
▁hind	-13707
▁ueno	-13708
holding	-13709
▁intervals	-13710
▁economical	-13711
▁tvs	-13712
▁hike	-13713
▁singer	-13714
▁contractors	-13715
▁scalable	-13716
▁livelihood	-13717
▁ornam	-13718
▁impacted	-13719
▁ros	-13720
▁preset	-13721
▁dd	-13722
▁alp	-13723
▁alas	-13724
▁finder	-13725
▁collateral	-13726
imo	-13727
▁validate	-13728
▁hollywood	-13729
▁radius	-13730
▁energet	-13731
▁failing	-13732
▁rss	-13733
▁obliged	-13734
▁complimentary	-13735
ogi	-13736
▁indirectly	-13737
▁publishers	-13738
▁ieee	-13739
▁prede	-13740
hattan	-13741
pg	-13742
commit	-13743
▁portray	-13744
seen	-13745
▁immense	-13746
▁hairstyle	-13747
▁marubeni	-13748
job	-13749
files	-13750
▁merchants	-13751
▁breeze	-13752
▁quarantine	-13753
▁maturity	-13754
▁microorganisms	-13755
▁versa	-13756
happ	-13757
▁spoon	-13758
▁ruins	-13759
▁disinfect	-13760
▁craw	-13761
▁blogs	-13762
▁wigs	-13763
▁interpreter	-13764
▁contrain	-13765
▁inevitable	-13766
▁ns	-13767
▁adversely	-13768
▁ark	-13769
quest	-13770
▁prophet	-13771
je	-13772
▁swipe	-13773
▁absent	-13774
▁allowoverride	-13775
▁acclaim	-13776
▁appealing	-13777
▁’	-13778
▁carn	-13779
▁jakarta	-13780
▁accidental	-13781
▁microb	-13782
▁pillow	-13783
▁twpublic	-13784
enh	-13785
▁dawn	-13786
▁recruiting	-13787
▁hiv	-13788
▁multic	-13789
▁uncensored	-13790
ishima	-13791
▁christianity	-13792
loss	-13793
▁lev	-13794
▁tasting	-13795
▁bee	-13796
antly	-13797
▁bra	-13798
▁hach	-13799
▁employing	-13800
temper	-13801
▁brewing	-13802
▁carrots	-13803
▁genres	-13804
▁indexes	-13805
▁allotment	-13806
▁kw	-13807
▁anger	-13808
▁admins	-13809
▁sellers	-13810
▁reliably	-13811
▁forex	-13812
▁posters	-13813
▁continuation	-13814
▁unemployment	-13815
onto	-13816
▁metric	-13817
▁tiff	-13818
▁criticism	-13819
▁calories	-13820
▁vertically	-13821
utsch	-13822
▁admire	-13823
▁mixer	-13824
▁cyp	-13825
▁diligence	-13826
chers	-13827
clean	-13828
filter	-13829
estones	-13830
▁touches	-13831
ran	-13832
▁controvers	-13833
▁millennium	-13834
▁torn	-13835
▁hunger	-13836
▁shouldn	-13837
▁adjustable	-13838
▁clinton	-13839
gres	-13840
▁dal	-13841
eur	-13842
etermin	-13843
▁unused	-13844
▁charles	-13845
▁curiosity	-13846
▁employs	-13847
▁lowering	-13848
▁rainbow	-13849
▁teaches	-13850
▁slave	-13851
loading	-13852
▁deluxe	-13853
▁redund	-13854
▁pools	-13855
▁diplomacy	-13856
breaking	-13857
itations	-13858
▁boiler	-13859
hea	-13860
▁adhe	-13861
▁pref	-13862
▁trusts	-13863
▁sliding	-13864
▁greeting	-13865
dog	-13866
▁humanities	-13867
aco	-13868
▁impose	-13869
▁eager	-13870
▁awak	-13871
▁cozy	-13872
▁cosplay	-13873
▁appendix	-13874
▁mai	-13875
▁velocity	-13876
▁damp	-13877
▁squeeze	-13878
▁vhost	-13879
▁whereby	-13880
▁translator	-13881
▁cnc	-13882
mid	-13883
yam	-13884
▁heuer	-13885
▁boring	-13886
ctl	-13887
▁monet	-13888
▁champagne	-13889
▁transforming	-13890
▁eyebrow	-13891
▁sacrifice	-13892
▁sash	-13893
duc	-13894
▁hiding	-13895
▁brighter	-13896
▁inbox	-13897
▁midnight	-13898
three	-13899
▁admissions	-13900
entry	-13901
jud	-13902
uters	-13903
powered	-13904
▁expands	-13905
mn	-13906
▁toll	-13907
▁disciplines	-13908
▁pussy	-13909
▁reconstruct	-13910
yoshi	-13911
▁flags	-13912
▁varying	-13913
▁compassion	-13914
▁coordinates	-13915
▁superconduct	-13916
▁treasures	-13917
▁incorrectly	-13918
▁abbre	-13919
▁drone	-13920
especially	-13921
▁basketball	-13922
▁slopes	-13923
▁vapor	-13924
▁bunk	-13925
▁jica	-13926
▁auxiliary	-13927
▁grandmother	-13928
itt	-13929
▁squares	-13930
▁conservative	-13931
stick	-13932
▁essay	-13933
▁manhattan	-13934
hedral	-13935
▁lotus	-13936
▁strongest	-13937
iny	-13938
▁sf	-13939
▁replication	-13940
anabe	-13941
▁retreat	-13942
buk	-13943
▁pockets	-13944
▁regulator	-13945
▁flux	-13946
uggish	-13947
▁candles	-13948
▁boun	-13949
▁habitat	-13950
izz	-13951
▁comparative	-13952
const	-13953
▁suspicious	-13954
▁cape	-13955
))	-13956
▁stup	-13957
▁william	-13958
▁missile	-13959
▁typing	-13960
mant	-13961
wave	-13962
▁florist	-13963
▁jpeg	-13964
hetics	-13965
onents	-13966
obs	-13967
▁bmw	-13968
▁catholic	-13969
uh	-13970
▁photographic	-13971
balance	-13972
▁supermarket	-13973
▁sluggish	-13974
▁accompany	-13975
▁comprehensively	-13976
▁mutually	-13977
▁lia	-13978
▁cylind	-13979
▁impaired	-13980
awara	-13981
▁sag	-13982
icket	-13983
temperature	-13984
▁encouragement	-13985
error	-13986
▁amort	-13987
▁webinars	-13988
▁childbirth	-13989
circ	-13990
▁moons	-13991
▁kai	-13992
opl	-13993
▁spicy	-13994
▁infer	-13995
avi	-13996
▁countryside	-13997
▁pale	-13998
▁hungry	-13999
too	-14000
desk	-14001
iliation	-14002
▁strands	-14003
▁companion	-14004
▁neckl	-14005
▁prevented	-14006
▁toyama	-14007
▁fermentation	-14008
oen	-14009
▁ej	-14010
third	-14011
▁magnesium	-14012
▁towels	-14013
▁packets	-14014
▁constructing	-14015
▁nc	-14016
▁resilient	-14017
▁ore	-14018
editor	-14019
intro	-14020
▁coordinator	-14021
▁interviewed	-14022
ahara	-14023
▁fires	-14024
▁dropping	-14025
xp	-14026
phot	-14027
▁adc	-14028
▁unsu	-14029
▁onion	-14030
▁quoted	-14031
▁freezing	-14032
▁shamp	-14033
▁socio	-14034
▁cooled	-14035
pub	-14036
esis	-14037
▁cann	-14038
▁sentences	-14039
▁refunds	-14040
▁hex	-14041
was	-14042
▁subtitles	-14043
▁approve	-14044
▁miracle	-14045
gard	-14046
▁stap	-14047
▁offenses	-14048
▁sensation	-14049
item	-14050
kong	-14051
▁jord	-14052
▁decis	-14053
prom	-14054
▁manuals	-14055
▁seventh	-14056
▁sut	-14057
▁analyzes	-14058
ipper	-14059
▁cocktail	-14060
▁enjoys	-14061
▁cooperating	-14062
▁kara	-14063
▁peng	-14064
▁tomb	-14065
▁peaks	-14066
▁totaled	-14067
▁prosecut	-14068
▁diagnosed	-14069
▁contraindic	-14070
lass	-14071
▁_	-14072
news	-14073
▁deutsch	-14074
▁plc	-14075
links	-14076
▁iceland	-14077
▁seattle	-14078
▁lut	-14079
status	-14080
▁bite	-14081
bearing	-14082
▁liu	-14083
▁hdmi	-14084
▁backing	-14085
▁glucose	-14086
▁mandarake	-14087
hard	-14088
▁amp	-14089
▁vest	-14090
▁practiced	-14091
lop	-14092
digital	-14093
▁vagina	-14094
▁bom	-14095
▁endeavors	-14096
▁jas	-14097
▁piv	-14098
▁adaptive	-14099
▁richard	-14100
kai	-14101
▁removable	-14102
▁leon	-14103
▁danish	-14104
mode	-14105
▁aizu	-14106
▁chopped	-14107
nai	-14108
▁jim	-14109
▁ups	-14110
oubted	-14111
smart	-14112
▁enlarge	-14113
▁tale	-14114
▁grapes	-14115
▁fid	-14116
▁clarified	-14117
▁nutritional	-14118
▁mozilla	-14119
▁bending	-14120
▁highlighting	-14121
——	-14122
▁anom	-14123
▁sham	-14124
▁revival	-14125
▁erotic	-14126
blue	-14127
▁metallic	-14128
▁celebrating	-14129
▁sinking	-14130
emen	-14131
▁chaos	-14132
quartered	-14133
▁wag	-14134
cafee	-14135
▁constell	-14136
pex	-14137
itably	-14138
▁mrs	-14139
school	-14140
▁cg	-14141
▁encounters	-14142
ashing	-14143
▁victoria	-14144
march	-14145
▁frost	-14146
▁hypert	-14147
▁dependence	-14148
▁ci	-14149
▁kus	-14150
▁grammar	-14151
▁acquaint	-14152
▁scott	-14153
▁shortcuts	-14154
▁kos	-14155
▁dots	-14156
▁captures	-14157
▁sunshine	-14158
▁feasibility	-14159
▁rectangular	-14160
▁jaxa	-14161
tra	-14162
▁suscept	-14163
blog	-14164
▁packs	-14165
▁pilgr	-14166
▁scholarships	-14167
▁intim	-14168
hal	-14169
mill	-14170
xtures	-14171
▁aspir	-14172
▁timestamp	-14173
hod	-14174
ipation	-14175
onymous	-14176
▁delegates	-14177
▁retired	-14178
▁severely	-14179
▁spoil	-14180
▁lex	-14181
urities	-14182
▁carpet	-14183
hei	-14184
▁yeast	-14185
▁barrel	-14186
▁imprison	-14187
??	-14188
orus	-14189
▁lottery	-14190
▁subjected	-14191
▁allies	-14192
▁bene	-14193
▁undoubted	-14194
▁comprising	-14195
▁dare	-14196
▁oita	-14197
▁ethere	-14198
▁contaminated	-14199
▁kurita	-14200
▁detecting	-14201
▁wastewater	-14202
▁incarn	-14203
▁alexander	-14204
make	-14205
▁nec	-14206
▁bias	-14207
▁sits	-14208
▁supplements	-14209
▁dying	-14210
▁reside	-14211
▁nurture	-14212
▁hormonal	-14213
▁equivalents	-14214
risk	-14215
▁barg	-14216
▁cliff	-14217
▁matcha	-14218
▁routers	-14219
▁contacted	-14220
obu	-14221
zi	-14222
elier	-14223
▁distances	-14224
▁poles	-14225
▁emitted	-14226
joh	-14227
▁ishikawa	-14228
acet	-14229
▁anat	-14230
▁fears	-14231
▁racer	-14232
.*	-14233
▁tumors	-14234
▁centres	-14235
iders	-14236
ritis	-14237
▁dean	-14238
▁hose	-14239
voltage	-14240
▁georgia	-14241
▁shining	-14242
▁accountability	-14243
▁escort	-14244
▁shib	-14245
tee	-14246
▁hyal	-14247
▁tribunal	-14248
▁disruption	-14249
▁researching	-14250
.:	-14251
▁barb	-14252
▁mucous	-14253
▁ions	-14254
▁conventions	-14255
story	-14256
▁glued	-14257
▁lifted	-14258
tte	-14259
▁wallets	-14260
agree	-14261
▁rectangle	-14262
▁enhancements	-14263
▁sir	-14264
▁continental	-14265
▁jon	-14266
▁towers	-14267
cool	-14268
▁theaters	-14269
▁flame	-14270
▁zhang	-14271
▁refugee	-14272
▁reass	-14273
▁scarf	-14274
▁rabbit	-14275
activity	-14276
▁meantime	-14277
ribution	-14278
▁fx	-14279
▁courty	-14280
▁origami	-14281
▁cancellations	-14282
▁nhk	-14283
▁interacting	-14284
▁supermarkets	-14285
andex	-14286
▁smith	-14287
▁palestinian	-14288
auto	-14289
adog	-14290
▁hect	-14291
▁www	-14292
▁oriental	-14293
▁curls	-14294
▁molecule	-14295
▁fc	-14296
gian	-14297
notes	-14298
▁consp	-14299
▁debian	-14300
▁mug	-14301
▁relies	-14302
▁cv	-14303
▁kb	-14304
▁lone	-14305
▁mindset	-14306
▁equation	-14307
qual	-14308
▁hover	-14309
▁billions	-14310
▁irrad	-14311
itus	-14312
▁costly	-14313
erate	-14314
▁spill	-14315
▁consuming	-14316
▁raises	-14317
▁pointer	-14318
▁hawaiian	-14319
▁kagoshima	-14320
▁anton	-14321
▁depri	-14322
▁overhe	-14323
▁nostalg	-14324
▁righteous	-14325
▁microscope	-14326
▁historically	-14327
▁pillar	-14328
▁currents	-14329
▁fluoresc	-14330
redict	-14331
▁agrees	-14332
material	-14333
▁lum	-14334
▁behavioral	-14335
▁intersection	-14336
▁sys	-14337
▁loses	-14338
▁hungarian	-14339
▁oist	-14340
▁bh	-14341
▁vms	-14342
▁mcafee	-14343
▁terrain	-14344
ipse	-14345
▁identifiable	-14346
zym	-14347
▁leaks	-14348
▁modest	-14349
▁scaling	-14350
uity	-14351
inces	-14352
▁syll	-14353
▁commander	-14354
▁citizenship	-14355
▁prayers	-14356
changing	-14357
▁glossary	-14358
▁reinforcement	-14359
▁pile	-14360
robe	-14361
pandora	-14362
ioxid	-14363
▁stimulating	-14364
chart	-14365
heet	-14366
▁blessing	-14367
▁influenza	-14368
bone	-14369
▁ntfs	-14370
▁residual	-14371
▁spont	-14372
▁lijiang	-14373
▁deepening	-14374
▁excuse	-14375
.’	-14376
▁shorts	-14377
▁conceptual	-14378
course	-14379
content	-14380
▁rally	-14381
▁fluff	-14382
settings	-14383
▁pharmacy	-14384
▁specializes	-14385
lam	-14386
thread	-14387
▁brass	-14388
▁responsive	-14389
▁calligraphy	-14390
▁proportions	-14391
▁chim	-14392
▁́	-14393
royalty	-14394
▁gauge	-14395
▁poorly	-14396
▁establishes	-14397
▁cinem	-14398
▁gdpr	-14399
▁pledge	-14400
▁geological	-14401
▁mirrors	-14402
▁initiate	-14403
▁poetry	-14404
kore	-14405
▁redemption	-14406
▁gs	-14407
▁bache	-14408
▁opponent	-14409
▁swelling	-14410
pol	-14411
▁halal	-14412
▁beneath	-14413
▁wishing	-14414
▁astronomers	-14415
▁dissemination	-14416
▁lions	-14417
vention	-14418
▁breathe	-14419
▁perceive	-14420
▁dp	-14421
▁unic	-14422
▁jordan	-14423
▁deformation	-14424
▁onc	-14425
close	-14426
▁cf	-14427
▁中文	-14428
focus	-14429
▁shout	-14430
’.	-14431
▁ig	-14432
▁parcel	-14433
▁elegance	-14434
crit	-14435
▁biotechnology	-14436
arse	-14437
▁philippine	-14438
▁antioxid	-14439
▁digestive	-14440
arbon	-14441
▁webpage	-14442
▁aeon	-14443
static	-14444
▁kazakh	-14445
▁edits	-14446
▁skies	-14447
▁conting	-14448
▁lacking	-14449
▁formulate	-14450
▁expecting	-14451
▁probation	-14452
▁voy	-14453
▁fancy	-14454
▁airplane	-14455
▁threatened	-14456
shr	-14457
▁recreation	-14458
▁peru	-14459
▁hallow	-14460
ovo	-14461
icultural	-14462
▁inaccessible	-14463
▁inability	-14464
▁underwater	-14465
[...]
