<unk>	0
<s>	0
</s>	0
▁the	-3.08259
,	-3.27927
.	-3.33811
▁of	-3.75908
▁to	-3.8145
▁and	-3.81659
s	-4.11371
▁a	-4.20921
▁in	-4.25738
▁is	-4.54304
▁for	-4.83481
-	-4.94945
▁that	-5.05358
▁with	-5.11034
▁on	-5.1732
▁you	-5.18058
▁The	-5.31648
▁be	-5.34121
▁are	-5.34743
▁as	-5.42214
▁it	-5.42774
▁(	-5.56782
▁from	-5.59539
▁by	-5.60004
▁can	-5.60037
▁will	-5.64425
▁or	-5.65449
'	-5.67986
▁this	-5.70929
▁not	-5.71576
▁I	-5.73986
:	-5.78878
)	-5.84168
▁your	-5.862
▁at	-5.92559
▁have	-5.9284
▁an	-5.97207
▁was	-6.0491
▁"	-6.11316
ing	-6.12706
▁we	-6.13077
▁In	-6.14501
▁	-6.16801
▁has	-6.2097
▁which	-6.24873
▁-	-6.36624
ed	-6.38776
▁also	-6.40895
▁our	-6.41678
▁all	-6.42313
’	-6.44328
t	-6.46499
"	-6.53682
▁more	-6.54132
▁their	-6.5435
▁but	-6.54517
▁time	-6.54952
d	-6.59537
▁This	-6.6
▁It	-6.60389
▁other	-6.61326
▁use	-6.61596
▁one	-6.65618
▁A	-6.69474
▁such	-6.70484
▁Japan	-6.70792
▁We	-6.72565
▁about	-6.73232
?	-6.74085
▁its	-6.74327
▁new	-6.76392
▁If	-6.77038
▁they	-6.78293
▁so	-6.80229
▁file	-6.82088
▁information	-6.82713
▁when	-6.83504
▁there	-6.84179
▁been	-6.84934
▁do	-6.85288
▁if	-6.88291
▁only	-6.93365
/	-6.95962
▁people	-6.96907
▁who	-6.9721
▁may	-6.97466
▁any	-6.98754
▁data	-7.01333
▁into	-7.02354
▁up	-7.02748
ly	-7.02833
▁out	-7.02916
▁You	-7.09065
▁were	-7.1144
▁make	-7.11695
▁system	-7.1319
▁them	-7.13679
▁first	-7.14262
▁these	-7.14725
er	-7.1528
▁used	-7.16289
▁should	-7.17027
▁like	-7.17594
▁business	-7.17614
▁work	-7.17664
▁need	-7.18094
S	-7.18128
▁through	-7.19701
▁than	-7.19834
▁year	-7.24007
!	-7.24302
▁To	-7.25103
e	-7.25334
▁no	-7.25446
▁“	-7.25897
▁.	-7.27007
▁Japanese	-7.27521
▁well	-7.27606
▁he	-7.28196
▁how	-7.28562
▁For	-7.28718
▁after	-7.29506
▁many	-7.30447
▁using	-7.30551
▁most	-7.30599
▁world	-7.33014
▁my	-7.34459
▁his	-7.34845
▁very	-7.36312
▁then	-7.3653
▁what	-7.36694
▁some	-7.36848
_	-7.37406
▁high	-7.39135
).	-7.39905
y	-7.40728
re	-7.42663
▁over	-7.42673
▁each	-7.42972
▁where	-7.43938
▁would	-7.44174
▁us	-7.47141
▁two	-7.47552
▁see	-7.47782
▁|	-7.47798
▁2	-7.48851
▁same	-7.49471
▁number	-7.49932
▁years	-7.50356
▁As	-7.51751
;	-7.52031
▁had	-7.52069
▁get	-7.52829
▁want	-7.52892
▁1	-7.53312
▁way	-7.53559
▁3	-7.53949
▁even	-7.54034
▁different	-7.55362
in	-7.55608
▁order	-7.55998
▁products	-7.57503
▁take	-7.57968
th	-7.58318
▁must	-7.58915
m	-7.58934
▁between	-7.59265
▁company	-7.59989
▁made	-7.60735
o	-7.60942
▁including	-7.60975
▁When	-7.62289
a	-7.63104
▁development	-7.6337
▁support	-7.63406
al	-7.63573
▁help	-7.66875
▁S	-7.68006
▁–	-7.69715
▁just	-7.69806
▁application	-7.69877
▁because	-7.69902
▁&	-7.69913
D	-7.70449
▁under	-7.70487
▁services	-7.70534
n	-7.71039
▁open	-7.72167
▁long	-7.72283
r	-7.7272
A	-7.73322
i	-7.73557
▁There	-7.73754
▁service	-7.74965
▁important	-7.75392
or	-7.75847
▁find	-7.76071
▁files	-7.7618
▁while	-7.77053
▁does	-7.77157
▁without	-7.77211
”	-7.77678
▁now	-7.78
▁me	-7.78208
▁day	-7.78255
▁set	-7.78457
▁those	-7.78646
▁available	-7.78684
▁case	-7.78697
▁Group	-7.79061
▁following	-7.79082
▁management	-7.79279
▁process	-7.7962
▁And	-7.79767
es	-7.80154
▁before	-7.80523
C	-7.81162
),	-7.81756
▁during	-7.82452
▁How	-7.82997
▁part	-7.83508
▁own	-7.83853
2	-7.83932
▁program	-7.8436
▁water	-7.8562
▁provide	-7.85679
▁could	-7.85697
▁Company	-7.85911
▁based	-7.86157
▁change	-7.86175
▁device	-7.86198
▁computer	-7.86275
▁good	-7.86477
▁both	-7.86489
▁research	-7.86597
▁[	-7.86854
▁around	-7.87805
▁go	-7.87889
▁best	-7.88496
▁possible	-7.88629
▁various	-7.88654
▁here	-7.88836
▁place	-7.88863
▁life	-7.8929
▁right	-7.90043
▁addition	-7.90193
▁However	-7.90523
▁necessary	-7.90962
▁power	-7.91194
▁know	-7.91526
▁product	-7.9216
▁market	-7.92217
▁Windows	-7.92546
▁University	-7.92607
]	-7.92997
▁At	-7.93679
▁re	-7.93983
▁create	-7.94026
▁able	-7.94307
▁10	-7.94334
▁example	-7.94352
▁B	-7.94713
▁said	-7.949
▁But	-7.95038
I	-7.95121
G	-7.956
▁software	-7.96501
▁design	-7.96667
▁experience	-7.96721
▁companies	-7.96873
▁Tokyo	-7.97485
▁After	-7.9756
▁technology	-7.9799
▁C	-7.98744
▁being	-7.98929
▁With	-7.99165
▁end	-7.99544
▁much	-8.00078
▁back	-8.00269
▁value	-8.00292
▁E	-8.00548
▁free	-8.00921
▁He	-8.01922
▁area	-8.02079
▁extension	-8.02407
▁future	-8.02569
▁4	-8.02839
▁What	-8.03349
▁activities	-8.03526
▁her	-8.03548
to	-8.03924
▁name	-8.04407
▁project	-8.04663
▁three	-8.04792
▁large	-8.05187
▁due	-8.05531
▁user	-8.05652
▁still	-8.06406
▁customers	-8.0643
g	-8.06811
▁website	-8.07067
▁5	-8.07455
▁video	-8.07692
▁quality	-8.08219
▁On	-8.08442
▁local	-8.08529
▁small	-8.08619
▁countries	-8.09113
▁within	-8.09649
▁U	-8.09912
▁period	-8.10488
▁access	-8.10732
▁So	-8.11276
▁every	-8.11746
M	-8.11799
▁since	-8.11868
K	-8.12348
▁think	-8.12736
F	-8.12911
▁personal	-8.13286
B	-8.13886
▁environment	-8.14284
▁/	-8.15681
▁page	-8.1573
The	-8.16353
▁students	-8.16359
▁another	-8.16441
▁working	-8.16669
▁etc	-8.1683
▁T	-8.17241
T	-8.17319
▁account	-8.17321
▁All	-8.17342
▁start	-8.1746
▁become	-8.17916
▁production	-8.18108
▁They	-8.18373
▁financial	-8.18474
▁control	-8.18869
▁result	-8.18933
▁New	-8.1895
▁performance	-8.1924
▁special	-8.19627
▁level	-8.19984
▁international	-8.20155
▁type	-8.20216
▁increase	-8.20271
▁Please	-8.20684
▁Information	-8.20788
▁global	-8.20827
▁look	-8.20895
▁G	-8.21278
▁next	-8.21967
▁please	-8.22055
(	-8.2249
▁current	-8.22661
▁come	-8.23306
▁content	-8.2378
▁P	-8.23859
▁form	-8.24108
▁:	-8.24366
▁click	-8.24433
▁O	-8.24996
▁home	-8.25072
on	-8.25088
▁results	-8.25115
ers	-8.25506
▁site	-8.25724
▁shall	-8.25883
▁group	-8.26063
▁main	-8.26402
▁list	-8.26444
▁No	-8.26463
▁R	-8.2673
▁users	-8.26775
c	-8.27036
com	-8.27094
▁held	-8.27331
▁problems	-8.2767
ve	-8.27774
▁person	-8.27981
▁great	-8.27982
▁million	-8.28144
▁down	-8.28175
▁above	-8.28707
▁better	-8.29163
▁China	-8.29709
▁Our	-8.29725
P	-8.29726
▁M	-8.29727
▁last	-8.2997
▁version	-8.29989
able	-8.30164
▁full	-8.30663
▁method	-8.30921
▁International	-8.31044
."	-8.31111
ll	-8.31234
3	-8.31318
▁amount	-8.31449
▁energy	-8.31568
▁making	-8.31659
▁course	-8.3197
▁always	-8.32256
▁sales	-8.32879
▁required	-8.32976
V	-8.33393
▁English	-8.33491
▁real	-8.3373
▁public	-8.33898
▁often	-8.34182
▁don	-8.34187
▁did	-8.34391
▁contact	-8.34486
▁event	-8.3456
▁human	-8.34579
▁network	-8.35206
▁top	-8.35249
▁systems	-8.35282
▁children	-8.35809
▁point	-8.36254
▁body	-8.36487
▁country	-8.37069
▁view	-8.37176
▁materials	-8.37327
▁social	-8.37582
▁security	-8.37654
1	-8.38064
▁give	-8.38152
▁K	-8.38383
▁industry	-8.38536
▁N	-8.38749
▁cannot	-8.38816
▁she	-8.38853
▁days	-8.38901
▁7	-8.38949
▁online	-8.39035
▁put	-8.39185
E	-8.39447
▁means	-8.3958
▁continue	-8.39692
▁problem	-8.39864
▁These	-8.39934
▁further	-8.40303
▁food	-8.40559
▁Co	-8.41184
▁check	-8.41249
▁e	-8.41743
▁space	-8.41944
▁D	-8.42232
▁policy	-8.42547
k	-8.42812
▁select	-8.43154
▁several	-8.43277
4	-8.43403
▁changes	-8.43413
▁city	-8.43628
▁By	-8.43672
▁growth	-8.43771
▁together	-8.43861
▁second	-8.44051
▁off	-8.44192
▁already	-8.44315
▁below	-8.44388
▁team	-8.44504
▁installed	-8.44538
h	-8.44657
W	-8.44702
▁6	-8.45448
▁found	-8.45783
▁material	-8.45849
▁risk	-8.46052
▁lot	-8.46344
▁called	-8.46443
▁share	-8.46448
▁per	-8.4669
N	-8.46714
▁price	-8.47043
▁provided	-8.47314
p	-8.47414
▁try	-8.47631
▁things	-8.47663
▁operating	-8.47817
the	-8.47822
▁8	-8.47862
▁him	-8.47918
▁line	-8.48077
▁related	-8.48227
▁20	-8.48345
▁range	-8.48467
▁button	-8.48573
▁un	-8.48589
▁needs	-8.48651
▁few	-8.49226
▁field	-8.49282
▁devices	-8.49397
▁light	-8.49445
▁members	-8.49574
▁school	-8.49798
▁F	-8.49994
▁address	-8.50253
▁image	-8.50492
▁key	-8.50648
▁easy	-8.51109
▁choose	-8.51155
▁enjoy	-8.51363
▁add	-8.5143
▁rate	-8.51519
▁Do	-8.52363
▁yen	-8.52479
▁applications	-8.52569
▁H	-8.52582
▁customer	-8.52605
▁conditions	-8.52731
▁United	-8.52785
▁side	-8.52789
▁third	-8.52813
▁car	-8.52918
▁download	-8.52931
▁'	-8.53008
▁feel	-8.53359
ity	-8.53377
l	-8.53613
ation	-8.53811
x	-8.5384
b	-8.5418
▁specific	-8.54256
▁again	-8.54369
▁size	-8.54392
▁issues	-8.54793
▁de	-8.5519
▁government	-8.55379
▁game	-8.55445
en	-8.55649
▁fiscal	-8.56061
▁too	-8.56235
▁room	-8.56314
▁features	-8.56343
▁offer	-8.56361
▁Center	-8.56379
▁March	-8.56563
u	-8.56859
▁allows	-8.57091
▁fact	-8.57259
▁include	-8.57388
▁God	-8.57448
▁low	-8.57602
▁Re	-8.57662
f	-8.57813
▁non	-8.5784
X	-8.57932
▁sure	-8.58213
▁hand	-8.58365
H	-8.58483
▁Management	-8.58507
▁areas	-8.58592
▁Business	-8.5931
▁12	-8.59496
▁show	-8.59696
▁L	-8.5977
▁plan	-8.59783
▁items	-8.59887
▁operation	-8.59929
▁rights	-8.60009
▁About	-8.60031
▁option	-8.60089
▁equipment	-8.60177
▁really	-8.6025
▁improve	-8.6027
▁provides	-8.60469
▁understand	-8.60626
▁app	-8.60839
ion	-8.61235
▁today	-8.61242
▁works	-8.61313
▁family	-8.61317
▁society	-8.61339
O	-8.61613
▁times	-8.62022
▁simple	-8.62136
up	-8.62185
no	-8.6226
▁V	-8.62432
▁model	-8.62545
▁created	-8.62777
▁building	-8.62908
▁total	-8.63011
▁An	-8.63215
st	-8.63496
▁state	-8.63551
▁live	-8.6366
▁ensure	-8.63708
▁One	-8.6371
▁economic	-8.63974
▁left	-8.64003
▁From	-8.64172
▁appropriate	-8.64561
▁among	-8.64614
▁Service	-8.64618
▁store	-8.64732
▁natural	-8.64756
▁health	-8.64799
▁until	-8.65046
5	-8.65085
▁old	-8.65145
▁solution	-8.65191
▁little	-8.65221
▁cost	-8.65494
▁hard	-8.65527
▁against	-8.65675
an	-8.65709
▁function	-8.65724
▁might	-8.66162
▁employees	-8.66259
▁run	-8.66265
▁details	-8.6671
▁popular	-8.66853
▁tool	-8.66982
▁email	-8.67203
▁learn	-8.67326
▁something	-8.67587
▁developed	-8.67611
▁15	-8.67702
▁date	-8.678
▁money	-8.67954
▁less	-8.68236
▁Contact	-8.68324
▁screen	-8.68382
▁Asia	-8.6843
▁Internet	-8.68459
▁card	-8.6855
▁difficult	-8.68577
▁drive	-8.68639
▁started	-8.68708
▁minutes	-8.68723
▁say	-8.68977
ness	-8.6918
▁color	-8.69202
▁play	-8.69465
▁major	-8.69864
R	-8.70199
▁programs	-8.70248
▁Policy	-8.70272
▁keep	-8.70317
▁driver	-8.70622
ic	-8.70638
▁X	-8.70706
▁center	-8.70898
▁cases	-8.71019
▁am	-8.71036
▁investment	-8.711
▁Data	-8.71176
▁Download	-8.71315
▁training	-8.71511
Y	-8.71527
▁30	-8.718
▁region	-8.71841
▁J	-8.71846
▁short	-8.71907
▁Research	-8.7192
J	-8.71942
ta	-8.72123
...	-8.72183
▁common	-8.72368
▁World	-8.72444
▁study	-8.72568
▁US	-8.7258
▁measures	-8.72619
▁certain	-8.72832
▁automatically	-8.72896
▁whether	-8.72919
▁hours	-8.73034
▁resources	-8.73252
▁18	-8.73326
▁unique	-8.73334
▁going	-8.73345
▁history	-8.73794
▁present	-8.73963
▁established	-8.73984
▁settings	-8.74081
▁code	-8.74115
▁music	-8.74304
▁care	-8.74339
▁interest	-8.74354
▁located	-8.74557
▁types	-8.74765
▁Now	-8.75116
▁W	-8.75163
▁situation	-8.75268
▁billion	-8.75436
▁general	-8.75635
L	-8.75702
▁standard	-8.75728
▁City	-8.75798
▁allow	-8.76424
▁cause	-8.76761
▁read	-8.76885
▁States	-8.77015
▁safety	-8.7715
▁art	-8.77461
ment	-8.77491
▁private	-8.77595
▁environmental	-8.77622
▁Therefore	-8.77974
▁built	-8.77998
▁Mr	-8.78015
▁effect	-8.78066
▁mind	-8.78127
▁visit	-8.78217
▁individual	-8.78312
▁test	-8.78439
▁along	-8.78617
▁report	-8.78687
▁single	-8.78704
▁previous	-8.78729
▁offers	-8.78775
ro	-8.78931
▁looking	-8.791
▁easily	-8.79142
▁Since	-8.79143
▁media	-8.79162
▁Then	-8.79529
▁Chinese	-8.79535
▁reason	-8.79781
▁love	-8.79969
▁past	-8.7997
▁operations	-8.80289
▁receive	-8.80353
▁Your	-8.80359
▁wide	-8.80485
▁air	-8.81102
▁My	-8.81146
▁treatment	-8.81209
▁across	-8.81231
▁That	-8.81237
▁strong	-8.81262
▁technologies	-8.81321
▁corporate	-8.8148
▁directly	-8.81514
▁exchange	-8.81795
▁language	-8.8182
▁original	-8.821
▁makes	-8.8217
▁expected	-8.82288
▁beautiful	-8.82311
▁given	-8.82374
▁known	-8.82763
▁options	-8.82852
▁culture	-8.8312
▁parts	-8.83276
le	-8.83391
▁why	-8.8343
term	-8.83478
▁man	-8.83511
▁develop	-8.83591
▁kind	-8.83791
▁19	-8.83822
▁impact	-8.83859
▁women	-8.83975
▁particular	-8.84107
▁close	-8.84211
▁search	-8.84297
▁position	-8.84334
▁efforts	-8.84411
▁once	-8.84449
▁via	-8.84692
▁format	-8.84907
▁issue	-8.84907
▁events	-8.853
▁foreign	-8.85302
▁article	-8.85336
▁terms	-8.85358
co	-8.85378
▁whole	-8.85392
▁mobile	-8.85476
▁meet	-8.85566
▁menu	-8.85731
▁paper	-8.86301
▁hotel	-8.86514
▁install	-8.86639
▁quickly	-8.86651
▁Here	-8.86809
▁variety	-8.86986
▁outside	-8.87047
▁connection	-8.87255
▁supply	-8.87263
▁Program	-8.87426
▁thing	-8.8746
▁done	-8.87576
".	-8.87644
▁role	-8.87993
▁Click	-8.88084
▁text	-8.88137
▁solutions	-8.88182
▁complete	-8.88248
▁table	-8.88255
▁machine	-8.88271
▁selected	-8.88324
▁11	-8.88418
na	-8.88454
▁phone	-8.88475
▁structure	-8.88608
▁Use	-8.88637
▁turn	-8.88646
▁according	-8.89113
▁four	-8.89119
▁Free	-8.8922
▁came	-8.89246
▁Board	-8.89251
▁designed	-8.89579
▁increased	-8.89598
▁Also	-8.89603
▁meeting	-8.8962
us	-8.89632
ry	-8.89754
it	-8.89776
▁having	-8.89779
▁April	-8.89951
▁Ltd	-8.90044
▁feature	-8.90144
▁higher	-8.90296
▁community	-8.90301
▁digital	-8.90387
▁methods	-8.90394
▁knowledge	-8.90645
▁projects	-8.9071
▁temperature	-8.90808
ko	-8.90917
▁taking	-8.90982
7	-8.91054
te	-8.91149
▁Q	-8.91179
▁source	-8.9135
▁pay	-8.91465
▁section	-8.91508
▁received	-8.91631
▁iPhone	-8.91675
▁reduce	-8.9175
time	-8.91897
▁education	-8.92
▁platform	-8.92036
▁*	-8.92112
▁never	-8.92121
▁itself	-8.9235
▁house	-8.92477
▁immediately	-8.92546
▁effective	-8.92726
▁Open	-8.92749
",	-8.93013
▁demand	-8.93126
▁School	-8.93226
▁achieve	-8.93228
▁Corporation	-8.93299
▁facilities	-8.93655
▁multiple	-8.93722
▁additional	-8.93882
▁server	-8.93894
▁enough	-8.93989
▁processing	-8.94058
▁forward	-8.94276
▁purpose	-8.94299
▁let	-8.94352
▁request	-8.94541
▁installation	-8.94697
ra	-8.94747
▁believe	-8.94773
▁everything	-8.94882
▁oil	-8.94902
▁analysis	-8.94938
▁sound	-8.94977
do	-8.95006
▁away	-8.95012
▁2019	-8.95018
▁Article	-8.9531
▁early	-8.95366
▁big	-8.9552
▁half	-8.95561
▁needed	-8.95682
▁front	-8.95942
▁office	-8.95994
▁bring	-8.96008
▁display	-8.96021
▁taken	-8.96033
▁income	-8.96185
▁System	-8.96323
▁especially	-8.9634
▁16	-8.96405
▁message	-8.96459
ive	-8.9663
▁member	-8.96639
▁apply	-8.96714
el	-8.96753
▁series	-8.96759
▁File	-8.96879
▁includes	-8.96913
▁later	-8.97114
▁currently	-8.97192
▁added	-8.97359
▁similar	-8.97398
▁child	-8.97516
▁attention	-8.97516
▁staff	-8.97593
▁May	-8.97634
▁location	-8.97732
▁head	-8.97782
▁tools	-8.9781
▁questions	-8.97837
▁Institute	-8.97849
▁ways	-8.98014
▁medical	-8.98158
▁move	-8.98168
▁window	-8.98404
—	-8.98552
▁overseas	-8.98574
▁displayed	-8.9858
▁October	-8.98628
▁connected	-8.98633
Z	-8.98713
▁14	-8.98767
▁2000	-8.98786
▁transfer	-8.99147
▁build	-8.99272
▁2020	-8.99291
▁9	-8.99323
ri	-8.99366
▁Services	-8.9942
In	-8.99526
export	-8.9958
man	-8.99593
▁inside	-8.99737
▁National	-8.99754
▁capital	-8.99846
▁enter	-8.99967
based	-8.99969
▁Committee	-9.00158
▁travel	-9.00167
▁Technology	-9.00229
▁law	-9.00325
▁error	-9.00487
▁13	-9.0063
▁save	-9.007
▁call	-9.00722
▁latest	-9.00778
▁pre	-9.00992
▁others	-9.01029
▁step	-9.01083
▁property	-9.0111
▁film	-9.01237
▁photo	-9.01246
▁month	-9.01252
▁2018	-9.0126
▁entire	-9.01473
at	-9.01581
▁assets	-9.01625
ku	-9.01635
▁months	-9.01773
6	-9.01872
▁communication	-9.01923
▁protection	-9.02057
▁providing	-9.02082
▁brand	-9.02352
▁web	-9.02396
▁100	-9.02477
▁yourself	-9.02625
▁heart	-9.02662
▁included	-9.02702
▁June	-9.02785
▁loss	-9.03006
▁speed	-9.03075
▁action	-9.03223
▁least	-9.03319
▁Global	-9.03408
▁purchase	-9.03424
,"	-9.0346
▁President	-9.03724
▁shown	-9.0377
▁Google	-9.03819
▁age	-9.04014
▁remove	-9.04018
▁surface	-9.04107
▁creating	-9.04331
▁games	-9.04474
ization	-9.04486
▁s	-9.04501
▁living	-9.04716
▁party	-9.04727
▁return	-9.04881
▁basic	-9.0489
▁national	-9.04961
▁Home	-9.05057
▁September	-9.05072
▁developing	-9.05112
▁lead	-9.05119
▁stage	-9.05134
ne	-9.05264
▁however	-9.05269
▁far	-9.05317
▁traditional	-9.05426
▁Bank	-9.05441
de	-9.05499
▁leading	-9.05532
▁basis	-9.05574
▁Development	-9.05658
▁functions	-9.05715
▁mode	-9.0593
▁News	-9.0596
▁face	-9.06022
▁construction	-9.06409
ma	-9.06562
▁2021	-9.06614
▁everyone	-9.06957
▁young	-9.06997
▁manufacturing	-9.07008
and	-9.07109
▁quite	-9.072
▁considered	-9.07221
▁either	-9.07309
▁i	-9.0739
▁review	-9.075
▁costs	-9.07529
▁prevent	-9.07596
▁nature	-9.07653
▁almost	-9.07678
▁send	-9.07723
▁requirements	-9.0776
go	-9.07768
▁December	-9.0795
▁understanding	-9.08053
8	-9.08167
▁style	-9.08465
▁Note	-9.08662
▁Select	-9.08744
▁payment	-9.08792
▁seen	-9.08903
▁Support	-9.09029
ji	-9.09087
da	-9.09175
▁existing	-9.09225
▁words	-9.09308
▁night	-9.09341
▁plant	-9.09575
▁1.	-9.09578
▁opportunity	-9.09643
▁follow	-9.09719
▁co	-9.09733
▁professional	-9.09989
▁class	-9.10032
▁shows	-9.10032
▁ask	-9.10103
▁Some	-9.1014
▁comes	-9.10142
▁While	-9.10178
▁damage	-9.10192
▁storage	-9.10215
&	-9.1024
▁became	-9.10463
▁values	-9.10542
▁Europe	-9.10592
▁clear	-9.10736
▁hope	-9.1081
▁subject	-9.10826
▁First	-9.1087
▁response	-9.1091
▁promote	-9.11121
▁question	-9.11234
▁economy	-9.11392
▁perform	-9.11484
▁got	-9.11621
▁limited	-9.11833
▁Go	-9.11839
▁points	-9.11886
▁potential	-9.11918
▁lower	-9.12029
▁five	-9.12058
▁videos	-9.12201
▁cut	-9.12212
as	-9.12279
▁focus	-9.12416
▁modern	-9.12432
▁ability	-9.1249
▁white	-9.12735
▁cooperation	-9.12796
▁base	-9.12868
▁completely	-9.12884
▁opening	-9.12898
▁images	-9.12901
▁recovery	-9.13011
▁supported	-9.13242
▁She	-9.13263
▁More	-9.13539
▁highly	-9.13601
ized	-9.13732
age	-9.13767
▁internal	-9.14023
▁regarding	-9.14073
▁update	-9.1413
▁organization	-9.14203
▁took	-9.14228
▁active	-9.14269
▁longer	-9.14344
▁Korea	-9.14385
▁status	-9.14423
▁learning	-9.14437
▁skin	-9.14505
▁fields	-9.14545
v	-9.14605
▁2017	-9.14611
▁book	-9.14658
▁link	-9.14869
▁effects	-9.14923
▁Driver	-9.14934
▁...	-9.15047
▁recent	-9.15494
▁sense	-9.15507
▁post	-9.15686
▁businesses	-9.16005
▁Android	-9.16099
▁buy	-9.161
▁Video	-9.16166
.”	-9.163
▁stock	-9.16379
U	-9.16416
▁—	-9.16448
▁simply	-9.16613
▁external	-9.16657
▁self	-9.16762
▁condition	-9.16788
▁activity	-9.16788
ty	-9.16796
▁Science	-9.16797
▁Hotel	-9.16986
▁actually	-9.17033
▁prices	-9.17175
▁tax	-9.17211
▁PC	-9.17217
▁17	-9.1724
▁thought	-9.17268
▁Inc	-9.1741
▁Project	-9.17413
▁Directors	-9.17559
▁steps	-9.17678
line	-9.17781
▁useful	-9.17844
▁approach	-9.17893
▁Pro	-9.18186
▁went	-9.18233
me	-9.18326
▁p	-9.18342
▁Office	-9.18586
▁significant	-9.18595
▁copy	-9.18606
▁generation	-9.18705
▁July	-9.18733
▁began	-9.19176
▁target	-9.19216
▁suitable	-9.1926
▁properties	-9.19337
▁associated	-9.19369
▁setting	-9.19413
ist	-9.19457
▁Of	-9.19488
▁hands	-9.19497
▁applied	-9.19807
▁contribute	-9.19837
w	-9.19913
▁changed	-9.19928
▁TV	-9.20025
▁November	-9.20056
▁components	-9.20083
▁Digital	-9.20137
▁uses	-9.20171
▁Although	-9.20234
▁Privacy	-9.20281
▁decided	-9.20313
▁beginning	-9.20457
▁advanced	-9.20546
rs	-9.20655
▁fully	-9.20655
▁sea	-9.20734
▁hot	-9.20759
▁rules	-9.20769
▁box	-9.2101
®	-9.21071
▁note	-9.21166
▁tell	-9.21209
▁default	-9.21244
▁skills	-9.21265
▁Ko	-9.2128
▁trade	-9.21409
▁stay	-9.21856
z	-9.21893
▁technical	-9.21897
▁General	-9.21963
▁consider	-9.21968
ism	-9.2199
▁recommended	-9.22314
▁2016	-9.22346
▁output	-9.22439
▁wish	-9.22934
▁Search	-9.23096
▁gas	-9.23174
▁ever	-9.23207
▁Kyoto	-9.23414
▁throughout	-9.23415
▁connect	-9.23417
▁Intel	-9.23579
▁idea	-9.23623
▁yet	-9.23639
▁takes	-9.23846
▁camera	-9.23939
▁complex	-9.23993
ar	-9.24056
raw	-9.2411
▁models	-9.24167
less	-9.24168
▁Mac	-9.2419
▁friends	-9.24468
▁leave	-9.24545
▁official	-9.24567
▁South	-9.24607
▁Art	-9.24648
▁Even	-9.24656
▁increasing	-9.2469
▁command	-9.24709
▁average	-9.24811
▁Security	-9.24933
We	-9.25021
▁relevant	-9.25033
▁agreement	-9.25296
▁upon	-9.2537
▁factors	-9.25464
▁matter	-9.25627
▁export	-9.25706
▁daily	-9.25861
▁land	-9.25945
▁Can	-9.25984
▁notice	-9.26035
▁Step	-9.26038
▁safe	-9.26058
▁50	-9.26116
▁relationship	-9.26322
▁true	-9.26389
▁IP	-9.26541
▁floor	-9.26554
se	-9.26654
▁charge	-9.26762
▁caused	-9.26796
▁January	-9.26844
▁therefore	-9.26893
ia	-9.26902
▁East	-9.26916
▁mainly	-9.26927
▁require	-9.27231
▁Be	-9.27327
▁asked	-9.27374
bit	-9.27436
▁physical	-9.27436
ate	-9.27466
▁photos	-9.27656
▁involved	-9.27658
ki	-9.27806
▁term	-9.27993
▁memory	-9.28021
▁usually	-9.28211
▁stop	-9.28373
▁accordance	-9.28411
be	-9.2842
▁THE	-9.28492
▁credit	-9.28528
▁taste	-9.28532
▁browser	-9.28582
▁stores	-9.28812
▁places	-9.28819
▁release	-9.28883
▁regulations	-9.28964
ary	-9.29106
▁August	-9.29153
▁processes	-9.29161
▁During	-9.29237
shi	-9.29301
ting	-9.29304
▁Many	-9.29509
▁themselves	-9.29535
▁near	-9.29593
▁elements	-9.29725
9	-9.29838
▁running	-9.30134
▁Dr	-9.30316
▁soon	-9.30322
▁supports	-9.30327
▁specified	-9.30535
▁consolidated	-9.30625
▁American	-9.30761
ka	-9.3083
▁enable	-9.3085
▁protect	-9.30975
▁solve	-9.30984
▁green	-9.31008
▁efficiency	-9.31041
▁object	-9.31136
mi	-9.31146
▁sent	-9.3138
▁press	-9.31411
▁talk	-9.31428
▁aim	-9.31456
▁worth	-9.31459
▁plans	-9.3147
▁opened	-9.31519
▁job	-9.3161
▁item	-9.31623
▁conducted	-9.3164
▁24	-9.31655
▁exhibition	-9.31693
▁greater	-9.31726
Q	-9.31734
est	-9.31737
ya	-9.31975
▁password	-9.32095
▁domestic	-9.32104
▁largest	-9.3213
▁record	-9.32281
▁laws	-9.3229
▁balance	-9.32312
▁document	-9.32363
▁doing	-9.32439
▁walk	-9.32499
▁Act	-9.32503
▁collection	-9.32513
▁Other	-9.32542
▁responsible	-9.32575
▁watch	-9.32681
▁clean	-9.32767
▁men	-9.32844
▁appear	-9.32905
▁parties	-9.33088
▁released	-9.33214
▁disease	-9.33521
▁contains	-9.33597
▁hold	-9.33599
▁direct	-9.33641
▁Not	-9.3366
▁Web	-9.33676
▁ready	-9.337
▁audio	-9.33864
mo	-9.34081
▁organizations	-9.34138
▁industrial	-9.34192
ba	-9.34197
▁week	-9.3426
▁nuclear	-9.34311
▁background	-9.34314
▁Personal	-9.34364
▁multi	-9.34382
▁volume	-9.34399
▁Design	-9.34558
▁policies	-9.34586
▁See	-9.34811
▁red	-9.34914
▁capacity	-9.34988
▁opportunities	-9.35026
out	-9.35115
▁blood	-9.35127
▁IT	-9.35134
▁Us	-9.35149
▁planning	-9.35171
▁Site	-9.35178
▁sustainable	-9.35241
▁De	-9.35246
▁final	-9.35283
▁25	-9.35326
▁standards	-9.35417
▁participants	-9.35474
▁Apple	-9.35569
▁distribution	-9.35711
▁flow	-9.35792
▁cash	-9.35821
▁maintain	-9.35889
▁Department	-9.35905
▁ago	-9.35915
▁Museum	-9.35919
▁pressure	-9.35949
un	-9.3597
▁CO	-9.3602
▁1,	-9.36125
▁31,	-9.36226
▁cloud	-9.36315
▁compared	-9.36329
▁lost	-9.36483
▁Director	-9.36543
▁rest	-9.36547
▁goal	-9.36588
▁2015	-9.36654
▁sites	-9.36692
ize	-9.36715
▁North	-9.36794
▁famous	-9.36846
▁legal	-9.36847
▁levels	-9.36903
ent	-9.36967
▁performed	-9.36994
▁black	-9.37036
▁avoid	-9.37048
▁High	-9.37085
▁groups	-9.37103
▁Because	-9.37124
▁His	-9.37142
▁c	-9.37233
▁practice	-9.37252
▁Online	-9.37365
▁con	-9.3739
▁sub	-9.3743
ga	-9.37551
▁manage	-9.3761
▁published	-9.37621
▁weight	-9.37636
▁won	-9.37758
▁rather	-9.3777
ter	-9.38238
▁correct	-9.38273
▁bar	-9.38423
▁hair	-9.38437
▁progress	-9.3849
▁February	-9.38543
▁selection	-9.38636
▁perfect	-9.3869
▁actual	-9.38706
▁announced	-9.38804
▁tea	-9.39017
▁likely	-9.39037
▁Prefecture	-9.39058
▁unit	-9.39076
▁21	-9.39206
▁documents	-9.39495
It	-9.3968
▁decision	-9.39685
▁European	-9.39692
▁carried	-9.3974
▁says	-9.39782
▁track	-9.39824
▁Date	-9.39885
▁depending	-9.39888
▁contents	-9.39968
▁collaboration	-9.39998
▁percent	-9.40108
▁benefits	-9.4011
▁cookies	-9.40137
ant	-9.40184
▁consumption	-9.40199
ur	-9.402
▁heat	-9.40207
▁restaurant	-9.4022
▁write	-9.40287
▁secure	-9.4034
▁described	-9.40396
▁interface	-9.40414
▁interesting	-9.40487
▁board	-9.4049
▁actions	-9.40708
▁Ka	-9.40764
▁advance	-9.40846
▁bit	-9.40898
▁eat	-9.40917
▁Let	-9.41066
▁markets	-9.41076
▁commercial	-9.41104
▁easier	-9.41107
for	-9.4119
ling	-9.41244
▁lives	-9.41282
▁completed	-9.41364
▁Power	-9.41446
▁San	-9.41686
▁Each	-9.41688
▁respect	-9.4177
▁engine	-9.41804
▁backup	-9.4182
et	-9.41879
0	-9.42092
▁reasons	-9.423
▁station	-9.42347
20	-9.42363
▁m	-9.42371
▁bottom	-9.42387
▁though	-9.42453
▁rates	-9.42459
ru	-9.42514
10	-9.42689
▁expand	-9.42751
▁Facebook	-9.42754
year	-9.42855
ating	-9.43054
▁summer	-9.43078
▁growing	-9.43078
▁word	-9.43101
▁length	-9.43224
▁marketing	-9.43498
▁reduction	-9.43666
▁becomes	-9.43722
▁client	-9.43765
li	-9.43839
▁science	-9.43909
▁creation	-9.43944
12	-9.43979
▁continued	-9.44281
▁America	-9.44352
▁visitors	-9.44368
▁Terms	-9.4438
▁maximum	-9.44444
▁Summary	-9.44449
ine	-9.44555
▁season	-9.44626
▁Park	-9.44659
▁User	-9.44695
▁choice	-9.44725
▁cells	-9.44797
▁written	-9.44939
▁hotels	-9.44947
▁grow	-9.45
▁student	-9.45019
▁plants	-9.4508
▁instead	-9.4508
▁shop	-9.4517
▁reach	-9.45204
ian	-9.45233
▁partner	-9.45259
▁introduced	-9.45329
▁infrastructure	-9.45362
▁Type	-9.45407
▁road	-9.4545
▁Next	-9.45471
▁shares	-9.45537
▁40	-9.45594
▁Typhoon	-9.45603
▁core	-9.45611
▁0	-9.4572
▁Twitter	-9.4574
▁task	-9.45747
ch	-9.45754
▁Report	-9.45763
▁conduct	-9.45814
▁excellent	-9.45898
▁fish	-9.45988
▁difference	-9.46017
▁Association	-9.46084
▁starting	-9.46181
▁institutions	-9.46394
▁sign	-9.46452
▁Live	-9.46471
▁fun	-9.46559
▁ideas	-9.46584
▁requires	-9.46599
▁recommend	-9.46642
▁Financial	-9.46769
lo	-9.4678
▁produced	-9.46781
▁Jesus	-9.46793
▁concept	-9.46812
▁seems	-9.46946
▁View	-9.47168
▁scale	-9.4722
ul	-9.47258
▁ID	-9.47269
▁disk	-9.47303
ance	-9.47518
▁input	-9.47595
▁Z	-9.476
▁Once	-9.47667
▁3000	-9.47713
▁signal	-9.47767
▁2014	-9.47954
is	-9.47999
▁essential	-9.48261
▁central	-9.48409
▁behind	-9.48572
▁cultural	-9.48613
▁Most	-9.48686
▁picture	-9.48721
▁interested	-9.48762
ha	-9.48827
▁purposes	-9.48831
ted	-9.48834
▁Add	-9.48941
▁map	-9.49007
▁changing	-9.49051
▁trust	-9.4916
▁produce	-9.49243
▁©	-9.49411
▁manner	-9.49501
▁trying	-9.49556
▁Software	-9.49634
▁risks	-9.49663
▁delivery	-9.49762
▁delete	-9.49776
▁moment	-9.49831
one	-9.49873
▁story	-9.49876
▁patients	-9.4994
▁positive	-9.50064
▁USB	-9.50085
▁b	-9.50091
▁net	-9.50113
▁Station	-9.50119
▁According	-9.50135
▁clients	-9.50158
▁maintenance	-9.5017
▁Hong	-9.50195
▁approximately	-9.5069
▁India	-9.50772
▁implementation	-9.50842
am	-9.50851
wa	-9.50928
▁Server	-9.50951
▁$	-9.51011
um	-9.5103
▁properly	-9.51098
ous	-9.51146
▁success	-9.51149
▁path	-9.51312
▁artists	-9.51495
▁Asian	-9.51557
▁town	-9.51647
▁towards	-9.51652
▁studies	-9.51754
▁movement	-9.51799
bu	-9.51812
▁Share	-9.51817
▁spread	-9.5195
▁profit	-9.51972
▁prepare	-9.5206
▁Using	-9.52101
▁coming	-9.52191
ac	-9.52207
▁ground	-9.52263
▁university	-9.52277
▁six	-9.52316
▁presented	-9.52334
▁(1)	-9.52337
▁deep	-9.52342
▁shape	-9.52377
▁database	-9.52418
▁enhance	-9.52421
▁carry	-9.52437
▁wanted	-9.52462
▁package	-9.52478
▁improvement	-9.52574
▁determine	-9.52609
▁goods	-9.5268
▁registered	-9.52706
▁guide	-9.52729
▁cross	-9.52742
related	-9.5282
▁begin	-9.52826
▁Page	-9.52914
▁Korean	-9.53
▁Code	-9.53033
▁+	-9.53051
▁procedure	-9.53064
▁Ministry	-9.53111
▁master	-9.53128
▁Check	-9.53165
▁toward	-9.53241
▁strategy	-9.53242
▁paid	-9.53328
▁Just	-9.53364
▁disaster	-9.53489
▁rooms	-9.53545
▁Festival	-9.53546
la	-9.53566
▁2013	-9.53578
▁cover	-9.53659
▁prior	-9.53672
▁obtained	-9.53728
ies	-9.53739
▁contract	-9.53774
▁waste	-9.53811
▁Such	-9.53844
▁Before	-9.53912
▁pages	-9.5394
▁importance	-9.53975
ex	-9.54089
end	-9.54093
▁regular	-9.54151
▁Corporate	-9.54223
▁fast	-9.54257
▁getting	-9.54277
▁trading	-9.54337
▁character	-9.54339
▁cell	-9.5439
mail	-9.5443
▁extremely	-9.5452
▁Ma	-9.54592
▁session	-9.54629
This	-9.54672
▁rich	-9.54772
▁Music	-9.5481
▁panel	-9.54892
▁tour	-9.54897
▁folder	-9.54912
▁(2)	-9.54999
▁bank	-9.55065
▁Why	-9.55178
xhtml	-9.55264
▁fresh	-9.554
▁normal	-9.5551
▁Year	-9.55619
▁responsibility	-9.55628
chi	-9.55648
▁partners	-9.55757
▁stable	-9.55798
▁Law	-9.55879
▁fall	-9.55906
▁ended	-9.5594
-19	-9.55957
▁cold	-9.56002
▁advantage	-9.56014
%	-9.56102
▁middle	-9.56107
▁Microsoft	-9.56199
il	-9.56214
▁sector	-9.56298
▁prepared	-9.56316
▁glass	-9.56346
▁impossible	-9.56416
▁remain	-9.56428
▁mean	-9.56434
▁funds	-9.56545
▁distance	-9.56554
▁fixed	-9.56554
▁remember	-9.5657
▁climate	-9.56688
▁tree	-9.56717
▁sometimes	-9.5677
▁lines	-9.56802
▁=	-9.56854
▁gives	-9.56866
▁direction	-9.56924
,”	-9.56934
▁weather	-9.57071
ce	-9.57072
▁force	-9.57087
▁someone	-9.57155
▁Mo	-9.57238
▁follows	-9.57302
▁shared	-9.57333
▁acquisition	-9.57364
of	-9.57696
▁touch	-9.57713
▁errors	-9.57826
▁woman	-9.5785
▁overall	-9.57876
▁medium	-9.5799
nd	-9.57991
ated	-9.58018
@	-9.5803
▁Kong	-9.58341
▁highest	-9.5843
▁x	-9.58518
▁configuration	-9.5859
▁characteristics	-9.58657
▁internet	-9.58712
▁edit	-9.58739
▁Furthermore	-9.58768
▁offered	-9.58805
bo	-9.58824
▁linked	-9.58881
▁warm	-9.59128
+	-9.59224
ge	-9.59423
▁registration	-9.59476
▁doesn	-9.59529
▁Products	-9.59548
▁independent	-9.59575
▁cancer	-9.59634
▁anything	-9.5967
▁combination	-9.59711
▁carefully	-9.59729
▁century	-9.59737
▁Energy	-9.59739
▁fuel	-9.59769
▁Media	-9.59888
▁fix	-9.59905
▁Al	-9.59932
▁compliance	-9.59985
▁players	-9.59988
▁PDF	-9.59994
ton	-9.60077
▁resolution	-9.60262
ful	-9.60292
▁particularly	-9.60313
▁refer	-9.60331
▁traffic	-9.60424
▁worked	-9.60492
▁App	-9.6059
▁OF	-9.60605
▁helps	-9.60707
▁Read	-9.60733
▁saw	-9.60766
▁connecting	-9.60812
▁Sa	-9.60866
▁guests	-9.60867
▁joint	-9.60894
▁told	-9.60969
▁reports	-9.61022
▁challenges	-9.61054
ke	-9.61057
▁Government	-9.61066
▁remains	-9.61089
▁profile	-9.61156
▁allowed	-9.61178
▁manually	-9.61202
yama	-9.61228
tic	-9.61232
▁Learn	-9.61237
▁People	-9.61396
▁presence	-9.61469
▁host	-9.61503
▁soft	-9.616
▁answer	-9.61711
▁serve	-9.61782
Re	-9.61805
▁custom	-9.61815
▁Health	-9.6195
▁thus	-9.61964
▁morning	-9.62006
▁placed	-9.6215
▁conversion	-9.62155
▁regions	-9.62183
ir	-9.62276
▁electronic	-9.62327
▁spring	-9.62356
▁strength	-9.62389
▁instructions	-9.62446
▁Help	-9.62522
pe	-9.62523
▁fire	-9.62527
▁Osaka	-9.62542
▁powerful	-9.62608
▁convenient	-9.62615
▁Y	-9.62663
▁pass	-9.62712
▁2.	-9.62869
▁determined	-9.62923
▁versions	-9.6295
▁successful	-9.62996
▁benefit	-9.63025
▁reported	-9.63031
▁nothing	-9.63169
▁Product	-9.63221
▁Are	-9.63302
▁t	-9.63459
▁fair	-9.63511
▁ideal	-9.63575
con	-9.63605
▁comprehensive	-9.63606
▁population	-9.63613
izing	-9.63668
net	-9.63705
▁listed	-9.63858
▁Cloud	-9.63947
▁moving	-9.63961
▁anti	-9.63994
▁effort	-9.63999
▁offering	-9.6408
▁rule	-9.64123
im	-9.64184
▁separate	-9.64215
▁respond	-9.64252
▁felt	-9.64274
▁22	-9.64327
▁efficient	-9.64414
▁supporting	-9.64415
▁metal	-9.64513
▁shopping	-9.6459
per	-9.64678
▁act	-9.64779
▁battery	-9.64791
▁didn	-9.64871
▁Taiwan	-9.6489
▁late	-9.64904
▁spend	-9.64913
▁transactions	-9.64951
13	-9.64974
▁war	-9.65057
▁huge	-9.65116
▁load	-9.65129
▁dis	-9.6517
▁detailed	-9.65244
▁enables	-9.65297
▁2012	-9.65322
▁recently	-9.65328
▁Plan	-9.65379
▁appearance	-9.65386
▁possibility	-9.654
▁automatic	-9.65413
▁Make	-9.65464
▁obtain	-9.65576
▁Special	-9.6564
▁Press	-9.65683
▁feeling	-9.65726
▁participate	-9.65825
ally	-9.65837
▁Store	-9.65913
▁AI	-9.65922
▁Control	-9.6594
▁Library	-9.66057
▁happy	-9.66085
▁tab	-9.661
▁War	-9.66111
▁limit	-9.66184
▁eyes	-9.66246
▁launch	-9.66295
▁establish	-9.66328
▁<	-9.66376
▁‘	-9.66383
▁round	-9.6642
▁accept	-9.66447
▁・	-9.66501
▁concerning	-9.66509
▁Stock	-9.66537
so	-9.666
▁deliver	-9.66629
▁steel	-9.66656
▁thinking	-9.66664
▁Top	-9.66761
▁units	-9.66771
▁mountain	-9.66821
▁facility	-9.66844
▁Access	-9.66895
▁death	-9.66919
if	-9.67097
land	-9.67128
by	-9.67287
▁Time	-9.67379
▁led	-9.6739
▁integrated	-9.67428
▁atmosphere	-9.67474
▁comfortable	-9.67567
▁Exchange	-9.67586
▁Social	-9.6762
way	-9.67682
▁gave	-9.67702
▁plastic	-9.67752
▁Through	-9.67757
ad	-9.67898
▁#	-9.67956
▁collect	-9.68005
▁Moreover	-9.68093
▁serious	-9.68096
▁dry	-9.68171
▁stored	-9.68205
▁Me	-9.68209
▁layer	-9.68295
▁Under	-9.68333
▁virtual	-9.68436
▁worldwide	-9.68466
▁experiences	-9.68517
ING	-9.68542
▁appears	-9.6855
ability	-9.68569
▁insurance	-9.68592
▁techniques	-9.68604
▁testing	-9.68649
▁Car	-9.68692
▁desired	-9.68767
▁Li	-9.68847
▁train	-9.68949
▁Get	-9.68952
▁mentioned	-9.68973
▁Professor	-9.69107
▁Today	-9.69198
▁rice	-9.69239
▁Best	-9.69342
▁2011	-9.69396
▁messages	-9.69408
▁Party	-9.69452
▁OS	-9.69493
▁regional	-9.69633
▁initiatives	-9.69645
▁Earth	-9.6966
▁resource	-9.69706
▁affected	-9.69796
▁Website	-9.69799
▁exercise	-9.6983
40	-9.69861
▁applicable	-9.69866
▁realize	-9.69931
30	-9.69934
po	-9.69994
▁objects	-9.70032
▁monitoring	-9.70037
▁convert	-9.70041
▁beyond	-9.70077
▁survey	-9.70086
▁affect	-9.70106
▁strengthen	-9.70111
▁researchers	-9.70231
▁license	-9.70404
▁La	-9.70406
▁API	-9.7053
▁blue	-9.70612
▁cities	-9.70629
▁en	-9.70715
ie	-9.70716
▁Network	-9.70729
▁translation	-9.70736
▁bus	-9.70739
▁French	-9.70866
▁colors	-9.70936
▁Manager	-9.70958
▁vehicle	-9.71031
▁experts	-9.71046
▁initial	-9.71047
▁Back	-9.71103
▁trip	-9.71216
▁improving	-9.71261
▁handle	-9.71264
▁figure	-9.71282
ten	-9.71297
▁significantly	-9.7134
▁although	-9.71377
▁occur	-9.7138
▁electric	-9.71433
▁Russian	-9.71434
▁double	-9.71549
▁deal	-9.7157
▁political	-9.71591
MA	-9.71769
▁23	-9.71785
▁expect	-9.71848
▁wind	-9.71857
▁apps	-9.71921
▁hour	-9.71935
▁Language	-9.71998
▁theme	-9.72008
▁Australia	-9.72014
▁Take	-9.72069
▁category	-9.72078
▁beauty	-9.72294
▁brought	-9.72521
tra	-9.72553
▁break	-9.72583
▁winter	-9.72646
▁icon	-9.7266
▁Citrix	-9.72672
▁peace	-9.72775
scale	-9.72819
▁writing	-9.72926
Japan	-9.72934
mm	-9.72956
▁playing	-9.72996
▁presentation	-9.73025
day	-9.73067
▁recognized	-9.7311
▁Education	-9.7311
▁Wi	-9.73225
▁introduce	-9.73234
▁issued	-9.73252
▁numbers	-9.7327
▁identify	-9.73304
▁Create	-9.73319
▁)	-9.73335
di	-9.73378
▁State	-9.73386
▁degree	-9.73396
▁innovation	-9.73417
▁60	-9.73433
▁accounts	-9.73489
▁diseases	-9.73541
▁procedures	-9.73545
▁ratio	-9.73638
▁York	-9.73639
▁covered	-9.73719
ci	-9.73744
▁expansion	-9.73783
▁annual	-9.73862
▁quarter	-9.74043
▁Or	-9.74057
▁improved	-9.74116
▁implement	-9.7417
▁drink	-9.74196
▁List	-9.7425
▁fee	-9.74252
▁capabilities	-9.74287
▁director	-9.74289
▁Description	-9.74316
▁reference	-9.7434
ping	-9.74397
▁statements	-9.74398
▁mass	-9.74426
▁log	-9.74445
▁negative	-9.74519
▁Minister	-9.74623
▁asset	-9.74638
quality	-9.74726
▁reading	-9.7481
▁sports	-9.74839
▁parameters	-9.74924
▁chain	-9.75049
の	-9.75172
son	-9.75189
▁engineering	-9.75349
▁manufacturer	-9.75384
▁sharing	-9.75471
▁workers	-9.75506
▁vision	-9.75524
▁House	-9.75549
▁Singapore	-9.75557
▁patient	-9.75618
▁stand	-9.75904
▁looks	-9.75927
gi	-9.7596
▁block	-9.76012
▁deleted	-9.76027
mp	-9.76066
▁defined	-9.76074
▁Un	-9.76093
▁happen	-9.76113
▁meat	-9.76123
▁fine	-9.76173
▁turned	-9.76174
▁otherwise	-9.76191
▁Mi	-9.76194
▁player	-9.76256
▁reduced	-9.76259
▁industries	-9.76334
▁Application	-9.76366
▁garden	-9.76436
▁wait	-9.76473
▁Investment	-9.76495
▁launched	-9.76515
▁expert	-9.76553
▁drivers	-9.76633
▁Based	-9.7669
▁Engineering	-9.76818
▁eye	-9.7683
:00	-9.76836
▁drop	-9.76864
▁estate	-9.76937
▁Life	-9.76996
▁recover	-9.77004
▁Customer	-9.77013
▁parents	-9.77043
▁Africa	-9.77062
▁pro	-9.77063
▁piece	-9.7712
▁France	-9.77187
▁critical	-9.77254
▁news	-9.77282
▁rise	-9.77293
▁Ro	-9.77301
▁aims	-9.77338
▁behavior	-9.77338
▁depends	-9.77375
▁AND	-9.77444
▁snow	-9.77464
▁shareholders	-9.77543
▁f	-9.77556
▁Graduate	-9.77565
▁channel	-9.77583
▁newly	-9.77699
▁resulting	-9.77718
▁whose	-9.77791
▁wear	-9.77828
▁restore	-9.77836
ence	-9.77847
▁agree	-9.77852
rd	-9.77914
▁fashion	-9.78026
▁cards	-9.7809
bi	-9.78111
▁Na	-9.78117
▁meaning	-9.78246
▁decrease	-9.78302
▁bad	-9.78332
16	-9.78345
▁reliable	-9.78434
▁updated	-9.78459
▁iOS	-9.78509
▁Copyright	-9.78552
▁Ho	-9.78694
▁detail	-9.78701
▁integration	-9.78728
▁wall	-9.7875
▁finished	-9.78888
▁cutting	-9.78902
▁visited	-9.78926
▁Any	-9.78933
▁networks	-9.79012
▁drug	-9.79054
▁experienced	-9.79054
▁d	-9.79054
ca	-9.79076
▁individuals	-9.7911
▁Le	-9.79181
▁chance	-9.7921
▁match	-9.79351
▁Day	-9.79358
▁Real	-9.79369
▁passed	-9.79406
▁directors	-9.79428
▁Russia	-9.79443
▁perspective	-9.79517
▁Vietnam	-9.79556
▁meters	-9.79627
▁join	-9.7963
▁Agreement	-9.79638
ak	-9.79681
▁challenge	-9.79831
▁smooth	-9.79852
▁favorite	-9.79879
▁element	-9.79887
▁born	-9.79896
▁actively	-9.79955
▁promoting	-9.80128
▁contain	-9.80131
▁Human	-9.80147
▁advertising	-9.80188
▁collected	-9.80234
▁Award	-9.80243
▁accounting	-9.80274
▁becoming	-9.80311
▁owner	-9.8038
▁frame	-9.80389
】	-9.8043
▁Name	-9.80445
▁sold	-9.80582
▁chemical	-9.8071
▁Play	-9.80729
▁Part	-9.80752
▁sale	-9.80765
▁vehicles	-9.8082
▁generated	-9.80826
▁pattern	-9.80831
▁Meeting	-9.80875
▁pain	-9.80905
ish	-9.80906
▁En	-9.81152
14	-9.81239
▁sheet	-9.81309
▁tasks	-9.81423
▁giving	-9.81534
▁lack	-9.81573
▁audience	-9.816
▁views	-9.8163
▁privacy	-9.81635
▁Yu	-9.81647
▁Man	-9.81667
▁28	-9.81692
▁manufacturers	-9.8173
id	-9.81807
▁equipped	-9.81824
▁earth	-9.81827
▁dance	-9.81881
min	-9.81907
▁gain	-9.81922
11	-9.81969
▁smartphone	-9.81977
▁component	-9.82011
house	-9.82023
▁sources	-9.82051
▁extra	-9.82081
▁g	-9.82152
▁sun	-9.82195
▁2010	-9.82275
▁regard	-9.82394
▁classes	-9.82398
use	-9.82482
▁mother	-9.82519
▁Full	-9.82574
ning	-9.82624
ative	-9.82637
*	-9.82718
▁measure	-9.82749
▁labor	-9.82807
▁goes	-9.82837
▁entry	-9.82926
▁remote	-9.82967
▁achieved	-9.82981
▁Ha	-9.83176
▁micro	-9.8318
▁cable	-9.83193
▁influence	-9.83251
・	-9.8337
▁monitor	-9.83388
▁park	-9.83405
▁driving	-9.83452
ol	-9.83508
▁voice	-9.8357
▁mission	-9.83598
▁UN	-9.8367
▁mechanism	-9.83692
▁execution	-9.83722
TM	-9.8376
▁Germany	-9.83912
over	-9.83912
▁characters	-9.83973
▁competition	-9.83974
▁port	-9.83999
▁measurement	-9.84039
der	-9.8405
▁Foundation	-9.84053
▁voltage	-9.84076
▁kinds	-9.841
▁Thus	-9.84111
▁former	-9.84127
▁creative	-9.84127
▁Travel	-9.84235
▁street	-9.84255
▁welcome	-9.84285
▁emissions	-9.84333
▁trend	-9.84337
80	-9.84354
▁forms	-9.84431
▁ingredients	-9.84496
▁hit	-9.84505
sa	-9.84512
ring	-9.8453
▁3.	-9.84549
▁expenses	-9.8459
▁buildings	-9.84619
▁Thank	-9.84675
▁Guide	-9.84733
▁schools	-9.84802
▁sample	-9.84809
▁usage	-9.84915
▁Su	-9.85028
▁Another	-9.85061
▁import	-9.8509
▁association	-9.85158
▁machines	-9.85182
▁Con	-9.85216
▁wood	-9.85242
▁practical	-9.8525
▁removed	-9.85362
▁register	-9.85376
▁transport	-9.85472
▁career	-9.85507
▁sell	-9.85513
▁dishes	-9.85575
25	-9.85648
▁Only	-9.85662
▁Air	-9.85758
▁requests	-9.85779
▁era	-9.85878
▁innovative	-9.859
▁implemented	-9.85934
▁circumstances	-9.8595
▁clearly	-9.86014
▁closed	-9.86023
▁Sea	-9.86063
▁confirm	-9.86073
▁forget	-9.86137
▁slightly	-9.86197
▁coffee	-9.86249
▁promotion	-9.86289
▁moved	-9.86317
Fi	-9.86402
▁communities	-9.86438
os	-9.86514
▁pieces	-9.86601
▁principle	-9.86613
▁framework	-9.86699
▁segment	-9.86732
▁Set	-9.86753
▁feedback	-9.86795
▁department	-9.86808
▁FY	-9.86819
▁healthy	-9.86912
ni	-9.86919
▁o	-9.87005
▁Environmental	-9.87012
op	-9.87023
▁artist	-9.87183
▁operate	-9.87231
ial	-9.87267
▁cars	-9.87272
▁carbon	-9.87274
▁diverse	-9.87328
▁scene	-9.87351
▁St	-9.87353
▁solid	-9.87405
▁gift	-9.87414
▁dedicated	-9.87447
▁Thailand	-9.87492
▁smart	-9.87525
ang	-9.87528
▁Christ	-9.87552
▁books	-9.87658
MP	-9.87665
▁Unity	-9.87685
▁festival	-9.87708
▁faster	-9.87788
jo	-9.87864
▁doctor	-9.87881
▁holding	-9.87903
▁trees	-9.87907
▁pictures	-9.87926
▁26	-9.87938
▁ordinary	-9.87969
▁TO	-9.87995
▁learned	-9.88013
▁entered	-9.8812
▁increases	-9.88309
▁consideration	-9.88342
▁goals	-9.88345
ster	-9.8848
▁damaged	-9.88722
▁context	-9.88736
side	-9.88742
▁girl	-9.88777
ities	-9.88833
men	-9.88844
▁switch	-9.88855
gu	-9.88927
▁technique	-9.88977
▁employee	-9.88986
▁anyone	-9.88986
▁foundation	-9.89026
▁evaluation	-9.89034
▁draw	-9.89054
▁Sometimes	-9.89082
▁inter	-9.89105
▁lose	-9.89122
▁upper	-9.89174
▁Council	-9.89198
▁wine	-9.8929
▁Agency	-9.89365
▁academic	-9.89368
▁hardware	-9.89402
▁UK	-9.89465
▁instance	-9.8949
▁Environment	-9.89582
ER	-9.89593
▁earlier	-9.89705
▁architecture	-9.89731
ichi	-9.89741
▁Line	-9.89749
▁27	-9.89783
▁probably	-9.89882
▁nice	-9.89977
▁continues	-9.89981
▁Over	-9.90043
▁Find	-9.90054
▁establishment	-9.90126
▁Great	-9.90137
▁door	-9.90172
▁accurate	-9.90198
▁Airport	-9.9021
▁Where	-9.90251
▁--	-9.90257
▁fill	-9.90285
▁delicious	-9.9033
ap	-9.90331
▁Ta	-9.90438
▁Sign	-9.90462
▁primary	-9.90465
To	-9.90492
▁recorded	-9.90539
▁Audit	-9.90539
▁Rights	-9.90545
▁reality	-9.90615
ding	-9.90624
▁Yes	-9.90715
▁thanks	-9.90717
▁Central	-9.90745
▁Email	-9.90824
▁preparation	-9.90854
▁met	-9.90864
▁handling	-9.90893
▁provision	-9.90944
▁generally	-9.91011
pa	-9.91122
IN	-9.91185
▁Executive	-9.9125
▁Ki	-9.91275
01	-9.91379
j	-9.91452
18	-9.91492
free	-9.91619
▁Society	-9.91632
▁LINE	-9.91716
▁library	-9.91727
▁matters	-9.91772
17	-9.91783
▁exactly	-9.91878
▁minimum	-9.91882
▁discount	-9.91919
▁else	-9.91965
▁heard	-9.91971
19	-9.91978
▁edge	-9.92023
ot	-9.92081
-1	-9.92117
▁consent	-9.92262
▁associate	-9.92271
▁larger	-9.92272
▁Start	-9.92275
▁reservation	-9.92281
▁sex	-9.92284
▁assistance	-9.92398
▁【	-9.92461
32	-9.92491
▁ones	-9.92547
▁names	-9.92564
▁combined	-9.92611
▁raise	-9.92632
▁adding	-9.92633
▁Pacific	-9.92656
cho	-9.92713
▁solar	-9.9276
▁advice	-9.92763
▁weeks	-9.928
▁star	-9.92818
▁alone	-9.92885
▁consumer	-9.92891
▁st	-9.92935
▁Print	-9.92978
▁brain	-9.93004
ong	-9.93014
▁links	-9.93138
▁Photo	-9.93254
▁island	-9.93273
▁awareness	-9.93298
ship	-9.93313
▁meetings	-9.93383
▁reducing	-9.93506
▁formed	-9.93702
▁sleep	-9.93742
▁conference	-9.93806
▁Ra	-9.93819
sh	-9.93896
▁installing	-9.93916
▁restaurants	-9.93946
▁interests	-9.93949
▁visual	-9.93983
▁(3)	-9.93994
▁hear	-9.9402
▁finally	-9.9402
▁ISSN	-9.94077
▁expertise	-9.94083
▁leaves	-9.9413
ho	-9.94316
▁managed	-9.94334
▁frequency	-9.94392
▁investors	-9.944
ical	-9.94467
▁allowing	-9.94485
▁Hi	-9.94546
▁express	-9.94565
▁decide	-9.94579
▁electricity	-9.94592
▁Keep	-9.94623
▁bright	-9.94623
50	-9.94664
▁cooking	-9.94756
▁flowers	-9.9478
▁recognize	-9.94792
▁print	-9.94793
▁Pre	-9.9494
▁Foreign	-9.94958
▁destination	-9.94996
▁Buy	-9.95002
▁previously	-9.95008
▁pick	-9.95059
▁corresponding	-9.95095
▁Text	-9.95181
▁stated	-9.95182
tro	-9.95251
▁himself	-9.95283
▁factory	-9.95504
▁transaction	-9.95535
▁West	-9.95564
▁日本語	-9.95658
▁cream	-9.95686
▁description	-9.95699
▁Sun	-9.9573
▁mid	-9.95758
ee	-9.95775
ator	-9.95849
▁explain	-9.95897
▁ticket	-9.95961
▁corner	-9.96002
▁liquid	-9.96078
▁successfully	-9.96081
▁YouTube	-9.96126
▁pool	-9.96207
▁gold	-9.96266
▁raw	-9.96266
▁dark	-9.96301
▁Figure	-9.96343
ology	-9.96434
▁military	-9.96477
za	-9.9652
▁ten	-9.9655
board	-9.96601
▁expression	-9.96619
▁ancient	-9.96621
▁German	-9.96643
▁aware	-9.96786
▁Notice	-9.96842
▁Systems	-9.96881
▁revenue	-9.96909
▁Conference	-9.97021
▁abroad	-9.97097
tsu	-9.97111
ium	-9.97163
file	-9.97167
▁Paris	-9.9719
▁families	-9.97194
▁31	-9.97199
▁Star	-9.97211
▁repair	-9.97334
▁myself	-9.9739
▁differ	-9.97418
▁filter	-9.97518
▁focused	-9.97709
▁specify	-9.9775
▁transportation	-9.97773
▁reached	-9.97782
▁trial	-9.97854
▁drugs	-9.97919
▁budget	-9.97921
▁discussion	-9.97958
▁foot	-9.98033
▁stability	-9.98039
▁bio	-9.98053
▁drawing	-9.98059
▁instruments	-9.98087
▁occurs	-9.98111
▁Basic	-9.98136
▁super	-9.9817
▁saved	-9.98217
▁committed	-9.98241
▁served	-9.9827
▁played	-9.98288
san	-9.98354
70	-9.98431
▁Account	-9.9852
▁accuracy	-9.98537
▁intended	-9.98538
▁functionality	-9.98539
▁causes	-9.98592
▁Industry	-9.9868
▁reviews	-9.98857
▁title	-9.98917
▁Market	-9.98954
ー	-9.98979
▁fit	-9.99012
red	-9.99026
▁definitely	-9.9904
▁failure	-9.99142
▁proper	-9.99171
que	-9.99208
▁heavy	-9.99285
▁happens	-9.99342
▁statement	-9.99359
party	-9.99411
US	-9.99421
▁currency	-9.99422
▁200	-9.99424
▁height	-9.99439
▁module	-9.99479
▁Shin	-9.99483
▁engaged	-9.99496
21	-9.99534
ST	-9.99608
AL	-9.99634
▁adopted	-9.99645
:30	-9.99665
▁Christmas	-9.99673
▁female	-9.99682
ft	-9.99705
▁returned	-9.99771
▁auto	-9.99852
▁manual	-9.99858
▁Indonesia	-9.99924
including	-10.0002
▁effectively	-10.0008
▁Team	-10.001
▁followed	-10.0012
▁Food	-10.0024
▁articles	-10.0028
▁cool	-10.003
▁domain	-10.0041
▁Division	-10.0043
▁saying	-10.0045
▁designated	-10.0052
▁leaders	-10.0054
▁accepted	-10.0058
▁gradually	-10.006
shima	-10.0063
▁Okinawa	-10.0066
▁cycle	-10.0075
ray	-10.0082
▁square	-10.0086
▁relatively	-10.0086
▁trends	-10.0087
▁Games	-10.009
▁guarantee	-10.0091
▁01	-10.0094
▁fruit	-10.0097
▁fees	-10.0109
▁receiving	-10.0109
ck	-10.0113
▁firm	-10.0114
▁Street	-10.0114
▁noise	-10.0115
▁Well	-10.0116
▁decline	-10.012
▁father	-10.0121
den	-10.0123
▁Events	-10.0127
15	-10.0129
▁Blog	-10.0131
▁practices	-10.0132
▁relationships	-10.0135
▁tourism	-10.0149
▁SD	-10.015
▁Community	-10.0156
▁CEO	-10.0163
60	-10.0173
va	-10.0173
▁scope	-10.0175
If	-10.0183
▁quick	-10.0187
▁residents	-10.0194
▁detective	-10.0202
▁resistance	-10.0202
▁Public	-10.0205
▁wrong	-10.0209
▁schedule	-10.023
▁dish	-10.0233
tion	-10.0233
▁subsidiaries	-10.0235
▁stress	-10.0238
▁comments	-10.0242
▁watches	-10.0242
▁constantly	-10.0243
IT	-10.0245
▁River	-10.0247
▁indicated	-10.0253
EN	-10.0264
▁Studies	-10.0273
vo	-10.0274
▁expensive	-10.0275
ise	-10.0276
▁directory	-10.0279
▁Photos	-10.0293
▁Vol	-10.0293
▁conventional	-10.0297
▁seem	-10.0299
ner	-10.0302
▁Green	-10.0302
ES	-10.0306
▁valid	-10.0309
▁29	-10.0309
▁educational	-10.031
▁Arts	-10.0313
▁Change	-10.0316
▁Italy	-10.032
▁wonderful	-10.0324
▁acquire	-10.0331
▁numerous	-10.0332
su	-10.034
▁Canada	-10.0343
▁capable	-10.0344
é	-10.0346
▁Her	-10.0347
her	-10.0353
▁mm	-10.0362
▁II	-10.0365
▁introduction	-10.0382
ite	-10.0382
▁White	-10.0384
io	-10.0384
64	-10.0384
▁tried	-10.039
▁couple	-10.0392
port	-10.0394
▁phase	-10.0394
▁Black	-10.0394
▁Pa	-10.0401
ure	-10.0407
▁engage	-10.0409
▁Event	-10.0415
▁locations	-10.042
▁salt	-10.0425
▁interior	-10.0426
down	-10.0426
▁Show	-10.0431
▁airport	-10.0435
▁rain	-10.0435
▁composition	-10.0436
▁friend	-10.0437
▁posted	-10.044
▁shipping	-10.0443
▁relations	-10.0446
▁64-	-10.0448
ut	-10.045
▁submit	-10.0454
org	-10.0455
▁transmission	-10.046
▁spirit	-10.0466
▁discuss	-10.047
▁widely	-10.0473
▁ceremony	-10.0473
▁universities	-10.0486
mon	-10.0487
AC	-10.0491
▁smaller	-10.0492
▁Da	-10.0496
▁factor	-10.05
▁2008	-10.0504
LE	-10.0504
▁teams	-10.0504
▁consists	-10.051
DA	-10.0514
▁strategies	-10.0516
▁topic	-10.0517
ED	-10.052
▁transition	-10.0522
–	-10.0529
▁Po	-10.0529
king	-10.053
▁tests	-10.0538
lu	-10.0543
▁spent	-10.0543
▁dialog	-10.0544
▁Track	-10.055
TA	-10.0553
▁Economic	-10.0557
▁updates	-10.0558
▁explore	-10.056
▁thin	-10.0561
24	-10.0562
▁administration	-10.0564
▁speak	-10.0566
▁Vi	-10.0567
AR	-10.0568
▁contained	-10.0568
▁Professional	-10.057
ger	-10.0573
▁sky	-10.0585
▁animals	-10.059
▁COVID	-10.0598
▁award	-10.0599
For	-10.0599
▁Is	-10.0608
▁scientific	-10.0609
▁Files	-10.0612
pro	-10.0613
▁500	-10.0613
▁radio	-10.0618
▁Bar	-10.062
▁communicate	-10.0622
▁websites	-10.0628
▁London	-10.063
▁Protection	-10.063
▁seven	-10.0637
▁slow	-10.0638
▁ex	-10.0641
▁flash	-10.0643
▁motor	-10.0649
om	-10.0649
▁aspects	-10.0655
▁Net	-10.0655
▁expressed	-10.0658
▁spot	-10.0659
▁Connect	-10.066
▁Work	-10.0667
▁Red	-10.0669
vi	-10.0676
▁sufficient	-10.0678
▁bed	-10.068
26	-10.0682
▁attached	-10.0682
▁Chi	-10.0696
▁Links	-10.0698
▁explained	-10.0703
ti	-10.0707
▁communications	-10.0707
▁medicine	-10.0709
▁Club	-10.0714
▁recording	-10.0715
-2	-10.0719
▁leader	-10.072
▁evidence	-10.0722
▁differences	-10.0726
▁mountains	-10.0728
▁Overview	-10.0729
▁provider	-10.073
ME	-10.0732
▁JAPAN	-10.0734
SE	-10.0735
dy	-10.074
▁scheduled	-10.0742
▁named	-10.0747
▁situations	-10.0752
▁historical	-10.0753
▁root	-10.0753
▁MP	-10.0759
qui	-10.0765
ana	-10.0765
▁planned	-10.0767
▁Model	-10.0771
▁Content	-10.0775
▁states	-10.0775
、	-10.0778
▁Western	-10.078
▁Water	-10.0781
▁Hotels	-10.0781
▁consumers	-10.0783
▁channels	-10.0784
You	-10.0785
▁Mobile	-10.0787
▁expanding	-10.079
▁disclosure	-10.0793
AS	-10.0796
▁enabled	-10.08
▁decisions	-10.0808
▁Building	-10.0813
▁except	-10.0814
▁Category	-10.0815
▁Island	-10.0818
▁Ba	-10.0819
▁Map	-10.0824
▁platforms	-10.0826
▁forecast	-10.0836
▁desire	-10.0837
zu	-10.0841
RE	-10.0843
▁Don	-10.0848
▁cleaning	-10.0849
▁Italian	-10.0853
▁adjust	-10.0856
▁performing	-10.0863
▁emergency	-10.0863
▁orders	-10.0864
▁EU	-10.0874
▁compatible	-10.088
▁NTT	-10.0885
▁correctly	-10.0886
▁surrounding	-10.0891
▁acquired	-10.0892
ard	-10.0896
▁stone	-10.0896
▁Every	-10.0899
27	-10.09
level	-10.0902
▁valuable	-10.0902
▁participation	-10.0902
▁chosen	-10.091
▁Se	-10.0913
▁weak	-10.0913
▁script	-10.0914
▁manager	-10.0915
▁Sales	-10.0916
▁CD	-10.0918
▁Settings	-10.0919
▁recognition	-10.0919
▁ship	-10.0928
90	-10.0935
back	-10.0939
IP	-10.0944
▁museum	-10.095
yo	-10.0952
▁entrance	-10.0953
▁Number	-10.0954
▁Instagram	-10.0961
▁rapid	-10.0962
▁river	-10.0965
28	-10.0966
▁generate	-10.0969
▁exist	-10.0979
▁delivered	-10.0987
▁certificate	-10.0997
▁RE	-10.1002
22	-10.1011
▁approval	-10.1018
▁pop	-10.1019
▁flat	-10.102
▁apartment	-10.102
▁referred	-10.1026
▁courses	-10.1031
▁productivity	-10.1031
▁FAQ	-10.1038
▁Lu	-10.1039
▁familiar	-10.1042
▁mail	-10.1042
ze	-10.1045
▁Organization	-10.105
▁commitment	-10.1056
▁chat	-10.1056
he	-10.1062
▁cm	-10.1062
▁banks	-10.1064
▁comfort	-10.1067
▁campaign	-10.1073
▁Hokkaido	-10.1074
▁teaching	-10.1076
▁Due	-10.108
▁employment	-10.1081
▁proposed	-10.1085
▁Watch	-10.1086
▁seek	-10.1086
▁flexible	-10.111
▁fundamental	-10.112
▁define	-10.1121
▁concerns	-10.113
lic	-10.1137
No	-10.1138
▁rental	-10.1141
▁Studio	-10.1152
▁blog	-10.1153
work	-10.1154
▁2009	-10.1155
?"	-10.1156
▁persons	-10.1158
▁desktop	-10.1163
▁priority	-10.1164
▁securities	-10.1167
▁village	-10.1173
sen	-10.1174
▁leads	-10.118
▁Main	-10.1185
▁dream	-10.1195
▁Section	-10.1195
▁Platform	-10.1195
▁housing	-10.1196
▁forest	-10.1202
▁visiting	-10.1208
▁manufacture	-10.1211
▁baby	-10.1212
):	-10.1213
▁Space	-10.1217
▁alcohol	-10.1218
off	-10.1222
▁earnings	-10.1223
▁usual	-10.1226
▁shops	-10.1229
▁Choose	-10.1233
▁Menu	-10.1236
▁flower	-10.1237
old	-10.1241
▁waiting	-10.1244
ung	-10.1245
▁symbol	-10.125
led	-10.1254
▁Post	-10.1261
▁column	-10.1262
▁author	-10.1263
▁friendly	-10.1265
▁extent	-10.1267
▁truly	-10.1273
▁debt	-10.1275
click	-10.1282
▁extensions	-10.1293
▁partition	-10.1295
▁prevention	-10.1297
▁court	-10.1298
▁kitchen	-10.1298
▁considering	-10.1302
▁fabric	-10.1304
hi	-10.1304
▁Recovery	-10.1305
▁flight	-10.1308
▁brands	-10.1309
▁expectations	-10.131
▁Enter	-10.1313
▁Trade	-10.1317
▁attack	-10.1317
▁filled	-10.1322
▁Chat	-10.1324
▁records	-10.1329
▁houses	-10.1332
▁>	-10.1335
OS	-10.1335
ID	-10.1336
▁developers	-10.1337
▁Official	-10.1355
▁ice	-10.1356
▁protected	-10.1363
▁formation	-10.1367
▁Last	-10.1368
▁infection	-10.1369
TO	-10.1377
▁confirmed	-10.1377
▁ahead	-10.138
▁bath	-10.138
▁counter	-10.1381
▁Have	-10.1382
▁equal	-10.1388
\	-10.1391
▁Card	-10.1394
▁selling	-10.1398
▁URL	-10.1408
31	-10.1411
▁Experience	-10.1412
site	-10.1416
▁Details	-10.1418
▁personnel	-10.1418
▁logo	-10.1427
▁Industrial	-10.1428
▁symptoms	-10.1429
▁unless	-10.143
▁finance	-10.1436
▁movie	-10.1438
▁increasingly	-10.144
▁dynamic	-10.1449
▁rare	-10.1453
▁starts	-10.1454
▁km	-10.1462
▁joined	-10.1463
▁sensor	-10.1469
▁remaining	-10.147
SA	-10.1473
▁temple	-10.1473
▁tourists	-10.1476
see	-10.1477
▁capture	-10.1479
▁purchased	-10.148
les	-10.1481
▁Advanced	-10.1481
▁alternative	-10.1481
▁Long	-10.1482
▁amazing	-10.1491
▁80	-10.1493
▁Women	-10.1494
▁02	-10.1497
▁Innovation	-10.1506
▁mouse	-10.1509
▁Hall	-10.151
▁structures	-10.1516
▁servers	-10.1516
▁convenience	-10.1517
▁iron	-10.1521
▁Word	-10.1527
▁outstanding	-10.1528
▁clinical	-10.1532
▁Their	-10.1532
like	-10.1534
▁turns	-10.1539
▁primarily	-10.155
▁walking	-10.1551
▁organized	-10.1551
▁visible	-10.1554
▁Members	-10.1555
CC	-10.1555
▁Mar	-10.1557
▁reserved	-10.1559
▁@	-10.1562
▁template	-10.1568
▁displays	-10.1573
▁Key	-10.1574
▁calculated	-10.1574
art	-10.1575
CO	-10.1576
▁replace	-10.158
▁president	-10.1586
▁Republic	-10.1587
▁crisis	-10.1589
▁sides	-10.1591
▁di	-10.1591
▁environments	-10.1592
▁applying	-10.1594
▁Ri	-10.1594
▁investments	-10.1601
▁preview	-10.1606
▁species	-10.1606
making	-10.1606
▁agencies	-10.1609
▁assessment	-10.1611
▁Series	-10.1614
▁portfolio	-10.1615
▁Culture	-10.1621
▁100%	-10.1621
▁win	-10.1623
▁Dai	-10.1628
▁4.	-10.1636
▁owners	-10.1641
▁walls	-10.1642
ow	-10.1644
▁USA	-10.1659
.7	-10.1662
▁Ya	-10.1663
type	-10.1663
▁representative	-10.1665
▁discussed	-10.1666
As	-10.1672
▁Wiki	-10.1673
▁returns	-10.1676
▁History	-10.1682
▁mix	-10.1691
▁regularly	-10.1691
▁languages	-10.1703
▁subscription	-10.1718
▁Medical	-10.1723
ber	-10.1731
▁Ni	-10.1737
▁designs	-10.174
▁Standard	-10.1741
▁maintaining	-10.1746
ries	-10.1757
▁Order	-10.1761
PS	-10.1766
▁urban	-10.1767
▁audit	-10.1768
▁string	-10.177
▁letter	-10.1776
▁Lord	-10.1776
▁Up	-10.1777
▁Table	-10.1779
▁Extension	-10.178
100	-10.1782
SP	-10.1784
▁wireless	-10.1784
▁Fund	-10.1788
set	-10.1791
▁contribution	-10.1795
▁2)	-10.1796
▁zero	-10.1805
▁comment	-10.1805
▁observed	-10.1814
▁vegetables	-10.182
▁fear	-10.1823
▁circuit	-10.1823
▁Master	-10.1831
▁Di	-10.1835
▁Users	-10.184
▁earthquake	-10.1845
▁Sho	-10.1845
▁sounds	-10.1847
▁IN	-10.1852
app	-10.1857
iv	-10.186
▁Affairs	-10.1861
▁reporting	-10.1871
▁rapidly	-10.1871
▁journey	-10.1874
▁stakeholders	-10.1876
▁principles	-10.1878
▁approved	-10.1881
▁poor	-10.1882
▁respective	-10.1888
PDF	-10.1889
▁discussions	-10.1892
▁sugar	-10.1903
lin	-10.1905
▁automotive	-10.1908
zo	-10.1908
▁shift	-10.191
▁necessarily	-10.1921
▁la	-10.1923
▁older	-10.1924
▁retail	-10.1925
▁monetary	-10.1927
▁kept	-10.1929
▁ride	-10.193
▁tap	-10.1933
how	-10.1933
▁notes	-10.1935
▁offices	-10.1939
▁Students	-10.1943
▁03	-10.1945
▁certification	-10.1946
▁agreed	-10.1947
▁continuous	-10.1948
act	-10.1948
▁ensuring	-10.1948
ai	-10.1949
▁bag	-10.1951
▁despite	-10.1952
▁container	-10.1953
▁plate	-10.1958
ig	-10.1965
▁Related	-10.1968
▁00	-10.197
kan	-10.197
▁Results	-10.1974
▁strategic	-10.1979
▁Training	-10.1987
Japanese	-10.1989
▁authorities	-10.1989
▁frequently	-10.1989
kawa	-10.1992
▁Target	-10.1998
▁encourage	-10.1999
29	-10.2004
▁v	-10.2009
▁guest	-10.2014
▁operational	-10.2019
▁milk	-10.202
ped	-10.2029
▁subsidiary	-10.2041
▁Promotion	-10.2049
▁Shi	-10.2051
▁Area	-10.2058
▁opinion	-10.206
▁selecting	-10.2062
▁rid	-10.2076
▁birth	-10.2083
▁straight	-10.2088
▁hall	-10.2091
▁Mitsui	-10.2095
▁aimed	-10.2101
▁firms	-10.2101
▁2007	-10.2102
▁treat	-10.2104
▁substances	-10.2113
▁clothes	-10.2118
▁feed	-10.2118
▁optimal	-10.2123
▁reflect	-10.2126
▁divided	-10.2129
▁workshop	-10.213
au	-10.213
▁Trust	-10.2135
▁Smart	-10.2138
MS	-10.214
▁electrical	-10.2141
▁comply	-10.2141
▁agency	-10.2143
▁seconds	-10.2143
▁clicking	-10.2143
▁Sex	-10.2144
let	-10.2147
▁Outlook	-10.2158
form	-10.2159
▁girls	-10.216
▁Profile	-10.2168
▁CMS	-10.217
▁concerned	-10.217
▁35	-10.2176
▁Future	-10.2201
▁secret	-10.2206
▁extensive	-10.2206
▁ocean	-10.2207
▁CSR	-10.221
▁Inter	-10.2212
▁easiest	-10.2216
ver	-10.222
▁participated	-10.2221
▁animal	-10.2222
▁Fuji	-10.2222
ja	-10.2226
▁estimated	-10.223
ju	-10.2233
▁Per	-10.2234
▁70	-10.2235
▁index	-10.224
▁claim	-10.224
▁tourist	-10.2244
▁soil	-10.2251
sis	-10.2253
rate	-10.2257
▁Safety	-10.2257
NA	-10.2258
Vendor	-10.2258
yu	-10.226
▁Companies	-10.2262
▁mark	-10.2265
▁parameter	-10.227
▁signs	-10.2276
▁patterns	-10.2278
▁32	-10.2282
▁diet	-10.2295
▁reliability	-10.2298
right	-10.2298
▁laser	-10.2304
▁inspection	-10.2304
▁organic	-10.2306
▁talking	-10.2307
▁race	-10.2307
▁contrast	-10.2307
▁regardless	-10.2308
▁reasonable	-10.2312
▁Collection	-10.2313
▁Room	-10.2315
000	-10.2315
▁Resources	-10.2317
▁Pandora	-10.2318
ible	-10.2321
▁Good	-10.2321
▁Nations	-10.2322
▁speech	-10.2323
▁decreased	-10.2324
▁finish	-10.2327
▁greatly	-10.2328
▁guidelines	-10.2329
▁Temple	-10.2331
▁forces	-10.2334
▁partnership	-10.2335
▁studying	-10.2336
▁mechanical	-10.2337
▁evening	-10.2343
▁showing	-10.2352
▁holiday	-10.2357
ware	-10.2357
▁90	-10.236
Note	-10.2361
[	-10.2371
▁biggest	-10.238
35	-10.2381
AT	-10.2389
▁Local	-10.239
▁begins	-10.239
▁yellow	-10.239
▁appeared	-10.2401
▁sections	-10.2403
▁painting	-10.2406
PA	-10.2409
.4	-10.241
▁examples	-10.2414
▁looked	-10.2423
▁Te	-10.2424
▁thousand	-10.2424
▁Bo	-10.2425
▁Lake	-10.2427
▁Release	-10.2433
▁showed	-10.2438
23	-10.2442
▁disabled	-10.2442
▁technological	-10.246
▁distributed	-10.2462
▁competitive	-10.2463
▁classic	-10.2465
▁majority	-10.247
EC	-10.2472
▁bridge	-10.2474
tal	-10.2475
▁Sumitomo	-10.2476
▁truth	-10.2486
▁Both	-10.2487
▁calls	-10.2487
▁Forum	-10.2491
▁expanded	-10.2491
▁Fukushima	-10.25
▁signed	-10.2501
▁teachers	-10.2503
▁suppliers	-10.2507
CA	-10.2508
▁objective	-10.2508
▁specialized	-10.2509
▁Communication	-10.2516
▁push	-10.2517
▁listen	-10.252
▁helping	-10.2523
▁registry	-10.2526
36	-10.2528
▁kids	-10.2529
▁paint	-10.2532
▁happened	-10.2534
▁Super	-10.2538
▁Those	-10.254
▁Two	-10.2546
NO	-10.2551
ran	-10.2554
ON	-10.2564
▁editing	-10.2565
▁professionals	-10.2567
▁landscape	-10.2583
▁analyze	-10.2584
ron	-10.26
▁conducting	-10.2607
▁acid	-10.2607
gen	-10.2609
▁agent	-10.261
▁permission	-10.261
▁realized	-10.2615
▁Enterprise	-10.2622
▁Image	-10.2625
▁n	-10.2626
▁raised	-10.2628
▁films	-10.2637
▁virus	-10.2638
▁iTunes	-10.264
▁fat	-10.2644
▁topics	-10.2645
▁Log	-10.2655
▁unable	-10.2658
▁helpful	-10.266
ng	-10.266
IC	-10.2667
▁Prime	-10.2671
▁Grand	-10.2672
▁everyday	-10.2674
▁advantages	-10.2676
▁strive	-10.2679
sha	-10.2684
▁Road	-10.2685
▁configure	-10.2705
▁Pay	-10.2709
▁Head	-10.2711
▁300	-10.2718
ification	-10.2719
▁continuously	-10.2725
▁Place	-10.2726
AP	-10.2729
▁1)	-10.2732
▁venue	-10.2733
ons	-10.2734
▁equity	-10.2738
▁ST	-10.2739
▁assigned	-10.2741
▁compensation	-10.2742
cy	-10.2743
▁citizens	-10.2743
▁enterprise	-10.2743
▁optical	-10.2743
▁sweet	-10.2745
CH	-10.2746
▁concrete	-10.2746
▁constant	-10.2755
▁contemporary	-10.2758
▁helped	-10.2759
▁ending	-10.2763
▁authentication	-10.2764
▁figures	-10.2764
▁interview	-10.277
▁Sustainability	-10.2781
▁strongly	-10.2784
▁submitted	-10.2788
▁eight	-10.2788
▁upgrade	-10.2788
▁Solutions	-10.2798
▁nor	-10.2801
TS	-10.2803
▁intellectual	-10.2804
▁degrees	-10.2805
▁broad	-10.2811
SC	-10.2813
▁lighting	-10.2813
▁closely	-10.2818
▁strengthening	-10.2828
▁governments	-10.2829
▁song	-10.283
.6	-10.2832
▁printing	-10.2833
ab	-10.2834
▁exclusive	-10.2839
▁initiative	-10.2841
▁Update	-10.2849
ler	-10.2849
▁layout	-10.2854
▁entering	-10.2861
▁nation	-10.2862
▁ball	-10.2865
▁sp	-10.2868
▁Period	-10.2869
▁wife	-10.2894
▁careful	-10.2894
▁zone	-10.2904
▁governance	-10.2908
What	-10.2919
▁John	-10.2924
▁thermal	-10.2931
03	-10.2934
style	-10.2936
▁Private	-10.2936
we	-10.2942
▁opinions	-10.2944
▁nearly	-10.2949
▁thousands	-10.2957
▁Amazon	-10.2964
▁identified	-10.2971
▁Conditions	-10.2976
▁Source	-10.2978
▁hospital	-10.2981
▁committee	-10.2982
▁stories	-10.2991
▁Member	-10.2991
ever	-10.2993
▁occurred	-10.2993
▁windows	-10.2995
▁radiation	-10.2997
▁Plant	-10.2997
▁severe	-10.2999
fu	-10.3
▁die	-10.3001
▁Ad	-10.3005
▁temporary	-10.3005
room	-10.3006
em	-10.3006
▁fight	-10.3007
▁arts	-10.3008
▁Message	-10.3022
▁ISO	-10.3031
▁transferred	-10.3035
▁route	-10.3037
▁scheme	-10.3039
▁Location	-10.3043
▁Movie	-10.3043
.8	-10.3045
Default	-10.3046
▁inform	-10.3051
▁Case	-10.3053
▁engineers	-10.3068
ving	-10.3069
ists	-10.3071
ward	-10.3073
▁computers	-10.3074
▁providers	-10.3075
▁Course	-10.3078
made	-10.308
▁guidance	-10.3081
▁conflict	-10.3085
▁Mitsubishi	-10.3088
▁sets	-10.3091
▁resort	-10.3096
▁accommodation	-10.3099
▁Ga	-10.3099
MO	-10.31
▁improvements	-10.3101
▁LED	-10.3104
55	-10.3104
▁Exhibition	-10.3106
▁Class	-10.3107
▁Spanish	-10.3109
­	-10.3115
▁band	-10.3122
▁tips	-10.3124
▁48	-10.3125
class	-10.3127
▁connections	-10.3128
ina	-10.3135
▁assist	-10.3141
▁completion	-10.3145
▁comparison	-10.3146
sion	-10.3149
oka	-10.3153
dis	-10.3155
▁payments	-10.3156
▁categories	-10.3157
▁amounts	-10.3158
▁church	-10.3159
▁Thanks	-10.3159
▁Quality	-10.316
▁Union	-10.3166
▁losses	-10.3167
▁identity	-10.3171
▁participating	-10.3176
▁specifically	-10.3179
▁1:	-10.318
”.	-10.3187
▁Setting	-10.3188
tu	-10.3191
▁lecture	-10.3207
▁sake	-10.3212
▁confidence	-10.3215
▁Moon	-10.3215
|	-10.3222
▁Taka	-10.3224
▁al	-10.3224
ile	-10.3226
IA	-10.3235
▁parking	-10.324
▁mouth	-10.3244
Nucleus	-10.3244
▁Auto	-10.3247
ン	-10.325
▁targets	-10.325
▁fans	-10.3252
▁Recover	-10.3256
▁lunch	-10.326
ken	-10.3261
▁Kobe	-10.3261
DS	-10.3263
q	-10.3267
▁achieving	-10.327
▁Who	-10.327
▁concern	-10.3271
▁freedom	-10.3276
▁documentation	-10.3276
▁30,	-10.3277
▁label	-10.3278
▁parent	-10.3281
▁universal	-10.3284
.9	-10.3284
▁recommendations	-10.3287
▁Tour	-10.3293
▁investigation	-10.3298
fin	-10.3304
▁provisions	-10.331
▁anywhere	-10.3311
▁anniversary	-10.3314
▁Review	-10.3322
box	-10.3322
▁noted	-10.3323
45	-10.3324
our	-10.3325
AM	-10.3328
▁invited	-10.3329
list	-10.3331
▁cook	-10.3332
▁Without	-10.3334
▁Court	-10.3334
▁Men	-10.3337
ah	-10.3337
▁represent	-10.3338
85	-10.334
▁ma	-10.3345
▁loans	-10.3348
▁containing	-10.3361
▁tickets	-10.3375
05	-10.3379
kin	-10.3379
mer	-10.3382
▁seat	-10.3383
▁Publication	-10.3384
▁thereby	-10.3389
▁relating	-10.339
▁pretty	-10.3393
▁focusing	-10.3394
▁faith	-10.3395
▁watching	-10.3396
75	-10.3397
▁Atheros	-10.34
▁utilizing	-10.3402
▁WiFi	-10.3404
▁worry	-10.3408
▁answers	-10.3409
▁Among	-10.3413
▁instrument	-10.3415
▁booking	-10.3416
▁Save	-10.3417
▁wire	-10.3419
▁saving	-10.342
▁enjoyed	-10.3422
▁facilitate	-10.3423
▁Features	-10.3426
UN	-10.343
▁graphics	-10.3434
▁Convention	-10.3434
OR	-10.3436
▁proceed	-10.3442
▁Yokohama	-10.3444
▁functional	-10.345
hara	-10.3451
▁Test	-10.3453
▁Shop	-10.3453
▁patent	-10.3459
▁simulation	-10.3462
▁experiment	-10.3464
▁seeing	-10.3466
long	-10.3469
▁centers	-10.3471
▁Device	-10.3471
▁notification	-10.3474
▁positions	-10.3481
▁Sony	-10.3482
MyApplication	-10.3483
▁facing	-10.3488
▁pull	-10.3489
ging	-10.3491
86	-10.3495
▁entertainment	-10.3496
▁rent	-10.3497
▁relation	-10.3498
▁Sha	-10.3501
▁temporarily	-10.3501
▁implementing	-10.352
▁laptop	-10.3532
▁extended	-10.3532
▁sending	-10.3533
▁extend	-10.3534
aki	-10.3534
ins	-10.3538
▁Study	-10.3539
▁native	-10.354
▁k	-10.3542
▁Transfer	-10.3543
02	-10.3543
▁packaging	-10.3553
▁Bi	-10.3554
▁porn	-10.3555
▁Finally	-10.3557
▁processed	-10.3566
▁bought	-10.3568
▁ha	-10.357
▁clock	-10.3571
▁thick	-10.3575
▁evaluate	-10.3577
▁Ku	-10.358
▁fund	-10.358
33	-10.3582
▁represents	-10.3583
▁protein	-10.3586
▁Game	-10.3586
▁scenery	-10.3592
car	-10.3597
▁whom	-10.3599
tin	-10.3603
▁Alliance	-10.3604
▁carrying	-10.3604
pre	-10.3607
▁profits	-10.3612
▁accident	-10.3615
▁INFORMATION	-10.3618
▁effectiveness	-10.3621
▁beach	-10.3623
▁info	-10.3629
BA	-10.3634
▁Backup	-10.3637
IS	-10.3642
KB	-10.3644
▁continuing	-10.3645
▁assume	-10.3645
▁requested	-10.3646
▁dinner	-10.3651
500	-10.3656
▁brings	-10.3662
▁Limited	-10.3675
▁2006	-10.3676
fer	-10.3678
▁iPad	-10.3678
▁hidden	-10.3679
▁sauce	-10.3681
▁theory	-10.3684
▁Registry	-10.3685
▁creates	-10.3689
▁indicate	-10.3694
▁Linux	-10.3695
▁therapy	-10.3697
▁pp	-10.3698
light	-10.3701
▁sexual	-10.3701
ear	-10.3701
▁plug	-10.3703
▁Hot	-10.3705
04	-10.3706
▁residence	-10.3712
▁reform	-10.3712
▁pot	-10.3714
istic	-10.372
▁specifications	-10.3721
▁adults	-10.3722
=	-10.3724
oc	-10.373
▁2005	-10.3739
xi	-10.374
▁perfectly	-10.3747
▁exchanges	-10.3753
▁flows	-10.3755
▁45	-10.3758
▁conversation	-10.3759
▁Light	-10.3759
▁Method	-10.3763
▁Film	-10.3764
-4	-10.3765
▁son	-10.3772
▁copyright	-10.3773
▁founded	-10.3777
ual	-10.378
▁wants	-10.378
▁treated	-10.378
▁exciting	-10.3781
▁Multi	-10.3782
▁deposit	-10.3784
▁leadership	-10.3787
▁Custom	-10.379
▁examination	-10.3794
lar	-10.3797
SI	-10.3798
▁exposure	-10.3801
▁choosing	-10.3802
ified	-10.3802
▁stream	-10.3804
▁Book	-10.3804
▁Try	-10.3808
▁Big	-10.381
▁Faculty	-10.3813
▁yuan	-10.3818
▁depth	-10.3818
fa	-10.3818
RA	-10.3819
ue	-10.3825
▁•	-10.3826
▁Install	-10.3841
▁Holdings	-10.3841
▁Tableau	-10.3843
▁Second	-10.3846
▁equivalent	-10.3848
▁executive	-10.3857
▁transformation	-10.386
▁controls	-10.3868
log	-10.3868
06	-10.3871
▁centre	-10.3876
ei	-10.3878
.1	-10.3881
▁isn	-10.3883
▁Drive	-10.3886
▁attractive	-10.3888
▁Additionally	-10.389
▁narrow	-10.3891
▁movements	-10.3891
▁emerging	-10.3895
▁leaving	-10.3897
▁discovered	-10.3897
▁¥1	-10.3898
▁eliminate	-10.3903
▁Regarding	-10.3904
▁magnetic	-10.3904
▁origin	-10.3907
▁finding	-10.3908
▁ease	-10.391
▁Garden	-10.391
friendly	-10.3916
▁restrictions	-10.3921
▁rock	-10.3926
▁(1	-10.3927
▁enabling	-10.3927
▁lifestyle	-10.3927
▁cuisine	-10.393
▁criteria	-10.3931
▁teacher	-10.3934
called	-10.3935
▁gets	-10.3937
▁variable	-10.3947
▁Supervisory	-10.3947
▁sharp	-10.3948
▁loved	-10.3948
▁British	-10.3954
▁Risk	-10.3957
▁detection	-10.3959
▁dead	-10.3962
nt	-10.3964
▁graduate	-10.3965
▁MA	-10.3966
▁Electric	-10.3967
▁texture	-10.3974
Pro	-10.3975
▁studied	-10.3975
▁cheap	-10.3976
▁ongoing	-10.3981
▁Steel	-10.3982
▁appreciate	-10.3982
▁senior	-10.3982
▁Blue	-10.3985
▁eating	-10.3988
▁Adult	-10.3992
Con	-10.3998
▁attend	-10.3998
▁OR	-10.3999
▁insert	-10.4001
▁compact	-10.4004
jp	-10.4006
▁dangerous	-10.4009
▁Earthquake	-10.401
▁Fujitsu	-10.4011
▁reception	-10.4012
▁Activities	-10.4013
ions	-10.4013
▁Unit	-10.4018
▁California	-10.4019
▁administrative	-10.4026
▁License	-10.4026
▁conservation	-10.4026
▁contributing	-10.4026
▁Ar	-10.4026
▁mini	-10.4032
▁economies	-10.4033
▁renewable	-10.4034
▁se	-10.4035
▁discover	-10.4035
▁Malaysia	-10.4038
▁Tsu	-10.4038
ake	-10.404
Do	-10.4044
▁wooden	-10.4046
▁Technical	-10.4046
$	-10.4049
MI	-10.4054
▁scan	-10.4057
▁2:	-10.406
34	-10.4061
▁Centre	-10.4066
▁Request	-10.4067
▁sin	-10.407
▁managing	-10.407
GA	-10.4072
▁aid	-10.4073
▁SA	-10.4076
▁Solution	-10.408
▁studio	-10.4083
▁controlled	-10.4085
▁reaction	-10.4087
▁Keyword	-10.4087
ised	-10.4089
▁node	-10.409
▁artificial	-10.4093
DI	-10.4094
low	-10.4102
▁cameras	-10.4106
▁husband	-10.4106
▁Edo	-10.4107
▁array	-10.4111
▁contracts	-10.4114
▁Materials	-10.4114
RO	-10.4116
▁thank	-10.4116
▁percentage	-10.4117
▁trouble	-10.412
▁jobs	-10.4124
:19	-10.4129
▁templates	-10.4137
AD	-10.414
tech	-10.4142
▁indicates	-10.4143
▁Virtual	-10.4147
▁concentration	-10.4154
▁Form	-10.4157
▁minute	-10.4159
▁keeping	-10.4161
PO	-10.4167
pi	-10.4167
RC	-10.4168
▁Family	-10.417
▁institution	-10.4175
▁Dropbox	-10.4176
ably	-10.4176
▁viewing	-10.4177
▁broadcast	-10.4183
ny	-10.419
moto	-10.4191
▁Nissan	-10.4191
▁sessions	-10.4192
▁Display	-10.4196
▁applies	-10.4203
▁police	-10.4206
▁VPN	-10.4206
▁theater	-10.4206
▁Sports	-10.4208
▁navigation	-10.421
▁onto	-10.4215
▁Like	-10.4219
▁row	-10.422
▁upload	-10.4224
ide	-10.4227
▁DVD	-10.4227
▁owned	-10.4229
▁weapons	-10.423
▁terminal	-10.4234
▁entirely	-10.4237
▁operated	-10.4241
▁authority	-10.4244
▁attended	-10.4245
▁availability	-10.4248
▁portion	-10.4256
▁producing	-10.4258
▁nearby	-10.4259
top	-10.426
▁Nuclear	-10.4264
you	-10.4269
DE	-10.4269
▁spots	-10.4274
▁respectively	-10.4275
▁dollars	-10.4275
▁missing	-10.4278
▁separately	-10.428
▁Despite	-10.4282
▁originally	-10.4282
▁Philippines	-10.4285
ier	-10.4291
▁utilize	-10.4292
▁sand	-10.4294
▁enterprises	-10.4298
▁Si	-10.43
▁Nippon	-10.4311
-3	-10.4315
fi	-10.4315
▁dollar	-10.4316
ute	-10.4317
val	-10.4324
▁Hu	-10.4327
▁sensors	-10.4329
▁Nagoya	-10.4329
▁photographs	-10.4331
▁editor	-10.4332
▁typical	-10.4337
09	-10.4339
▁Currently	-10.4351
")	-10.4352
▁extract	-10.4354
▁definition	-10.4357
RI	-10.4358
▁Sciences	-10.437
▁consistent	-10.4371
▁catch	-10.4374
▁cancel	-10.4376
▁pleasant	-10.4378
▁translated	-10.4379
bar	-10.4386
▁invest	-10.4387
▁possibilities	-10.4389
▁Performance	-10.4389
▁SE	-10.4392
▁06	-10.4392
cm	-10.4397
▁Micro	-10.4398
▁roles	-10.4402
▁observation	-10.4404
▁El	-10.4405
ip	-10.4408
si	-10.4409
▁Follow	-10.4409
”)	-10.4413
▁replica	-10.4414
▁wash	-10.4415
▁Asset	-10.4415
▁pursue	-10.4416
▁heating	-10.4418
▁standing	-10.4425
▁diversity	-10.4426
▁duties	-10.443
sk	-10.4431
▁mutual	-10.4434
▁philosophy	-10.4434
ix	-10.444
qu	-10.4441
▁appeal	-10.4443
▁district	-10.4448
▁delay	-10.4448
▁stages	-10.4448
▁accessible	-10.4454
▁Third	-10.4456
▁complicated	-10.4457
▁African	-10.4464
▁plus	-10.4464
▁login	-10.4465
▁runs	-10.4472
▁sustainability	-10.4479
▁Link	-10.4485
▁Middle	-10.4487
ose	-10.4487
▁accelerate	-10.4496
()	-10.4497
▁keys	-10.4503
▁closer	-10.4505
▁College	-10.4508
▁reset	-10.4508
▁outdoor	-10.4511
che	-10.4512
ub	-10.4513
39	-10.4514
▁paragraph	-10.4515
▁Plus	-10.4517
▁Sunday	-10.4517
▁operator	-10.452
▁rose	-10.4522
▁remained	-10.4522
▁count	-10.4523
▁Israel	-10.4524
zi	-10.4526
▁Gallery	-10.4526
▁Detailed	-10.4528
▁juice	-10.4532
▁bonds	-10.4533
▁powder	-10.4542
▁Commission	-10.4543
▁sectors	-10.4544
▁Database	-10.4545
lan	-10.4547
cent	-10.4548
▁calculation	-10.4552
▁venture	-10.4555
▁Ne	-10.4556
IL	-10.4562
▁Spring	-10.4565
cha	-10.4567
▁l	-10.457
▁club	-10.4574
▁loan	-10.4576
▁inventory	-10.4576
▁Sp	-10.458
▁peak	-10.4587
▁Ver	-10.459
▁designers	-10.4594
▁Usually	-10.4597
▁forth	-10.4602
▁lessons	-10.4606
▁grown	-10.4608
▁Call	-10.461
▁furniture	-10.4615
book	-10.4616
▁Out	-10.4617
ET	-10.4622
▁pe	-10.4623
▁Bluetooth	-10.463
5%	-10.463
▁deployment	-10.4631
▁boost	-10.4632
▁Spain	-10.4633
▁Color	-10.4638
▁JA	-10.4638
ture	-10.4639
▁intelligence	-10.4639
46	-10.464
▁Further	-10.4642
▁Chemical	-10.4645
plugins	-10.4648
▁claims	-10.4653
▁absolutely	-10.4658
PC	-10.4662
▁suggest	-10.4665
▁nine	-10.4665
▁Send	-10.4667
▁Prize	-10.4669
▁addresses	-10.467
▁empty	-10.4671
▁Yun	-10.4676
99	-10.4676
▁Samsung	-10.4678
▁Ja	-10.4679
▁buying	-10.4679
▁newer	-10.4681
▁setup	-10.4682
▁skill	-10.4683
!"	-10.4686
▁holds	-10.4687
▁taxes	-10.4687
▁bi	-10.4688
▁¥	-10.469
ming	-10.47
There	-10.4701
not	-10.4701
▁novel	-10.4708
mb	-10.4708
▁Prof	-10.4711
!!	-10.4713
▁branch	-10.4715
▁circle	-10.4715
▁reaches	-10.4715
▁Beijing	-10.4716
▁09	-10.4717
▁ASUS	-10.4717
▁aircraft	-10.4719
▁repeat	-10.4719
▁Cultural	-10.4722
▁Hiroshima	-10.4726
▁coating	-10.4727
▁Mori	-10.4728
▁measured	-10.4729
▁agricultural	-10.4729
▁Express	-10.473
▁County	-10.4734
▁05	-10.4736
▁resolve	-10.4736
~	-10.474
▁Ex	-10.474
▁?	-10.4742
ral	-10.4743
▁sensitive	-10.4746
▁pair	-10.4748
▁motion	-10.4748
44	-10.4749
▁r	-10.4763
ag	-10.4763
▁y	-10.4764
▁min	-10.4771
▁edition	-10.4783
▁Fu	-10.4783
68	-10.4784
▁serving	-10.4786
▁contacts	-10.4787
▁clothing	-10.479
▁battle	-10.479
OL	-10.4791
▁samples	-10.4793
▁flavor	-10.4793
▁Communist	-10.4795
cc	-10.4796
▁tend	-10.4799
▁fan	-10.4804
tor	-10.4807
▁pan	-10.4813
▁Remo	-10.4819
▁certainly	-10.4821
▁formats	-10.4823
▁invite	-10.4829
2000	-10.4829
▁im	-10.483
▁pleasure	-10.4832
▁serves	-10.4832
▁sit	-10.4836
▁Motor	-10.4844
▁controller	-10.4846
▁Kingdom	-10.4846
▁interaction	-10.4847
▁Version	-10.4849
▁south	-10.485
▁sequence	-10.4852
▁capability	-10.4852
▁mental	-10.4853
▁Introduction	-10.4857
▁mirror	-10.486
▁structural	-10.4866
▁fishing	-10.4868
▁bringing	-10.4875
▁assembly	-10.4879
▁angle	-10.4885
▁Children	-10.4886
▁examine	-10.4888
▁north	-10.4892
▁suit	-10.4895
▁Right	-10.4896
▁independently	-10.4901
▁Ten	-10.4902
all	-10.4903
mura	-10.4905
▁wave	-10.4911
▁autumn	-10.4911
▁drives	-10.4912
▁dialogue	-10.4917
▁2018.	-10.4921
▁division	-10.4927
▁Non	-10.4927
▁knew	-10.4929
▁officers	-10.4931
77	-10.4938
LA	-10.4938
▁calendar	-10.4939
▁aluminum	-10.4942
0000	-10.4945
▁Capital	-10.4948
▁attitude	-10.4948
▁4000	-10.4949
▁attempt	-10.4952
▁boot	-10.4955
▁Town	-10.496
speed	-10.4963
▁ME	-10.4968
▁feet	-10.4971
tan	-10.4972
▁refund	-10.4974
ps	-10.498
tri	-10.4983
Co	-10.4985
tel	-10.4985
▁disclose	-10.4985
▁(19	-10.4988
08	-10.499
▁precision	-10.4991
▁detect	-10.4992
can	-10.4994
▁consult	-10.4998
cl	-10.4998
▁transparent	-10.5
▁ring	-10.5003
▁HD	-10.501
▁Address	-10.501
▁IoT	-10.501
ery	-10.5017
▁Castle	-10.502
▁keyboard	-10.5023
▁logistics	-10.5026
Please	-10.5029
▁believed	-10.503
▁fruits	-10.5034
▁Indian	-10.5035
▁split	-10.5039
▁forced	-10.5039
▁Win	-10.504
▁glue	-10.5041
▁songs	-10.5041
▁smell	-10.5043
▁premium	-10.5043
▁male	-10.5044
▁foods	-10.5044
▁recipe	-10.5044
▁Adobe	-10.5046
▁attacks	-10.5048
▁Tohoku	-10.5056
▁Bitcoin	-10.5056
▁bodies	-10.5062
▁permanent	-10.5065
ura	-10.5065
▁wild	-10.5067
▁automation	-10.5072
▁Friday	-10.5072
▁Cooperation	-10.5074
▁Bio	-10.5074
▁tracking	-10.508
▁Du	-10.5083
▁telephone	-10.5084
66	-10.5089
▁ourselves	-10.5089
▁opt	-10.509
▁lived	-10.5093
▁thoughts	-10.5095
▁plays	-10.5095
▁fulfill	-10.5096
▁vary	-10.5097
▁MI	-10.5099
▁Working	-10.51
▁Masa	-10.5105
▁household	-10.5106
07	-10.5106
▁modules	-10.5106
▁Mode	-10.5107
▁doubt	-10.5109
▁08	-10.5111
37	-10.5111
▁proposal	-10.5113
▁Three	-10.5115
▁joy	-10.5117
▁depend	-10.5118
▁mixture	-10.512
hand	-10.512
95	-10.5122
▁Cha	-10.5123
48	-10.5124
▁marked	-10.5127
▁flexibility	-10.5127
▁perhaps	-10.5128
▁w	-10.5138
▁combine	-10.5139
▁sizes	-10.5141
▁vi	-10.5141
ari	-10.5141
ther	-10.5146
▁fi	-10.5147
▁Return	-10.5148
▁adult	-10.5149
▁extreme	-10.5151
▁thread	-10.5152
▁Sub	-10.5155
▁monthly	-10.5158
▁fiber	-10.516
EX	-10.5164
▁adapt	-10.5164
De	-10.5165
00	-10.5166
▁preparing	-10.5168
▁mo	-10.518
▁developer	-10.5181
▁enhanced	-10.5189
▁healthcare	-10.5191
▁MAX	-10.5196
ep	-10.5197
▁financing	-10.5199
▁covers	-10.5203
▁150	-10.5213
▁Port	-10.5214
▁satellite	-10.5215
▁downloaded	-10.5215
▁stars	-10.5217
▁tablet	-10.5217
▁opposite	-10.5219
38	-10.5223
▁elderly	-10.5225
▁console	-10.5226
▁2019.	-10.5229
▁fell	-10.5234
▁configured	-10.5234
ants	-10.5235
When	-10.5236
▁Paper	-10.5239
▁Tai	-10.5242
▁stopped	-10.5243
▁Size	-10.5243
▁mask	-10.525
▁awarded	-10.5253
▁representatives	-10.5257
▁prefer	-10.5261
AN	-10.5266
▁verification	-10.5269
▁Partner	-10.527
edge	-10.527
▁Its	-10.5272
▁acts	-10.5273
▁suddenly	-10.5274
▁Compliance	-10.5277
▁utility	-10.5279
ound	-10.5283
▁execute	-10.5287
▁turning	-10.5289
▁sort	-10.529
▁strict	-10.529
▁hydrogen	-10.5292
▁shoes	-10.5292
▁funding	-10.5296
▁album	-10.53
▁teach	-10.53
▁Yo	-10.5301
▁packages	-10.5304
▁HOME	-10.5315
▁Property	-10.5317
▁Ms	-10.5318
information	-10.5318
▁satisfaction	-10.5321
▁36	-10.5326
▁Close	-10.5329
▁spaces	-10.533
▁Action	-10.5335
▁2003	-10.5335
▁MO	-10.5336
▁04	-10.5337
pt	-10.5338
ND	-10.534
▁Olympic	-10.5341
▁King	-10.5349
▁entity	-10.5353
▁confirmation	-10.5357
▁agents	-10.5363
▁efficiently	-10.5367
▁Bay	-10.5367
▁seminar	-10.5371
▁latter	-10.5372
▁breakfast	-10.5373
AI	-10.5388
▁globally	-10.5389
▁establishing	-10.5391
▁mixed	-10.5393
▁ANA	-10.5394
ct	-10.5395
▁2020.	-10.5401
▁tape	-10.5403
65	-10.5413
▁overview	-10.5418
▁layers	-10.5425
▁inner	-10.5426
▁Tourism	-10.5428
▁Sen	-10.5428
▁nations	-10.5429
▁observe	-10.5429
▁Shopping	-10.543
▁disasters	-10.5434
▁parallel	-10.5435
▁IC	-10.5435
<	-10.5436
▁miss	-10.5439
▁certified	-10.5441
▁1990	-10.5443
▁Computer	-10.5444
▁Having	-10.5446
▁cheese	-10.5452
▁emails	-10.5454
EL	-10.5455
▁deemed	-10.5457
▁massive	-10.5458
▁speaking	-10.546
▁crystal	-10.5461
▁Ken	-10.5462
▁simultaneously	-10.5464
-8	-10.5465
▁33	-10.5475
▁Whether	-10.5477
▁quiet	-10.5482
▁encounter	-10.5484
▁pandemic	-10.5485
▁ranking	-10.5486
ok	-10.5487
-10	-10.5487
▁Anti	-10.5491
▁impression	-10.5493
▁codes	-10.5493
▁Tube	-10.5498
▁Lo	-10.5498
▁gained	-10.5499
▁characteristic	-10.55
▁Dis	-10.5508
▁twice	-10.5513
▁Mu	-10.5513
▁tank	-10.5513
▁width	-10.5514
▁2018,	-10.552
▁laboratory	-10.5526
<<	-10.5532
▁tradition	-10.5533
▁aiming	-10.5533
▁burden	-10.5535
▁Mark	-10.5536
ld	-10.5541
▁Learning	-10.5541
▁feelings	-10.5542
▁prefecture	-10.5543
▁vital	-10.555
▁Securities	-10.5555
ec	-10.5556
▁sum	-10.5558
▁gap	-10.5566
▁07	-10.557
▁Material	-10.5573
▁checked	-10.5574
▁overcome	-10.5581
▁duration	-10.5585
▁recycling	-10.5586
▁regulatory	-10.5589
▁Gold	-10.5591
▁※	-10.5592
▁Options	-10.5595
▁boat	-10.5595
43	-10.5598
▁replaced	-10.5599
▁ASEAN	-10.5601
▁difficulties	-10.5607
▁civil	-10.5608
▁fail	-10.5612
▁superior	-10.5616
▁dust	-10.5621
ek	-10.5626
▁Jo	-10.5627
▁sl	-10.563
ned	-10.563
▁34	-10.5633
▁Christian	-10.5634
▁operators	-10.5635
▁trans	-10.5636
▁Com	-10.5639
▁humans	-10.5646
▁react	-10.5646
▁roof	-10.5649
▁Machine	-10.5649
▁arrived	-10.5654
▁lock	-10.5655
▁agreements	-10.5656
▁liabilities	-10.566
▁du	-10.5661
▁Nomura	-10.5662
▁existence	-10.5666
DO	-10.5672
▁robot	-10.5673
▁demands	-10.5675
▁!	-10.5678
▁movies	-10.5678
▁vast	-10.5678
▁tracks	-10.5686
▁minimize	-10.5689
▁Desktop	-10.5689
▁2016,	-10.5691
▁membership	-10.5694
He	-10.5694
▁Ju	-10.5696
ley	-10.5698
sho	-10.5699
▁relax	-10.57
▁AD	-10.57
▁attract	-10.5701
▁Marketing	-10.5704
▁chicken	-10.5708
▁performances	-10.5708
ud	-10.5709
96	-10.5719
known	-10.5721
▁folders	-10.5729
▁maintained	-10.573
▁television	-10.5741
▁earn	-10.5742
▁bread	-10.5743
yl	-10.5748
▁broken	-10.575
▁workplace	-10.575
▁Yoshi	-10.5751
▁printed	-10.5753
generation	-10.5757
▁refers	-10.5761
ction	-10.5761
▁harm	-10.5761
▁Brand	-10.5762
▁approaches	-10.5764
▁elegant	-10.5766
▁adjustment	-10.5766
▁mechanisms	-10.5776
▁Han	-10.5776
▁proud	-10.5782
MC	-10.5784
▁Tri	-10.5787
▁compare	-10.5787
▁2015,	-10.5787
▁bathroom	-10.5793
▁«	-10.5798
1000	-10.5798
▁bowl	-10.5802
med	-10.5804
▁Shanghai	-10.5806
▁Saturday	-10.5806
▁interact	-10.5807
▁gate	-10.5807
▁lesson	-10.5808
▁2017,	-10.5813
▁Tweet	-10.5819
▁MS	-10.5819
.5	-10.5823
DC	-10.5824
56	-10.5827
tes	-10.5829
▁meal	-10.5831
▁Process	-10.584
▁pure	-10.5849
▁Pe	-10.5859
▁trademarks	-10.5867
▁bear	-10.5867
▁vessels	-10.5868
▁2002	-10.587
ven	-10.5871
49	-10.5876
▁pace	-10.5876
▁Am	-10.5879
▁seeking	-10.5881
▁Nature	-10.5881
▁difficulty	-10.5885
▁accessories	-10.5886
ス	-10.5887
▁automated	-10.589
▁diagnose	-10.5892
▁introducing	-10.5896
▁cart	-10.5898
air	-10.5898
▁hundreds	-10.59
▁reputation	-10.5902
▁inquiries	-10.5907
▁signals	-10.5907
▁2017.	-10.5911
▁Analysis	-10.5911
▁mention	-10.5912
▁2020,	-10.5913
▁luxury	-10.5915
▁horizon	-10.5917
▁Officer	-10.5918
ition	-10.5928
▁5.	-10.5928
▁appointed	-10.5933
ography	-10.5935
Ro	-10.5941
kai	-10.5941
▁gather	-10.5941
▁officials	-10.5942
▁slowly	-10.5942
▁Newest	-10.5943
▁gentle	-10.5948
CK	-10.5949
▁Following	-10.5949
▁Java	-10.595
42	-10.5951
▁loop	-10.5956
▁restart	-10.596
read	-10.5964
Pa	-10.5964
FT	-10.597
▁apparent	-10.5971
▁INSTITUTE	-10.5976
▁holidays	-10.5979
▁lease	-10.5982
▁Qu	-10.599
▁Land	-10.5991
MB	-10.5992
▁opens	-10.5994
TC	-10.5998
▁Tu	-10.5999
▁understood	-10.6002
▁Will	-10.6008
▁spending	-10.6015
76	-10.6016
▁Modern	-10.6016
▁Introduced	-10.6021
▁Meanwhile	-10.6021
▁fluid	-10.6021
▁coal	-10.6022
FA	-10.6022
▁ad	-10.6027
my	-10.6031
▁6.	-10.6032
▁arrive	-10.6033
▁arrival	-10.6037
▁hole	-10.604
▁Visit	-10.604
▁Analytics	-10.6045
▁silver	-10.6045
▁designer	-10.6046
▁Instead	-10.6046
▁liability	-10.605
tle	-10.605
。	-10.6052
▁freely	-10.6059
▁checking	-10.6059
▁printer	-10.6064
CE	-10.6065
▁prohibited	-10.6067
▁belongs	-10.6068
▁thoroughly	-10.6069
▁specialist	-10.607
▁OK	-10.6072
78	-10.6075
▁marine	-10.6077
▁Technologies	-10.6078
▁Square	-10.608
ren	-10.6081
▁ELECTRONICS	-10.6086
▁PA	-10.6088
▁COMMUNICATION	-10.6089
▁robust	-10.6094
▁Operating	-10.6094
▁2004	-10.6103
▁imp	-10.6108
▁Internal	-10.6108
ious	-10.6111
▁removal	-10.6111
▁pregnancy	-10.6112
▁blocks	-10.6115
▁normally	-10.6116
▁Shrine	-10.6117
▁Old	-10.6123
rk	-10.6124
▁router	-10.6127
▁Pi	-10.613
▁verify	-10.6135
▁Production	-10.6136
▁cope	-10.6136
▁fourth	-10.6137
41	-10.6138
▁unusual	-10.6139
▁eventually	-10.6148
Com	-10.6151
▁Annual	-10.6157
▁hundred	-10.6158
▁End	-10.6158
▁Manuscript	-10.616
press	-10.6161
▁concluded	-10.6162
▁CA	-10.6164
▁Shu	-10.6165
▁diameter	-10.6172
▁travelers	-10.6178
▁HTML	-10.6179
▁Total	-10.6186
▁managers	-10.6186
▁forecasts	-10.619
▁developments	-10.6192
gan	-10.6193
▁listening	-10.6195
▁gender	-10.6195
Invalid	-10.6196
▁wearing	-10.6196
▁Finance	-10.6197
▁locate	-10.6197
▁safely	-10.6198
▁Coupon	-10.6199
▁Run	-10.6199
▁Representative	-10.6201
▁stations	-10.6204
▁Partners	-10.6208
▁shock	-10.6216
▁greatest	-10.6217
▁electronics	-10.6218
lip	-10.6218
▁customize	-10.6218
OC	-10.6218
▁(4)	-10.6219
▁aspect	-10.6222
▁1999	-10.6223
▁limits	-10.6226
▁lots	-10.6227
▁Mexico	-10.6229
star	-10.6229
▁exit	-10.623
▁desk	-10.623
▁temperatures	-10.6231
▁wrote	-10.6234
▁Important	-10.6234
▁grant	-10.6236
67	-10.6239
▁seemed	-10.6239
▁timely	-10.6241
▁h	-10.6244
ify	-10.6244
▁signature	-10.6245
▁putting	-10.6245
▁Gen	-10.6247
▁exposed	-10.6247
▁stronger	-10.6248
ori	-10.6249
▁purchasing	-10.6256
69	-10.6256
▁measuring	-10.6258
89	-10.6265
81	-10.6266
▁rising	-10.6267
▁planet	-10.6272
▁college	-10.6276
▁Reference	-10.6277
minute	-10.6281
▁propose	-10.6286
▁enhancing	-10.6293
▁describe	-10.6294
▁accurately	-10.6296
▁announcement	-10.6296
▁th	-10.6298
▁charged	-10.6305
▁legs	-10.6307
▁batteries	-10.6315
vent	-10.6315
▁~	-10.632
▁daughter	-10.632
▁roll	-10.632
▁DC	-10.6322
So	-10.6322
gawa	-10.6326
2355	-10.6329
▁wedding	-10.6331
▁subsequent	-10.6333
▁deeply	-10.6334
88	-10.6336
▁shell	-10.6336
▁scientists	-10.6337
uff	-10.6339
▁Fukuoka	-10.634
▁assign	-10.6343
▁Academy	-10.6345
▁Depending	-10.6347
▁Audio	-10.635
▁procurement	-10.6356
▁imagine	-10.6364
▁Vice	-10.6364
:---	-10.6372
▁drawn	-10.6375
▁tag	-10.6376
▁ENGINEERS	-10.6379
▁suffering	-10.638
ano	-10.6382
▁reflected	-10.6383
Mi	-10.6384
▁afraid	-10.6386
:2188-	-10.6389
▁Love	-10.6389
▁cap	-10.6392
▁suffer	-10.6392
-5693	-10.6393
▁relative	-10.6394
▁Level	-10.6395
with	-10.6396
▁pet	-10.6396
79	-10.6396
BO	-10.6397
0913	-10.6397
▁Bu	-10.64
▁surprise	-10.6401
▁granted	-10.6402
▁died	-10.6413
▁damages	-10.6413
▁wil	-10.6418
▁trips	-10.6427
▁consultation	-10.6429
▁threat	-10.6431
▁optimize	-10.6432
ulation	-10.6435
▁oven	-10.6437
▁bottle	-10.6445
▁phones	-10.6445
▁suggestions	-10.6446
▁revised	-10.6447
▁prescribed	-10.6449
▁chocolate	-10.6449
▁animation	-10.645
▁gone	-10.6451
▁casino	-10.6452
▁waves	-10.6455
▁inspired	-10.6459
▁instruction	-10.646
▁wonder	-10.6466
▁lay	-10.6472
wide	-10.6474
▁reply	-10.6474
▁steam	-10.6475
▁elementary	-10.6478
name	-10.648
▁departments	-10.6482
▁stick	-10.6483
▁Enjoy	-10.6483
▁Naka	-10.6484
▁400	-10.6486
▁obligations	-10.6488
▁soup	-10.6489
▁2016.	-10.6492
▁Price	-10.6492
▁Ocean	-10.6495
▁cat	-10.6499
▁revealed	-10.65
▁excess	-10.65
IM	-10.6501
▁replacement	-10.6501
▁Communications	-10.6503
▁brush	-10.6506
ick	-10.6507
▁supplies	-10.6509
-5	-10.6512
▁screening	-10.6514
▁Cross	-10.6515
.3	-10.6518
▁campus	-10.6524
▁lake	-10.6525
▁Editor	-10.6528
▁FOR	-10.6528
PM	-10.6528
shu	-10.653
▁cherry	-10.6532
▁causing	-10.6532
▁Turn	-10.6535
▁Engine	-10.6536
▁programming	-10.6538
fe	-10.6543
▁drinking	-10.6547
▁couldn	-10.6548
▁plenty	-10.6551
TH	-10.6551
▁stands	-10.6555
▁busy	-10.6562
▁algorithm	-10.6567
▁objectives	-10.6567
87	-10.6571
▁corrupt	-10.6573
▁satisfied	-10.6574
code	-10.6575
▁contest	-10.6576
▁passing	-10.6577
▁machinery	-10.6578
uri	-10.6579
▁burn	-10.6579
▁indicators	-10.6588
▁Pass	-10.659
▁calculate	-10.659
▁3)	-10.6593
▁typically	-10.6594
▁NO	-10.6596
▁arise	-10.6597
table	-10.6597
▁Seminar	-10.6605
▁brief	-10.6607
new	-10.6608
▁spiritual	-10.6612
▁executed	-10.6618
gy	-10.6619
▁utilization	-10.6622
▁smartphones	-10.6623
▁2019,	-10.663
ane	-10.6632
My	-10.6632
▁Look	-10.6639
ice	-10.6642
▁exists	-10.6645
▁lies	-10.6646
▁naturally	-10.6646
▁USD	-10.6653
▁settlement	-10.6653
▁unknown	-10.6653
▁analytics	-10.6656
▁exceed	-10.6657
ological	-10.6658
▁tower	-10.6661
▁buttons	-10.6662
▁fly	-10.6663
▁craft	-10.6667
▁describes	-10.667
▁Large	-10.6672
▁tons	-10.6672
▁crucial	-10.6676
▁letters	-10.6678
run	-10.6686
▁beer	-10.6688
▁embedded	-10.6689
▁Phone	-10.6689
▁Acer	-10.6694
▁2015.	-10.6696
▁incorrect	-10.6698
step	-10.6701
▁Copy	-10.6703
EE	-10.6705
▁Insurance	-10.6711
▁mine	-10.6713
rt	-10.6722
▁prompt	-10.6724
▁Student	-10.6726
iz	-10.6729
▁contributed	-10.6732
▁calm	-10.6733
CS	-10.6733
▁failed	-10.6735
▁Bible	-10.6738
▁Guidelines	-10.6742
▁cooperate	-10.6747
Ex	-10.6751
▁quantity	-10.6757
▁JR	-10.6765
▁JPY	-10.6767
▁Articles	-10.6768
▁Active	-10.677
▁experiments	-10.6771
sp	-10.6773
▁Gra	-10.6774
▁Ru	-10.6774
▁Payment	-10.6782
TP	-10.6783
▁detected	-10.6784
▁dealing	-10.6784
lor	-10.6784
▁border	-10.6787
TI	-10.679
▁gr	-10.679
▁cast	-10.6794
Mo	-10.6795
wn	-10.68
ns	-10.6802
DB	-10.6803
▁Federation	-10.6804
▁2001	-10.6807
▁Myanmar	-10.6807
▁combining	-10.6809
▁warning	-10.681
▁Tap	-10.6812
▁secondary	-10.6812
▁Strategy	-10.6813
▁cooling	-10.6822
82	-10.6823
▁concert	-10.6824
▁ads	-10.6825
▁Accounting	-10.6829
▁judgment	-10.6831
▁specialists	-10.6834
▁absence	-10.6834
▁exact	-10.6835
lia	-10.6838
▁contributions	-10.6839
▁modify	-10.684
▁everywhere	-10.684
IF	-10.6841
▁Natural	-10.6843
▁ski	-10.6847
▁mostly	-10.685
▁Regional	-10.6863
▁conclusion	-10.6868
▁faculty	-10.6868
▁rubber	-10.6869
▁Peace	-10.6875
98	-10.6875
point	-10.6877
▁reduces	-10.6879
▁protocol	-10.6882
dai	-10.6883
▁Hand	-10.6884
▁margin	-10.6884
▁cache	-10.6885
▁knows	-10.6885
row	-10.6892
from	-10.6897
▁passion	-10.6902
▁leverage	-10.6909
▁false	-10.6913
▁density	-10.6915
SHI	-10.6917
▁Australian	-10.6918
RT	-10.6919
▁trademark	-10.692
”,	-10.692
tter	-10.6925
hu	-10.693
ami	-10.6934
St	-10.6935
TION	-10.6939
▁Sustainable	-10.6941
▁Looking	-10.6945
▁DE	-10.6946
#	-10.6947
▁Spirit	-10.6948
▁disable	-10.695
Me	-10.6952
▁gear	-10.6952
▁statistics	-10.6955
ole	-10.6956
▁accumulated	-10.6958
How	-10.6958
▁Brazil	-10.6963
lon	-10.6964
▁dress	-10.6967
▁vertical	-10.6968
▁8.1	-10.6986
▁excited	-10.6986
▁Mt	-10.6994
▁Skip	-10.6997
▁Fa	-10.6998
▁AR	-10.7
▁jump	-10.7001
▁proven	-10.7004
71	-10.7004
▁EN	-10.7005
WA	-10.7011
▁streets	-10.7013
▁Chief	-10.7018
hereinafter	-10.7018
▁inflation	-10.702
▁transparency	-10.7023
▁pump	-10.7024
uring	-10.7026
ade	-10.7026
ments	-10.7027
▁cup	-10.7027
av	-10.7028
▁).	-10.703
ign	-10.7031
ency	-10.7034
▁JavaScript	-10.7035
▁castle	-10.7036
take	-10.7038
▁taught	-10.7043
▁achievements	-10.7044
▁requirement	-10.7051
▁ends	-10.7058
▁Disaster	-10.7058
▁Southeast	-10.7066
key	-10.7066
gg	-10.7068
▁exhibitions	-10.707
▁hide	-10.7071
▁publication	-10.7072
▁Export	-10.7076
oo	-10.7077
▁dog	-10.7077
keeping	-10.7079
>	-10.708
▁Hitachi	-10.7081
rn	-10.7082
▁scenes	-10.7082
▁Secure	-10.7082
▁consulting	-10.7084
mal	-10.7085
DR	-10.7086
▁tube	-10.7086
▁Fill	-10.7089
▁activate	-10.7089
58	-10.7094
▁wheel	-10.7094
▁SP	-10.7095
▁hearing	-10.7096
▁38	-10.7098
▁ceiling	-10.71
▁Buddha	-10.7102
which	-10.7103
▁booth	-10.7104
▁Medicine	-10.7107
▁precious	-10.7107
▁score	-10.7109
▁religion	-10.711
▁toilet	-10.7113
▁impressive	-10.7114
200	-10.7116
▁colleagues	-10.7117
▁po	-10.7119
▁sitting	-10.7121
▁photography	-10.7122
▁Vision	-10.7123
▁shrine	-10.7125
54	-10.7126
OT	-10.7126
▁Value	-10.7128
screen	-10.7129
▁Monday	-10.7133
▁styles	-10.7134
▁Premium	-10.7137
▁interactive	-10.7139
▁trigger	-10.7143
▁accompanied	-10.7143
int	-10.7144
PI	-10.7146
▁Notes	-10.715
▁exception	-10.7152
▁soul	-10.7153
▁Consolidated	-10.7153
▁engagement	-10.7157
▁farm	-10.7158
▁revolution	-10.7164
▁leather	-10.7166
▁popularity	-10.7168
▁Applications	-10.7168
pon	-10.7168
▁surrounded	-10.7169
▁Care	-10.7175
▁supplier	-10.7176
▁afternoon	-10.7177
▁coupon	-10.718
Therefore	-10.7186
▁ba	-10.7186
▁Che	-10.7188
▁experimental	-10.719
ino	-10.7191
▁Credit	-10.7195
▁meals	-10.7197
▁moisture	-10.7197
▁explanation	-10.7199
▁Cor	-10.7202
▁Edit	-10.7204
EM	-10.7204
▁Gu	-10.7204
▁Sky	-10.7205
▁shot	-10.7206
such	-10.721
rum	-10.7212
61	-10.7214
▁Rules	-10.7214
ada	-10.7218
▁Fair	-10.7225
-12	-10.7226
8000	-10.723
nic	-10.7232
▁si	-10.7232
▁decades	-10.7233
▁3:	-10.7235
▁Small	-10.7236
▁TOP	-10.7238
van	-10.7241
▁Paul	-10.7247
▁entities	-10.7247
▁pollution	-10.7252
▁Current	-10.7253
▁generations	-10.7254
▁raising	-10.7259
part	-10.7259
▁arising	-10.7261
late	-10.7262
▁challenging	-10.7268
▁Beach	-10.7269
▁washing	-10.727
play	-10.7271
▁Heritage	-10.7272
▁Jun	-10.7274
▁tables	-10.7274
▁measurements	-10.7275
▁tested	-10.7276
▁wet	-10.7277
▁Changes	-10.7277
▁Quick	-10.7279
▁permitted	-10.7279
sized	-10.7282
▁diagnosis	-10.7284
7000	-10.7286
▁sa	-10.7286
SS	-10.7288
cing	-10.7291
▁Creating	-10.7291
▁subjects	-10.7293
▁37	-10.7295
▁Customers	-10.7295
▁principal	-10.7296
▁sophisticated	-10.7296
▁]	-10.7297
▁na	-10.7297
▁prove	-10.7298
▁Cookies	-10.7301
▁operates	-10.7304
)[	-10.7306
▁scanning	-10.7307
ou	-10.7309
▁Rakuten	-10.7311
▁transform	-10.7313
51	-10.7322
97	-10.7323
▁attractions	-10.7323
▁ultra	-10.7325
life	-10.7327
mate	-10.733
▁Asahi	-10.7331
▁SO	-10.7334
▁Tool	-10.7336
▁Pan	-10.734
▁Short	-10.7344
▁admin	-10.7346
▁Channel	-10.7347
▁paying	-10.7347
New	-10.7351
47	-10.7352
▁seeds	-10.7352
ell	-10.7355
OP	-10.7355
▁Azure	-10.7363
▁Keio	-10.7366
▁decoration	-10.7366
▁closing	-10.7366
▁celebrate	-10.7366
▁massage	-10.7366
▁Mail	-10.7366
▁Thai	-10.7371
▁Kei	-10.7375
▁adopt	-10.7375
▁Remove	-10.7375
▁organize	-10.7376
▁True	-10.7378
ack	-10.7381
.10	-10.7383
▁involves	-10.7384
2)	-10.7385
▁Tower	-10.7386
▁composed	-10.7387
▁candidates	-10.7391
pot	-10.7395
▁honor	-10.7399
▁phenomenon	-10.7402
▁presentations	-10.7403
matic	-10.7405
▁Error	-10.7405
▁discovery	-10.7416
▁happiness	-10.7417
PP	-10.7425
▁Nu	-10.7431
▁2014,	-10.7433
▁Info	-10.7439
▁pray	-10.7439
▁Cash	-10.744
▁Possible	-10.744
FS	-10.744
▁grade	-10.7441
▁chemicals	-10.7443
▁Author	-10.7444
ii	-10.7444
don	-10.7446
od	-10.7446
▁reserve	-10.7447
▁winning	-10.7449
▁sheets	-10.7449
▁Comp	-10.745
▁illegal	-10.7452
▁explains	-10.7457
▁Shopify	-10.7461
▁flag	-10.7466
▁themes	-10.7471
73	-10.7473
▁predict	-10.7473
aku	-10.7474
▁Session	-10.7476
▁50%	-10.7477
▁Besides	-10.7484
▁Hiro	-10.7493
▁semiconductor	-10.7494
▁”	-10.7495
▁administrator	-10.7495
72	-10.7497
▁characterized	-10.7503
▁minimal	-10.7503
▁Shareholders	-10.7504
▁Screen	-10.7505
-7	-10.7506
▁highlight	-10.7507
▁seats	-10.7508
▁gathered	-10.7509
63	-10.751
▁Kin	-10.7511
ens	-10.7513
▁adjusted	-10.7514
92	-10.7515
0.0	-10.7516
74	-10.7516
▁confident	-10.7516
CP	-10.7523
▁plane	-10.7528
▁concepts	-10.7529
ations	-10.7529
▁Contents	-10.753
ties	-10.7531
▁removing	-10.7532
▁boxes	-10.7534
▁Casino	-10.7537
▁ProgID	-10.7545
▁SIM	-10.755
▁appropriately	-10.7553
▁grid	-10.7556
53	-10.7559
▁MyApplication	-10.7561
oma	-10.7561
▁sync	-10.7561
▁essence	-10.7562
And	-10.7566
▁dates	-10.7566
▁spoke	-10.757
ators	-10.757
▁timing	-10.7572
ble	-10.7573
▁chart	-10.7575
-6	-10.7576
han	-10.7581
▁commands	-10.7585
▁correction	-10.7586
59	-10.7588
ple	-10.759
▁involving	-10.7594
DP	-10.7598
ph	-10.7598
▁mood	-10.7599
▁immediate	-10.7603
▁Outline	-10.7603
▁sight	-10.7608
cra	-10.7613
▁Har	-10.7615
▁ensures	-10.7616
gar	-10.7617
▁header	-10.7618
▁smile	-10.7621
PR	-10.7624
▁relief	-10.7624
▁workshops	-10.7625
▁panels	-10.7628
▁victims	-10.7632
▁paste	-10.7634
wi	-10.7635
bin	-10.7638
▁39	-10.7639
▁rear	-10.764
lt	-10.7641
▁strictly	-10.7646
84	-10.765
3000	-10.7652
5000	-10.7654
gra	-10.7656
sur	-10.7658
▁proposals	-10.7661
▁Apply	-10.7664
▁Index	-10.7666
▁cancellation	-10.7669
▁obtaining	-10.7669
▁para	-10.7673
LO	-10.7673
▁Status	-10.7676
▁appointment	-10.7677
▁Offer	-10.7689
▁ne	-10.769
▁defense	-10.769
▁Conduct	-10.7691
9000	-10.7693
▁Ca	-10.7694
▁youth	-10.7695
▁Church	-10.7697
▁traveling	-10.7703
▁varieties	-10.7704
eg	-10.771
▁behalf	-10.771
▁Embassy	-10.7711
▁Dec	-10.7712
▁musical	-10.7715
▁assess	-10.7717
▁mono	-10.7718
▁mold	-10.7728
▁marks	-10.773
▁Though	-10.773
300	-10.7737
ash	-10.7738
▁SDK	-10.774
▁Electronics	-10.774
▁preferences	-10.7742
▁Associate	-10.7744
▁Zealand	-10.7744
52	-10.7746
▁Mountain	-10.7747
▁optimization	-10.7747
▁gifts	-10.7751
▁computing	-10.7751
▁violation	-10.7752
▁7.	-10.7752
▁drinks	-10.7757
▁tri	-10.7759
▁magazine	-10.7759
▁Cho	-10.776
▁segments	-10.7762
eng	-10.7763
▁presents	-10.7763
▁thickness	-10.7766
▁Edition	-10.7773
▁Region	-10.7773
▁DO	-10.7774
▁modified	-10.7774
▁coast	-10.7777
▁hosted	-10.7779
ara	-10.778
▁2.0	-10.7781
▁periods	-10.7782
▁(“	-10.7783
▁lectures	-10.7789
▁agriculture	-10.7789
mor	-10.7794
▁associations	-10.7794
3%	-10.7794
EP	-10.7798
▁Solving	-10.7799
App	-10.7801
ao	-10.7801
▁Ab	-10.7803
▁malfunction	-10.7804
▁Excel	-10.7806
meter	-10.7812
▁AC	-10.7812
▁adoption	-10.7814
▁ho	-10.7815
▁affects	-10.7815
▁Statement	-10.7815
▁heaven	-10.7817
UT	-10.7818
ov	-10.7824
▁AS	-10.7827
▁commonly	-10.7827
6%	-10.7828
ult	-10.783
▁Industries	-10.7834
▁processor	-10.7835
▁Tools	-10.7836
▁tip	-10.7839
▁dining	-10.7847
▁Visual	-10.7847
power	-10.7854
▁cluster	-10.7859
▁copper	-10.7862
▁talked	-10.7865
▁Tax	-10.7868
▁42	-10.7868
mission	-10.7868
▁religious	-10.7869
▁converted	-10.7869
▁Joint	-10.7869
▁Direct	-10.7872
▁tissue	-10.7873
▁refrigerator	-10.7874
▁2013,	-10.7875
RP	-10.7879
6000	-10.7882
▁grew	-10.7882
▁contributes	-10.7887
Ma	-10.7889
mark	-10.789
▁Estate	-10.7891
▁holes	-10.7893
mar	-10.7894
▁Unfortunately	-10.7895
▁surprised	-10.7896
SD	-10.7898
▁8.	-10.7901
ks	-10.7905
▁demo	-10.7905
▁farmers	-10.7905
▁Legal	-10.7906
GE	-10.791
▁Administration	-10.7912
▁prize	-10.7914
▁rely	-10.7914
▁Suite	-10.7917
▁lens	-10.7921
ob	-10.7924
▁struggle	-10.7931
▁revision	-10.7935
▁represented	-10.794
▁wallpaper	-10.7941
▁dividend	-10.7944
▁maybe	-10.7949
▁falls	-10.7954
▁drag	-10.7954
▁sightseeing	-10.7958
ev	-10.7963
▁deals	-10.797
▁entitled	-10.797
▁Chipset	-10.7971
BI	-10.7971
▁dating	-10.7974
▁("	-10.7974
amp	-10.7975
▁receipt	-10.798
verse	-10.7981
▁streaming	-10.7984
▁su	-10.7985
TER	-10.7985
▁ECO	-10.7985
KI	-10.799
▁achievement	-10.7991
▁uniform	-10.7992
▁evolution	-10.7998
▁Ambassador	-10.7999
▁Chairman	-10.8002
pping	-10.801
▁Economy	-10.8012
▁genetic	-10.8014
▁impacts	-10.8018
▁hybrid	-10.8018
▁demonstrate	-10.8024
▁summary	-10.8028
▁banking	-10.8029
▁Xi	-10.8029
▁profitability	-10.803
▁pleased	-10.8033
▁wealth	-10.8033
▁Put	-10.8034
head	-10.8035
▁IR	-10.8036
▁unnecessary	-10.8037
len	-10.8037
▁collaborative	-10.8039
▁li	-10.804
▁2011,	-10.804
▁Corp	-10.8041
▁universe	-10.8043
▁visa	-10.8043
▁Schedule	-10.8045
▁maximize	-10.8045
▁sport	-10.8049
▁featured	-10.8052
▁Mini	-10.8054
▁corporations	-10.8055
▁paintings	-10.8055
II	-10.8055
▁strip	-10.8057
▁bike	-10.8058
▁calling	-10.806
▁draft	-10.8061
▁Storage	-10.8062
▁indicator	-10.8063
▁marriage	-10.8065
▁alliance	-10.8067
▁distribute	-10.8071
▁particles	-10.8071
ル	-10.8073
▁Eco	-10.8074
▁jointly	-10.8075
ita	-10.8076
▁pressing	-10.808
8%	-10.8083
▁1.5	-10.8084
machi	-10.8087
▁\	-10.8087
▁reverse	-10.809
dic	-10.809
▁asking	-10.809
▁residential	-10.809
▁shower	-10.8092
▁Codes	-10.8096
war	-10.8096
▁disposal	-10.8096
lation	-10.8098
▁VR	-10.8098
▁insights	-10.8099
PE	-10.8101
7%	-10.8101
▁Governance	-10.8101
▁Village	-10.8102
▁imported	-10.8103
▁recovered	-10.8106
▁ownership	-10.8108
▁Roman	-10.811
▁Chrome	-10.8113
62	-10.8115
▁greenhouse	-10.8121
mit	-10.8121
▁°	-10.8129
▁AM	-10.8131
▁enjoying	-10.8133
▁nano	-10.8133
▁integrate	-10.8133
▁creativity	-10.8135
▁notify	-10.8135
▁Summer	-10.8136
▁chapter	-10.8141
▁shooting	-10.8144
▁attach	-10.8145
▁1000	-10.815
▁Manufacturing	-10.8151
mic	-10.8151
▁mis	-10.8154
▁covering	-10.8156
▁SSD	-10.8163
▁Field	-10.8164
▁gallery	-10.8165
▁Cal	-10.8168
▁ecosystem	-10.8174
▁Tech	-10.8174
▁Toyota	-10.8174
▁inquiry	-10.8181
-11	-10.8181
responsibilities	-10.8183
▁consequences	-10.8185
▁muscles	-10.8186
▁Explorer	-10.8187
lea	-10.819
▁belong	-10.8191
▁cultures	-10.8192
▁announce	-10.8192
▁disappear	-10.8194
▁Recently	-10.8196
800	-10.8203
▁ver	-10.8204
▁Him	-10.8205
▁focuses	-10.8207
▁artistic	-10.8208
4000	-10.8208
▁Planning	-10.821
▁Oh	-10.8211
▁warming	-10.8212
▁par	-10.8212
▁lo	-10.8212
▁automobile	-10.8213
▁scenario	-10.8217
▁happening	-10.8222
▁advise	-10.8229
hiro	-10.8233
▁regulation	-10.8234
bb	-10.8235
91	-10.8236
▁10%	-10.8239
mat	-10.824
▁voting	-10.824
▁Washington	-10.8245
spect	-10.8245
▁chose	-10.8247
▁Cup	-10.8247
▁Meiji	-10.8255
▁excessive	-10.8256
▁Fast	-10.8268
▁jewelry	-10.8269
▁bo	-10.8269
▁portal	-10.827
▁Join	-10.8271
TE	-10.8275
▁convey	-10.8276
▁Available	-10.8276
▁Sichuan	-10.828
▁charges	-10.829
▁blockchain	-10.829
▁coverage	-10.8292
▁iCloud	-10.8295
▁lights	-10.8301
▁brown	-10.8303
▁decorated	-10.8306
▁delivering	-10.831
▁Bridge	-10.8311
▁trace	-10.8313
▁macro	-10.8316
▁Common	-10.8318
▁cotton	-10.8318
▁infected	-10.832
kyo	-10.8321
▁findings	-10.8322
▁charging	-10.8322
▁Ge	-10.8323
▁representation	-10.8331
▁identification	-10.8331
▁Repair	-10.8333
ica	-10.8333
▁Laboratory	-10.8335
pir	-10.8339
▁sc	-10.8339
CI	-10.834
▁Panel	-10.8343
▁coronavirus	-10.8344
▁switching	-10.8344
ume	-10.8348
▁lets	-10.8348
▁ka	-10.8349
▁Box	-10.8351
▁faced	-10.8354
tain	-10.8355
▁aging	-10.836
▁camp	-10.836
nes	-10.8364
▁CPU	-10.8365
57	-10.8368
▁manufactured	-10.8369
▁Additional	-10.8373
▁Marine	-10.8376
▁Core	-10.8376
▁protecting	-10.8379
specific	-10.8383
active	-10.8384
▁(2	-10.8385
▁optional	-10.8386
▁Translation	-10.8386
▁believes	-10.8388
▁featuring	-10.8389
jima	-10.8392
▁substance	-10.8394
▁Easy	-10.8395
▁Does	-10.8396
▁bound	-10.8396
▁steadily	-10.8397
▁NOT	-10.8399
▁unlock	-10.8402
▁enhancement	-10.8404
94	-10.8405
▁Player	-10.8406
▁Especially	-10.8408
▁outlook	-10.8412
▁Nishi	-10.8413
▁driven	-10.8414
▁steady	-10.8417
▁engines	-10.8418
On	-10.8419
▁suspension	-10.8419
▁election	-10.8421
▁Item	-10.8421
▁escape	-10.8424
▁Tender	-10.8424
▁abilities	-10.8426
▁Fig	-10.8432
▁viewed	-10.8432
▁leg	-10.8434
▁1998	-10.8436
▁2012,	-10.8439
But	-10.8439
▁moves	-10.8441
▁western	-10.8443
▁Trump	-10.8443
▁absorb	-10.8447
▁pin	-10.8447
itis	-10.8448
▁120	-10.8449
▁pharmaceutical	-10.8453
▁northern	-10.8454
▁NA	-10.8454
▁Sei	-10.8454
view	-10.8462
▁speakers	-10.8462
▁ran	-10.8463
LP	-10.8463
▁Agent	-10.8464
▁Summit	-10.8468
Be	-10.8469
▁NAOJ	-10.847
nu	-10.8472
▁Kyushu	-10.8474
▁sha	-10.8476
▁XP	-10.8477
▁oxygen	-10.8482
NI	-10.8484
mu	-10.8485
▁discounts	-10.8485
▁Leave	-10.8502
▁departure	-10.8507
▁bags	-10.8508
▁reserves	-10.8509
▁Bureau	-10.8511
CL	-10.8513
▁constructed	-10.8514
▁ca	-10.8515
ration	-10.8517
▁younger	-10.8518
▁DNA	-10.8518
▁Import	-10.8529
ア	-10.8529
▁Week	-10.8532
▁satisfy	-10.8536
▁Registration	-10.8536
▁smoothly	-10.8537
All	-10.8538
▁occasion	-10.8543
▁Ji	-10.8545
▁JP	-10.8546
4%	-10.8549
▁2014.	-10.8554
▁Nan	-10.8554
▁seasonal	-10.8561
▁intention	-10.8562
▁Dan	-10.8566
2018	-10.8568
▁dose	-10.857
nan	-10.8571
▁spin	-10.8577
▁purchases	-10.858
SM	-10.8585
▁estimate	-10.8585
Windows	-10.8586
ik	-10.859
▁biological	-10.859
▁competitiveness	-10.8592
▁whatever	-10.8593
▁Contract	-10.8596
▁memories	-10.86
▁hosting	-10.8603
des	-10.8603
▁disclosed	-10.8607
▁query	-10.8608
▁Works	-10.8611
▁birthday	-10.8613
isation	-10.8614
▁trillion	-10.8616
ase	-10.8617
▁Everyone	-10.8621
▁»	-10.8623
▁neck	-10.8624
▁incident	-10.8624
▁matches	-10.8625
▁Launch	-10.8626
▁giant	-10.8629
▁territory	-10.8633
▁vibration	-10.8634
▁east	-10.8639
▁7,	-10.8641
▁Integration	-10.8644
▁notifications	-10.8645
shan	-10.865
▁professor	-10.865
▁archive	-10.865
▁Questions	-10.8651
tr	-10.8651
▁Pin	-10.8652
ace	-10.8654
▁strange	-10.8656
▁wallet	-10.8656
▁charm	-10.866
ō	-10.866
▁mining	-10.8662
ey	-10.8662
▁liver	-10.8665
▁exports	-10.8667
▁outline	-10.8669
SO	-10.8671
▁orange	-10.8672
▁District	-10.8673
General	-10.8674
▁refuse	-10.8677
▁wasn	-10.8679
▁hat	-10.8688
Free	-10.8689
▁tight	-10.8692
yoshi	-10.8695
▁David	-10.8696
▁Buddhist	-10.8699
▁smoke	-10.87
▁Clean	-10.87
▁hub	-10.8701
▁commission	-10.8704
▁laid	-10.8707
▁clarify	-10.8707
▁harmful	-10.8708
▁pen	-10.8711
▁branches	-10.8717
▁Ph	-10.8717
▁Kan	-10.8725
▁Need	-10.8731
▁Sur	-10.8732
▁somewhat	-10.8733
▁specification	-10.8737
▁XML	-10.8744
▁precise	-10.8746
▁kill	-10.875
graph	-10.8751
▁brother	-10.8751
▁Hub	-10.8752
▁encryption	-10.8754
▁targeted	-10.8754
▁talent	-10.8757
▁foster	-10.876
▁cake	-10.8762
▁TRIPROUD	-10.8763
▁throw	-10.8763
▁criminal	-10.8765
▁random	-10.8767
▁1980	-10.877
▁Password	-10.877
▁Mon	-10.8777
▁semi	-10.8777
water	-10.878
▁doors	-10.8783
oid	-10.8785
▁Bangkok	-10.8786
rin	-10.8791
▁proof	-10.8796
▁initially	-10.8802
▁beneficial	-10.8803
▁arm	-10.8803
phone	-10.8804
but	-10.8804
load	-10.8806
▁basically	-10.8807
▁folk	-10.8807
▁ro	-10.8807
▁kit	-10.8808
▁indeed	-10.881
▁golf	-10.881
▁RO	-10.8811
▁SC	-10.8814
ama	-10.8814
▁teeth	-10.8815
▁hydro	-10.8815
▁corporation	-10.8815
▁variables	-10.8822
▁exhibit	-10.8823
pin	-10.8823
▁Jewelry	-10.8824
600	-10.8824
At	-10.8825
▁danger	-10.8829
▁Outside	-10.8829
aw	-10.8836
▁accidents	-10.8837
▁ion	-10.8843
ect	-10.8844
▁AMD	-10.8845
▁interpretation	-10.8846
▁vegetable	-10.8846
▁argument	-10.8848
▁screenshot	-10.885
▁fault	-10.8852
▁junior	-10.8858
▁EX	-10.8859
▁Fire	-10.886
▁Campus	-10.8861
▁gathering	-10.8862
▁font	-10.8866
▁rubles	-10.8867
ff	-10.8869
▁supplied	-10.8874
▁pointed	-10.8874
▁informed	-10.8876
▁poly	-10.8881
▁Royal	-10.8885
du	-10.8885
cell	-10.8889
▁decorate	-10.889
▁returning	-10.8892
▁produces	-10.8893
zz	-10.8894
▁matching	-10.8894
▁underlying	-10.8897
▁inspiration	-10.8898
▁BE	-10.8899
▁breast	-10.8899
▁chip	-10.8901
▁wa	-10.8904
▁suggested	-10.8906
▁PS	-10.8907
▁preventing	-10.8908
▁muscle	-10.8909
▁regime	-10.891
▁seriously	-10.8916
▁jurisdiction	-10.8918
▁Replica	-10.8918
▁emotional	-10.8918
▁pipe	-10.8919
KA	-10.8931
▁arrange	-10.8933
▁comrades	-10.8934
▁1,000	-10.8935
▁Sakura	-10.8936
FI	-10.8937
▁Sapporo	-10.8938
CD	-10.8938
▁promoted	-10.894
ach	-10.894
▁succeed	-10.894
▁navigate	-10.8941
▁potatoes	-10.8945
▁hang	-10.8945
▁guides	-10.8947
▁syntax	-10.8954
▁Updated	-10.8956
▁downloading	-10.896
▁surveys	-10.896
▁assumed	-10.8961
field	-10.8962
▁AP	-10.8966
▁responses	-10.8967
▁programme	-10.897
▁HTTP	-10.897
being	-10.8972
▁cent	-10.8977
▁cloth	-10.8978
▁optimized	-10.8979
▁nervous	-10.8979
▁Releases	-10.8982
▁serial	-10.8983
▁intend	-10.8984
▁Panasonic	-10.8984
-20	-10.8985
▁separated	-10.8992
▁precisely	-10.8993
▁adventure	-10.8996
pan	-10.8997
▁defining	-10.8998
▁peaceful	-10.9
▁filling	-10.9004
▁suggests	-10.9005
);	-10.9007
▁substantial	-10.9008
▁pour	-10.9009
▁logic	-10.9013
▁Title	-10.9014
uk	-10.9019
▁DJ	-10.902
▁2021.	-10.9023
▁preferred	-10.9024
1)	-10.9024
az	-10.9028
▁restoration	-10.9028
▁personally	-10.9029
▁preserve	-10.9031
▁Atomic	-10.9032
bs	-10.9035
▁bacteria	-10.9038
▁minor	-10.9039
CR	-10.9039
▁TOKYO	-10.9044
▁robots	-10.9045
▁Low	-10.9046
▁Chengdu	-10.9048
struct	-10.9049
▁negotiations	-10.9049
ular	-10.9051
▁absolute	-10.9055
▁Lab	-10.9056
▁frequent	-10.9056
▁routes	-10.906
▁southern	-10.9061
ham	-10.9062
With	-10.9062
▁Journal	-10.9063
NT	-10.9064
▁nodes	-10.9064
▁pink	-10.9069
rant	-10.9069
▁falling	-10.9069
▁bonus	-10.907
▁birds	-10.9075
▁globe	-10.908
▁riding	-10.908
uck	-10.9081
▁startup	-10.9082
▁dreams	-10.9085
face	-10.9086
▁doctors	-10.9088
train	-10.909
▁Swiss	-10.9091
pp	-10.9091
▁affordable	-10.9093
▁candidate	-10.9094
▁Watches	-10.9094
vert	-10.9097
▁eco	-10.9098
fo	-10.9099
▁promptly	-10.9101
▁union	-10.9104
▁accommodate	-10.9104
▁microphone	-10.9104
▁taxi	-10.9111
▁Survey	-10.9112
▁Youth	-10.9112
ani	-10.9116
▁Sound	-10.9116
▁1997	-10.9117
▁faces	-10.9119
▁Convert	-10.9121
ef	-10.9122
▁converter	-10.9124
▁emphasis	-10.9124
▁incorporated	-10.9127
▁evaluated	-10.9127
ib	-10.9128
saki	-10.9129
▁Kai	-10.9131
▁tours	-10.9135
▁sensitivity	-10.9137
▁kilometers	-10.9139
▁shoot	-10.9139
▁Los	-10.9144
▁dimensions	-10.9145
▁activated	-10.9146
▁guess	-10.9148
400	-10.9149
▁rotation	-10.915
▁Ch	-10.9151
▁Awards	-10.9151
NET	-10.9153
design	-10.9154
▁loading	-10.9157
▁submission	-10.9159
ising	-10.9163
service	-10.9165
iko	-10.9168
LC	-10.9169
▁Acquisition	-10.9171
▁Secretary	-10.9173
▁west	-10.9173
▁eligible	-10.9173
▁Point	-10.9174
vers	-10.9174
▁formula	-10.9176
IR	-10.9179
▁Paragraph	-10.9179
▁publish	-10.9181
▁investigate	-10.9181
▁Resort	-10.9184
▁destruction	-10.9187
▁belt	-10.9188
▁Interest	-10.9188
▁trials	-10.919
▁HO	-10.9191
▁Self	-10.9191
▁customized	-10.9192
▁officer	-10.9192
▁admission	-10.9196
▁PM	-10.9197
▁resolved	-10.9199
ged	-10.92
▁ultimate	-10.9203
▁GB	-10.9203
▁NVIDIA	-10.9206
▁viewpoint	-10.9207
▁grand	-10.9215
▁Senior	-10.9216
▁emission	-10.9217
▁Hawaii	-10.9218
▁exercises	-10.922
▁leaf	-10.9222
▁deepen	-10.9222
▁Matsu	-10.9223
▁Remember	-10.9229
▁IS	-10.9229
▁dispute	-10.9234
▁HP	-10.9234
▁blind	-10.9234
001	-10.9237
▁repeated	-10.9238
▁Fiscal	-10.9239
▁Ben	-10.924
▁lab	-10.9241
sei	-10.9242
▁destroyed	-10.9243
▁investing	-10.9243
▁destroy	-10.9249
▁28,	-10.925
▁evil	-10.9253
link	-10.9254
▁obvious	-10.9254
▁railway	-10.926
▁bond	-10.926
▁eggs	-10.9264
▁rural	-10.9266
▁Edge	-10.9267
ening	-10.9269
▁roots	-10.9269
▁adapter	-10.9274
▁64	-10.9274
▁Canadian	-10.9278
▁tough	-10.9283
pm	-10.9283
▁Properties	-10.9283
zawa	-10.9283
PL	-10.9283
▁plates	-10.9284
▁LAN	-10.9286
▁warehouse	-10.9293
source	-10.9295
▁gaming	-10.9295
▁Bra	-10.9295
▁Delivery	-10.9297
cast	-10.9297
▁Perhaps	-10.9297
▁Often	-10.9298
▁Below	-10.9298
▁estimates	-10.9299
▁ve	-10.9306
▁knowing	-10.9307
▁token	-10.9309
▁Otherwise	-10.9312
▁Guest	-10.9312
▁sole	-10.9313
▁shade	-10.9315
9%	-10.9316
▁integrity	-10.9318
▁homes	-10.9318
83	-10.9318
commerce	-10.9318
▁searching	-10.9319
▁Which	-10.9319
▁newsletter	-10.9325
cro	-10.9327
▁Workshop	-10.9328
▁Supply	-10.9331
▁PR	-10.9331
▁Installation	-10.9332
▁Client	-10.9334
▁meant	-10.9334
▁handled	-10.9335
ender	-10.9339
bra	-10.934
GS	-10.9342
MENT	-10.9342
sc	-10.9347
▁preceding	-10.9348
▁diagram	-10.9353
▁guy	-10.9355
▁Cancel	-10.9356
par	-10.9356
▁stimulate	-10.9357
▁reflecting	-10.9362
▁shapes	-10.9362
sta	-10.9365
▁Standards	-10.9366
▁receives	-10.9367
▁phenomena	-10.9372
▁stuff	-10.9373
logy	-10.9373
nal	-10.9373
▁analog	-10.9375
▁historic	-10.9378
▁vacation	-10.9382
▁dashboard	-10.9382
▁Infrastructure	-10.9383
LL	-10.9384
▁wider	-10.9392
▁losing	-10.9392
▁poverty	-10.9396
▁ITOCHU	-10.9397
▁PRO	-10.94
LI	-10.94
▁horse	-10.9404
▁com	-10.9404
py	-10.9405
▁pepper	-10.9405
▁killed	-10.9408
▁vote	-10.9408
▁Calendar	-10.9409
▁threats	-10.9411
ome	-10.9413
▁tutorial	-10.9417
▁filters	-10.9417
▁Purchase	-10.9422
ati	-10.9423
▁attribute	-10.9424
▁44	-10.9426
▁seal	-10.9427
cur	-10.9428
▁bill	-10.9428
▁haven	-10.9428
▁2010,	-10.943
RS	-10.9431
▁65	-10.9432
▁alloy	-10.9433
Pacific	-10.9435
▁Camera	-10.9435
▁regarded	-10.9436
▁fairly	-10.944
▁Feedback	-10.9444
▁Cut	-10.9445
▁nose	-10.9449
▁Chapter	-10.945
▁Base	-10.9452
▁stipulated	-10.9454
▁resulted	-10.9455
▁connector	-10.9456
▁Clear	-10.9461
▁whenever	-10.9478
IO	-10.9479
▁reactions	-10.9485
▁outer	-10.9487
▁drum	-10.949
▁Login	-10.9494
▁king	-10.9497
NE	-10.9498
HO	-10.9499
▁attracted	-10.95
▁wishes	-10.9503
▁em	-10.9504
temp	-10.9509
▁engineer	-10.951
▁authorized	-10.9515
▁edges	-10.9517
shin	-10.9521
▁arms	-10.9521
IST	-10.9521
▁Talk	-10.9525
gon	-10.9526
ENT	-10.9529
▁Flash	-10.953
▁largely	-10.9531
▁refresh	-10.9531
▁contrary	-10.9534
gue	-10.9534
Tokyo	-10.9538
▁Fe	-10.9544
▁arranged	-10.9544
▁entries	-10.9545
TV	-10.955
▁worship	-10.955
LS	-10.9551
▁clip	-10.9552
▁Operations	-10.9552
▁molecular	-10.9554
▁flights	-10.9557
▁Gas	-10.9557
▁Certificate	-10.9559
▁dial	-10.956
▁Min	-10.9569
▁Kawa	-10.9573
▁caught	-10.9574
▁plot	-10.9576
▁pack	-10.9578
▁Apps	-10.9583
▁Automatic	-10.9586
▁stomach	-10.9595
date	-10.9601
jin	-10.9601
NS	-10.9602
▁readers	-10.9604
bus	-10.9605
▁withdraw	-10.9606
▁Ti	-10.9608
▁Relations	-10.9608
▁adjustments	-10.9609
La	-10.9612
ker	-10.9615
▁ranging	-10.962
▁Style	-10.9621
▁indoor	-10.9621
▁pi	-10.9623
▁mobility	-10.9624
▁MHI	-10.9625
▁nutrition	-10.9625
▁ships	-10.9625
yuki	-10.9625
OK	-10.9627
▁meets	-10.9631
▁violations	-10.9633
▁favor	-10.9634
▁deposits	-10.9636
▁favorable	-10.9637
▁tournament	-10.9639
▁awards	-10.9641
nce	-10.9645
▁joining	-10.9647
▁collecting	-10.9649
▁cute	-10.965
▁internationally	-10.9658
get	-10.966
93	-10.9664
▁boy	-10.9665
2%	-10.9668
▁Projects	-10.9669
▁carrier	-10.967
▁Magic	-10.9673
2016	-10.9677
▁attributes	-10.9678
▁Configuration	-10.9679
▁organs	-10.9679
▁volunteer	-10.968
ICE	-10.9686
ifies	-10.9687
▁Switzerland	-10.9689
▁crime	-10.9695
▁intelligent	-10.9695
▁lie	-10.9696
▁passage	-10.9697
▁factories	-10.9699
▁emotions	-10.97
bed	-10.9701
CM	-10.9702
ug	-10.9702
▁meter	-10.9707
▁symposium	-10.9707
▁recipes	-10.9713
▁Tan	-10.9713
▁outcome	-10.9715
▁Welcome	-10.9716
▁strain	-10.9717
▁Continue	-10.9717
▁chronic	-10.9719
▁Young	-10.9719
cle	-10.9727
▁Overseas	-10.973
▁headquarters	-10.973
▁trusted	-10.9731
▁stretch	-10.9731
▁gene	-10.9735
▁crowd	-10.9737
▁mapping	-10.9737
▁clinic	-10.9739
▁injection	-10.974
▁visits	-10.9742
▁derived	-10.9743
▁drill	-10.9743
▁connectivity	-10.9743
Shi	-10.9746
▁chief	-10.9747
▁2013.	-10.9747
▁tags	-10.9748
▁insight	-10.9749
▁extraordinary	-10.9751
▁graphic	-10.976
▁Aki	-10.976
uma	-10.9762
▁designing	-10.9764
▁duty	-10.9766
tric	-10.9769
▁guaranteed	-10.9771
▁begun	-10.9771
stone	-10.9772
イ	-10.9773
▁firmware	-10.9775
▁chair	-10.9776
▁realization	-10.9779
▁dried	-10.9782
▁ICT	-10.9782
▁Terminal	-10.9782
▁Asus	-10.9787
▁8,	-10.9788
▁climb	-10.9789
▁rating	-10.9789
▁Construction	-10.9789
▁Electronic	-10.9789
aries	-10.9791
▁fold	-10.9793
gre	-10.9796
▁viewer	-10.9799
▁Accordingly	-10.98
▁locals	-10.9801
▁GT	-10.9802
に	-10.9805
▁solving	-10.9808
▁exclusively	-10.981
▁noting	-10.9811
▁aroma	-10.9813
▁strengths	-10.9814
▁APU	-10.9814
▁swimming	-10.9816
print	-10.9816
ATION	-10.982
▁mat	-10.982
public	-10.9824
▁Regular	-10.9825
▁Assistant	-10.9826
▁Cap	-10.9827
▁heritage	-10.983
24.	-10.983
▁Bus	-10.9834
▁assistant	-10.9837
▁injury	-10.9842
lit	-10.9843
▁loaded	-10.9843
▁painted	-10.9845
▁representing	-10.9846
▁Kim	-10.9848
▁SQL	-10.9849
▁environmentally	-10.9854
▁customs	-10.9855
▁moon	-10.9855
▁¥2	-10.9856
als	-10.9858
▁Czech	-10.9859
▁41	-10.986
▁commit	-10.9863
▁Country	-10.9864
▁durable	-10.9864
▁directed	-10.9869
▁Valley	-10.9869
performance	-10.9871
dimensional	-10.9871
zen	-10.9871
▁columns	-10.9873
▁totally	-10.9873
▁Drivers	-10.9874
▁independence	-10.9874
▁Climate	-10.9881
▁experiencing	-10.9886
▁campaigns	-10.9887
▁founder	-10.9889
▁ordered	-10.989
▁abundant	-10.9892
▁GO	-10.9894
▁membrane	-10.9895
▁forum	-10.9895
▁shortage	-10.9896
▁arbitration	-10.9896
▁Night	-10.9898
▁retirement	-10.9903
qua	-10.9903
▁bulk	-10.9904
▁plugin	-10.9912
▁yield	-10.9914
▁stem	-10.9918
▁alarm	-10.9922
▁complexity	-10.9922
▁stylish	-10.9923
▁pa	-10.9924
ctor	-10.9927
ini	-10.9931
ory	-10.9932
ric	-10.9934
▁1.0	-10.9934
▁occurrence	-10.9936
▁Flights	-10.9939
▁perspectives	-10.994
illa	-10.994
▁transmitted	-10.9944
▁Format	-10.9948
▁43	-10.9953
▁beam	-10.9953
▁Major	-10.9955
▁converting	-10.9955
tting	-10.9955
▁Task	-10.9963
▁consisting	-10.9963
▁passport	-10.9963
▁gl	-10.9963
▁Conclusion	-10.9963
dent	-10.9965
▁sat	-10.9966
oku	-10.9971
cul	-10.9972
▁egg	-10.9972
▁Typically	-10.9972
▁Islands	-10.9973
2015	-10.9974
▁migration	-10.9975
▁literature	-10.9975
nch	-10.9977
▁Way	-10.9977
▁Toshiba	-10.9979
▁corruption	-10.9979
OM	-10.998
ashi	-10.9981
ert	-10.9982
▁Restaurant	-10.9984
▁distinguished	-10.9984
OD	-10.9988
▁directions	-10.9988
lock	-10.999
▁Spa	-10.9992
▁Saudi	-10.9999
ivity	-11.0001
▁noticed	-11.0004
uch	-11.0006
▁reconstruction	-11.0007
til	-11.0008
▁rec	-11.0014
eo	-11.0015
vis	-11.0017
▁targeting	-11.0018
▁horizontal	-11.002
chu	-11.0023
▁routine	-11.0024
▁thorough	-11.0024
▁DS	-11.0026
▁affairs	-11.0027
▁considerable	-11.0034
gun	-11.0037
▁Netflix	-11.0038
▁revenues	-11.0038
▁distinguish	-11.0039
▁posts	-11.004
▁catalog	-11.0043
▁Latin	-11.0044
▁tablets	-11.0044
▁combines	-11.0045
▁2021,	-11.0047
▁Cost	-11.0048
▁clouds	-11.0049
▁crafts	-11.0052
Un	-11.0055
dan	-11.0056
▁Should	-11.0057
▁Oil	-11.0057
▁individually	-11.0058
order	-11.0058
▁transmit	-11.0059
ola	-11.0062
▁Images	-11.0066
▁requiring	-11.0067
▁islands	-11.0067
HD	-11.007
tation	-11.0072
▁moral	-11.0073
she	-11.0074
▁1995	-11.0079
▁46	-11.0079
2019	-11.0081
▁solved	-11.0086
▁Peter	-11.0087
▁Kita	-11.0087
▁keeps	-11.0088
▁55	-11.009
▁tie	-11.009
▁retain	-11.0091
▁feels	-11.0091
▁instant	-11.0094
▁abuse	-11.0097
▁engaging	-11.0098
▁olive	-11.0098
▁Skype	-11.01
▁1996	-11.0101
▁blend	-11.0101
▁finger	-11.0101
▁alert	-11.0103
▁ob	-11.0107
▁■	-11.0109
▁authentic	-11.011
▁foam	-11.0111
▁spec	-11.0112
▁FI	-11.0114
▁Command	-11.0116
▁apart	-11.0117
▁dense	-11.0118
▁expressions	-11.0118
▁Inquiry	-11.0121
▁Did	-11.0123
hiko	-11.0125
ax	-11.0129
▁NEWS	-11.013
▁Creative	-11.013
put	-11.0132
▁polymer	-11.0133
▁construct	-11.0135
▁Sch	-11.0137
▁proteins	-11.0138
▁politics	-11.0139
EST	-11.0144
▁reveal	-11.0145
UPDATE	-11.0146
▁Delete	-11.0146
▁liquidity	-11.0149
BC	-11.0151
▁Fi	-11.0152
▁encouraged	-11.0153
▁protective	-11.0153
▁deadline	-11.0159
▁exhaust	-11.0165
▁75	-11.0166
▁reaching	-11.017
▁Mag	-11.0175
▁bars	-11.0176
▁Come	-11.018
LY	-11.0181
▁shareholder	-11.0184
rit	-11.0185
FC	-11.0186
▁disabilities	-11.0188
uchi	-11.0189
▁Unlike	-11.0189
HI	-11.0191
▁VM	-11.0191
▁copies	-11.0191
ML	-11.0191
Search	-11.0192
▁ra	-11.0195
▁Tips	-11.0206
▁promotional	-11.0209
HA	-11.021
▁stroke	-11.0212
▁Discover	-11.0213
」	-11.0214
▁weekend	-11.0214
▁Disk	-11.0217
▁Bur	-11.0218
▁appreciation	-11.0223
▁Developer	-11.0224
These	-11.0228
▁pipeline	-11.023
ded	-11.0233
▁delicate	-11.0234
COM	-11.0234
▁foreigners	-11.0238
rie	-11.0238
▁immune	-11.024
Ha	-11.0242
▁deploy	-11.0246
▁Universal	-11.0247
▁Palace	-11.0248
▁Snow	-11.0249
▁fantastic	-11.0249
リ	-11.0249
▁beat	-11.0249
ミ	-11.025
▁hearts	-11.0253
▁pursuant	-11.0256
▁viruses	-11.0257
▁vessel	-11.0258
▁tsunami	-11.026
▁qualified	-11.0261
▁Along	-11.0262
rea	-11.0265
▁tells	-11.0265
▁harmony	-11.0267
pu	-11.0268
▁9.	-11.0271
▁Rome	-11.0271
▁Seoul	-11.0272
▁Son	-11.0272
▁600	-11.0274
▁specialty	-11.0277
▁j	-11.0277
▁bigger	-11.0282
▁reactor	-11.0284
▁Imperial	-11.0286
▁unexpected	-11.0287
▁lift	-11.0287
▁passengers	-11.0288
▁arrow	-11.0288
▁Jan	-11.0288
1%	-11.0292
▁Package	-11.0292
▁Discount	-11.0293
ese	-11.0294
▁¶	-11.0296
One	-11.0296
▁savings	-11.0297
▁desirable	-11.0301
▁pension	-11.0301
▁lu	-11.0301
▁ear	-11.0304
▁forests	-11.0305
▁appliances	-11.0306
oriented	-11.0308
▁rarely	-11.031
▁resin	-11.0313
▁pricing	-11.0313
▁roads	-11.0314
▁Switch	-11.0316
▁blank	-11.0317
▁solo	-11.0322
▁tension	-11.0324
を	-11.0324
▁offset	-11.0324
▁expense	-11.0324
only	-11.0335
▁sister	-11.0338
yan	-11.0344
▁suite	-11.0344
▁tail	-11.0344
▁discharge	-11.0346
sRising	-11.0346
▁Cat	-11.0349
▁none	-11.0349
▁utilized	-11.035
▁adequate	-11.0352
hy	-11.0352
ement	-11.0352
▁aesthetic	-11.0353
las	-11.0354
▁forming	-11.0354
▁passenger	-11.0355
▁Archives	-11.0356
▁Wa	-11.0357
▁Enable	-11.0357
▁affiliates	-11.0358
▁scratch	-11.0358
▁welcomed	-11.0359
▁visibility	-11.036
▁Zen	-11.0361
▁speaker	-11.0363
▁exceptional	-11.0365
▁magnet	-11.0367
▁maps	-11.0369
▁worse	-11.0371
▁Preview	-11.0375
▁EC	-11.0378
▁Nevertheless	-11.0378
ike	-11.038
suke	-11.0381
°	-11.0382
roll	-11.0382
▁welfare	-11.0382
▁slide	-11.0383
▁statistical	-11.0384
▁rail	-11.0386
▁spray	-11.039
)"	-11.039
▁Max	-11.039
▁Rating	-11.0392
▁Fix	-11.0392
▁solely	-11.0393
▁1970	-11.0393
▁beef	-11.0394
▁magic	-11.0395
▁deletion	-11.0398
▁cargo	-11.0399
▁Impact	-11.0401
▁indispensable	-11.0402
▁Disclosure	-11.0404
dia	-11.0404
ato	-11.0404
▁SU	-11.0406
ically	-11.0406
▁vulnerable	-11.0409
zan	-11.0412
VER	-11.0413
▁cur	-11.0415
FP	-11.0415
▁influenced	-11.0419
▁fluctuations	-11.042
▁stones	-11.0421
▁Visa	-11.0422
▁physics	-11.0425
▁lemon	-11.0425
▁gun	-11.043
▁Equipment	-11.0431
▁Hide	-11.0433
An	-11.0436
BE	-11.0436
▁reflects	-11.0437
VI	-11.0437
▁LTD	-11.044
▁Hospital	-11.0443
▁significance	-11.0444
▁Canon	-11.0446
▁floating	-11.0446
▁logical	-11.0447
▁promise	-11.0447
▁Madrid	-11.0449
user	-11.0452
▁cardboard	-11.0452
ms	-11.0452
▁Commercial	-11.0454
▁Yet	-11.0456
▁scenarios	-11.0456
▁Upon	-11.0457
▁browsing	-11.0458
▁ON	-11.0458
▁formal	-11.0459
▁intervention	-11.0462
▁seminars	-11.0467
▁nearest	-11.0469
duc	-11.0469
▁External	-11.0475
gin	-11.0476
▁showcase	-11.0479
▁Simple	-11.0481
ea	-11.0482
▁Later	-11.0482
izer	-11.0486
▁Function	-11.0487
▁DETAIL	-11.0487
▁Netherlands	-11.0488
▁staying	-11.0489
▁arrangement	-11.0489
ox	-11.0493
▁Glass	-11.0494
▁compounds	-11.0495
▁marketplace	-11.0495
▁Province	-11.0496
▁portable	-11.0496
▁toys	-11.0499
▁neither	-11.0501
▁2008,	-11.0503
▁collaborate	-11.0505
▁volumes	-11.0507
▁toolbar	-11.0507
▁Heavy	-11.051
ishi	-11.0511
▁offline	-11.0512
▁lists	-11.0513
▁hedge	-11.0516
▁Firefox	-11.0519
▁Mount	-11.0519
▁bone	-11.0519
▁ultimately	-11.0522
▁Wang	-11.0532
▁tasty	-11.0532
ient	-11.0532
▁Lecture	-11.0532
▁millions	-11.0533
▁Initiative	-11.0533
▁Move	-11.0533
▁seafood	-11.0538
▁deeper	-11.0538
Hi	-11.054
▁2011.	-11.054
▁vulnerability	-11.0544
▁intense	-11.0544
▁$1	-11.0546
▁Oct	-11.0547
ラ	-11.0548
▁ta	-11.0548
sai	-11.0553
▁disc	-11.0553
▁Age	-11.0554
▁Made	-11.0556
▁logs	-11.0558
▁actors	-11.0564
▁Lin	-11.0566
▁bloom	-11.0566
▁restored	-11.0569
NC	-11.0569
▁Iran	-11.0571
hour	-11.0576
wood	-11.0578
▁fails	-11.0582
▁Programs	-11.0585
▁profiles	-11.0588
▁EV	-11.0589
▁Framework	-11.0591
▁Fashion	-11.0592
▁placing	-11.0593
DF	-11.0594
▁quantum	-11.0599
▁relaxing	-11.0599
▁Tom	-11.0599
▁casual	-11.06
▁yesterday	-11.0601
perhaps	-11.0602
▁JBIC	-11.0602
ez	-11.0603
▁bicycle	-11.0604
▁static	-11.0604
▁liable	-11.0605
▁WordPress	-11.0605
▁passes	-11.0605
▁Purpose	-11.0607
▁Job	-11.0607
▁rod	-11.0608
▁acting	-11.0609
▁Arbitration	-11.0609
▁supplement	-11.0612
▁officially	-11.0614
▁compete	-11.0615
UL	-11.0616
▁Hon	-11.0618
▁declined	-11.0618
TT	-11.0619
▁libraries	-11.0619
YA	-11.062
▁humanity	-11.062
▁Force	-11.0624
▁breaking	-11.0626
▁crown	-11.0629
▁accordingly	-11.063
▁tone	-11.0633
▁knife	-11.0633
▁20%	-11.0635
oh	-11.0636
▁Given	-11.0636
▁Cookie	-11.0638
IE	-11.0638
▁Nagasaki	-11.0639
▁demonstrated	-11.0642
▁proxy	-11.0642
▁Reserved	-11.0643
ets	-11.0643
▁intensity	-11.0643
▁Sato	-11.0646
▁Resource	-11.0647
▁colorful	-11.0647
▁da	-11.0653
▁JAEA	-11.0654
▁Wind	-11.0657
▁circulation	-11.0658
▁crash	-11.0658
▁cyber	-11.0659
▁Den	-11.0662
China	-11.0664
▁Tuesday	-11.0666
▁resistant	-11.0666
▁realistic	-11.0668
▁obligation	-11.0671
▁Parties	-11.0672
▁minister	-11.0672
holder	-11.0675
í	-11.0675
▁attempts	-11.0675
▁KO	-11.0679
▁moments	-11.0679
▁30%	-11.068
▁Toyo	-11.0684
▁Careers	-11.0685
▁Remote	-11.069
▁Gi	-11.0692
▁Everything	-11.0694
▁le	-11.0694
iti	-11.0698
▁pm	-11.0698
▁acceptance	-11.0702
▁binary	-11.0703
▁demonstration	-11.0703
▁tomorrow	-11.0706
EA	-11.0707
▁receiver	-11.0708
▁Planet	-11.0708
▁stack	-11.0709
い	-11.0712
▁aren	-11.0714
▁crack	-11.0714
▁pursuing	-11.0714
▁Wednesday	-11.0716
▁determination	-11.072
ui	-11.072
▁meaningful	-11.0721
▁motivation	-11.0727
FE	-11.0729
▁Mid	-11.0731
▁Growth	-11.0731
:15	-11.0732
rid	-11.0732
▁generating	-11.0735
▁incredible	-11.0739
▁2012.	-11.0742
▁prototype	-11.0742
▁Measures	-11.0742
▁Notebook	-11.0742
▁flood	-11.0745
▁scholarship	-11.0745
▁salad	-11.0747
▁Abe	-11.0748
▁CC	-11.0749
▁jacket	-11.0754
shaped	-11.0755
▁proportion	-11.0755
▁Cell	-11.0757
▁Being	-11.0758
▁ports	-11.0759
▁Default	-11.0761
▁CONTACT	-11.0761
▁scroll	-11.0762
SU	-11.0762
▁translate	-11.0762
looking	-11.0765
▁TA	-11.0766
high	-11.0767
▁captured	-11.0769
▁Yasu	-11.077
▁guitar	-11.0771
vel	-11.0776
▁Promo	-11.0777
▁trained	-11.0777
▁cl	-11.0778
▁Mix	-11.078
und	-11.078
▁Instruments	-11.0782
▁incorporate	-11.0784
ria	-11.0789
▁canvas	-11.079
▁collective	-11.079
lines	-11.079
▁celebration	-11.0791
era	-11.0793
▁allocation	-11.0796
hai	-11.0797
▁4:	-11.08
▁Activity	-11.0808
guchi	-11.0808
▁Narita	-11.0812
▁palm	-11.0813
▁golden	-11.0814
▁Em	-11.0816
▁remind	-11.0818
▁facts	-11.082
▁festivals	-11.0829
▁Very	-11.0831
▁tired	-11.0831
▁Solar	-11.0834
▁Friends	-11.0835
▁buffer	-11.0835
▁malicious	-11.0837
▁UI	-11.0838
UM	-11.084
▁combat	-11.0853
▁childhood	-11.0857
▁algorithms	-11.0858
iness	-11.086
ida	-11.0861
▁bird	-11.0862
▁●	-11.0863
ky	-11.0864
▁Guo	-11.0866
▁Euro	-11.0867
▁SMS	-11.0868
▁specially	-11.0869
▁Statistics	-11.0869
However	-11.0869
▁unpleasant	-11.087
▁arrangements	-11.087
▁Integrated	-11.0871
osis	-11.0875
▁Connection	-11.0876
▁bases	-11.0878
GB	-11.0879
▁choices	-11.088
▁stainless	-11.0881
Our	-11.0883
ball	-11.0884
▁dive	-11.0888
▁Iwa	-11.089
▁HE	-11.0892
▁bow	-11.0895
▁Individual	-11.0896
▁orientation	-11.0897
▁Tw	-11.0898
▁Eastern	-11.0902
▁potentially	-11.0906
fect	-11.0907
▁violence	-11.0908
▁suffered	-11.0909
▁fraud	-11.091
▁Radio	-11.091
▁authors	-11.0916
▁infections	-11.0916
oi	-11.0917
▁Nam	-11.0918
▁fingers	-11.0919
▁drawings	-11.092
▁Shipping	-11.0923
▁Col	-11.0924
▁beings	-11.0927
▁hi	-11.0927
GP	-11.0929
▁attributable	-11.0929
KU	-11.0931
▁supervision	-11.0931
reg	-11.0933
▁Competition	-11.0935
▁47	-11.0937
▁survive	-11.0937
▁complement	-11.0941
▁Treatment	-11.0944
▁Golf	-11.0946
▁surgery	-11.0949
▁coordination	-11.0952
▁partial	-11.0958
▁hook	-11.0959
▁applicants	-11.0968
GI	-11.0969
▁gray	-11.097
▁Double	-11.0971
▁decorative	-11.0971
▁Challenge	-11.0972
▁modes	-11.0972
▁Holy	-11.0974
▁fur	-11.0974
▁flour	-11.0976
▁Nara	-11.0976
▁determines	-11.0978
▁frozen	-11.0979
test	-11.098
Le	-11.0982
▁51	-11.0982
▁mod	-11.0984
▁Restore	-11.0988
▁SSL	-11.0988
▁delivers	-11.0989
▁validity	-11.0991
FX	-11.0994
ban	-11.0994
▁Traditional	-11.0997
▁networking	-11.0999
cu	-11.1002
▁biodiversity	-11.1003
▁Comments	-11.1006
▁burning	-11.1007
▁withdrawal	-11.1014
▁STORE	-11.1016
▁250	-11.1019
▁decade	-11.1021
▁Firmware	-11.1024
▁Ser	-11.1025
▁dough	-11.1026
▁Consulting	-11.1028
▁involve	-11.103
▁inserted	-11.1031
▁exhibited	-11.1033
▁Chain	-11.1034
-01	-11.1041
▁cooperative	-11.1042
grade	-11.1042
Lo	-11.1044
▁vice	-11.1049
▁hurt	-11.105
▁Typical	-11.1051
▁classification	-11.1052
▁boards	-11.1052
carbon	-11.1053
▁consecutive	-11.1054
▁vacuum	-11.1054
▁Bill	-11.1056
/10	-11.1057
effective	-11.106
ク	-11.1061
▁browse	-11.1062
▁hopes	-11.1062
▁Partnership	-11.1064
▁Staff	-11.1066
▁prayer	-11.1073
Bo	-11.1073
▁Olympics	-11.1074
▁reforms	-11.1075
mun	-11.1082
▁LA	-11.1083
LD	-11.1083
▁curve	-11.1088
▁reader	-11.1088
rch	-11.1089
▁cookie	-11.1092
▁repeatedly	-11.1096
▁Voice	-11.1096
▁physician	-11.1096
▁earned	-11.1099
▁issuance	-11.11
▁Forest	-11.11
▁controlling	-11.11
▁Walker	-11.1102
▁applicant	-11.1105
ved	-11.1107
lim	-11.1108
They	-11.1109
▁dependent	-11.111
▁households	-11.1114
▁pose	-11.1118
rm	-11.1119
▁Documentation	-11.1123
▁pilot	-11.1124
▁documentary	-11.1126
▁(5)	-11.1128
▁Speed	-11.1132
km	-11.1133
▁Things	-11.1136
▁11,	-11.1138
と	-11.1138
▁surfaces	-11.1142
▁develops	-11.1144
▁Kit	-11.1144
▁Has	-11.1146
▁limitations	-11.1146
▁Camp	-11.1147
▁Background	-11.1154
▁(3	-11.1155
▁stood	-11.1155
mori	-11.1156
▁wake	-11.1157
▁Register	-11.1158
▁Berlin	-11.1162
band	-11.1166
clock	-11.1167
▁%	-11.1168
▁Protect	-11.117
▁Angeles	-11.117
▁anime	-11.1171
▁breath	-11.1172
▁slot	-11.1172
tive	-11.1172
▁exam	-11.1176
▁diamond	-11.1177
▁springs	-11.1181
aba	-11.1181
▁compatibility	-11.1184
▁titles	-11.1188
▁suited	-11.1188
▁chef	-11.1189
▁mounting	-11.1192
▁Tel	-11.1197
▁acknowledge	-11.1198
▁supposed	-11.12
agi	-11.1201
▁smoking	-11.1201
▁Various	-11.1205
hal	-11.1209
▁responding	-11.1211
▁Jin	-11.1212
▁Videos	-11.1213
▁Fan	-11.1214
▁bamboo	-11.1214
▁Latest	-11.1215
▁honest	-11.1215
▁retrieve	-11.1218
▁reviewed	-11.1221
▁LLC	-11.1222
▁inconvenience	-11.1224
▁outcomes	-11.1226
rc	-11.1229
▁Mission	-11.123
▁containers	-11.1231
▁Managing	-11.1233
exe	-11.1234
▁Sojitz	-11.1235
ject	-11.1236
▁Santa	-11.1237
▁married	-11.1238
▁LCD	-11.124
▁lifetime	-11.1241
2020	-11.1242
wear	-11.1244
▁AMeDAS	-11.1244
▁Build	-11.1249
▁Yama	-11.125
fully	-11.1251
▁Turkey	-11.1254
▁Transport	-11.1255
▁Practice	-11.1257
▁addressed	-11.1259
▁perception	-11.1263
▁Making	-11.1264
▁chest	-11.1268
▁neighborhood	-11.127
▁col	-11.127
▁Getting	-11.1271
▁Processing	-11.1276
▁grasp	-11.1276
▁Fall	-11.1277
▁producer	-11.1279
▁discretion	-11.1282
▁interactions	-11.1283
▁drama	-11.1287
▁Cambodia	-11.1289
color	-11.1291
▁determining	-11.1292
▁Taking	-11.1295
ene	-11.1296
▁Newsletter	-11.1298
▁Until	-11.1299
▁del	-11.1299
▁cons	-11.1301
▁autonomous	-11.1303
▁workflow	-11.1306
▁Example	-11.1307
▁warranty	-11.1312
Open	-11.1312
▁England	-11.1312
▁Greek	-11.1313
▁2.5	-11.1314
▁checks	-11.1315
▁deck	-11.1315
▁LNG	-11.1315
.11	-11.1315
▁certificates	-11.1315
▁institutional	-11.1317
▁Kyo	-11.1318
sub	-11.1318
▁Was	-11.1322
ney	-11.1323
now	-11.1325
▁distinctive	-11.1328
▁adds	-11.1328
▁BIOS	-11.1331
▁Memory	-11.1334
▁vitamin	-11.1335
▁grounds	-11.1337
▁3-	-11.1338
▁III	-11.1339
▁telecommunicati	-11.134
▁oldest	-11.1343
▁Evaluation	-11.1344
▁athletes	-11.1345
▁Consumer	-11.1345
▁employed	-11.1346
ata	-11.1348
:10	-11.1349
▁analyzing	-11.135
▁Winter	-11.1354
achi	-11.1357
▁Vietnamese	-11.136
▁Father	-11.1361
▁Jiuzhaigou	-11.1361
▁somewhere	-11.1362
RU	-11.1362
▁grass	-11.1363
▁talks	-11.1367
En	-11.1367
size	-11.137
pil	-11.1372
▁hosts	-11.1373
▁consistently	-11.1374
▁molecules	-11.1378
▁VI	-11.1379
metric	-11.1382
saving	-11.1384
▁Gar	-11.1384
▁alongside	-11.1385
▁26,	-11.1386
▁remuneration	-11.1388
▁Born	-11.139
▁succeeded	-11.1392
▁repository	-11.1392
▁dancing	-11.1393
▁colour	-11.1393
▁photograph	-11.1397
▁forever	-11.1398
▁releases	-11.1398
▁shut	-11.14
▁Wall	-11.14
month	-11.1403
▁2009,	-11.1404
▁Interface	-11.1407
map	-11.1409
▁Moscow	-11.141
▁Shibuya	-11.1411
▁neuro	-11.1411
▁firmly	-11.1412
script	-11.1418
▁Within	-11.1421
▁questionnaire	-11.1426
▁Consider	-11.1426
▁wipe	-11.143
▁classified	-11.143
▁humidity	-11.143
non	-11.1431
bashi	-11.1435
rus	-11.1435
MM	-11.1438
▁Cisco	-11.1438
▁chains	-11.1438
▁instantly	-11.1439
▁beginners	-11.144
▁Manual	-11.1441
▁journal	-11.1443
wan	-11.1445
▁merger	-11.1445
▁conducts	-11.1447
▁antivirus	-11.1452
▁Kansai	-11.1453
▁organizational	-11.1454
▁Sc	-11.1454
▁GDP	-11.1455
▁HA	-11.1459
▁Structure	-11.146
▁conflicts	-11.1464
▁colored	-11.1464
▁NI	-11.1467
shop	-11.1467
▁sought	-11.1468
▁gratitude	-11.1468
▁Starting	-11.1469
▁Knowledge	-11.1475
▁Collect	-11.1477
front	-11.1486
▁attending	-11.1487
store	-11.1489
▁Yahoo	-11.1492
▁Ve	-11.1492
▁Document	-11.1495
ters	-11.1501
▁cursor	-11.1506
BS	-11.1507
▁MC	-11.1509
▁clips	-11.151
▁terrace	-11.1512
▁spectacular	-11.1513
▁recipient	-11.1515
▁annually	-11.1517
AGE	-11.1518
▁curriculum	-11.1519
▁ga	-11.1519
▁nursing	-11.152
cket	-11.152
▁linear	-11.1522
▁tender	-11.1523
2.0	-11.1524
▁introduces	-11.1525
▁mineral	-11.1526
▁audits	-11.153
▁reflection	-11.153
cat	-11.1532
▁defend	-11.1533
▁theoretical	-11.1534
▁Selection	-11.1535
▁province	-11.1538
▁Ban	-11.1539
application	-11.154
▁legislation	-11.154
▁Going	-11.1542
▁Academic	-11.1543
har	-11.1545
▁enforcement	-11.1548
▁ethnic	-11.1554
▁disorders	-11.1554
▁Located	-11.1555
▁underground	-11.1556
▁spectrum	-11.156
▁restricted	-11.1562
ala	-11.1564
Term	-11.1565
▁seasons	-11.1567
▁Rock	-11.1567
▁Topics	-11.1568
▁papers	-11.1573
▁Pakistan	-11.1573
▁pregnant	-11.1573
▁impairment	-11.1574
position	-11.1575
▁browsers	-11.1576
▁Regulations	-11.1576
▁hire	-11.1577
▁compression	-11.1578
▁HI	-11.1579
ls	-11.1582
ella	-11.1583
▁namely	-11.1583
▁Trading	-11.1584
▁Presentation	-11.1587
▁Fun	-11.1587
▁Adding	-11.159
▁Subscribe	-11.159
▁qualities	-11.1592
▁adverse	-11.1596
▁luck	-11.1597
▁mounted	-11.1597
▁imagination	-11.1597
▁endeavor	-11.16
▁ribbon	-11.1602
ATE	-11.1602
▁Rate	-11.1603
ics	-11.1604
▁Ke	-11.1605
yn	-11.1605
▁2022	-11.1606
▁invalid	-11.1607
▁miles	-11.1608
▁highlights	-11.1611
▁intuitive	-11.1611
▁53	-11.1612
▁volunteers	-11.1614
▁Operation	-11.1615
▁permissions	-11.1617
▁retained	-11.1617
▁Engineers	-11.1623
▁ni	-11.1623
▁25,	-11.1627
▁27,	-11.1632
▁ES	-11.1632
▁unlimited	-11.1635
▁HR	-11.1636
▁metals	-11.1638
ched	-11.1639
▁Factory	-11.1641
▁personality	-11.1642
eth	-11.1642
▁Geo	-11.1643
▁antenna	-11.1644
▁Naga	-11.1646
▁functioning	-11.1646
▁metrics	-11.1647
▁preservation	-11.165
▁imaging	-11.165
▁PowerPoint	-11.1652
▁Thursday	-11.1653
▁producers	-11.1655
▁improves	-11.1656
▁unauthorized	-11.1658
var	-11.1658
▁locally	-11.166
▁apartments	-11.166
▁nu	-11.166
▁Object	-11.1662
▁signing	-11.1663
▁z	-11.1664
ature	-11.1666
▁proprietary	-11.1666
▁upcoming	-11.1667
▁adhere	-11.1667
Send	-11.1668
▁dividends	-11.1668
▁str	-11.1669
its	-11.1673
Act	-11.1675
▁3.0	-11.1675
▁spa	-11.1679
lot	-11.1679
▁Chiba	-11.1681
more	-11.1681
▁Tourist	-11.1681
TR	-11.1682
▁binding	-11.1684
aya	-11.1684
▁rush	-11.1685
▁180	-11.1687
▁Er	-11.1688
▁Ministers	-11.1689
flow	-11.1691
▁moderate	-11.1691
▁Shinjuku	-11.1694
▁bedroom	-11.1695
NG	-11.1697
▁instances	-11.1698
▁Four	-11.1698
▁Together	-11.1698
open	-11.1699
▁fitness	-11.17
▁Hard	-11.1701
▁Host	-11.1702
▁friendship	-11.171
▁Issues	-11.1714
▁Northern	-11.1715
DM	-11.1718
KO	-11.1721
▁UTC	-11.1724
▁Ethernet	-11.1724
▁possess	-11.1725
▁Golden	-11.1725
▁hill	-11.173
ame	-11.1731
▁sick	-11.1731
▁Mother	-11.1732
▁Tea	-11.1733
▁::	-11.1735
▁inspect	-11.1735
▁52	-11.1736
▁balanced	-11.1737
care	-11.1738
▁constitute	-11.1739
▁2030	-11.174
MD	-11.1741
▁accessed	-11.1744
mmer	-11.1744
▁MIDI	-11.1745
▁×	-11.1746
▁Bin	-11.1748
▁tackle	-11.1751
▁holder	-11.1751
IX	-11.1751
▁validation	-11.1756
▁Forecast	-11.1758
af	-11.1759
▁10,	-11.1759
▁indication	-11.1761
▁Classic	-11.1762
▁stamp	-11.1762
▁genuine	-11.1763
▁Manage	-11.1764
atsu	-11.1765
▁identifiers	-11.1767
inter	-11.1767
older	-11.1768
▁neutral	-11.1768
uc	-11.1769
▁mistake	-11.1769
world	-11.1771
▁crop	-11.1771
▁promotions	-11.1773
▁Body	-11.1777
▁Ac	-11.1778
▁lowest	-11.1781
▁hyper	-11.1781
▁vitamins	-11.1786
▁Va	-11.1788
br	-11.1788
▁nationwide	-11.1788
▁Opening	-11.1795
eat	-11.18
▁Career	-11.1806
▁pitch	-11.1807
▁Maps	-11.1808
▁rhythm	-11.1809
▁tall	-11.181
▁Response	-11.1812
▁classroom	-11.1818
▁Metal	-11.1818
▁dropped	-11.1819
▁paths	-11.1821
je	-11.1821
▁mill	-11.1824
▁rational	-11.1825
▁gel	-11.1825
▁ties	-11.183
met	-11.1832
tori	-11.1833
▁publishing	-11.1834
ians	-11.1835
place	-11.1838
Po	-11.1838
▁ur	-11.184
▁alive	-11.184
creating	-11.184
▁Always	-11.1842
▁6,	-11.1843
▁Want	-11.1846
▁mandatory	-11.1847
▁Congress	-11.1848
English	-11.1848
▁Medium	-11.185
▁ceramic	-11.185
space	-11.185
are	-11.1852
▁assumptions	-11.1853
▁sunlight	-11.1855
ora	-11.1855
▁flying	-11.1855
uro	-11.1856
▁bug	-11.1856
▁realizing	-11.1857
▁Buddhism	-11.1858
▁psychological	-11.1858
atic	-11.1858
▁spacious	-11.1861
▁reads	-11.1863
▁Francisco	-11.1868
▁sushi	-11.1872
▁classical	-11.1873
▁Nov	-11.1873
▁brake	-11.1874
▁Miya	-11.1874
▁ju	-11.1876
▁dual	-11.1876
▁mesh	-11.1876
▁judge	-11.1876
▁Par	-11.188
▁abstract	-11.188
bel	-11.1881
▁29,	-11.1883
▁800	-11.1884
▁pulse	-11.1884
Most	-11.1885
▁Prince	-11.1887
▁Grant	-11.1888
▁Hira	-11.1891
▁strike	-11.1893
▁Zone	-11.1895
▁Prevention	-11.1895
▁belief	-11.1898
▁Consulate	-11.1903
▁twenty	-11.1904
▁Fixed	-11.1905
win	-11.1906
▁sudden	-11.1916
▁gains	-11.1916
▁DA	-11.1921
▁Independent	-11.1923
▁permit	-11.1923
▁Single	-11.1924
▁10,000	-11.1924
-15	-11.1926
▁identifying	-11.1928
▁2010.	-11.1929
▁tunnel	-11.1929
▁Za	-11.1929
▁13,	-11.1935
▁assurance	-11.1937
▁posting	-11.1937
▁Reports	-11.1937
▁addressing	-11.1939
▁Safe	-11.1941
▁completing	-11.1941
▁placement	-11.1942
▁dramatically	-11.1942
▁restrict	-11.1942
▁Ultra	-11.1943
▁debate	-11.1946
▁agenda	-11.1947
▁Architecture	-11.1948
▁scanner	-11.1953
▁reservations	-11.1953
umi	-11.1954
▁99	-11.1954
-18	-11.1956
▁49	-11.1956
▁Im	-11.1957
▁Gate	-11.1958
▁inflammation	-11.196
ト	-11.1961
▁frames	-11.1962
▁competitors	-11.1963
▁ages	-11.1964
▁Onsen	-11.1964
▁CH	-11.1966
Ch	-11.1967
▁sweets	-11.1969
▁pad	-11.1976
▁periodically	-11.1976
▁Cam	-11.1977
▁drying	-11.1978
Mon	-11.198
▁cord	-11.1981
▁Partition	-11.1983
▁glasses	-11.1983
▁Aspire	-11.1986
▁creators	-11.1988
▁Protocol	-11.199
▁divide	-11.1997
Dis	-11.1998
Time	-11.2
▁highlighted	-11.2
MT	-11.2001
▁allocated	-11.2001
▁advancement	-11.2003
▁5000	-11.2006
▁generator	-11.2007
▁cal	-11.2007
▁CR	-11.2008
▁glance	-11.201
▁landing	-11.201
▁Beautiful	-11.2012
▁Give	-11.2013
▁graph	-11.2015
▁Magazine	-11.2022
▁zones	-11.2023
▁urgent	-11.2024
▁Expand	-11.2027
▁interviews	-11.2028
▁cosmetics	-11.2028
▁honey	-11.2028
▁TAB	-11.2029
pers	-11.2029
▁mu	-11.2031
▁UNIQLO	-11.2031
vy	-11.2038
cor	-11.2039
▁tech	-11.2039
rest	-11.204
▁fellow	-11.2041
▁Flow	-11.2053
▁empower	-11.2053
cious	-11.2059
tai	-11.2059
wing	-11.2061
▁stocks	-11.2061
▁declared	-11.2063
▁activation	-11.2069
base	-11.207
▁swap	-11.2071
▁invitation	-11.2073
▁intensive	-11.2074
▁Coast	-11.2076
▁Pinterest	-11.2077
▁Portal	-11.2078
▁BA	-11.2082
▁deployed	-11.2083
tim	-11.2091
▁innovations	-11.2091
▁combinations	-11.2095
▁grateful	-11.2096
▁ban	-11.2096
▁organ	-11.2097
▁Pu	-11.2097
▁Metropolitan	-11.2101
▁Initiatives	-11.2109
▁roughly	-11.2111
▁undertake	-11.2112
▁separation	-11.2113
▁Ber	-11.2119
oon	-11.212
ans	-11.2121
▁guard	-11.2122
▁Symposium	-11.2122
▁suspended	-11.2127
▁plasma	-11.2128
▁blow	-11.2129
about	-11.213
▁cafe	-11.2131
ali	-11.2133
▁baking	-11.2134
▁Moonrise	-11.2136
dict	-11.2145
oonset	-11.2145
▁Sai	-11.2146
▁debut	-11.2153
Pre	-11.2156
▁2-3	-11.2156
▁monument	-11.2158
▁Sample	-11.2159
▁worried	-11.2161
▁Cur	-11.2164
vin	-11.2164
▁Ci	-11.2168
▁Assembly	-11.2168
▁vector	-11.2169
Page	-11.2169
▁conscious	-11.217
▁Arm	-11.2172
▁sentence	-11.2172
▁consist	-11.2172
▁mature	-11.2176
▁fighting	-11.2176
ili	-11.2176
2017	-11.2177
▁2007,	-11.2177
▁Mus	-11.2179
▁ESG	-11.2179
Go	-11.2181
▁promotes	-11.2185
▁wisdom	-11.2186
▁enormous	-11.2187
well	-11.2188
excluding	-11.219
tis	-11.2192
▁cease	-11.2192
▁winner	-11.2194
dies	-11.2199
chan	-11.2201
▁balls	-11.2202
▁football	-11.2203
▁15,	-11.2204
▁mistakes	-11.2205
▁threshold	-11.2206
tern	-11.2208
▁cooked	-11.2209
▁noodles	-11.2215
▁consolidation	-11.2215
▁attracting	-11.2217
▁affiliated	-11.2217
▁Devices	-11.2217
▁Sheet	-11.222
▁54	-11.2221
▁Heart	-11.2222
▁harvest	-11.2223
▁currencies	-11.2224
▁Kanagawa	-11.2224
▁Pri	-11.2228
▁rainfall	-11.2228
▁SDGs	-11.2233
:20	-11.2233
fish	-11.2234
▁Egypt	-11.2234
▁handles	-11.2236
▁batch	-11.2238
▁symbols	-11.2243
▁exploring	-11.2243
▁Emperor	-11.2244
▁Intelligence	-11.2245
▁Pen	-11.2248
▁vendors	-11.2252
▁architectural	-11.2252
▁rough	-11.2253
▁geo	-11.2254
▁Hy	-11.2255
state	-11.2257
▁Pricing	-11.226
ups	-11.226
▁1960	-11.2261
▁Complete	-11.2263
tz	-11.2269
▁stunning	-11.2271
▁Filter	-11.2271
tract	-11.2271
▁Entries	-11.2275
▁anticipated	-11.2276
▁maker	-11.2276
▁uncertainty	-11.2276
▁remarkable	-11.2278
▁bid	-11.2281
▁conclude	-11.2281
▁Off	-11.2283
law	-11.2288
▁appreciated	-11.2288
▁Option	-11.2288
▁Notification	-11.2289
▁undefined	-11.229
▁Tibetan	-11.2292
▁updating	-11.2305
post	-11.2306
▁Ball	-11.2306
▁Workspace	-11.231
▁threads	-11.2313
▁crew	-11.2315
▁publicly	-11.2316
▁Previous	-11.2316
▁observations	-11.2317
▁tropical	-11.2317
igh	-11.2318
▁limitation	-11.2327
▁Policies	-11.2329
gal	-11.2329
▁brick	-11.233
Su	-11.2331
ay	-11.2333
▁coat	-11.2338
▁gaining	-11.234
▁surely	-11.2342
cer	-11.2343
▁prominent	-11.2343
▁CI	-11.2343
▁finishing	-11.2346
▁bandwidth	-11.2346
live	-11.2351
▁farming	-11.2351
▁pocket	-11.2351
▁Block	-11.2355
▁Meetings	-11.2356
▁Entertainment	-11.2357
Ho	-11.2358
ima	-11.236
▁justice	-11.2362
ule	-11.2365
▁varies	-11.2368
RM	-11.2371
▁Specifically	-11.2373
▁dessert	-11.2375
Data	-11.2375
nn	-11.2375
▁cha	-11.2377
▁exceeds	-11.2378
▁romantic	-11.2383
this	-11.2383
▁fifth	-11.2384
▁72	-11.2384
▁excitement	-11.2384
▁portrait	-11.2386
▁Trip	-11.2387
▁Configure	-11.2388
cia	-11.2389
▁pork	-11.2395
mes	-11.2397
▁patch	-11.2398
▁NYK	-11.2399
install	-11.2399
▁Dragon	-11.2401
ris	-11.2401
▁Silver	-11.2403
▁Wu	-11.2409
▁simplest	-11.2412
▁Scan	-11.2414
dra	-11.2415
▁rescue	-11.2415
▁Daily	-11.2415
▁5-	-11.2415
▁consume	-11.2416
▁repairing	-11.2416
▁Story	-11.2417
▁shine	-11.2417
▁infectious	-11.2417
stop	-11.2418
▁Record	-11.2427
▁cave	-11.2427
▁leakage	-11.2429
itch	-11.243
▁lounge	-11.2432
▁Cons	-11.2432
▁oral	-11.2432
▁protest	-11.2434
duct	-11.2435
▁quantities	-11.2435
▁elsewhere	-11.2436
▁Tab	-11.2438
▁medication	-11.2439
▁consciousness	-11.2439
▁attraction	-11.2441
vol	-11.2441
▁unlikely	-11.2441
Net	-11.2443
▁Collaboration	-11.2444
▁examined	-11.2444
VC	-11.2444
▁fl	-11.2448
▁AL	-11.2448
cher	-11.2449
▁Sam	-11.2451
▁affecting	-11.2451
ye	-11.2452
▁chamber	-11.2452
▁citizen	-11.2454
eb	-11.2459
▁institute	-11.2459
▁accessing	-11.246
▁incurred	-11.2462
▁researcher	-11.2462
▁rows	-11.2464
▁Farm	-11.2464
▁quantitative	-11.2465
▁Exp	-11.2468
dom	-11.2469
-9	-11.247
▁cinema	-11.247
▁sciences	-11.2472
▁boundaries	-11.2475
▁Mer	-11.2476
▁4)	-11.2477
▁cryptocurrency	-11.2477
▁cultivation	-11.2478
▁founding	-11.248
▁calculations	-11.248
▁pride	-11.248
ette	-11.2481
▁magnificent	-11.2482
▁identical	-11.2482
▁cheaper	-11.2484
▁soap	-11.2488
gram	-11.2488
▁glad	-11.2489
▁editors	-11.2489
▁Galaxy	-11.249
▁flu	-11.2494
▁variations	-11.2495
▁tele	-11.2495
▁invested	-11.2499
▁chips	-11.2502
▁discrimination	-11.2503
▁scenic	-11.2506
▁intends	-11.2506
rr	-11.251
▁Admission	-11.2511
▁Concerning	-11.2514
pass	-11.2514
▁mount	-11.2516
▁analyses	-11.2517
▁termination	-11.2517
▁arch	-11.2517
▁kick	-11.2518
▁suppress	-11.2518
▁Wikipedia	-11.252
▁invoice	-11.2522
▁declaration	-11.2522
▁sh	-11.2526
aga	-11.2528
▁Je	-11.2531
▁TM	-11.2535
▁analyzed	-11.2538
▁Requirements	-11.2539
▁SoftBank	-11.2539
▁laugh	-11.2543
た	-11.2543
▁broadcasting	-11.2543
▁photographer	-11.2548
▁hesitate	-11.2549
▁aggregate	-11.255
▁relaxed	-11.2552
▁homemade	-11.2557
▁Answer	-11.2558
owned	-11.2562
▁u	-11.2564
▁iPod	-11.2566
▁Movement	-11.2566
cut	-11.2567
▁AV	-11.2567
▁Strategic	-11.2572
▁surveillance	-11.2572
▁fewer	-11.2572
▁Tele	-11.2574
▁nail	-11.2574
▁et	-11.2578
▁lid	-11.2581
cal	-11.2582
▁crypto	-11.2582
▁interfaces	-11.2583
▁stops	-11.2584
▁worn	-11.2585
▁indicating	-11.2588
vid	-11.2593
path	-11.2593
▁listing	-11.2594
▁Stay	-11.2594
matsu	-11.2594
▁fer	-11.2596
▁partnerships	-11.2598
▁truck	-11.2598
ira	-11.26
▁recall	-11.2601
YO	-11.2602
▁poll	-11.2602
▁broker	-11.2602
▁widespread	-11.2606
▁playback	-11.2606
▁newspaper	-11.2609
▁Automotive	-11.2609
▁Several	-11.2609
▁boss	-11.261
ae	-11.2611
▁Southern	-11.2611
▁legend	-11.2612
tail	-11.2613
value	-11.2614
▁Vo	-11.2616
▁lucky	-11.2616
col	-11.2616
▁CAD	-11.2617
lect	-11.2619
tone	-11.2619
は	-11.2619
▁recommendation	-11.2621
▁Posted	-11.2621
phy	-11.2623
▁Hat	-11.2625
▁encouraging	-11.2626
▁Prior	-11.2627
▁bottles	-11.2628
▁microwave	-11.2629
▁connects	-11.2629
▁barrier	-11.263
▁Deep	-11.2631
▁fake	-11.2633
▁prosperity	-11.2633
▁bomb	-11.2633
AG	-11.2634
ates	-11.2634
▁Explore	-11.2635
person	-11.2637
VA	-11.2639
heat	-11.264
▁Far	-11.264
▁Setup	-11.2641
▁preserved	-11.2644
▁Position	-11.2645
bot	-11.2645
▁FL	-11.2651
round	-11.2652
sum	-11.2653
▁diabetes	-11.2653
▁countermeasures	-11.2654
▁bilateral	-11.2654
▁Ship	-11.2656
▁Stop	-11.2661
▁powered	-11.2662
▁KA	-11.2662
Google	-11.2663
▁securing	-11.2663
del	-11.2668
▁Times	-11.2668
▁9,	-11.2669
piece	-11.2675
▁expiration	-11.2676
▁deterioration	-11.2677
▁amplifier	-11.2679
▁authorization	-11.2679
▁traders	-11.2682
▁Controller	-11.2685
▁Recent	-11.2686
▁MD	-11.2688
▁guys	-11.269
UR	-11.2691
most	-11.2692
▁treatments	-11.2694
▁electro	-11.2695
▁cables	-11.2696
Qu	-11.2699
CT	-11.2701
▁2-	-11.2702
▁Str	-11.2702
▁graduated	-11.2702
writing	-11.2703
▁Principles	-11.2704
lash	-11.2704
▁Automation	-11.2704
▁Preparation	-11.2706
.(	-11.2709
rist	-11.2711
▁inclusion	-11.2712
soft	-11.2712
▁kid	-11.2713
▁performs	-11.2713
▁Module	-11.2713
▁preparations	-11.2715
▁Billiard	-11.2715
▁buyers	-11.2716
▁equally	-11.2716
JI	-11.2717
▁cre	-11.2718
▁Mal	-11.2719
▁gently	-11.272
▁involvement	-11.2722
▁answered	-11.2722
Or	-11.2726
▁shadow	-11.2731
▁crude	-11.2732
▁spreading	-11.2733
▁centered	-11.2734
▁ch	-11.2735
▁prime	-11.2735
▁synthetic	-11.2738
▁Bre	-11.274
▁durability	-11.2744
▁Cart	-11.2745
bro	-11.2747
▁impressed	-11.2748
▁resident	-11.2749
▁malware	-11.2749
▁Manufacturers	-11.2749
▁modification	-11.2749
▁Vista	-11.2749
▁Lion	-11.275
▁unlike	-11.2752
▁unprecedented	-11.2755
▁Arab	-11.2759
▁Maintenance	-11.276
▁compound	-11.276
sy	-11.2761
▁59	-11.2761
3)	-11.2763
city	-11.2763
mers	-11.2767
UE	-11.2767
▁Trans	-11.2768
▁lively	-11.277
▁Sw	-11.2774
▁chances	-11.2775
gest	-11.2778
▁axis	-11.2778
▁viewers	-11.2781
SR	-11.2782
After	-11.2783
▁Cu	-11.2783
▁PST	-11.2784
▁lineup	-11.2785
▁lovers	-11.2787
▁dioxide	-11.2793
▁butter	-11.2794
▁corners	-11.2795
Work	-11.2796
▁Ob	-11.2797
▁PI	-11.2798
▁Plaza	-11.2804
▁pursuit	-11.2805
▁Ze	-11.2805
ending	-11.2808
▁strap	-11.2813
ough	-11.2814
▁garlic	-11.2814
bil	-11.2815
▁guided	-11.2816
▁Programme	-11.2818
▁¥3	-11.2819
▁lamp	-11.2822
▁OTFE	-11.2822
▁meta	-11.2826
▁titled	-11.2828
し	-11.2829
cap	-11.2829
▁diplomatic	-11.2833
▁spices	-11.2836
▁Monitor	-11.2838
▁subscribe	-11.284
▁schemes	-11.2842
▁RAM	-11.2844
lat	-11.2844
▁recognizes	-11.2851
▁filed	-11.2851
real	-11.2856
▁summit	-11.2857
▁Certification	-11.2861
▁DB	-11.2863
▁launching	-11.2864
▁rope	-11.2868
▁1992	-11.2868
▁encrypted	-11.2871
cept	-11.2871
bre	-11.2872
DD	-11.2878
▁cabinet	-11.2879
▁therapeutic	-11.2879
trans	-11.2882
▁80%	-11.2882
2014	-11.2883
nate	-11.2883
▁seeks	-11.2885
▁subscribers	-11.2886
▁rolling	-11.2888
▁Practical	-11.2888
▁plain	-11.2892
HC	-11.2895
▁chemistry	-11.2895
▁heated	-11.2896
pad	-11.2896
▁Train	-11.2896
▁insulation	-11.2896
rill	-11.2899
▁tract	-11.2899
▁span	-11.2899
▁Assets	-11.2899
▁licensed	-11.29
organ	-11.2901
▁sta	-11.2902
▁rack	-11.2902
ception	-11.2906
pel	-11.2909
sym	-11.2912
▁modeling	-11.2913
atory	-11.2916
▁prison	-11.2917
▁conjunction	-11.2917
▁consistency	-11.2918
▁Multiple	-11.292
▁terminals	-11.2922
▁Tree	-11.2923
▁16,	-11.2924
▁feeding	-11.2925
▁pole	-11.2927
á	-11.2931
pl	-11.2932
▁intermediate	-11.2932
▁radioactive	-11.2935
tani	-11.2936
▁Sendai	-11.2937
system	-11.2938
▁blocked	-11.2938
▁leisure	-11.2939
▁heads	-11.2941
▁Federal	-11.2942
other	-11.2945
▁Song	-11.2945
▁Michael	-11.2946
▁Face	-11.2947
BR	-11.2948
▁aggressive	-11.2948
▁LO	-11.2949
▁brothers	-11.2949
▁carries	-11.2949
tta	-11.295
▁Statements	-11.2952
▁probability	-11.2952
▁rub	-11.2952
vision	-11.2953
▁trains	-11.2956
ulate	-11.2956
5,000	-11.2958
▁Pack	-11.296
under	-11.2961
▁logging	-11.2961
▁substrate	-11.2966
▁phrase	-11.2966
▁probe	-11.2968
1.0	-11.2968
▁56	-11.2969
▁def	-11.297
▁enemy	-11.2972
CON	-11.2974
▁distinct	-11.2974
▁58	-11.2974
ulated	-11.2977
ink	-11.2978
▁fitting	-11.298
▁licenses	-11.298
▁Holiday	-11.2982
▁possibly	-11.2982
▁unified	-11.2982
SL	-11.2982
▁guarantees	-11.2984
ION	-11.2984
▁slope	-11.2987
▁healing	-11.2989
▁crowded	-11.2991
▁57	-11.2993
▁globalization	-11.2993
▁AWS	-11.2993
▁Effective	-11.2998
▁circuits	-11.2999
▁Pharmaceutical	-11.3
▁centuries	-11.3
▁corrupted	-11.3001
▁swim	-11.3005
▁wrap	-11.3009
▁loud	-11.3009
PT	-11.3009
▁Era	-11.301
ros	-11.3015
▁pioneer	-11.3021
aging	-11.3021
night	-11.3021
▁vaccine	-11.3022
▁Robert	-11.3024
AND	-11.3026
▁Mai	-11.3027
card	-11.303
rich	-11.3031
▁Rose	-11.3033
▁manga	-11.3033
▁switches	-11.3037
market	-11.3037
▁afford	-11.3039
▁mysterious	-11.3047
▁Comment	-11.3047
▁easing	-11.3048
▁encoding	-11.3049
▁Soft	-11.3051
▁Islam	-11.3052
bon	-11.3054
▁blossoms	-11.3055
▁Wine	-11.3058
▁Cabinet	-11.3059
▁continually	-11.306
▁coin	-11.3064
ew	-11.3065
▁Final	-11.3066
▁Hello	-11.3067
▁WA	-11.3068
▁advisor	-11.3069
▁atomic	-11.3069
ced	-11.307
eon	-11.307
▁billing	-11.307
▁borders	-11.3072
▁Op	-11.3072
▁LE	-11.3072
る	-11.3073
▁Methods	-11.3075
core	-11.3079
frame	-11.3083
▁slip	-11.3084
direct	-11.3085
MAN	-11.3089
eri	-11.3089
▁belonging	-11.3089
▁luggage	-11.309
▁excluded	-11.3091
▁Original	-11.3093
▁relatives	-11.3095
▁survival	-11.3096
▁Points	-11.3096
▁shortcut	-11.3098
▁stayed	-11.3098
scape	-11.3102
VM	-11.3105
bank	-11.3106
▁gross	-11.3106
▁pond	-11.3107
:12	-11.311
▁TE	-11.311
ROOT	-11.3111
hua	-11.3112
▁Reporting	-11.3113
vic	-11.3118
IG	-11.3121
cess	-11.3122
▁formulated	-11.3123
▁promising	-11.3125
▁willing	-11.3131
DL	-11.3132
▁regret	-11.3134
▁prevents	-11.3135
▁Dutch	-11.3136
▁Flower	-11.3138
▁Tip	-11.3138
▁wouldn	-11.3138
▁aged	-11.3139
share	-11.3144
ifier	-11.3144
▁Defense	-11.3146
ison	-11.3148
mus	-11.3149
hen	-11.3149
encing	-11.3149
▁van	-11.315
▁yes	-11.3151
▁invention	-11.3151
▁seed	-11.3151
▁harsh	-11.3155
▁Kazu	-11.3157
▁walked	-11.3158
▁telling	-11.3162
▁literally	-11.3162
▁minerals	-11.3169
▁nerve	-11.3174
bound	-11.3174
▁Different	-11.3175
shirts	-11.3175
▁Ste	-11.3176
▁accepting	-11.3177
▁Pick	-11.3179
▁leak	-11.3182
▁Bag	-11.3184
▁traditions	-11.3184
current	-11.3185
▁Taipei	-11.3189
▁executives	-11.319
▁tens	-11.3191
▁preference	-11.3191
▁valve	-11.3192
▁Browser	-11.3195
▁kidney	-11.3196
▁Officers	-11.3196
▁Shares	-11.3198
▁Ukraine	-11.32
▁360	-11.3205
▁projected	-11.3209
▁dynamics	-11.321
/11	-11.3211
RR	-11.3212
▁wizard	-11.3212
▁24,	-11.3213
▁monitors	-11.3213
▁collapse	-11.3216
onic	-11.3216
ibility	-11.3216
▁Agriculture	-11.3219
nk	-11.3219
▁acceptable	-11.322
▁transferring	-11.3221
▁ears	-11.3221
▁Sri	-11.3222
▁secured	-11.3223
gel	-11.3224
▁legitimate	-11.3224
▁Converter	-11.3225
▁1994	-11.3228
:45	-11.3228
▁toxic	-11.3229
▁visually	-11.3233
▁Dance	-11.3234
▁Gateway	-11.3234
watch	-11.3234
▁explicit	-11.3235
▁silk	-11.3235
gate	-11.3236
ena	-11.3237
▁hospitals	-11.3237
▁genes	-11.3239
▁fe	-11.324
▁writer	-11.324
ination	-11.3241
▁Fo	-11.3242
▁pencil	-11.3242
▁TEL	-11.3243
Wa	-11.3243
▁promo	-11.3244
▁fu	-11.3245
▁grain	-11.3246
▁Van	-11.3249
▁mixing	-11.325
cultural	-11.3252
▁picked	-11.3252
▁Benefits	-11.3253
▁renowned	-11.3253
▁ci	-11.3254
▁Paralympic	-11.3254
▁widget	-11.3256
▁adjacent	-11.3258
▁Past	-11.3258
▁sweat	-11.3258
▁practically	-11.326
▁correspond	-11.326
▁1.2	-11.3261
ika	-11.3264
▁Living	-11.3266
▁tissues	-11.3266
▁cruise	-11.3268
▁gateway	-11.3268
▁BR	-11.3268
▁wheels	-11.327
Car	-11.3277
▁DI	-11.3277
▁drops	-11.3277
TF	-11.3279
▁Employees	-11.3279
な	-11.3282
hold	-11.3283
▁casting	-11.3283
ERS	-11.3284
▁Amsterdam	-11.3287
▁tries	-11.3289
▁21,	-11.3291
▁Dream	-11.3291
▁winners	-11.3295
▁diagnostic	-11.3295
▁motors	-11.3296
word	-11.3301
▁kg	-11.3301
▁wage	-11.3304
▁stuck	-11.3304
▁fastest	-11.3306
▁premises	-11.331
▁competent	-11.331
▁rounded	-11.3313
▁Subaru	-11.3315
ECT	-11.3315
▁databases	-11.3316
▁tailored	-11.3319
ero	-11.332
▁physically	-11.3321
▁Declaration	-11.3322
▁Dial	-11.3323
▁verified	-11.3324
▁Touch	-11.3329
▁HKEY	-11.333
▁Porsche	-11.3331
▁liked	-11.3331
▁acceleration	-11.3332
ire	-11.3333
▁medicines	-11.3334
▁formatting	-11.3334
▁masks	-11.3337
▁transfers	-11.3337
▁painful	-11.3337
ore	-11.3338
▁Wo	-11.334
▁Interview	-11.3343
▁acquiring	-11.3343
▁advised	-11.3344
rai	-11.3347
turn	-11.3347
▁Bangladesh	-11.3348
▁ko	-11.3349
range	-11.335
▁credentials	-11.3357
▁Mis	-11.3357
▁Reg	-11.3357
▁Adjust	-11.3363
▁FU	-11.3364
▁Indonesian	-11.3367
▁auditors	-11.3369
▁intake	-11.3369
▁shield	-11.3369
building	-11.3371
▁Match	-11.3371
▁IDE	-11.3374
▁acids	-11.3377
ado	-11.3378
▁shades	-11.3378
▁graduation	-11.338
▁Kids	-11.3381
zy	-11.3381
▁Memorial	-11.3383
▁Battle	-11.3385
▁bot	-11.3388
Link	-11.3389
▁grab	-11.339
gging	-11.3392
mod	-11.3393
▁Monitoring	-11.3393
▁22,	-11.3395
his	-11.3395
▁Ryo	-11.3395
▁CS	-11.3395
▁climbing	-11.3396
▁resume	-11.3399
▁14,	-11.34
▁waterfall	-11.3401
rite	-11.3402
▁singing	-11.3402
▁convention	-11.3407
▁Allow	-11.3408
▁shirt	-11.3408
From	-11.3408
▁Still	-11.3409
▁illness	-11.3417
▁societies	-11.3419
▁exceeded	-11.3423
▁90%	-11.3429
▁Para	-11.3434
▁Returns	-11.3436
▁destinations	-11.3436
mber	-11.3436
▁79	-11.3437
▁friction	-11.3442
▁museums	-11.3442
▁skip	-11.3444
▁occurring	-11.3448
▁silent	-11.3452
▁Urban	-11.3454
ees	-11.3455
▁Supplier	-11.3456
▁Around	-11.3462
game	-11.3464
▁Ai	-11.3467
▁Pra	-11.3467
▁grows	-11.3468
Other	-11.3468
▁defects	-11.3469
▁Bit	-11.3474
▁Publications	-11.3474
▁thereof	-11.3479
ock	-11.3481
▁Arabia	-11.3482
▁CON	-11.3482
fl	-11.3482
▁owing	-11.3487
cus	-11.3488
▁Cra	-11.3491
▁profitable	-11.3494
▁GPU	-11.3495
▁Think	-11.3495
▁priest	-11.3497
action	-11.3499
oli	-11.35
▁loads	-11.3502
▁trail	-11.3503
▁Ginza	-11.3504
▁proceedings	-11.3504
▁CE	-11.3505
▁Cla	-11.3505
▁Goals	-11.3506
▁Near	-11.3507
▁visitor	-11.3509
▁digit	-11.351
▁clone	-11.3512
▁Archive	-11.3515
▁Lock	-11.3518
▁personalized	-11.3519
▁2005,	-11.3521
▁Season	-11.3521
▁mag	-11.3523
▁Yan	-11.3525
▁buyer	-11.3525
▁orbit	-11.3528
AB	-11.3529
▁PayPal	-11.3534
text	-11.3534
SH	-11.3534
rated	-11.3535
▁Disease	-11.3536
some	-11.3537
▁pairs	-11.3538
▁tied	-11.354
pha	-11.3542
cam	-11.3543
▁cultivated	-11.3544
!!!	-11.3547
▁ramen	-11.3548
▁disputes	-11.3553
▁payable	-11.3555
▁Administrator	-11.3555
▁outlet	-11.3556
▁Items	-11.3556
▁positioned	-11.3557
▁queue	-11.3557
▁insufficient	-11.3557
▁subsequently	-11.3559
▁upward	-11.3561
▁Designer	-11.3565
▁embrace	-11.3566
rick	-11.3569
▁66	-11.3572
▁Civil	-11.3572
▁exchanged	-11.3572
▁sew	-11.3572
master	-11.3574
gaku	-11.3575
▁welding	-11.3576
▁Contribution	-11.3576
ific	-11.3578
▁Oracle	-11.3578
▁fatigue	-11.3582
pens	-11.3583
▁Metro	-11.3583
▁integrating	-11.3584
▁talented	-11.3584
FF	-11.3584
▁Used	-11.3585
▁wound	-11.3586
▁momentum	-11.3588
Fig	-11.3591
▁worker	-11.3592
cker	-11.3594
▁Directory	-11.3599
▁Participants	-11.3606
▁accompanying	-11.3608
▁Usage	-11.3608
▁villages	-11.361
▁cylinder	-11.361
▁labels	-11.3612
MU	-11.3612
Al	-11.3612
▁Labor	-11.3613
▁vendor	-11.3615
▁fossil	-11.362
▁tile	-11.362
ching	-11.3622
ened	-11.3622
eu	-11.3622
▁luxurious	-11.3624
▁Yuki	-11.3624
▁victory	-11.3628
▁conversations	-11.3629
▁compiled	-11.363
▁GA	-11.3633
teen	-11.3634
▁logged	-11.3634
▁bubble	-11.3635
▁GPS	-11.3635
▁Sitemap	-11.3635
▁rendering	-11.3636
▁mom	-11.3636
?”	-11.3637
▁rotate	-11.3638
▁sleeve	-11.3638
▁Cyclone	-11.364
▁slight	-11.3641
▁makeup	-11.3642
▁Actually	-11.3642
▁proved	-11.3644
driven	-11.3644
▁seller	-11.3644
that	-11.3646
▁Cafe	-11.3648
▁herself	-11.3652
By	-11.3653
▁Railway	-11.3655
lig	-11.3656
▁stance	-11.3656
▁incredibly	-11.3657
▁acute	-11.3658
2013	-11.3661
▁offerings	-11.3664
▁derivative	-11.3664
▁artwork	-11.3667
▁Prepare	-11.3669
▁anxiety	-11.3669
▁accomplish	-11.3669
▁Inside	-11.3669
▁Guru	-11.367
▁keywords	-11.3671
▁watched	-11.3672
▁Belgium	-11.3672
▁Fish	-11.3674
SK	-11.3676
cin	-11.3678
▁Soviet	-11.3679
▁Lee	-11.3679
▁machining	-11.3683
hr	-11.3683
▁Blockchain	-11.3684
▁presenting	-11.3685
zhou	-11.3685
▁Flo	-11.3687
berg	-11.3687
▁recruitment	-11.3688
▁Saint	-11.3689
▁brightness	-11.3691
▁incorporating	-11.3692
▁Simply	-11.3692
▁Apache	-11.3694
▁DNS	-11.3694
▁Kumamoto	-11.3695
▁17,	-11.3697
og	-11.3697
config	-11.3697
-02	-11.3698
▁Issue	-11.3699
▁needle	-11.3702
▁Advisory	-11.3703
▁violate	-11.3706
▁divisions	-11.3707
sure	-11.3708
▁12,	-11.3709
▁Concept	-11.3711
See	-11.3711
▁Sep	-11.3716
▁keyword	-11.3717
700	-11.3719
▁Fine	-11.372
▁roller	-11.3721
▁Others	-11.3724
GC	-11.3725
▁85	-11.3726
▁desert	-11.3726
▁Five	-11.3727
▁Announcement	-11.3728
▁assignment	-11.3728
used	-11.3729
▁League	-11.373
▁coastal	-11.3731
lay	-11.3733
▁Reviews	-11.3733
▁conferences	-11.3736
▁Specify	-11.3737
▁collections	-11.3737
▁exploit	-11.3738
▁proactively	-11.3739
▁sour	-11.3739
host	-11.3741
▁concentrate	-11.3741
▁breakdown	-11.3746
▁PV	-11.3747
▁Rooms	-11.3748
bl	-11.3748
▁Tomo	-11.3752
▁failures	-11.3752
▁situated	-11.3752
▁tremendous	-11.3752
info	-11.3753
▁Insert	-11.3753
▁worst	-11.3753
▁substantially	-11.3755
-13	-11.3757
using	-11.3763
▁Banking	-11.3766
▁breach	-11.3767
ele	-11.3769
▁temples	-11.3769
ache	-11.3772
tics	-11.3773
▁screw	-11.3775
▁donated	-11.3777
-03	-11.3782
avi	-11.3783
▁Cyber	-11.3785
▁1993	-11.3787
ssociating	-11.3787
▁absorption	-11.3787
▁bend	-11.3787
▁nails	-11.3787
▁accounted	-11.3792
▁Catalog	-11.3794
▁leveraging	-11.3794
▁Photography	-11.3794
oz	-11.3796
char	-11.3796
cca	-11.3797
CLASSES	-11.3797
▁Satellite	-11.3801
▁masterpiece	-11.3802
▁washed	-11.3802
▁Patent	-11.3802
▁Path	-11.3803
▁reproduction	-11.3806
▁importantly	-11.3807
-16	-11.3807
▁floors	-11.3809
▁lightweight	-11.3811
▁Chu	-11.3813
▁shorter	-11.3814
▁kingdom	-11.3816
▁pipes	-11.3818
▁distant	-11.3819
odo	-11.3821
tte	-11.3822
▁virtually	-11.3823
▁suits	-11.3824
ulator	-11.3826
▁wires	-11.3827
▁spoil	-11.3827
▁Ly	-11.3828
▁Creation	-11.3828
▁eliminating	-11.3828
cons	-11.383
▁Foodion	-11.3831
▁poster	-11.3832
Pressure	-11.3835
Ka	-11.3835
1.1	-11.3836
▁speeds	-11.3837
▁pit	-11.3837
▁interfere	-11.3838
▁Round	-11.3839
▁Lighting	-11.3839
▁spare	-11.3841
Ad	-11.3842
ART	-11.3843
▁particle	-11.3843
▁Present	-11.3844
ifying	-11.3844
▁asks	-11.3845
▁bones	-11.3847
▁parks	-11.3848
lut	-11.3848
▁Child	-11.3848
▁sink	-11.3849
▁Afghanistan	-11.3849
▁beads	-11.385
▁2009.	-11.3852
LT	-11.3855
▁2006,	-11.3857
tax	-11.3858
▁tent	-11.3858
▁62	-11.3859
fold	-11.3861
ony	-11.3863
▁duplicate	-11.3864
cip	-11.3867
▁reward	-11.3867
▁23,	-11.3868
▁exploration	-11.3869
▁beloved	-11.3869
▁dogs	-11.387
▁uploaded	-11.387
▁homepage	-11.3872
▁username	-11.3872
▁Coin	-11.3877
▁Brother	-11.3878
Prices	-11.3878
▁manages	-11.388
▁Tro	-11.3884
▁NS	-11.3886
▁11.	-11.389
▁Money	-11.3891
lf	-11.3891
▁bin	-11.3893
▁renewal	-11.3898
▁productive	-11.3898
▁complications	-11.39
▁terminate	-11.3901
▁Subscription	-11.3909
▁valuation	-11.3909
▁ritual	-11.3911
▁Suzuki	-11.3911
▁broke	-11.3912
▁democracy	-11.3915
▁boil	-11.3918
▁exceeding	-11.3918
▁FA	-11.3918
▁declining	-11.3922
▁evolve	-11.3922
▁intent	-11.3923
▁sad	-11.3923
▁Iraq	-11.3924
try	-11.3927
▁Wireless	-11.3927
▁Sale	-11.3929
▁Adam	-11.393
RF	-11.3931
▁sho	-11.3932
▁complaints	-11.3934
▁Islamic	-11.3938
media	-11.3939
▁simplify	-11.394
bal	-11.3942
▁endless	-11.3943
▁AT	-11.3944
▁1-	-11.3945
▁Wood	-11.3947
zaki	-11.3948
▁beautifully	-11.3949
▁Diet	-11.395
▁Console	-11.3951
▁manipulation	-11.3952
▁valley	-11.3952
ARD	-11.3952
▁Ky	-11.3954
:11	-11.3958
▁cor	-11.3959
▁eternal	-11.3959
▁auction	-11.3959
▁apologize	-11.3965
▁Reduction	-11.3965
▁eastern	-11.3966
close	-11.3968
▁exclude	-11.3971
▁investor	-11.3971
▁hero	-11.3972
▁ASRock	-11.3976
▁NE	-11.3978
nai	-11.3979
yaki	-11.398
▁cho	-11.398
▁365	-11.3982
▁conform	-11.3982
▁Sharing	-11.3983
▁interval	-11.3983
▁makers	-11.399
▁mall	-11.399
▁electron	-11.399
▁rings	-11.3991
sky	-11.3992
▁Bon	-11.3992
▁#1	-11.3995
900	-11.3995
レ	-11.3999
▁shipped	-11.4002
▁Noh	-11.4004
▁playlist	-11.4006
▁Categories	-11.4006
▁storing	-11.4006
▁bundle	-11.4008
▁Tim	-11.4017
▁magazines	-11.4017
note	-11.4022
RON	-11.4023
▁chi	-11.4025
▁backed	-11.4026
▁Maybe	-11.4028
str	-11.4028
▁considers	-11.4033
▁regards	-11.4041
where	-11.4044
ncies	-11.4045
ches	-11.4046
-17	-11.4046
main	-11.4046
▁Roll	-11.4048
▁PO	-11.4049
▁Consequently	-11.4051
▁partitions	-11.4053
▁automobiles	-11.4053
▁voluntary	-11.4054
▁skilled	-11.4054
▁boys	-11.4055
▁hardly	-11.4055
▁Americans	-11.4057
iki	-11.4057
▁burst	-11.4057
▁Repository	-11.4059
▁safeguard	-11.406
:16	-11.4062
MR	-11.4065
▁fraction	-11.4066
▁Auditors	-11.4067
▁numerical	-11.4068
tron	-11.4069
▁James	-11.4069
ville	-11.407
lle	-11.407
▁fragrance	-11.4072
rian	-11.4073
▁UNESCO	-11.4075
▁GE	-11.4075
▁radical	-11.4078
▁legacy	-11.4079
▁coins	-11.408
▁Opera	-11.4082
▁ART	-11.4082
▁Incorporation	-11.4085
▁accumulate	-11.4085
than	-11.4085
▁publications	-11.4087
▁Crypto	-11.4088
▁Sync	-11.4088
sheet	-11.4089
▁dye	-11.4089
▁10:00	-11.409
comp	-11.4094
utter	-11.4096
▁ethical	-11.4098
▁ph	-11.4098
▁planting	-11.4098
▁tire	-11.4099
▁twist	-11.41
▁attendance	-11.4101
▁knee	-11.4103
1,	-11.4105
▁intimate	-11.4106
▁racing	-11.4106
▁defines	-11.4109
▁arguments	-11.411
▁Ruby	-11.411
block	-11.4112
▁visualization	-11.4112
AA	-11.4113
で	-11.4114
▁triggered	-11.4118
▁encountered	-11.4118
:18	-11.4119
HR	-11.412
▁domains	-11.412
▁Wait	-11.4121
4)	-11.4125
▁beans	-11.4127
▁swing	-11.4129
▁differently	-11.413
Ra	-11.413
▁continent	-11.4131
loss	-11.4133
▁Reservation	-11.4134
▁exp	-11.4135
▁prestigious	-11.414
▁Toshi	-11.4141
▁partially	-11.4143
mai	-11.4143
▁Compared	-11.4145
lac	-11.4147
▁rehabilitation	-11.415
mine	-11.415
mount	-11.4151
ites	-11.4151
▁JAPANESE	-11.4152
▁incidents	-11.4157
▁stroll	-11.4159
▁heavily	-11.4162
ense	-11.4163
▁WLAN	-11.4163
▁Milan	-11.4164
▁PE	-11.4165
Can	-11.4166
▁Orchestra	-11.4167
▁disadvantage	-11.4167
▁texts	-11.4167
burg	-11.4168
▁Togoshi	-11.4174
▁valued	-11.4174
▁shoulder	-11.4175
▁depreciation	-11.4176
case	-11.4177
GO	-11.4182
▁Utility	-11.4182
▁notified	-11.4184
lam	-11.4185
▁anymore	-11.4187
▁generates	-11.4188
:40	-11.419
ginza	-11.4198
▁Booking	-11.42
▁Hours	-11.4203
▁uninstall	-11.4203
▁Maxim	-11.4204
Ko	-11.4205
▁Nor	-11.4209
▁Ask	-11.421
▁align	-11.4212
aff	-11.4215
Ca	-11.4215
▁lending	-11.4217
mble	-11.4218
▁GitHub	-11.4219
▁Cy	-11.422
▁Disney	-11.422
▁actor	-11.4221
▁Sal	-11.4221
▁emerge	-11.4221
▁concentrated	-11.4225
▁boasts	-11.4226
▁shore	-11.4227
▁coil	-11.423
▁Overall	-11.4231
rov	-11.4232
taka	-11.4232
▁Reduce	-11.4232
▁hanging	-11.4237
▁SHI	-11.4238
Figure	-11.4239
▁protocols	-11.4242
tical	-11.4244
▁pane	-11.4244
AF	-11.4244
▁bearing	-11.4245
▁Abstract	-11.4246
▁exhibits	-11.4248
▁enjoyable	-11.4249
▁confidential	-11.4249
via	-11.4252
rio	-11.4253
nia	-11.4253
▁お知らせ	-11.4256
▁mushrooms	-11.4256
▁Band	-11.4257
▁recruit	-11.4259
EV	-11.426
▁habits	-11.426
▁twin	-11.426
▁Rain	-11.426
away	-11.426
▁exported	-11.4261
kg	-11.4261
Incompatible	-11.4262
▁harder	-11.4263
▁Cre	-11.4265
▁somehow	-11.4266
▁Visitors	-11.427
uki	-11.427
▁Provider	-11.4271
▁render	-11.4271
▁Little	-11.4272
duction	-11.4274
▁Intellectual	-11.4275
▁san	-11.4276
VE	-11.4276
▁neighboring	-11.4278
▁packed	-11.4278
▁hack	-11.4284
▁analytical	-11.4285
▁Championship	-11.4289
▁detectives	-11.429
page	-11.4294
gh	-11.4296
▁queries	-11.4298
▁Mill	-11.4298
▁Shift	-11.4301
▁Owner	-11.4302
▁Seven	-11.4304
▁LI	-11.4305
Photo	-11.4306
▁cra	-11.4306
sil	-11.4308
rous	-11.431
▁adhesive	-11.4311
▁replacing	-11.4311
▁Commerce	-11.4314
:17	-11.4315
▁stereo	-11.4315
▁altitude	-11.4316
▁70%	-11.4317
▁copied	-11.4319
▁everybody	-11.4319
▁Ireland	-11.4321
▁jam	-11.4321
▁withstand	-11.4322
▁Jav	-11.4323
▁decor	-11.4323
▁Sweden	-11.4326
▁QR	-11.4327
▁treasure	-11.4331
▁charts	-11.4331
▁rat	-11.4331
▁Aichi	-11.4335
▁unchanged	-11.4336
▁screens	-11.4337
▁Christians	-11.4338
▁Tra	-11.4339
▁19,	-11.4339
▁Chuo	-11.4339
WS	-11.434
▁renewed	-11.4341
▁Hill	-11.4342
▁unto	-11.4342
product	-11.4342
▁suspend	-11.4343
▁strengthened	-11.4343
▁advertisement	-11.4343
present	-11.4344
▁Ensure	-11.4347
▁Wave	-11.4349
▁rocks	-11.4349
sign	-11.4352
▁Submit	-11.4352
▁sincerely	-11.4355
▁subkey	-11.4356
▁communicating	-11.4357
oper	-11.4358
▁juvenile	-11.4358
makers	-11.4358
▁geographical	-11.4359
▁emphasize	-11.4359
▁breathing	-11.4362
▁inputs	-11.4362
▁participant	-11.4363
▁Output	-11.4364
▁detector	-11.4369
▁sing	-11.4369
▁attachment	-11.437
▁inherent	-11.4373
▁formatted	-11.4374
ALL	-11.4377
▁piano	-11.4384
▁prompted	-11.4385
▁holders	-11.4386
▁Researchers	-11.4386
▁army	-11.4388
▁circles	-11.4388
▁brilliant	-11.4388
▁vaccination	-11.4388
▁licensing	-11.439
▁syndrome	-11.439
▁Lanka	-11.4393
▁statue	-11.4394
▁Mary	-11.4394
▁Examples	-11.4395
▁Pharma	-11.4396
▁evaluating	-11.4396
▁translator	-11.4396
イベント情報	-11.4396
:14	-11.4396
▁excluding	-11.4397
▁Ito	-11.4397
▁Indeed	-11.4398
▁Retail	-11.4401
▁alter	-11.4401
▁Campaign	-11.4403
body	-11.4405
▁boom	-11.4405
mewb	-11.441
▁63	-11.441
シ	-11.441
‐	-11.441
▁2008.	-11.4411
▁Provision	-11.4412
▁permanently	-11.4412
ューボ	-11.4418
bor	-11.4419
▁boiling	-11.442
▁prospects	-11.442
2012	-11.4421
▁洋楽	-11.4423
▁puzzle	-11.4425
▁Started	-11.4427
▁dramatic	-11.4432
▁mitigate	-11.4432
▁Kawasaki	-11.4432
ACE	-11.4432
▁Kami	-11.4433
▁refined	-11.4433
▁APEC	-11.4433
").	-11.4436
▁securely	-11.4438
▁Window	-11.4439
▁PHP	-11.4439
▁Transportation	-11.444
cre	-11.4441
▁storm	-11.4442
▁whereas	-11.4443
▁pig	-11.4444
▁Understanding	-11.4444
▁Contemporary	-11.4444
Tocho	-11.4445
▁vs	-11.4448
▁CORPORATION	-11.4449
Mac	-11.445
▁synthesis	-11.4453
kura	-11.446
▁preliminary	-11.446
▁planted	-11.446
▁clubs	-11.446
▁YOU	-11.446
ESS	-11.4461
▁musicians	-11.4461
▁steep	-11.4461
▁tightly	-11.4462
WE	-11.4468
▁Expo	-11.4469
IV	-11.447
▁peripheral	-11.447
▁1989	-11.4472
▁1991	-11.4473
▁seamless	-11.4474
▁Qing	-11.4474
▁unfortunately	-11.4484
▁Python	-11.4486
▁bold	-11.4489
▁beds	-11.4492
▁auditor	-11.4493
kh	-11.4496
Lab	-11.4497
▁Ishi	-11.4497
▁endpoint	-11.4498
▁sins	-11.45
▁breed	-11.4501
▁hy	-11.4503
lib	-11.4504
▁Early	-11.4505
▁transformed	-11.4505
▁workspace	-11.4508
▁CSV	-11.4509
check	-11.451
▁Yamaguchi	-11.4512
pat	-11.4513
▁predicted	-11.4515
ude	-11.4516
arch	-11.4517
ret	-11.4517
▁wool	-11.452
▁passionate	-11.452
▁bud	-11.4523
That	-11.4524
▁lit	-11.4524
hood	-11.4527
▁demanding	-11.4528
▁Volume	-11.4528
▁4-	-11.453
▁Front	-11.4531
rou	-11.4533
▁motorcycle	-11.4536
▁relaxation	-11.4536
TL	-11.4536
location	-11.4537
▁simulate	-11.4537
▁internship	-11.4538
PF	-11.4538
▁notebook	-11.4539
▁sleeping	-11.4541
▁methodology	-11.4542
▁soy	-11.4543
▁Heat	-11.4544
▁tiny	-11.4545
▁habit	-11.4546
▁Katsu	-11.4546
DER	-11.4546
asa	-11.4548
▁40%	-11.455
▁Muslim	-11.455
tar	-11.455
hor	-11.455
-14	-11.4553
serv	-11.4553
TOR	-11.4554
▁flowing	-11.4556
▁Six	-11.4557
▁Tag	-11.456
logical	-11.4562
▁Stage	-11.4562
▁DR	-11.4563
hin	-11.4566
▁JAV	-11.4567
▁breaks	-11.4569
▁Rinpoche	-11.4571
▁partly	-11.4571
▁Ari	-11.4573
▁Stream	-11.4574
▁decreases	-11.4575
▁Handling	-11.4576
▁fusion	-11.4577
▁Poly	-11.4579
SB	-11.4579
▁Gal	-11.4581
▁Minato	-11.4582
▁Generation	-11.4583
UP	-11.4583
data	-11.4584
pho	-11.4587
▁hip	-11.4587
▁Guests	-11.4588
▁cuts	-11.459
▁Domain	-11.4591
FL	-11.4593
▁reuse	-11.4594
▁loops	-11.4595
▁Diamond	-11.4599
HS	-11.46
▁votes	-11.46
▁「	-11.4602
▁advancing	-11.4604
▁sorts	-11.4605
rad	-11.4607
▁Queen	-11.4608
▁organizing	-11.4609
▁sufficiently	-11.4615
▁sword	-11.4617
▁den	-11.4618
▁CT	-11.4619
▁quarterly	-11.4619
▁Demand	-11.462
▁AN	-11.4623
▁rewards	-11.4623
dle	-11.4626
▁67	-11.4629
▁REIT	-11.463
Wallpapers	-11.4633
▁retention	-11.4634
▁sincere	-11.4635
▁Rolex	-11.4635
▁ill	-11.4636
▁Eye	-11.4636
▁offshore	-11.4637
para	-11.4638
▁lithium	-11.4641
▁spam	-11.4641
▁gases	-11.4641
▁jet	-11.4642
exp	-11.4643
▁circular	-11.4644
▁Vaio	-11.4644
▁Niigata	-11.4645
▁recycled	-11.4648
aka	-11.4648
▁remembered	-11.465
▁audiences	-11.4651
▁settle	-11.4652
▁grace	-11.4652
▁Facilities	-11.4655
▁Input	-11.4656
▁firewall	-11.4656
▁heading	-11.4656
▁facial	-11.4657
▁periodic	-11.4658
▁basket	-11.466
▁wrapped	-11.4662
PD	-11.4663
pri	-11.4663
Sat	-11.4664
▁Welfare	-11.4666
▁rinse	-11.4668
lk	-11.4669
▁BC	-11.467
▁Nao	-11.467
▁drone	-11.4671
▁Aug	-11.4671
▁shelter	-11.4672
▁NC	-11.4672
▁minus	-11.4673
profit	-11.4673
Start	-11.4676
▁Inquiries	-11.4679
View	-11.4679
▁MOL	-11.4681
leg	-11.4682
▁utmost	-11.4688
▁peel	-11.469
VR	-11.4692
▁Generally	-11.4692
▁Wengui	-11.4693
▁accelerated	-11.4696
ounce	-11.4696
▁necessity	-11.4697
▁acoustic	-11.4699
▁settled	-11.47
▁GS	-11.47
▁Acronis	-11.4702
▁clay	-11.4703
▁striving	-11.4703
actic	-11.4704
▁gardens	-11.4705
cid	-11.4707
▁merely	-11.4707
▁colon	-11.4708
pla	-11.4709
▁Alt	-11.471
▁donations	-11.4711
structure	-11.4716
even	-11.4716
▁Meta	-11.4716
▁Segment	-11.4718
Add	-11.4718
▁manifest	-11.4722
▁Headquarters	-11.4725
▁insist	-11.4726
▁dispatch	-11.4727
▁hygiene	-11.4727
▁Ce	-11.4729
▁fascinating	-11.473
▁mar	-11.4731
▁shrink	-11.4733
ended	-11.4734
▁compensate	-11.4735
▁Affiliate	-11.4736
▁tick	-11.4738
▁pulled	-11.4738
International	-11.4738
▁shuttle	-11.4738
▁Obama	-11.4742
▁interpret	-11.4747
group	-11.4747
▁opponent	-11.4748
▁behave	-11.4749
▁AOMEI	-11.475
▁witness	-11.475
abi	-11.475
far	-11.4754
▁Rather	-11.4754
▁ignore	-11.476
Sp	-11.4767
▁Pop	-11.4768
▁Domestic	-11.4769
▁Ever	-11.4771
▁hike	-11.4772
▁locked	-11.4773
▁Navigation	-11.4774
▁Ichi	-11.4774
▁cleaned	-11.4774
▁scrap	-11.4775
▁Assessment	-11.4777
▁vol	-11.4777
▁Accommodation	-11.4778
NY	-11.4779
▁Tang	-11.478
▁Governor	-11.478
▁Boot	-11.4783
▁Side	-11.4784
▁refreshing	-11.4787
▁hospitality	-11.4789
▁overwhelming	-11.4789
▁sunset	-11.479
▁Venue	-11.479
▁delayed	-11.479
▁retailers	-11.4795
▁Emergency	-11.4796
▁accumulation	-11.4796
▁Chicago	-11.4799
▁steering	-11.4801
▁Recommended	-11.4801
▁foil	-11.4802
oke	-11.4804
ava	-11.4806
▁progressive	-11.4808
▁va	-11.4808
▁absorbed	-11.4811
resistant	-11.4812
▁wherever	-11.4812
▁undertaken	-11.4812
▁analysts	-11.4812
▁Quantity	-11.4813
▁synchronization	-11.4816
ich	-11.4818
Download	-11.4822
▁ingredient	-11.4824
cel	-11.4824
▁corn	-11.4825
▁hate	-11.4826
▁pile	-11.4827
▁CL	-11.4828
▁Theater	-11.4829
sol	-11.483
▁argue	-11.483
Ta	-11.4831
inch	-11.4832
▁(10	-11.4832
through	-11.4832
▁edited	-11.4832
▁refrain	-11.4832
▁buses	-11.4838
▁fried	-11.4838
▁TR	-11.4838
▁blossom	-11.4839
▁pushed	-11.4839
▁Lesson	-11.484
▁Improvement	-11.4844
weight	-11.4845
▁consumed	-11.4845
-30	-11.4846
cost	-11.4849
▁61	-11.485
emon	-11.485
▁Monetary	-11.4854
▁accelerating	-11.4855
FO	-11.4855
▁Chile	-11.4856
▁clause	-11.4857
▁Progress	-11.4858
▁Would	-11.4859
▁employer	-11.4861
▁Ski	-11.4861
ush	-11.4865
▁Sh	-11.4867
yang	-11.4868
:50	-11.4868
▁garbage	-11.4869
▁arises	-11.487
ern	-11.487
▁cri	-11.4876
▁Mel	-11.4877
▁recovering	-11.4878
▁theatre	-11.4878
Chi	-11.4881
▁Layer	-11.4884
▁handmade	-11.4886
ident	-11.4886
RY	-11.4887
ram	-11.4888
▁marking	-11.4889
▁Revolution	-11.4889
▁APIs	-11.489
▁inspire	-11.489
!)	-11.4891
iwa	-11.4891
imp	-11.4891
▁gi	-11.4897
▁Forms	-11.49
▁Chang	-11.4901
▁2003,	-11.4902
▁besides	-11.4902
▁MB	-11.4904
▁surge	-11.4905
▁decorations	-11.4906
▁disrupt	-11.4907
▁Ag	-11.4908
▁interference	-11.4909
▁Mor	-11.4909
bul	-11.491
conf	-11.4913
nel	-11.4914
▁commented	-11.4915
▁Bun	-11.4917
▁Down	-11.4917
▁substitute	-11.4921
▁elected	-11.4921
town	-11.4923
rat	-11.4923
▁Female	-11.4924
LM	-11.4924
▁remotely	-11.4926
▁armed	-11.4926
▁formulation	-11.4926
▁rainy	-11.4927
▁varied	-11.4928
nit	-11.4932
▁flavors	-11.4933
▁epi	-11.4934
▁towel	-11.4934
▁18,	-11.4935
▁alien	-11.4936
▁68	-11.4937
ential	-11.4939
▁BI	-11.4942
▁wholly	-11.4942
▁sponsor	-11.4943
▁spouse	-11.4945
▁cellular	-11.4946
ail	-11.4947
▁0.5	-11.4947
▁streams	-11.4948
/2	-11.4948
▁kimono	-11.4948
▁JS	-11.4949
born	-11.4951
▁excellence	-11.4951
▁GR	-11.4952
▁salary	-11.4953
More	-11.4956
▁orchestra	-11.4956
▁loose	-11.4959
▁wines	-11.4961
lets	-11.4962
▁snacks	-11.4962
▁2,000	-11.4962
rent	-11.4964
anda	-11.4964
▁lying	-11.4965
▁Girl	-11.4965
▁privilege	-11.4966
▁mild	-11.4967
▁conditioning	-11.4968
▁OEM	-11.4968
▁Cancer	-11.4971
▁float	-11.4971
▁Greece	-11.4973
▁Sand	-11.4973
▁allowance	-11.4974
Up	-11.4974
▁oils	-11.4975
▁Universe	-11.4976
▁Perfect	-11.4978
▁missed	-11.4978
lav	-11.4978
▁icons	-11.4978
▁Happy	-11.4979
▁SM	-11.4984
▁salon	-11.4986
▁Scientific	-11.4987
▁terrible	-11.4987
▁Rental	-11.4987
▁Angel	-11.4987
▁(4	-11.4989
▁Carbon	-11.4992
hon	-11.4992
▁tanks	-11.4994
▁inclusive	-11.4996
din	-11.4999
▁references	-11.5001
NP	-11.5002
▁advances	-11.5005
▁Concert	-11.5011
▁proceeds	-11.5012
▁verse	-11.5013
▁MT	-11.5014
▁Upgrade	-11.5016
▁timeline	-11.5017
▁loves	-11.5018
berry	-11.5018
日	-11.502
omy	-11.5022
▁graduates	-11.5027
▁slots	-11.5027
▁accidentally	-11.5027
▁Cover	-11.5029
▁COM	-11.5032
▁Transactions	-11.5036
around	-11.5036
▁installer	-11.5037
cri	-11.5039
ito	-11.5041
arm	-11.5041
ground	-11.5042
▁Bru	-11.5042
channel	-11.5045
▁Distribution	-11.5047
▁federal	-11.5047
▁corrosion	-11.5051
▁Tsukuba	-11.5053
▁Cancellation	-11.5055
▁Uses	-11.5055
▁Sites	-11.5056
viv	-11.5056
▁instructor	-11.5059
▁fits	-11.5059
▁fertilizer	-11.5061
▁Disc	-11.5061
▁startups	-11.5061
▁Prefectural	-11.5062
▁barriers	-11.5063
▁surprising	-11.5066
strict	-11.5067
▁surplus	-11.5067
hama	-11.5067
▁MSI	-11.507
▁Ticket	-11.5075
▁cabin	-11.5076
EI	-11.5076
▁affiliate	-11.5076
ddle	-11.5077
動画	-11.5078
▁sacrifice	-11.5079
▁24-	-11.508
▁contacting	-11.5081
▁Gui	-11.5082
▁Scene	-11.5083
▁fashionable	-11.5084
▁$2	-11.5085
▁resist	-11.5085
▁magnitude	-11.5087
▁tray	-11.5087
▁inappropriate	-11.5087
▁displaying	-11.5087
▁emerged	-11.5088
▁silicon	-11.5088
▁fibers	-11.5089
hear	-11.509
:25	-11.5092
▁laying	-11.5096
▁delight	-11.5097
angle	-11.5098
▁disorder	-11.5099
▁confirming	-11.5101
▁hiring	-11.5105
▁isolated	-11.5106
▁Ei	-11.5106
▁shipment	-11.5106
▁(*	-11.5108
▁reboot	-11.5109
iber	-11.5109
▁spell	-11.5113
▁cottage	-11.5115
▁Reader	-11.5116
▁sampling	-11.5116
kei	-11.5117
▁linking	-11.5117
att	-11.5117
▁William	-11.512
▁Philosophy	-11.5123
▁skirt	-11.5123
▁George	-11.5124
▁Shan	-11.5127
ロ	-11.5127
rig	-11.5127
▁mankind	-11.5131
CU	-11.5133
ico	-11.5134
▁forgotten	-11.5134
▁scripts	-11.5135
▁depression	-11.5135
▁Mega	-11.5137
▁donation	-11.5138
▁stabilize	-11.5138
▁courts	-11.5139
▁Disclaimer	-11.514
GL	-11.5142
▁MOV	-11.5142
oe	-11.5144
▁CF	-11.5145
`	-11.5146
▁essentially	-11.5146
▁institutes	-11.5147
▁downward	-11.5148
▁Israeli	-11.515
▁corresponds	-11.5151
▁Refer	-11.5151
TSU	-11.5156
▁courage	-11.5159
ancy	-11.5159
▁adopting	-11.516
▁merge	-11.516
▁Dong	-11.5163
▁JSON	-11.5163
▁diesel	-11.5163
▁sends	-11.5164
▁expects	-11.5164
▁Demo	-11.5166
▁pressed	-11.5166
▁spill	-11.5168
▁Salesforce	-11.517
▁Font	-11.5171
▁praise	-11.5172
▁lean	-11.5172
▁Laboratories	-11.5176
JP	-11.5176
▁admire	-11.5178
▁eaten	-11.5178
nish	-11.5179
▁ANY	-11.5181
▁Yoko	-11.5182
▁Rotary	-11.5182
▁Stainless	-11.5184
▁relieve	-11.5187
GH	-11.5188
▁boiler	-11.5197
▁undergo	-11.5199
▁confused	-11.52
▁coordinate	-11.5201
bell	-11.5202
▁inexpensive	-11.5202
eki	-11.5204
-08	-11.5204
▁Theatre	-11.5206
fr	-11.5206
Man	-11.5209
▁highway	-11.521
▁Hiroshi	-11.5211
▁ranked	-11.5211
▁Artists	-11.5212
▁700	-11.5212
:22	-11.5213
▁Brown	-11.522
++	-11.522
itude	-11.5223
▁Apartments	-11.5224
▁entrepreneurs	-11.5224
plication	-11.5224
ux	-11.5226
▁broader	-11.5226
▁130	-11.5227
▁differs	-11.5227
section	-11.5228
▁bull	-11.5229
▁registering	-11.5232
winning	-11.5233
▁Hence	-11.5236
▁occupation	-11.5236
.2.	-11.5237
▁hum	-11.5237
▁Yang	-11.5239
▁Zoom	-11.524
▁Write	-11.5241
▁outlined	-11.5243
▁Restaurants	-11.5244
flu	-11.5244
▁Inn	-11.5245
▁adapted	-11.5246
▁anytime	-11.5247
▁carriers	-11.5249
pack	-11.5251
▁weekly	-11.5252
▁Vehicle	-11.5253
▁Tama	-11.5255
▁smallest	-11.5255
▁Val	-11.5258
ASE	-11.526
▁Chubu	-11.5263
NK	-11.5268
▁Bal	-11.5269
▁delegation	-11.527
▁77	-11.5271
▁coupons	-11.5274
▁Astellas	-11.5275
▁Heaven	-11.5275
▁biomass	-11.5275
▁attorney	-11.5277
▁Range	-11.5278
▁Finland	-11.5279
▁shi	-11.5281
▁Focus	-11.5282
▁Route	-11.5283
stock	-11.5283
▁Dynamic	-11.5287
▁workforce	-11.5289
▁posture	-11.5289
▁Ready	-11.529
oph	-11.5293
▁footprint	-11.5295
▁cultivate	-11.5296
▁appliance	-11.5297
therapy	-11.5299
▁zoom	-11.5301
▁café	-11.5302
Ar	-11.5303
▁Wish	-11.5303
▁submitting	-11.5303
defined	-11.5304
▁MUFG	-11.5305
▁nurture	-11.5305
Th	-11.5305
▁expire	-11.5308
▁Authority	-11.5308
ographic	-11.5308
kyu	-11.5308
▁Crystal	-11.531
▁reasonably	-11.5313
motion	-11.5315
▁employ	-11.5319
▁tenants	-11.5322
▁Wallet	-11.5325
▁triangle	-11.5326
ako	-11.5327
▁sphere	-11.5328
▁Cool	-11.5329
▁extending	-11.5329
▁festive	-11.5329
▁grams	-11.5329
EG	-11.533
omic	-11.5331
▁workload	-11.5331
▁hairstyle	-11.5332
▁voices	-11.5332
proof	-11.5336
▁(@	-11.5336
▁explosion	-11.5337
▁visualize	-11.5337
▁cleaner	-11.5338
▁occasions	-11.534
▁gravity	-11.5342
▁Documents	-11.5342
pr	-11.5344
▁sustain	-11.5344
▁assumption	-11.5345
RAM	-11.5345
▁EL	-11.5348
▁soldiers	-11.5348
▁alignment	-11.535
▁preset	-11.5351
Ba	-11.5351
▁Character	-11.5352
▁lobby	-11.5353
▁penalty	-11.5353
▁Cause	-11.5353
▁barrel	-11.5353
after	-11.5355
▁provoke	-11.5358
▁Xiao	-11.5358
▁Utilization	-11.5359
▁Yamagata	-11.5359
stream	-11.536
▁81	-11.536
EF	-11.536
▁baked	-11.5365
▁Load	-11.5367
▁canceled	-11.5368
▁advisable	-11.537
▁exert	-11.5371
▁nest	-11.5373
▁snack	-11.5374
2021	-11.5374
▁prediction	-11.5374
▁safer	-11.5375
ITY	-11.5375
▁Similarly	-11.5378
ushi	-11.5382
▁respiratory	-11.5383
▁Types	-11.5387
▁filing	-11.5388
▁Letter	-11.5388
▁variation	-11.5388
rb	-11.5389
asse	-11.539
▁envelope	-11.5391
here	-11.5391
▁rivers	-11.5392
▁pros	-11.5392
▁IBM	-11.5392
▁interim	-11.5393
▁Upload	-11.5398
purpose	-11.5405
▁executing	-11.5407
▁appoint	-11.5409
▁Connector	-11.5411
▁fallen	-11.5412
▁Cast	-11.5412
Sa	-11.5412
▁Peninsula	-11.5414
▁benchmark	-11.5414
▁CV	-11.5415
▁LinkedIn	-11.5415
▁god	-11.5416
▁cancelled	-11.5417
▁Kii	-11.5417
▁invisible	-11.5419
▁victim	-11.5422
nami	-11.5424
▁CP	-11.5426
▁fantasy	-11.5426
▁genome	-11.5427
▁Success	-11.5428
▁shelf	-11.5429
:21	-11.543
▁Photoshop	-11.5431
▁ethics	-11.5433
▁(6)	-11.5433
1/	-11.5436
ASS	-11.5438
▁gu	-11.5439
▁reinforce	-11.5439
▁ONLINE	-11.5439
▁€	-11.5441
▁sorry	-11.5443
▁Employee	-11.5444
▁beverages	-11.5444
▁Facility	-11.5446
▁constraints	-11.5447
▁wages	-11.5447
▁Feel	-11.5448
▁(18	-11.5449
control	-11.5449
▁angel	-11.5449
hole	-11.545
▁Martin	-11.5452
▁abnormal	-11.5452
BL	-11.5453
▁furnace	-11.5455
trust	-11.5456
▁evolved	-11.5457
tine	-11.5459
▁initiated	-11.5461
▁Cable	-11.5462
Your	-11.5462
▁PCs	-11.5463
▁profession	-11.5465
▁sewing	-11.5466
▁Omega	-11.5467
IB	-11.5469
ional	-11.547
▁protects	-11.5471
▁Leadership	-11.5473
▁peer	-11.5474
▁pixels	-11.5476
▁Implementation	-11.5476
▁emergence	-11.5477
▁venues	-11.5477
▁gadget	-11.548
▁lymph	-11.548
ean	-11.5482
▁persistent	-11.5482
▁AVI	-11.5483
▁lighter	-11.5484
▁Fortunately	-11.5484
▁discipline	-11.5488
walk	-11.5488
▁plum	-11.5489
▁tan	-11.5491
shirt	-11.5493
▁tennis	-11.5494
▁grip	-11.5496
▁---	-11.5496
Di	-11.5496
▁110	-11.5497
▁reproduce	-11.5497
▁ordering	-11.5498
▁countless	-11.5499
▁Charts	-11.5502
▁Investor	-11.5505
▁sculpture	-11.5506
▁pushing	-11.5507
▁⋆	-11.5509
PU	-11.5509
▁3.5	-11.5511
bble	-11.5511
▁Branch	-11.5512
▁Between	-11.5512
▁Creator	-11.5514
claim	-11.5515
:23	-11.5518
▁restriction	-11.5518
▁ham	-11.552
▁69	-11.5522
▁Turkish	-11.5523
▁Gays	-11.5524
▁amendment	-11.5525
▁Feature	-11.5525
agent	-11.5528
▁Gift	-11.5529
▁typhoon	-11.553
efficient	-11.5531
lliPhone	-11.5531
▁60%	-11.5531
▁reinstall	-11.5533
▁emit	-11.5535
▁Again	-11.5537
▁Folder	-11.5538
iga	-11.5539
▁explanations	-11.554
▁Higashi	-11.5541
▁WEB	-11.5543
▁Regulation	-11.5544
▁ABOUT	-11.5544
▁ICU	-11.5546
▁configurations	-11.5548
▁adjusting	-11.5548
▁celebrated	-11.5549
▁RFID	-11.555
▁Qi	-11.5553
rink	-11.5556
tory	-11.5557
▁20,	-11.5557
▁anonymous	-11.5557
▁sn	-11.5557
▁nutrients	-11.5558
▁lenses	-11.556
▁wholesale	-11.5561
▁repayment	-11.5561
rail	-11.5564
▁Increase	-11.5565
▁bonuses	-11.5565
▁creatures	-11.5567
▁sustained	-11.5568
▁packet	-11.5569
▁euros	-11.5569
▁ALL	-11.557
▁catalyst	-11.557
version	-11.557
▁airline	-11.5571
▁Plastic	-11.5572
▁4.0	-11.5576
▁Pat	-11.5577
▁HS	-11.5579
▁Hyper	-11.5584
▁toggle	-11.5585
▁HDD	-11.5586
▁rape	-11.5592
▁eliminated	-11.5594
iff	-11.5594
craft	-11.5597
▁IV	-11.5598
▁detects	-11.56
▁fare	-11.56
▁dirt	-11.5601
▁Question	-11.5603
▁positioning	-11.5605
▁dimension	-11.5605
▁Economics	-11.5607
▁strings	-11.5607
▁Messag	-11.5609
▁comparing	-11.561
▁wi	-11.561
▁1-2	-11.5611
▁trap	-11.5615
▁Leaders	-11.5615
▁Trial	-11.5615
▁tastes	-11.5615
▁checkout	-11.5617
AV	-11.562
▁considerations	-11.562
▁Phase	-11.5622
▁Bath	-11.5622
▁Consul	-11.5623
▁Ceremony	-11.5624
▁UV	-11.5626
▁harness	-11.5628
▁upgrading	-11.5628
▁Pattern	-11.5628
▁tiles	-11.5629
▁profound	-11.5631
road	-11.5632
▁Venture	-11.5632
▁oxide	-11.5634
▁mega	-11.5635
▁comprised	-11.5636
▁emphasized	-11.5636
▁downtown	-11.5637
▁spite	-11.5637
▁aforementioned	-11.5637
IES	-11.5638
force	-11.564
▁exterior	-11.5641
ago	-11.5642
▁Accounts	-11.5644
▁knock	-11.5646
▁Subject	-11.5646
▁respondents	-11.5647
:24	-11.5647
▁beaches	-11.5649
▁integral	-11.5651
▁160	-11.5651
lio	-11.5651
▁prohibit	-11.5652
▁followers	-11.5652
▁proactive	-11.5654
▁routing	-11.5657
lands	-11.5657
▁2004,	-11.5658
image	-11.5659
▁fulfilling	-11.566
▁opposition	-11.5661
▁imposed	-11.5662
▁actuator	-11.5662
▁depart	-11.5665
▁Craft	-11.5666
▁patents	-11.5667
itation	-11.5677
▁op	-11.5677
▁DOC	-11.568
▁simulator	-11.568
▁compress	-11.5684
▁connectors	-11.5685
BU	-11.5685
lum	-11.5685
GM	-11.5686
▁socio	-11.5687
▁evolving	-11.5692
▁gorgeous	-11.5693
social	-11.5694
▁Chen	-11.5695
dd	-11.5696
▁melt	-11.5698
▁Mizu	-11.5699
▁Logistics	-11.5702
▁declare	-11.5703
say	-11.5703
mpo	-11.5705
-04	-11.5707
shiki	-11.5709
▁Ren	-11.5709
▁bra	-11.5712
▁devoted	-11.5712
▁Approach	-11.5713
▁apple	-11.5714
2010	-11.5715
▁backdrop	-11.5715
▁Deputy	-11.5716
metry	-11.5719
り	-11.572
▁revisions	-11.5722
▁Pal	-11.5722
▁Shizuoka	-11.5723
▁Teacher	-11.5723
▁Transaction	-11.5724
suit	-11.5724
▁humanitarian	-11.5726
▁composite	-11.5726
Name	-11.5727
▁postcard	-11.5728
wel	-11.573
▁Jerusalem	-11.5731
▁metadata	-11.5731
▁weapon	-11.5731
▁civilization	-11.5735
▁Supported	-11.5736
ily	-11.5737
writer	-11.5739
▁snapshot	-11.574
▁traces	-11.574
▁des	-11.5742
▁Robot	-11.5743
▁simplified	-11.5745
▁disappeared	-11.5745
ien	-11.5745
▁disadvantages	-11.5746
▁tolerance	-11.5746
rom	-11.5746
▁Dorjee	-11.5748
▁rises	-11.5748
cen	-11.5748
▁Hai	-11.5751
▁thermo	-11.5751
▁Blu	-11.5752
▁organisation	-11.5753
▁convinced	-11.5755
▁biology	-11.5755
▁decreasing	-11.5756
▁isolation	-11.5758
abil	-11.576
ying	-11.5761
▁Anniversary	-11.5761
hol	-11.5762
ua	-11.5762
yard	-11.5762
▁Residence	-11.5763
▁Rinchen	-11.5763
▁drift	-11.5763
▁sprinkle	-11.5764
▁amino	-11.5766
gress	-11.5767
Tech	-11.5767
▁Mont	-11.5768
▁Kenya	-11.5769
▁bypass	-11.5769
▁Discussion	-11.5769
▁calcium	-11.5769
▁funny	-11.5771
▁Fer	-11.5771
▁regulated	-11.5771
wo	-11.5773
▁Zip	-11.5773
▁bracelet	-11.5773
▁contamination	-11.5773
PORT	-11.5774
▁unfair	-11.5775
▁(5	-11.5776
-05	-11.5777
▁legally	-11.5778
taro	-11.5778
ONE	-11.578
▁RF	-11.578
▁BY	-11.5782
▁Income	-11.5782
▁hell	-11.5787
DN	-11.5787
▁centimeters	-11.5789
▁equation	-11.5789
mini	-11.5791
▁cure	-11.5792
END	-11.5792
sea	-11.5797
▁Sim	-11.5797
▁flame	-11.5799
mag	-11.5799
▁+81-	-11.5802
reach	-11.5803
▁passwords	-11.5803
▁immunity	-11.5806
▁Physics	-11.5806
▁lady	-11.5808
▁SS	-11.5809
▁touched	-11.581
▁Mod	-11.581
:1	-11.581
▁PL	-11.5811
▁88	-11.5812
rage	-11.5814
▁migrate	-11.5816
MAX	-11.5816
▁strives	-11.5817
east	-11.5817
▁standpoint	-11.5818
▁versatile	-11.5818
▁electromagnetic	-11.5818
cycle	-11.5819
▁Britain	-11.5819
▁Treaty	-11.5821
▁aside	-11.5822
▁handy	-11.5827
▁concerts	-11.5829
▁milestone	-11.583
leading	-11.5831
zai	-11.5831
pen	-11.5832
▁mi	-11.5832
▁SI	-11.5833
▁earthquakes	-11.5833
▁proceeding	-11.5836
▁2007.	-11.5837
▁Aka	-11.5838
▁Testing	-11.5842
▁ink	-11.5845
▁Fra	-11.5845
Book	-11.5846
▁$9	-11.5846
▁loyalty	-11.5847
▁undergraduate	-11.5848
▁bell	-11.5849
▁frying	-11.585
学	-11.5851
▁shaped	-11.5854
Li	-11.5855
▁Changing	-11.5855
▁backgrounds	-11.5855
▁slider	-11.5856
▁scattered	-11.5863
oy	-11.5863
start	-11.5865
rain	-11.5867
▁SR	-11.5868
▁Compact	-11.5869
▁programmes	-11.5871
▁Ye	-11.5871
kata	-11.5872
▁enforce	-11.5872
▁banner	-11.5875
▁bias	-11.5876
▁Mass	-11.5877
▁Provide	-11.5882
▁fabrics	-11.5882
FR	-11.5884
▁boiled	-11.5885
2011	-11.5886
ologist	-11.5886
▁disconnect	-11.5886
▁enrolled	-11.5887
▁¥4	-11.5887
▁Ana	-11.5888
agon	-11.5891
una	-11.5893
▁ONE	-11.5894
▁stove	-11.5895
▁maintains	-11.5895
▁stickers	-11.5897
▁Ads	-11.5897
▁relate	-11.59
TX	-11.5905
▁Premiere	-11.5907
▁mathematical	-11.5907
6)	-11.5907
▁hence	-11.5907
▁Healthcare	-11.5909
▁syn	-11.591
▁Conversion	-11.5911
▁comp	-11.5911
0°	-11.5911
▁overnight	-11.5911
▁Vienna	-11.5912
▁infringement	-11.5914
▁Electrical	-11.5915
▁creator	-11.5916
▁Electro	-11.5916
▁Fre	-11.5917
▁Moto	-11.5917
OU	-11.592
▁Choosing	-11.592
▁Kar	-11.5921
▁faithful	-11.5921
▁Ed	-11.5922
▁Portuguese	-11.5927
▁MORE	-11.5928
▁shake	-11.5929
▁winding	-11.5931
▁drain	-11.5932
people	-11.5933
lly	-11.5935
▁mut	-11.5935
▁Specific	-11.5937
▁pu	-11.5937
▁clo	-11.5938
▁flexibly	-11.5939
▁Graphics	-11.594
▁adaptation	-11.5942
▁RI	-11.5943
▁odd	-11.5945
▁slideshow	-11.5946
.15	-11.5949
▁memorable	-11.5949
▁Villa	-11.595
▁towns	-11.5953
▁rh	-11.5953
rating	-11.5954
▁disciples	-11.5955
▁broth	-11.5956
▁erase	-11.5958
▁enrich	-11.5958
▁discussing	-11.5959
GR	-11.596
depth	-11.5962
▁enrollment	-11.5962
▁outfit	-11.5963
▁Spec	-11.5965
▁attain	-11.5967
ELL	-11.5968
▁Kamakura	-11.5971
▁commitments	-11.5972
bling	-11.5973
▁clan	-11.5973
▁royal	-11.5975
hours	-11.5975
▁sells	-11.5976
▁secrets	-11.5979
Vi	-11.598
▁snap	-11.5981
just	-11.5983
▁ventilation	-11.5983
▁lamps	-11.5983
▁Institutional	-11.5984
▁singer	-11.5986
zer	-11.5986
▁FREE	-11.5988
▁Chemicals	-11.5989
▁140	-11.5993
▁tune	-11.5993
▁allergic	-11.5993
▁Charter	-11.5993
▁spatial	-11.5995
▁graduating	-11.5996
3/	-11.5998
nge	-11.5998
▁ir	-11.5998
▁Tur	-11.6
▁extends	-11.6004
ml	-11.6004
▁Definition	-11.6017
▁78	-11.6017
BT	-11.6018
▁bands	-11.6018
▁Spots	-11.6021
▁injured	-11.6022
▁10-	-11.6022
▁utilities	-11.6024
ality	-11.6024
rim	-11.6027
▁FR	-11.6028
▁Nepal	-11.6029
▁accessibility	-11.6029
▁hazard	-11.603
▁None	-11.6033
change	-11.6033
▁TT	-11.6034
▁labour	-11.6035
▁explicitly	-11.6035
File	-11.6035
▁Ryu	-11.604
▁shutdown	-11.604
▁Physical	-11.604
▁rays	-11.6042
▁diving	-11.6044
▁reject	-11.6044
ought	-11.6046
▁Parents	-11.6048
▁Laser	-11.6049
▁improper	-11.6049
▁Weight	-11.6052
▁mice	-11.6052
▁fade	-11.6054
▁elastic	-11.6054
cil	-11.6056
ula	-11.6056
▁approaching	-11.6058
▁Kanto	-11.6058
pol	-11.6063
coming	-11.6063
gent	-11.6063
▁Artist	-11.6063
▁observing	-11.6066
▁Reserve	-11.6067
ood	-11.6067
▁te	-11.6067
bol	-11.607
▁Brazilian	-11.607
lov	-11.6071
▁Wizard	-11.6073
▁baseball	-11.6073
▁neural	-11.6073
▁unwanted	-11.6075
▁RT	-11.6076
ANA	-11.6077
▁credits	-11.6077
▁genre	-11.6079
pper	-11.608
が	-11.6082
▁chairman	-11.6086
▁wise	-11.6087
▁blocking	-11.6088
▁bind	-11.6089
▁checkbox	-11.6091
▁renovation	-11.6092
▁Supporting	-11.6094
▁refugees	-11.6094
gle	-11.6095
Part	-11.6096
▁SW	-11.6097
▁tungsten	-11.6098
root	-11.6099
▁Jack	-11.61
▁Amnesty	-11.6101
▁Swedish	-11.6101
▁likelihood	-11.6101
▁ecological	-11.6101
▁Comprehensive	-11.6103
▁advisory	-11.6104
▁awesome	-11.6104
▁ACCESS	-11.6104
stage	-11.6105
▁Template	-11.6106
▁generous	-11.6108
▁KI	-11.6108
▁deserve	-11.6109
▁backpack	-11.6109
▁handed	-11.611
▁1.1	-11.6111
ius	-11.6111
▁additionally	-11.6111
▁Compensation	-11.6113
▁Evernote	-11.6116
▁trucks	-11.6119
▁RA	-11.6119
:28	-11.6119
▁Popular	-11.612
▁schema	-11.6121
▁bump	-11.6123
▁Justice	-11.6123
▁Charm	-11.6124
▁urge	-11.6124
▁Break	-11.6126
▁lacquer	-11.6126
▁administrators	-11.6129
▁injuries	-11.613
▁Hol	-11.6131
World	-11.6132
▁mathematics	-11.6132
▁existed	-11.6133
▁purple	-11.6134
INE	-11.6134
▁crimes	-11.6134
rol	-11.6137
▁simplicity	-11.6139
-06	-11.6139
▁spoken	-11.614
▁Primary	-11.614
dong	-11.614
▁specifies	-11.6141
tent	-11.6141
▁Role	-11.6141
▁reside	-11.6142
▁Hama	-11.6142
▁lecturer	-11.6146
▁Portugal	-11.6147
▁behaviour	-11.6149
▁monitored	-11.615
▁Nash	-11.6153
▁Mono	-11.6155
titu	-11.6155
▁AG	-11.6155
mentioned	-11.6156
▁tongue	-11.6156
▁crossing	-11.6156
▁pertaining	-11.6157
▁tires	-11.6164
▁Eduard	-11.6168
Type	-11.6168
▁subtle	-11.617
▁Chamber	-11.6175
▁expectation	-11.6176
▁Yi	-11.6178
▁medal	-11.6179
▁supervisor	-11.6179
add	-11.6179
▁2006.	-11.6184
▁stake	-11.6184
年	-11.6185
▁warrant	-11.6187
▁workpiece	-11.6187
▁Bell	-11.6188
scal	-11.6188
naga	-11.6189
▁utilizes	-11.619
▁Moving	-11.6191
▁exquisite	-11.6192
rupt	-11.6194
▁discomfort	-11.6196
▁fixing	-11.6196
▁brew	-11.6197
tube	-11.6199
▁socket	-11.6201
oji	-11.6202
dio	-11.6204
▁assembled	-11.6204
fun	-11.6205
▁eager	-11.6206
▁diamonds	-11.6209
emia	-11.6209
cial	-11.621
atch	-11.6215
▁fuck	-11.6218
cade	-11.6218
▁Royalty	-11.6219
▁realm	-11.622
▁Contest	-11.6221
▁complain	-11.6222
▁salvation	-11.6222
▁accessory	-11.6226
▁palace	-11.6227
▁NOTE	-11.6227
▁implies	-11.6229
▁companion	-11.6232
▁penetrate	-11.6236
mid	-11.6238
▁maritime	-11.6239
▁bucket	-11.624
▁Silicon	-11.6241
hei	-11.6242
▁collects	-11.6242
▁Reply	-11.6243
▁descriptions	-11.6245
home	-11.6245
▁critic	-11.6247
▁Dashboard	-11.6248
▁fleet	-11.6248
▁Okayama	-11.6248
▁Barcelona	-11.6251
Is	-11.6253
▁Secretariat	-11.6253
▁cow	-11.6253
ural	-11.6254
▁investigated	-11.6254
▁rank	-11.6255
▁SEO	-11.6257
▁cats	-11.6259
▁Balance	-11.6259
▁Avoid	-11.626
Out	-11.626
▁indirect	-11.6261
▁Wal	-11.6261
▁combustion	-11.6262
▁Gifu	-11.6262
▁Snowflake	-11.6263
▁tumor	-11.6264
▁Floor	-11.6264
▁infant	-11.6264
wall	-11.6265
▁kernel	-11.6267
▁deleting	-11.6267
:26	-11.6268
▁WhatsApp	-11.6269
▁Apart	-11.627
gro	-11.627
▁calculating	-11.627
▁UFJ	-11.6272
tec	-11.6272
▁fo	-11.6274
▁lag	-11.6274
▁Flex	-11.6276
▁blade	-11.6277
▁arbitrary	-11.6277
omi	-11.628
▁Confirm	-11.6281
▁Plug	-11.6284
▁comfortably	-11.6288
▁illustrations	-11.6289
▁souvenir	-11.6289
▁closure	-11.629
▁tooth	-11.6291
▁Almost	-11.6292
▁Jobs	-11.6294
IVE	-11.6296
▁simulations	-11.6298
▁lend	-11.6299
▁onions	-11.6299
▁referring	-11.6306
sawa	-11.6307
▁terrorist	-11.6307
▁Eve	-11.6308
coreline	-11.6308
▁vegan	-11.6311
▁assessments	-11.6313
morph	-11.6314
▁hoping	-11.6314
chemical	-11.6318
uka	-11.6319
▁matched	-11.632
▁sofa	-11.6323
▁continuity	-11.6325
▁favourite	-11.6326
▁tub	-11.6326
ova	-11.6326
▁tokens	-11.6327
▁dragon	-11.6328
puls	-11.6329
PRO	-11.6329
▁Junior	-11.633
▁nuts	-11.6332
▁amongst	-11.6333
first	-11.6334
Ltd	-11.6334
▁buffet	-11.6337
▁inches	-11.6338
▁handler	-11.6339
:05	-11.634
▁Steam	-11.6341
rew	-11.6342
▁95	-11.6343
▁derivatives	-11.6344
▁ignored	-11.6344
▁instructors	-11.6345
rise	-11.6347
▁Resolution	-11.6348
▁gym	-11.6351
▁sensations	-11.6351
▁lawyer	-11.6355
▁vivid	-11.6357
terdisciplinary	-11.6362
:27	-11.6365
▁trunk	-11.6365
▁consensus	-11.6367
▁worsen	-11.6368
▁DM	-11.6368
▁couples	-11.6369
▁claimed	-11.6371
▁opposed	-11.6372
▁RS	-11.6372
▁alerts	-11.6373
▁lovely	-11.6377
▁obviously	-11.6378
:03	-11.638
:59	-11.6382
▁divorce	-11.6383
▁nationality	-11.6385
▁oversee	-11.6385
▁98	-11.6385
▁finest	-11.6386
▁dictionary	-11.6386
▁sacred	-11.6386
OO	-11.6387
▁vibrant	-11.6388
First	-11.6388
▁attacker	-11.6389
▁tendency	-11.6389
▁flesh	-11.639
Log	-11.6391
▁Takashi	-11.6391
▁landscapes	-11.6391
▁refine	-11.6392
▁Shira	-11.6392
▁Drug	-11.6394
▁defeat	-11.6395
▁heater	-11.6395
zing	-11.6397
▁comprises	-11.6398
▁Designed	-11.6399
▁menus	-11.6399
▁Plate	-11.64
▁Girls	-11.6401
▁Tracking	-11.6401
blog	-11.6402
▁Ring	-11.6403
▁advertisements	-11.6404
▁quit	-11.6404
▁allocate	-11.6407
▁Au	-11.6407
▁municipal	-11.6409
▁exotic	-11.641
▁extracted	-11.6413
▁attendees	-11.6415
▁Considering	-11.6417
▁Nike	-11.6418
lumin	-11.642
▁Theme	-11.642
▁minority	-11.6421
▁newest	-11.6423
▁MM	-11.6424
added	-11.6425
▁priorities	-11.6426
▁cycles	-11.6427
rine	-11.6427
▁outputs	-11.6427
▁salmon	-11.6431
▁Parts	-11.6431
▁Unless	-11.6432
-07	-11.6432
▁Trademark	-11.6433
▁mainstream	-11.6434
▁fonts	-11.6434
▁advocate	-11.6436
▁rated	-11.6442
▁Against	-11.6445
format	-11.6446
TB	-11.6447
▁herbs	-11.6448
▁Tanaka	-11.6449
charge	-11.6449
▁Chemistry	-11.6452
WC	-11.6453
Let	-11.6454
▁outbreak	-11.6455
カ	-11.6456
▁dump	-11.6456
▁Carl	-11.6457
KE	-11.646
▁headache	-11.6461
▁Bring	-11.6463
▁investigations	-11.6464
▁phrases	-11.6465
empt	-11.6466
▁RC	-11.6467
▁Ray	-11.6469
pop	-11.6469
self	-11.6475
▁Challenges	-11.6476
lies	-11.6476
▁obstacles	-11.6476
▁picking	-11.6477
▁supplying	-11.6478
▁Jews	-11.6479
cular	-11.648
Some	-11.6484
▁Deutsch	-11.6484
▁UP	-11.6486
System	-11.6487
会	-11.6491
ム	-11.6493
▁incoming	-11.6494
▁installations	-11.6495
wise	-11.6496
amine	-11.6496
▁Hostel	-11.6497
Not	-11.6497
▁Kuro	-11.65
▁Asakusa	-11.6502
▁Sydney	-11.6502
150	-11.6503
▁civilian	-11.6504
ges	-11.6505
Why	-11.6505
▁negatively	-11.6506
▁extraction	-11.6507
▁Mei	-11.6507
▁herein	-11.651
▁restoring	-11.6513
▁Matters	-11.6514
ility	-11.6515
▁guardian	-11.6516
IDE	-11.6517
▁crops	-11.6517
▁varnish	-11.652
gr	-11.652
▁gasoline	-11.6522
▁Poland	-11.6522
working	-11.6524
▁Zo	-11.6525
▁NASA	-11.6526
▁73	-11.6526
▁monk	-11.6526
▁basics	-11.6528
▁structured	-11.653
▁restructuring	-11.6532
thy	-11.6534
▁sponsored	-11.6534
▁thrown	-11.6535
INT	-11.6535
▁heal	-11.6536
▁umbrella	-11.6538
▁crazy	-11.6538
▁accepts	-11.6538
ford	-11.6538
▁gaps	-11.6539
-09	-11.6539
▁compressed	-11.654
fra	-11.654
▁lawyers	-11.6541
▁IFRS	-11.6542
▁Auditor	-11.6543
▁Feb	-11.6545
▁disability	-11.6548
▁Fax	-11.6552
▁confusion	-11.6553
zuka	-11.6558
▁Daiichi	-11.6559
▁promised	-11.6559
▁dare	-11.6559
▁consequence	-11.656
rator	-11.6561
▁essay	-11.6561
layer	-11.6562
▁compromise	-11.6562
▁calibration	-11.6563
▁tubes	-11.6564
Next	-11.6564
▁Jewish	-11.6565
▁patience	-11.6565
ITE	-11.6567
2.1	-11.6567
▁thirty	-11.6568
▁atmospheric	-11.657
▁Supreme	-11.6572
▁retro	-11.6573
ulating	-11.6574
▁COMPANY	-11.6576
▁Democratic	-11.6576
▁rejected	-11.6577
▁rep	-11.6579
▁tangible	-11.6579
▁leasing	-11.6579
▁Alternatively	-11.6582
▁silence	-11.6585
ister	-11.6585
▁AB	-11.6587
▁Beauty	-11.6588
▁Nano	-11.6589
▁blessed	-11.659
wind	-11.6594
▁freeze	-11.6595
▁0.1	-11.6597
▁mainland	-11.66
▁Bai	-11.6602
▁Know	-11.6608
▁Dy	-11.6609
▁fiction	-11.6609
ssel	-11.6609
▁wavelength	-11.661
▁bunch	-11.661
▁Safari	-11.6612
WD	-11.6614
▁recorder	-11.6615
▁tu	-11.6615
HT	-11.6618
▁dealer	-11.662
gno	-11.6622
▁®	-11.6631
▁Minami	-11.6631
▁{	-11.6632
▁Airlines	-11.6633
eller	-11.6633
▁Leather	-11.6633
standing	-11.6635
▁relay	-11.6635
▁magical	-11.6643
uda	-11.6644
door	-11.6645
▁issuing	-11.6647
▁Tutorial	-11.6648
▁caution	-11.6648
▁Jul	-11.665
▁shutter	-11.6651
▁Clo	-11.6651
▁enlarge	-11.6652
UB	-11.6652
ido	-11.6655
▁beverage	-11.6657
▁architect	-11.6657
▁Updates	-11.6657
unk	-11.6657
▁cabbage	-11.6659
▁napkin	-11.6659
▁struck	-11.6659
ARI	-11.6662
▁reviewing	-11.6663
quest	-11.6663
human	-11.6664
▁stir	-11.6664
▁hypo	-11.6664
▁judged	-11.6666
▁unstable	-11.6666
▁FO	-11.6667
▁Similar	-11.6668
▁responded	-11.6672
▁orgasm	-11.6672
▁Cold	-11.6672
▁projection	-11.6673
▁matrix	-11.6674
▁Mad	-11.6674
▁ADC	-11.6674
▁allergies	-11.6675
▁reveals	-11.6676
▁lined	-11.6676
green	-11.6677
▁angles	-11.6678
▁poured	-11.6678
▁EUR	-11.6678
▁disks	-11.6679
▁Arabic	-11.6679
▁Kanazawa	-11.6681
▁diversified	-11.6684
▁Qui	-11.6685
▁Nikkei	-11.6685
▁Onlinesaleus	-11.6688
▁sentiment	-11.6688
fix	-11.669
support	-11.6691
▁Nagano	-11.6694
▁Brussels	-11.6695
fit	-11.6695
▁missile	-11.6698
▁Palestinian	-11.6699
▁Cards	-11.6699
Per	-11.6703
▁briefing	-11.6703
ode	-11.6705
▁Mari	-11.6705
dian	-11.6706
▁correlation	-11.671
▁glory	-11.6714
▁SATA	-11.6715
▁hunting	-11.6716
story	-11.6716
▁Baby	-11.6716
▁Saitama	-11.6717
▁directive	-11.6717
▁reductions	-11.6722
▁conditioner	-11.6722
▁noticeable	-11.6723
▁processors	-11.6723
plan	-11.6724
▁baggage	-11.6724
Information	-11.6728
▁gland	-11.6728
▁qua	-11.6729
ブ	-11.673
▁elevator	-11.673
▁democratic	-11.6732
books	-11.6735
▁systematic	-11.6737
▁strips	-11.6739
USE	-11.6739
▁Countries	-11.6739
▁alternate	-11.6741
▁considerably	-11.6743
▁ZetaTalk	-11.6743
▁Dark	-11.6744
▁Mongolia	-11.6744
▁Processor	-11.6745
▁suspect	-11.6745
gation	-11.6747
▁*1	-11.6747
outs	-11.6748
▁fate	-11.6749
▁YOUR	-11.675
▁Admin	-11.6752
▁Joseph	-11.6754
Port	-11.6754
▁Dubai	-11.6756
holding	-11.6756
▁Built	-11.6757
nar	-11.6758
▁dam	-11.6758
mental	-11.6759
▁fulfilled	-11.6765
▁norm	-11.6766
▁Leader	-11.6769
▁Shot	-11.6769
5.0	-11.677
ometer	-11.6771
▁Diversity	-11.6772
▁desires	-11.6773
▁illustrate	-11.6777
▁Century	-11.6778
Global	-11.6779
▁Functions	-11.678
▁expressing	-11.6782
▁auditing	-11.6782
▁comb	-11.6783
▁appetite	-11.6785
▁¥5	-11.6785
▁TI	-11.6785
▁dirty	-11.6787
▁conductor	-11.6787
▁penis	-11.6787
▁Deliver	-11.6788
▁supervisory	-11.6789
▁foundations	-11.6791
▁preventive	-11.6791
ANT	-11.6792
▁sexually	-11.6792
▁TwitCasting	-11.6794
▁optimum	-11.6796
▁Reading	-11.6797
▁cliff	-11.6798
▁terrorism	-11.6799
wer	-11.68
▁Complex	-11.68
▁LIVE	-11.6801
▁immigration	-11.6802
wave	-11.6802
▁82	-11.6802
▁Horse	-11.6803
▁opera	-11.6804
▁arrows	-11.6804
▁assumes	-11.6805
▁jo	-11.6805
▁telescope	-11.6805
▁0.0	-11.6807
▁Render	-11.6811
bun	-11.6812
▁abundance	-11.6813
▁crane	-11.6813
Hz	-11.6814
RAR	-11.6814
bat	-11.6816
▁ceramics	-11.6817
saka	-11.6818
▁Merc	-11.682
▁confront	-11.682
▁Investors	-11.6821
▁Satan	-11.6821
▁Hardware	-11.6822
ん	-11.6826
5)	-11.6827
second	-11.683
▁elimination	-11.6831
▁dental	-11.6832
▁Educational	-11.6832
js	-11.6833
▁saves	-11.6833
▁pr	-11.6834
▁balcony	-11.6837
▁textile	-11.6837
▁clamp	-11.6839
▁fragment	-11.6839
▁Miss	-11.684
▁welcoming	-11.684
▁elite	-11.6841
▁plastics	-11.6842
▁evacuation	-11.6842
▁Texas	-11.6844
▁WE	-11.6846
▁onboard	-11.6848
▁undertaking	-11.6851
maker	-11.6851
▁lap	-11.6853
▁2.1	-11.6854
▁Honda	-11.6855
▁Sil	-11.6856
▁Dear	-11.6857
BM	-11.6859
▁Established	-11.6859
▁Improve	-11.6861
Now	-11.6862
▁collector	-11.6865
▁revise	-11.6866
▁OP	-11.6866
▁miracle	-11.6868
▁till	-11.6868
▁modular	-11.687
▁Niseko	-11.6872
▁generic	-11.6872
▁GP	-11.6874
▁missions	-11.6874
▁shifting	-11.6875
▁Coffee	-11.6876
▁Steps	-11.6876
stick	-11.6877
▁Matt	-11.6878
▁worthy	-11.6878
▁upgraded	-11.6881
▁sunny	-11.6882
▁76	-11.6884
tier	-11.6888
▁Alex	-11.6897
▁86	-11.6899
mbo	-11.69
▁3,000	-11.69
erated	-11.69
MX	-11.69
▁Normal	-11.6901
▁customization	-11.6902
▁Hit	-11.6904
▁amid	-11.6904
▁100,000	-11.6906
ime	-11.6906
▁5%	-11.6909
▁ratings	-11.6909
▁transit	-11.6911
大	-11.6911
graphic	-11.6915
▁culinary	-11.6915
▁CSS	-11.6917
▁pearl	-11.6917
▁perceived	-11.6917
▁boats	-11.6921
▁plaster	-11.6921
▁Advisor	-11.6922
Service	-11.6922
▁Ordinary	-11.6922
PER	-11.6924
▁torque	-11.6924
logist	-11.6927
member	-11.6931
▁deviation	-11.6931
▁examining	-11.6931
▁Doctor	-11.6933
▁Nothing	-11.6934
▁talents	-11.6934
ichiro	-11.6935
▁legendary	-11.6937
▁practicing	-11.6937
▁tre	-11.6938
▁RIKEN	-11.6939
gami	-11.6939
▁pound	-11.694
TRA	-11.6941
▁polar	-11.6942
iling	-11.6942
▁grave	-11.6942
NN	-11.6944
Special	-11.6944
▁progression	-11.6944
▁Rapid	-11.6945
▁occasionally	-11.6946
▁Jiang	-11.6948
▁1950	-11.6949
▁infinite	-11.695
▁pat	-11.6951
:31	-11.6952
▁possession	-11.6953
▁Businesses	-11.6955
▁POS	-11.6955
▁Repeat	-11.6958
pet	-11.6959
:01	-11.6959
▁refused	-11.696
▁Beyond	-11.6961
▁71	-11.6962
▁collision	-11.6963
▁Applied	-11.6963
▁Required	-11.6964
AST	-11.6966
▁darkness	-11.6967
▁underway	-11.6967
MF	-11.6967
▁Sta	-11.6967
▁Hanoi	-11.6968
▁peculiar	-11.6969
zumi	-11.697
▁Dar	-11.697
byte	-11.697
▁backups	-11.697
emi	-11.6974
▁bodyguard	-11.6976
nam	-11.6976
▁hostel	-11.6976
▁Measurement	-11.6979
▁Downloads	-11.6979
▁Half	-11.6979
▁remarks	-11.698
▁74	-11.6982
▁Boston	-11.6982
fall	-11.6983
▁Ward	-11.6985
▁Sensor	-11.6989
▁additives	-11.6989
sia	-11.699
electric	-11.6992
▁anyway	-11.6994
nation	-11.6996
人	-11.6997
▁Roppongi	-11.6997
▁Reset	-11.6997
▁enemies	-11.6999
▁abandon	-11.7001
▁Previously	-11.7002
mise	-11.7003
▁specializing	-11.7004
▁scores	-11.701
▁asleep	-11.701
▁spoon	-11.7011
▁wrist	-11.7012
▁Oku	-11.7013
▁ET	-11.7016
▁macOS	-11.7018
▁Paint	-11.702
▁chill	-11.7021
▁wiring	-11.7024
▁jar	-11.7024
▁TH	-11.7024
▁Tell	-11.7025
▁Sin	-11.7027
EU	-11.7027
▁deny	-11.7028
▁Yellow	-11.7029
▁amateur	-11.7029
▁souvenirs	-11.703
Share	-11.703
▁surroundings	-11.7031
▁Showa	-11.7031
▁Tours	-11.7034
▁attributed	-11.7035
▁CAN	-11.7035
▁7/	-11.7036
▁assure	-11.7036
User	-11.7038
▁5:	-11.7038
▁wheat	-11.7039
▁scar	-11.7041
▁Instant	-11.7043
ello	-11.7043
local	-11.7043
▁dec	-11.7044
▁mothers	-11.7045
1.2	-11.7045
▁lining	-11.7046
▁uncertain	-11.7047
▁quote	-11.7047
▁hunt	-11.7048
▁vinegar	-11.7048
▁treating	-11.7048
▁Ali	-11.705
▁String	-11.7054
▁illustration	-11.7054
▁abandoned	-11.7055
0.1	-11.7057
▁2050	-11.7058
▁Miyagi	-11.7059
aver	-11.7061
▁Iwate	-11.7062
aster	-11.7064
▁Flowers	-11.7066
▁Austria	-11.7066
▁Exercise	-11.7067
▁dozens	-11.7067
▁graphical	-11.7068
-21	-11.7068
▁Reform	-11.7068
loc	-11.7068
▁Regardless	-11.7069
▁Scholarship	-11.7069
▁FS	-11.7069
▁lifestyles	-11.7073
▁Better	-11.7073
▁Books	-11.7074
She	-11.7075
▁avoiding	-11.7075
vor	-11.7076
▁coconut	-11.7076
▁Frequently	-11.7078
▁collaborating	-11.7078
▁identifier	-11.7083
▁masters	-11.7083
▁ye	-11.7087
▁surgical	-11.7088
▁admit	-11.7088
▁pigment	-11.7089
▁estimation	-11.7089
last	-11.709
▁costume	-11.7091
:35	-11.7091
▁pillow	-11.7093
▁Added	-11.7095
▁crust	-11.7096
.3.	-11.7097
ö	-11.7097
▁comic	-11.7098
▁Victoria	-11.7099
▁NT	-11.71
▁prop	-11.7101
ま	-11.7107
standard	-11.7109
▁organisations	-11.7109
▁violent	-11.711
▁Include	-11.7111
▁Native	-11.7111
▁Toggle	-11.7112
▁interrupt	-11.7113
▁GIF	-11.7113
▁Unreal	-11.7113
▁doctoral	-11.7113
▁Boy	-11.7113
▁champion	-11.7116
▁TS	-11.7116
▁beta	-11.7118
▁disruption	-11.7118
material	-11.7118
OB	-11.7119
▁Nihon	-11.7119
▁shed	-11.7121
▁cosmetic	-11.7122
▁Yamamoto	-11.7122
▁Installing	-11.7123
▁coral	-11.7124
ジ	-11.7124
▁Procurement	-11.7124
▁slices	-11.7124
▁cry	-11.7125
uo	-11.7125
▁rust	-11.7126
hoku	-11.7126
▁bracket	-11.7128
▁recipients	-11.7129
▁supervise	-11.713
▁invented	-11.713
▁forums	-11.7131
▁delays	-11.7131
author	-11.7131
▁landmark	-11.7132
▁tricks	-11.7132
▁judges	-11.7133
▁Institution	-11.7136
▁enters	-11.7137
▁Disable	-11.7138
▁carpet	-11.7139
axis	-11.714
▁pronounced	-11.7141
▁gum	-11.7142
▁Logo	-11.7142
cate	-11.7143
radi	-11.7143
▁accelerator	-11.7145
▁metabolism	-11.7145
ULT	-11.7145
▁grants	-11.7145
JA	-11.7146
▁iconic	-11.7147
ANCE	-11.7148
▁Endpoint	-11.7149
▁2005.	-11.7152
inate	-11.7153
3]	-11.7154
:08	-11.7156
▁sensing	-11.7156
▁Components	-11.7157
demand	-11.7161
LU	-11.7164
▁spirits	-11.7165
poli	-11.7167
▁capacitor	-11.7168
▁acrylic	-11.7169
▁Stone	-11.717
▁marker	-11.717
▁simultaneous	-11.717
▁slave	-11.7173
▁vulnerabilities	-11.7173
▁dear	-11.7174
▁tends	-11.7175
▁Term	-11.7175
▁Bla	-11.7175
▁frequencies	-11.7177
▁boundary	-11.7177
nics	-11.7179
▁1988	-11.7179
▁lane	-11.7181
▁Bali	-11.7182
▁expenditure	-11.7184
tant	-11.7184
▁artisan	-11.7185
▁JI	-11.7186
LR	-11.7186
▁pathology	-11.7187
/8	-11.7187
▁Immediately	-11.7188
▁Expert	-11.719
▁keen	-11.7191
▁Waste	-11.7195
▁Animation	-11.7196
Click	-11.7197
▁alcoholic	-11.7197
▁Hua	-11.72
こ	-11.7202
Br	-11.7205
▁promises	-11.7207
string	-11.7209
▁coach	-11.7209
▁Followers	-11.7212
▁exceptions	-11.7213
ook	-11.7216
▁tin	-11.7216
▁motivated	-11.7217
▁EA	-11.722
▁workflows	-11.7222
vation	-11.7223
▁Georgia	-11.7223
▁sensation	-11.7225
▁folded	-11.7227
▁headed	-11.723
▁dairy	-11.7231
▁Speaker	-11.7233
▁imports	-11.7234
▁waterproof	-11.7235
▁artworks	-11.7236
economic	-11.7237
ITA	-11.7238
▁grinding	-11.7242
▁Mediterranean	-11.7242
▁fuels	-11.7242
▁steal	-11.7242
▁overlap	-11.7244
▁commodity	-11.7244
▁paints	-11.7245
▁cock	-11.7245
▁ti	-11.7245
:02	-11.7247
▁whi	-11.7247
vocation	-11.725
▁contour	-11.7251
▁Authentication	-11.7252
▁Wash	-11.7252
▁shorten	-11.7253
▁Explanation	-11.7254
▁NPO	-11.7254
▁governed	-11.7255
▁Bro	-11.7255
▁Currency	-11.7256
ogen	-11.7258
hill	-11.7258
▁incorporates	-11.7259
▁Meet	-11.7259
▁Tre	-11.7261
▁FAT	-11.7262
タ	-11.7262
grad	-11.7264
▁appearing	-11.7266
bing	-11.7266
▁Drink	-11.7266
▁stopping	-11.7269
▁sharply	-11.727
-25	-11.7271
▁Responsibility	-11.7271
▁kindergarten	-11.7271
elli	-11.7271
▁diode	-11.7274
▁assert	-11.7274
マ	-11.7275
▁variant	-11.7278
▁hurry	-11.7279
phe	-11.7279
▁Tibet	-11.728
▁competitions	-11.7281
▁Reason	-11.7286
akura	-11.7287
▁pillars	-11.7288
▁Optional	-11.7289
▁switched	-11.7291
▁Beer	-11.7296
▁Journey	-11.7296
▁laboratories	-11.7296
▁redeem	-11.7296
▁regulate	-11.7299
▁organisms	-11.7305
▁psycho	-11.7306
Thank	-11.7307
▁Peak	-11.7307
▁insects	-11.7307
mov	-11.7308
▁Viewer	-11.7309
▁bookmark	-11.7311
pac	-11.7312
▁shaft	-11.7313
▁Machinery	-11.7316
▁NGOs	-11.732
▁Inventory	-11.7322
STER	-11.7322
ppo	-11.7322
▁multimedia	-11.7323
▁fax	-11.7323
}	-11.7324
▁Ara	-11.7325
▁performers	-11.7328
CHA	-11.7329
▁Certified	-11.7331
▁penetration	-11.7331
mination	-11.7332
:04	-11.7333
▁approve	-11.7334
▁pixel	-11.7337
▁shifted	-11.7339
▁proximity	-11.7339
▁Draw	-11.734
▁Receive	-11.734
▁unavailable	-11.7346
▁workout	-11.7346
:29	-11.7347
▁NEW	-11.7348
oba	-11.7349
jan	-11.7351
▁Essential	-11.7351
▁Shiseido	-11.7351
▁Wild	-11.7352
▁PH	-11.7353
▁replenish	-11.7353
lla	-11.7355
▁treasury	-11.7355
:33	-11.7357
▁cycling	-11.7357
lex	-11.7358
▁spark	-11.7358
▁responsive	-11.7359
gyo	-11.7361
▁animated	-11.7361
▁bat	-11.7361
▁fasten	-11.7362
и	-11.7362
▁knitting	-11.7363
udi	-11.7365
▁Programming	-11.7366
▁anchor	-11.7366
▁anticipate	-11.7367
▁fa	-11.7369
▁Sponsor	-11.7369
▁Qualcomm	-11.737
▁jazz	-11.7374
▁Perform	-11.7375
▁vintage	-11.7376
▁·	-11.7376
▁geometry	-11.7376
▁PT	-11.7377
▁Prices	-11.7377
▁arrested	-11.7378
▁fol	-11.7378
▁wheelchair	-11.7378
▁localization	-11.7379
▁poem	-11.7379
▁capacitors	-11.7379
▁Lounge	-11.738
▁omitted	-11.7383
third	-11.7383
Life	-11.7383
▁entrusted	-11.7386
Na	-11.7386
itive	-11.7387
Star	-11.7388
▁inspections	-11.7389
▁tale	-11.7389
▁Revenue	-11.739
▁fixes	-11.739
ben	-11.7391
▁mailing	-11.7392
mann	-11.7392
▁airplane	-11.7393
▁unity	-11.7393
▁Published	-11.7394
▁survivors	-11.7397
▁Cas	-11.7398
▁breeding	-11.7399
▁odor	-11.74
nie	-11.7401
Read	-11.7403
mix	-11.7403
tag	-11.7403
▁portray	-11.7405
▁SITE	-11.7405
▁greeting	-11.7406
▁Worldwide	-11.7408
▁Effects	-11.7409
▁Push	-11.741
▁stitch	-11.741
▁bay	-11.7411
▁Drop	-11.7411
▁hash	-11.7411
▁WITH	-11.7411
▁girlfriend	-11.7412
▁hometown	-11.7413
▁neo	-11.7413
▁puts	-11.7415
バ	-11.7419
▁;	-11.742
Sun	-11.742
▁decent	-11.7422
▁Entry	-11.7422
inating	-11.7423
▁sisters	-11.7424
▁Profit	-11.7424
▁Never	-11.7424
▁Extract	-11.7427
▁CM	-11.7428
1]	-11.7429
▁max	-11.7429
yen	-11.743
▁Wide	-11.743
▁enthusiasm	-11.7431
▁symptom	-11.7432
▁differential	-11.7433
▁LP	-11.7434
▁bleeding	-11.7439
PH	-11.7439
▁Rio	-11.744
dal	-11.744
▁prioritize	-11.7441
UD	-11.7441
▁complaint	-11.7442
▁advertise	-11.7442
▁fragrant	-11.7443
▁Condition	-11.7444
ride	-11.7446
▁deferred	-11.7447
▁servant	-11.7449
▁cholesterol	-11.7453
▁1985	-11.7453
▁prints	-11.7455
▁correspondence	-11.7455
▁arc	-11.7457
▁distract	-11.7458
▁council	-11.7458
▁accent	-11.7459
lessly	-11.746
▁passive	-11.7463
▁avoided	-11.7463
▁Parser	-11.7465
▁lasting	-11.7468
▁manicure	-11.747
▁1987	-11.7471
▁solvent	-11.7472
▁gods	-11.7473
▁inflammatory	-11.7475
▁sheep	-11.7476
▁modifications	-11.7476
▁Templates	-11.7476
▁demonstrates	-11.7476
▁frameworks	-11.7479
▁comparable	-11.748
▁fatty	-11.7485
▁charming	-11.7485
▁assured	-11.7487
▁FC	-11.7489
▁recommends	-11.749
uru	-11.749
▁Nobu	-11.7494
▁severity	-11.7494
▁Startup	-11.7495
▁flagship	-11.7495
[...]
