<unk>	0
<s>	0
</s>	0
、	-2.88665
▁	-2.89442
。	-3.36286
の	-3.76009
は	-4.23822
を	-4.5386
が	-4.57012
に	-4.72539
と	-4.84474
で	-4.98215
)	-5.31555
・	-5.34571
(	-5.48881
や	-5.55027
」	-5.69109
,	-5.75515
から	-5.78767
:	-5.8128
.	-5.89924
「	-5.93791
です	-5.98285
し	-5.99431
する	-6.03465
も	-6.04317
年	-6.26041
1	-6.28542
2	-6.43295
では	-6.4358
s	-6.43907
した	-6.44277
ます	-6.46716
には	-6.54782
▁-	-6.54788
な	-6.55851
として	-6.6069
た	-6.61175
します	-6.61399
か	-6.62208
-	-6.62619
月	-6.63106
3	-6.63911
▁(	-6.65453
その	-6.70356
この	-6.71664
日	-6.71789
る	-6.7325
▁「	-6.77684
▁この	-6.7775
?	-6.80352
または	-6.80671
および	-6.81243
である	-6.82199
して	-6.82424
など	-6.83498
て	-6.85468
/	-6.93682
された	-6.93937
について	-6.97936
4	-7.03598
という	-7.06966
▁また	-7.07649
!	-7.12513
ています	-7.12619
ました	-7.13563
への	-7.16603
によって	-7.17167
5	-7.17961
ス	-7.1926
による	-7.23808
"	-7.26977
により	-7.27468
]	-7.28578
している	-7.29386
人	-7.29571
情報	-7.2992
しています	-7.30581
ている	-7.3158
_	-7.31996
▁.	-7.34042
り	-7.34219
より	-7.3569
い	-7.36954
及び	-7.3706
サービス	-7.37407
S	-7.39701
しました	-7.42251
10	-7.42973
6	-7.44972
に関する	-7.45133
こと	-7.45375
環境	-7.47629
的な	-7.49294
される	-7.49597
データ	-7.51534
▁[	-7.5233
そして	-7.52529
における	-7.52743
性	-7.52993
▁|	-7.53061
7	-7.53738
機能	-7.54114
すべての	-7.55326
方法	-7.55389
事業	-7.55404
C	-7.55767
システム	-7.56882
化	-7.57545
▁)	-7.57618
ために	-7.58328
本	-7.58641
8	-7.58704
において	-7.59408
等	-7.59479
され	-7.59784
A	-7.60059
大	-7.60362
ため	-7.61178
つの	-7.61208
まで	-7.61276
お	-7.61419
D	-7.61537
的	-7.62487
日本	-7.62654
ら	-7.62808
▁しかし	-7.63363
ア	-7.63936
ことができます	-7.64611
時間	-7.65472
管理	-7.65673
ト	-7.65699
があります	-7.6646
であり	-7.6742
新しい	-7.67567
などの	-7.67678
技術	-7.67739
できます	-7.68093
G	-7.68368
ので	-7.68408
中	-7.69295
されます	-7.70443
のために	-7.70673
B	-7.70796
9	-7.70933
できる	-7.71639
にも	-7.73316
へ	-7.73413
水	-7.74941
M	-7.75382
されている	-7.75408
ファイル	-7.75574
者	-7.7583
ない	-7.76024
ク	-7.76724
のための	-7.77059
リ	-7.78319
開発	-7.79351
製品	-7.79396
多くの	-7.79686
あなたの	-7.79793
▁S	-7.80251
ー	-7.80277
▁これは	-7.80323
く	-7.80842
研究	-7.80949
することができます	-7.80985
ように	-7.81089
さ	-7.82559
国	-7.82582
でも	-7.82736
もの	-7.8453
プログラム	-7.84579
名	-7.85981
分	-7.864
つ	-7.86617
▁1	-7.87234
法	-7.87445
P	-7.88101
企業	-7.88516
T	-7.88678
ル	-7.88804
す	-7.88907
活動	-7.89014
ラ	-7.89554
それは	-7.89613
また	-7.90024
されています	-7.90349
き	-7.90966
場合	-7.9129
後	-7.91862
F	-7.92424
▁2	-7.93532
一	-7.93869
がある	-7.94632
に対する	-7.94644
用	-7.95137
er	-7.95368
上	-7.95718
他の	-7.96451
ド	-7.97275
ことを	-7.97687
設定	-7.97796
12	-7.98739
使用	-7.99344
み	-7.99709
必要があります	-8.00057
第	-8.00478
時	-8.00526
20	-8.00751
からの	-8.01113
▁そして	-8.01469
e	-8.01575
大学	-8.02165
にある	-8.02663
力	-8.03067
手	-8.03114
だ	-8.03554
E	-8.04547
カ	-8.04555
グループ	-8.04715
回	-8.04768
H	-8.05032
V	-8.05084
数	-8.05389
それ	-8.05485
あなたは	-8.05561
ing	-8.06156
問題	-8.06746
y	-8.07071
私は	-8.07342
タ	-8.07993
って	-8.08019
約	-8.08075
▁the	-8.08156
▁A	-8.08186
ロ	-8.0835
各	-8.08379
m	-8.08991
ズ	-8.09033
高	-8.0977
K	-8.09781
ある	-8.10202
30	-8.10715
マ	-8.11128
った	-8.11329
社会	-8.11364
コ	-8.11712
世界	-8.12014
X	-8.12047
地	-8.12339
▁of	-8.12838
については	-8.13082
してください	-8.13511
▁P	-8.13607
山	-8.13702
年に	-8.14394
N	-8.14604
▁B	-8.15014
▁"	-8.15547
11	-8.15731
プロジェクト	-8.16716
利用	-8.17611
ナ	-8.17816
W	-8.18202
でしょう	-8.18413
シ	-8.18605
ください	-8.19046
▁C	-8.19246
国際	-8.19263
見	-8.19366
R	-8.19377
に対して	-8.19595
上の	-8.1979
ための	-8.19814
場合は	-8.19992
物	-8.20357
教育	-8.20619
行	-8.21593
地域	-8.21636
ビジネス	-8.21721
これらの	-8.22569
状況	-8.2258
う	-8.2258
を使用して	-8.22708
会	-8.2279
計画	-8.22817
o	-8.22997
▁3	-8.23006
▁その	-8.23038
場所	-8.23125
大きな	-8.23333
処理	-8.23418
ま	-8.23463
での	-8.23805
点	-8.24145
d	-8.24282
ご	-8.24552
変更	-8.2471
▁それは	-8.24712
会社	-8.24771
n	-8.24851
的に	-8.24884
イベント	-8.24928
非常に	-8.24959
~	-8.25098
評価	-8.25214
内	-8.25397
デザイン	-8.25434
金	-8.25575
t	-8.26122
様々な	-8.26124
サイト	-8.26247
さまざまな	-8.26252
▁」	-8.26255
アプリケーション	-8.26485
al	-8.26618
ネットワーク	-8.26939
販売	-8.27253
関係	-8.27754
不	-8.27799
▁M	-8.2781
すること	-8.28078
'	-8.28152
▁F	-8.28332
L	-8.28728
新	-8.29065
バ	-8.29551
ゲーム	-8.29942
投資	-8.30069
方	-8.30693
J	-8.30867
ソフトウェア	-8.30869
最も	-8.31051
経済	-8.31123
生	-8.31654
を含む	-8.31854
c	-8.31863
出	-8.32282
するために	-8.32322
型	-8.32368
ブ	-8.32466
文化	-8.32784
19	-8.3287
下	-8.32964
いた	-8.33121
』	-8.33284
モデル	-8.33298
になる	-8.3331
となる	-8.33499
を持つ	-8.33947
バー	-8.33969
取引	-8.34159
度	-8.34231
市場	-8.34407
▁私は	-8.34484
いくつかの	-8.34772
▁–	-8.35472
i	-8.35757
市	-8.35864
ユーザー	-8.36034
する必要があります	-8.36407
センター	-8.36477
リー	-8.36632
▁to	-8.36768
学	-8.36876
ビデオ	-8.36937
com	-8.37127
部	-8.37132
ことは	-8.37163
オプション	-8.37201
目	-8.37417
支援	-8.37543
人の	-8.37561
イ	-8.38033
いる	-8.38069
前に	-8.38083
ン	-8.38153
ダ	-8.38289
あなたが	-8.38298
エネルギー	-8.38428
長	-8.38432
▁さらに	-8.38509
線	-8.38592
子	-8.38744
ツール	-8.38813
でした	-8.39095
との	-8.393
調査	-8.39409
15	-8.3942
ed	-8.39715
います	-8.39722
よう	-8.39762
の中で	-8.4003
同	-8.40445
前	-8.40457
だけでなく	-8.40588
エ	-8.41693
▁H	-8.41812
色	-8.42503
等の	-8.42896
光	-8.42904
事	-8.42914
を行う	-8.43068
商品	-8.43312
先	-8.4405
▁and	-8.4435
フ	-8.44441
k	-8.44481
田	-8.4453
日本の	-8.44615
▁/	-8.4463
それを	-8.4478
め	-8.45132
のある	-8.45375
レ	-8.45451
結果	-8.45519
▁これらの	-8.45597
があり	-8.45759
オ	-8.45762
ム	-8.45835
ており	-8.45929
ミ	-8.46074
重要な	-8.46107
p	-8.46254
ながら	-8.46515
ことができる	-8.46538
のみ	-8.46545
家	-8.46728
特に	-8.46974
イン	-8.47203
外	-8.47361
だった	-8.47409
&	-8.47483
株式会社	-8.47631
対応	-8.47728
すると	-8.47918
プロセス	-8.47989
ページ	-8.48107
キ	-8.48308
a	-8.4842
作業	-8.48467
心	-8.48609
デバイス	-8.48711
in	-8.48777
になります	-8.49034
所	-8.49136
リスク	-8.49175
中国	-8.49363
サポート	-8.49382
組織	-8.49396
生産	-8.49435
を通じて	-8.49609
道	-8.49801
ません	-8.49959
ことが	-8.50301
▁本	-8.50612
条件	-8.50612
されました	-8.50657
Y	-8.50901
写真	-8.51179
▁T	-8.51353
▁for	-8.51353
接続	-8.51361
設計	-8.5191
サ	-8.52001
上で	-8.52041
▁E	-8.52094
『	-8.52204
▁Windows	-8.52436
時に	-8.5251
とともに	-8.53005
▁I	-8.5331
車	-8.53504
体	-8.53525
ん	-8.54137
自分の	-8.54186
▁10	-8.54236
分析	-8.54977
▁あなたは	-8.5505
▁D	-8.55094
さらに	-8.55316
リスト	-8.55603
18	-8.55664
面	-8.55977
島	-8.56032
社	-8.56037
ジ	-8.56047
機	-8.56372
これは	-8.56419
ホテル	-8.56617
書	-8.56818
▁:	-8.56951
小	-8.57103
関連	-8.5723
とき	-8.57432
ソリューション	-8.57902
場	-8.57917
川	-8.57938
an	-8.58196
デ	-8.58288
プラットフォーム	-8.58683
I	-8.58791
させる	-8.58821
登録	-8.59091
主	-8.59144
わ	-8.5917
にとって	-8.59345
チ	-8.5941
業務	-8.59659
画像	-8.59722
同じ	-8.59888
アクセス	-8.59955
▁4	-8.60029
海	-8.60064
h	-8.60459
ウ	-8.605
米国	-8.60547
r	-8.60557
今	-8.61159
のか	-8.61275
こ	-8.61301
成長	-8.61343
保護	-8.61373
b	-8.61399
▁G	-8.61427
ニ	-8.61539
なら	-8.61591
彼の	-8.61624
課題	-8.6166
私たちは	-8.61687
よりも	-8.61914
値	-8.61939
のような	-8.61962
経験	-8.62271
私の	-8.62293
ことで	-8.62405
製造	-8.62872
▁J	-8.62878
プ	-8.62969
施設	-8.63584
だけ	-8.6378
特定の	-8.638
契約	-8.64067
間	-8.6427
とは	-8.64319
en	-8.64377
良い	-8.64408
Windows	-8.64464
私たちの	-8.64557
例	-8.6457
気	-8.64867
生活	-8.64891
16	-8.64932
ですが	-8.6506
愛	-8.65083
ポイント	-8.65412
効果	-8.65722
▁R	-8.66007
新たな	-8.66065
現在	-8.66082
円	-8.66153
▁私たちは	-8.66267
構造	-8.66348
▁in	-8.66349
高い	-8.66509
内の	-8.66584
材料	-8.66613
異なる	-8.66645
無	-8.66752
g	-8.66882
よ	-8.66933
なかった	-8.66953
アプリ	-8.67145
別の	-8.67188
ビ	-8.67565
報告	-8.67606
作品	-8.67641
f	-8.6771
元	-8.67752
品	-8.679
当社	-8.68089
産業	-8.68253
熱	-8.6828
O	-8.68338
メ	-8.68344
東京	-8.68478
以下	-8.68523
x	-8.68555
コード	-8.68572
u	-8.68637
のです	-8.68719
カード	-8.68807
ッ	-8.68936
ような	-8.69055
パ	-8.69117
ネ	-8.69163
次の	-8.69743
州	-8.69764
経営	-8.69821
発	-8.69891
コン	-8.6993
[	-8.6996
価格	-8.70023
内容	-8.70277
】	-8.70389
▁N	-8.70477
したい	-8.70628
全	-8.70707
チーム	-8.70729
確認	-8.70738
コンテンツ	-8.71007
人が	-8.71021
ね	-8.71277
したり	-8.71338
表示	-8.71457
店	-8.71605
するための	-8.71725
音楽	-8.72065
コース	-8.72118
又は	-8.72212
...	-8.7234
機関	-8.72343
▁L	-8.72445
小さな	-8.72496
そのような	-8.72613
しており	-8.72661
神	-8.72703
l	-8.72858
14	-8.72888
状態	-8.72953
協力	-8.72963
適切な	-8.7315
号	-8.73212
レベル	-8.73287
24	-8.73332
図	-8.73355
非	-8.737
を使って	-8.73753
以上	-8.73841
テスト	-8.73862
行動	-8.73946
100	-8.73973
何	-8.74374
期	-8.74382
ていた	-8.74407
選択	-8.74494
on	-8.74792
ディ	-8.74807
モ	-8.75365
入力	-8.75521
しない	-8.7557
させ	-8.75603
ノ	-8.75633
原	-8.75882
月に	-8.76208
感	-8.76257
▁K	-8.76322
or	-8.76474
25	-8.76531
られた	-8.76556
音	-8.76923
ではなく	-8.76955
旅行	-8.77028
リンク	-8.77069
提供	-8.77115
することで	-8.77133
テ	-8.77281
それが	-8.77322
あ	-8.77332
万	-8.77344
グ	-8.77532
当社の	-8.77767
サイズ	-8.77875
政策	-8.77932
▁a	-8.77994
実行	-8.78081
▁第	-8.78185
マン	-8.78216
都市	-8.78238
安全	-8.78247
多	-8.78445
セ	-8.78491
広告	-8.78833
かつ	-8.78904
木	-8.78914
にて	-8.78926
リング	-8.79018
風	-8.79035
れ	-8.79134
50	-8.7964
三	-8.79691
のように	-8.79848
日に	-8.80058
▁あなたが	-8.80124
アカウント	-8.80264
ブランド	-8.80351
版	-8.80357
通信	-8.80564
参加	-8.80565
キー	-8.80671
ほど	-8.80768
13	-8.80805
ティ	-8.80858
東	-8.80877
以下の	-8.81009
なく	-8.81181
操作	-8.81289
その他の	-8.81735
年間	-8.81757
能力	-8.81851
いたします	-8.81862
ター	-8.81929
▁日本	-8.81983
ハ	-8.82098
女性	-8.82134
▁5	-8.8217
必要	-8.82171
体験	-8.8224
作成	-8.8237
ものです	-8.8238
率	-8.8249
言語	-8.82547
自然	-8.82735
素晴らしい	-8.82798
ではない	-8.82838
ば	-8.82897
ましょう	-8.83084
っている	-8.83222
会議	-8.83299
Z	-8.83315
海外	-8.83442
スト	-8.83523
変化	-8.83606
簡単に	-8.83621
式	-8.83714
17	-8.83778
中に	-8.83842
語	-8.83951
味	-8.84045
室	-8.84102
すべて	-8.84258
以上の	-8.84411
しております	-8.84482
彼らは	-8.84657
顧客	-8.84796
仕事	-8.8482
となります	-8.84821
メッセージ	-8.84877
よく	-8.84894
ボ	-8.84905
中の	-8.85017
ツ	-8.85134
開始	-8.85337
▁7	-8.85344
石	-8.85363
年度	-8.85421
む	-8.85464
改善	-8.85507
ことです	-8.85653
機器	-8.85686
40	-8.85719
最大	-8.85768
説明	-8.85887
利益	-8.85927
オンライン	-8.86054
et	-8.86118
船	-8.86479
インターネット	-8.86557
科学	-8.86574
要素	-8.8662
てください	-8.86652
理解	-8.86745
医療	-8.86867
U	-8.8689
検索	-8.87087
戦略	-8.87098
部門	-8.87233
取得	-8.87276
彼は	-8.8731
ではありません	-8.87462
期間	-8.87533
治療	-8.87537
発表	-8.8756
試験	-8.87647
制度	-8.87674
年の	-8.87689
入	-8.87888
常に	-8.88045
お客様の	-8.88047
食	-8.88059
口	-8.88169
基準	-8.88267
構成	-8.88311
特別な	-8.88387
え	-8.8851
購入	-8.88622
可能な	-8.88654
映画	-8.88708
ず	-8.88853
制御	-8.89036
再	-8.89262
委員会	-8.89453
デジタル	-8.8953
理由	-8.89559
グローバル	-8.8964
形	-8.89748
料理	-8.89778
必要な	-8.89858
メール	-8.89878
たい	-8.89926
を通して	-8.90002
更新	-8.90036
すぐに	-8.90053
ところ	-8.90251
カメラ	-8.90333
▁したがって	-8.90481
といった	-8.90685
当該	-8.90879
回復	-8.91049
あらゆる	-8.91111
公開	-8.91132
セキュリティ	-8.91219
▁当社は	-8.91273
南	-8.91276
向け	-8.91279
目標	-8.91338
0	-8.91357
複数の	-8.91433
人は	-8.91504
量	-8.91672
じ	-8.91769
保存	-8.92157
拡大	-8.92271
装置	-8.92295
美しい	-8.9231
▁V	-8.92327
export	-8.92372
後に	-8.92475
たり	-8.92477
家族	-8.92529
健康	-8.92554
政府	-8.9261
価値	-8.92641
町	-8.92662
野	-8.92754
彼らの	-8.92802
ar	-8.92877
薬	-8.93103
最初の	-8.93111
認識	-8.93159
できない	-8.93176
と思います	-8.93332
はありません	-8.93358
層	-8.93496
分野	-8.93568
を選択します	-8.93996
▁W	-8.94089
ち	-8.94102
動画	-8.94177
部分	-8.94193
していた	-8.94193
コンピュータ	-8.94339
着	-8.94396
通	-8.94463
予定	-8.94523
機会	-8.94703
準備	-8.94758
これ	-8.94765
低	-8.94774
ライン	-8.9495
コスト	-8.95136
頭	-8.95162
re	-8.9517
ダウンロード	-8.95178
氏	-8.95271
le	-8.95416
実	-8.95597
▁なお	-8.95651
決定	-8.95656
Q	-8.95722
v	-8.95795
文	-8.95924
立	-8.95965
アン	-8.96108
▁【	-8.96591
el	-8.96624
られる	-8.9671
体制	-8.9682
21	-8.96898
紹介	-8.96955
パートナー	-8.96995
あるいは	-8.9708
表	-8.97151
サーバー	-8.97314
ファイルを	-8.97546
モード	-8.97565
考え	-8.9775
送信	-8.97754
け	-8.97857
ること	-8.98
通知	-8.98023
台	-8.98048
ガ	-8.98136
認証	-8.98173
んだ	-8.98249
電子	-8.98262
w	-8.98377
業界	-8.98479
領域	-8.9852
来	-8.98584
ック	-8.98601
っ	-8.98673
ガイド	-8.9871
PC	-8.98731
調整	-8.98782
実施	-8.98819
▁あなたの	-8.98832
出力	-8.98847
対象	-8.98978
品質	-8.99289
いい	-8.9934
個人	-8.99409
の場合	-8.9963
空	-8.99739
番号	-8.99875
メニュー	-8.99907
系	-8.99916
最高の	-9.00091
メディア	-9.00218
設備	-9.00233
追加	-9.00376
少し	-9.00395
条	-9.00439
ときに	-9.00566
額	-9.0063
当	-9.00647
とても	-9.00845
文字	-9.00848
器	-9.00852
別	-9.00912
展開	-9.00918
学生	-9.00975
移動	-9.01219
ならば	-9.01279
ロー	-9.01404
国内	-9.01408
タイプ	-9.01461
運用	-9.01497
責任	-9.01532
空間	-9.01536
そう	-9.017
電力	-9.01749
花	-9.01749
対策	-9.01802
画面	-9.01842
カー	-9.02294
テーブル	-9.02343
天	-9.02422
運営	-9.02461
アジア	-9.02823
平	-9.02996
▁ただし	-9.03064
IT	-9.03071
スペース	-9.03141
平成	-9.03258
銀行	-9.03422
作	-9.03429
が必要です	-9.03497
ことに	-9.03551
統合	-9.03577
ur	-9.04018
制限	-9.04041
優れた	-9.04169
タイ	-9.04275
目的	-9.04389
データを	-9.04758
測定	-9.04772
私	-9.04815
it	-9.04973
話	-9.05087
▁※	-9.05129
us	-9.05188
予約	-9.05244
▁2021	-9.0529
業	-9.05444
はずです	-9.0547
になった	-9.05666
検査	-9.05698
ですか	-9.05721
資料	-9.05733
観光	-9.05784
23	-9.06555
足	-9.06628
▁その後	-9.06644
影響	-9.0671
資産	-9.06907
ベ	-9.06948
項目	-9.07097
ガス	-9.07149
編集	-9.07154
バックアップ	-9.0717
流	-9.07248
の使用	-9.0728
バス	-9.07324
ly	-9.07514
であった	-9.07518
あります	-9.07524
リン	-9.07817
表現	-9.07946
素材	-9.0798
Web	-9.08065
アップ	-9.08098
まだ	-9.08166
それら	-9.08216
白	-9.08315
ております	-9.0836
▁彼らは	-9.08475
々	-9.08734
エリア	-9.0877
ソ	-9.08901
北	-9.09121
ドル	-9.09144
省	-9.09186
を使用する	-9.09197
テキスト	-9.09219
28	-9.09256
®	-9.09373
駅	-9.09526
質問	-9.09536
レポート	-9.09548
食品	-9.09604
を見	-9.09637
ていく	-9.09647
細胞	-9.0972
費用	-9.0973
を提供します	-9.098
さん	-9.09812
▁2019	-9.09936
th	-9.0994
計算	-9.10137
機械	-9.10139
有	-9.10153
情報を	-9.1022
となりました	-9.10451
西	-9.10484
プロ	-9.10529
電	-9.10615
用の	-9.10734
する方法	-9.10739
学校	-9.10807
ラー	-9.10852
株式	-9.10868
賞	-9.10884
位	-9.1108
となり	-9.1114
アート	-9.11161
いて	-9.11167
合	-9.11208
研究所	-9.11216
27	-9.11286
かどうか	-9.11344
▁12	-9.11455
バージョン	-9.11459
ヒ	-9.11466
それぞれ	-9.1149
26	-9.11561
のため	-9.11603
31	-9.11611
スポーツ	-9.11624
重	-9.11632
ヤ	-9.11681
どのような	-9.11774
人間	-9.11775
アメリカ	-9.11825
ic	-9.11899
60	-9.12106
の開発	-9.12126
パフォーマンス	-9.12228
向上	-9.12482
自動車	-9.12552
戦	-9.12671
に対し	-9.12735
ケース	-9.1282
コミュニケーション	-9.13029
レストラン	-9.1305
英語	-9.13082
;	-9.13095
再生	-9.1316
22	-9.1317
▁Japan	-9.13269
全ての	-9.1334
村	-9.13508
資金	-9.1351
期待	-9.13513
可能性があります	-9.13619
パッケージ	-9.13655
イメージ	-9.13665
オン	-9.13736
とする	-9.13775
強化	-9.13852
ボタン	-9.13956
を行い	-9.13964
和	-9.14219
金融	-9.14246
直	-9.14498
するには	-9.14585
れば	-9.14594
直接	-9.14613
正	-9.14695
▁6	-9.14726
かもしれません	-9.1484
一覧	-9.14922
可能	-9.15041
紙	-9.15114
強い	-9.15286
ディスク	-9.15303
お客様	-9.15515
開催	-9.15556
オープン	-9.15796
変換	-9.15798
ザ	-9.15874
▁8	-9.15928
チェック	-9.16102
IP	-9.16157
なる	-9.16283
セット	-9.16362
増	-9.16387
▁お問い合わせ	-9.16604
ドライブ	-9.16886
特徴	-9.16912
実験	-9.17066
ポリシー	-9.17155
保証	-9.17388
ピ	-9.17418
|	-9.17526
もあります	-9.17579
でき	-9.1767
メーカー	-9.17679
区	-9.17828
規制	-9.17911
▁2000	-9.17918
億	-9.17958
テクノロジー	-9.18
本当に	-9.18007
撮影	-9.18026
付け	-9.18026
者の	-9.18196
身	-9.18211
二	-9.18223
es	-9.18326
推進	-9.18395
co	-9.18412
iPhone	-9.18426
独自の	-9.18446
ent	-9.18545
te	-9.18625
電気	-9.1864
▁例えば	-9.18746
に基づいて	-9.18756
学習	-9.18949
注文	-9.19001
エラー	-9.1901
世界の	-9.19027
特別	-9.19216
だろう	-9.19288
部品	-9.19326
解析	-9.19411
シー	-9.19415
となった	-9.19463
に関して	-9.19516
製品の	-9.19692
80	-9.19761
方針	-9.19786
〜	-9.19974
無料	-9.20015
半	-9.20056
▁2018	-9.20124
ていない	-9.20204
宇宙	-9.20212
リリース	-9.2023
手順	-9.20302
を受け	-9.20346
工場	-9.20375
▁2020	-9.20376
ワ	-9.20387
火	-9.20496
ることができます	-9.20506
アイテム	-9.20513
ゴ	-9.20527
取り	-9.20538
日本語	-9.20541
を持っています	-9.20543
は非常に	-9.20708
自動	-9.20852
すれば	-9.2086
完全に	-9.20933
対	-9.21148
場合には	-9.21156
現在の	-9.21161
地球	-9.21163
ウェブサイト	-9.21179
クラス	-9.2118
そ	-9.21292
共有	-9.21403
テレビ	-9.21504
従業員	-9.21526
スタイル	-9.21572
知識	-9.21593
植物	-9.21662
記録	-9.21693
間の	-9.21873
によると	-9.21889
z	-9.21899
xhtml	-9.21998
を提供する	-9.22082
動	-9.22181
検討	-9.22208
ation	-9.2222
▁19	-9.22242
00	-9.22417
美	-9.22571
文書	-9.22606
全体	-9.22668
ポ	-9.22684
加工	-9.22714
記事	-9.22811
ion	-9.22823
残	-9.23193
に応じて	-9.23302
▁彼は	-9.2342
フィ	-9.23504
供給	-9.2357
解決	-9.23689
根	-9.2369
@	-9.23757
億円	-9.23824
方法で	-9.23855
▁English	-9.23855
収益	-9.23973
インストール	-9.24045
▁そのような	-9.24096
温度	-9.24118
資源	-9.24179
マーケティング	-9.24216
定	-9.24239
削除	-9.24373
になり	-9.24429
料金	-9.24432
タスク	-9.24472
米	-9.24535
at	-9.2454
建設	-9.24628
予測	-9.24629
障害	-9.24653
▁すべての	-9.24836
未	-9.24893
どんな	-9.24954
んで	-9.25033
てきた	-9.25086
発展	-9.2513
次	-9.25154
時代	-9.25163
動作	-9.25168
感じ	-9.25173
導入	-9.25328
に基づく	-9.25382
テーマ	-9.25401
▁これ	-9.25442
規則	-9.25469
内で	-9.25571
スター	-9.25645
必要がある	-9.25681
▁1.	-9.25751
種	-9.25816
シリーズ	-9.25871
▁11	-9.25879
せ	-9.25887
営業	-9.25918
県	-9.26025
曲	-9.26097
についての	-9.26125
ツアー	-9.26207
代	-9.26215
権利	-9.2634
公	-9.26355
フル	-9.26402
クライアント	-9.26488
が表示されます	-9.2649
権	-9.26491
どのように	-9.265
することができる	-9.26583
パス	-9.26602
行為	-9.26607
要因	-9.26867
王	-9.2689
の設定	-9.26891
外部	-9.2697
ケ	-9.27083
このような	-9.27115
教授	-9.2719
ファイルの	-9.27241
もっと	-9.27301
あり	-9.27424
▁&	-9.27475
土	-9.27548
活用	-9.27598
歴史	-9.27666
データベース	-9.27692
CO	-9.27718
展示	-9.27738
提案	-9.27743
29	-9.27798
その後	-9.27848
標準	-9.27927
ID	-9.28048
議論	-9.28164
プラン	-9.28175
今後	-9.28246
費	-9.28385
肉	-9.28625
ファ	-9.28755
死	-9.28786
の一部	-9.28859
適用	-9.29275
員	-9.29311
▁that	-9.29433
ット	-9.29528
に基づき	-9.29739
何か	-9.298
質	-9.29841
ファン	-9.29891
連携	-9.29895
あなた	-9.30004
通り	-9.30008
のうち	-9.30042
取り組み	-9.3006
ニュース	-9.30166
不動産	-9.30169
油	-9.30305
事項	-9.30374
詳細	-9.30379
株	-9.30425
ギ	-9.3046
パネル	-9.30482
コミュニティ	-9.30523
運動	-9.3058
トラック	-9.306
フォーム	-9.30608
どの	-9.30658
”	-9.30813
電話	-9.30834
▁今	-9.30888
られ	-9.30909
少なくとも	-9.30926
トレーニング	-9.30947
la	-9.31003
アーティスト	-9.31126
と一緒に	-9.31159
それらの	-9.31279
例えば	-9.31293
古い	-9.31299
企業の	-9.31412
製	-9.31446
▁現在	-9.31529
ライセンス	-9.31693
その他	-9.31856
様	-9.31988
波	-9.32008
ブロック	-9.32058
要求	-9.32099
70	-9.32107
実際に	-9.32113
役	-9.3216
手法	-9.32254
を持っている	-9.32327
っています	-9.32358
判断	-9.32364
交流	-9.32409
ビュー	-9.32483
と共に	-9.32688
団体	-9.32739
知	-9.32768
私が	-9.32854
意識	-9.32926
しか	-9.32928
種類の	-9.32938
▁O	-9.32995
国の	-9.32998
減	-9.33026
成	-9.33079
産	-9.3308
翻訳	-9.33096
+	-9.33154
終了	-9.33335
街	-9.33394
それぞれの	-9.33454
注	-9.3346
民	-9.33466
たち	-9.33471
個人情報	-9.33481
存在	-9.33507
メンバー	-9.33542
リソース	-9.336
城	-9.33628
指定	-9.33663
▁*	-9.33752
もう	-9.33756
id	-9.33768
へと	-9.33784
一般	-9.33859
映像	-9.33947
夜	-9.33968
長い	-9.33992
制作	-9.33994
パン	-9.34014
初めて	-9.34022
子供	-9.34076
名前	-9.34194
にあります	-9.34248
芸術	-9.34301
しません	-9.34352
した場合	-9.34364
すでに	-9.34378
者は	-9.34386
モジュール	-9.34416
彼	-9.34423
全体の	-9.34503
ると	-9.34517
コントロール	-9.34694
ro	-9.34739
開示	-9.34827
後の	-9.34858
パー	-9.34941
親	-9.34944
いました	-9.35017
01	-9.35031
安	-9.35089
御	-9.35135
び	-9.35184
▁そのため	-9.35251
印刷	-9.35287
会員	-9.35317
エンジン	-9.35355
修正	-9.35444
防止	-9.35449
▁それ	-9.35554
▁No	-9.35649
百万円	-9.35658
▁2.	-9.3574
星	-9.3579
▁The	-9.35882
ルーム	-9.36003
将来	-9.36009
ペ	-9.36054
局	-9.36065
していない	-9.36114
スタッフ	-9.36166
200	-9.36291
MP	-9.36306
化学	-9.36307
▁X	-9.3634
自己	-9.36341
フィールド	-9.3636
un	-9.36395
法律	-9.36491
氏は	-9.36524
成功	-9.36567
館	-9.36582
ボックス	-9.36638
▁たとえば	-9.36669
利	-9.36753
超	-9.36756
ユーザ	-9.36786
トン	-9.36832
▁is	-9.36979
高速	-9.37053
IC	-9.37068
可能性	-9.37249
定義	-9.37258
ホ	-9.37278
の高い	-9.37335
コンピューター	-9.37396
渡	-9.37487
だけで	-9.37542
韓国	-9.37543
ウィンドウ	-9.37589
すべき	-9.37639
▁2017	-9.37668
人々	-9.37765
なければならない	-9.37776
PDF	-9.37831
ロック	-9.37879
黒	-9.37881
コピー	-9.37969
ハイ	-9.38029
段階	-9.38144
アップデート	-9.38163
ぶ	-9.38399
空港	-9.38411
ほか	-9.38417
株主	-9.38431
64	-9.3851
悪	-9.38519
▁Q	-9.38521
範囲	-9.38544
各種	-9.38568
があった	-9.38671
トップ	-9.38671
st	-9.38724
▁これにより	-9.3882
両	-9.38825
財務	-9.38847
自分	-9.38867
カル	-9.38985
総合	-9.39079
位置	-9.39091
▁特に	-9.39171
フリー	-9.39253
45	-9.39255
の間に	-9.39309
交換	-9.39315
需要	-9.39471
母	-9.39492
OS	-9.39492
しながら	-9.39501
90	-9.39509
自	-9.39514
ごとに	-9.39613
するため	-9.39627
▁新しい	-9.39643
においては	-9.39661
国家	-9.39662
物質	-9.39699
意味	-9.39754
朝	-9.39804
発生	-9.39817
患者	-9.39824
ろ	-9.3992
ラン	-9.39968
していく	-9.39978
の影響	-9.40057
されていない	-9.40097
法人	-9.40321
されて	-9.40324
塩	-9.40347
▁次に	-9.40357
▁各	-9.40434
フォーマット	-9.40587
歳	-9.40588
観	-9.40656
核	-9.40676
取締役	-9.40893
新規	-9.41015
一般的な	-9.41042
地域の	-9.41114
リーダー	-9.41118
最新の	-9.41137
付き	-9.41171
ch	-9.41187
弊社	-9.41244
セクション	-9.41244
広	-9.41248
労働	-9.41433
の向上	-9.4148
セッション	-9.41502
金額	-9.41659
許可	-9.4166
付	-9.41671
500	-9.41689
特性	-9.41704
固定	-9.41762
ぎ	-9.41822
以外の	-9.41931
平和	-9.41938
MA	-9.41944
手段	-9.4196
言葉	-9.41991
急	-9.41998
反応	-9.42007
重要	-9.42015
ジェ	-9.42031
オフィス	-9.42145
思い	-9.42157
上に	-9.42167
されており	-9.42248
ルール	-9.42254
官	-9.42293
削減	-9.42294
するか	-9.42382
病	-9.42434
サー	-9.4248
ポート	-9.42533
監督	-9.42565
既存の	-9.42598
サン	-9.42683
階	-9.42698
配信	-9.4272
中央	-9.42756
最高	-9.42804
なければなりません	-9.42868
監視	-9.42886
ia	-9.42901
電源	-9.42903
動き	-9.42926
店舗	-9.42932
研究者	-9.42963
監査	-9.43085
専門	-9.43122
投稿	-9.43196
他	-9.43355
消費者	-9.43443
拠点	-9.43534
在	-9.43571
内に	-9.43609
▁9	-9.4368
is	-9.43756
がない	-9.43793
フロー	-9.43808
攻撃	-9.43814
総	-9.43858
前の	-9.43966
パスワード	-9.43986
レビュー	-9.44036
明	-9.44046
正しい	-9.44189
に向けて	-9.44192
=	-9.44283
欧州	-9.44468
▁3000	-9.4448
基盤	-9.44481
を有する	-9.44548
起動	-9.44586
長期	-9.44589
橋	-9.44638
採用	-9.44652
48	-9.44742
モバイル	-9.44766
est	-9.4479
li	-9.44886
シート	-9.4494
ワーク	-9.45038
マー	-9.45063
金属	-9.45098
AI	-9.4511
引き	-9.45152
それらを	-9.45177
方法は	-9.45225
ベース	-9.45263
研修	-9.45271
節	-9.45314
アドレス	-9.45319
信頼	-9.45454
パターン	-9.45473
引き続き	-9.45533
に加え	-9.45604
カラー	-9.45632
▁このような	-9.45659
第一	-9.45675
を見る	-9.45718
論文	-9.45767
主に	-9.45794
ステップ	-9.45933
研究開発	-9.46055
インド	-9.46058
32	-9.4607
毎日	-9.46076
としても	-9.46221
を作る	-9.46226
コメント	-9.46255
軍	-9.46273
まず	-9.46378
建築	-9.4642
停止	-9.46426
章	-9.4647
▁©	-9.46476
スキル	-9.46511
できません	-9.46514
am	-9.46525
構築	-9.46544
れる	-9.4657
真	-9.46755
とその	-9.46787
▁2016	-9.46824
ケーブル	-9.4694
の中に	-9.47024
注意	-9.47051
かもしれない	-9.47234
時の	-9.47301
保険	-9.47397
努力	-9.47411
人生	-9.47473
アイデア	-9.47495
▁もし	-9.47523
性能	-9.47529
コレクション	-9.47583
ヨーロッパ	-9.47592
ダー	-9.47616
かった	-9.47676
部屋	-9.47685
平均	-9.47721
とも	-9.47789
消費	-9.47835
引	-9.47945
ほとんど	-9.48
我々は	-9.48051
外国人	-9.48065
復元	-9.48092
Google	-9.48098
理	-9.48159
運転	-9.48175
アプローチ	-9.48234
ロード	-9.48265
ファイル拡張子	-9.48303
絵	-9.48322
近	-9.48345
世界中の	-9.48373
比	-9.48374
拡張	-9.48386
公式	-9.4841
効率	-9.48453
初	-9.48467
ライブ	-9.48485
フォルダ	-9.48543
路	-9.48597
を行います	-9.48653
任意の	-9.48694
より多くの	-9.48795
発見	-9.48802
なので	-9.48932
答え	-9.48958
ことがあります	-9.48982
赤	-9.49044
集	-9.49212
これまで	-9.49238
▁私たちの	-9.49278
なり	-9.49306
類	-9.49307
寺	-9.49314
剤	-9.49407
措置	-9.49475
▁ステップ	-9.49506
に従って	-9.49507
スマート	-9.49582
に加えて	-9.49583
▁Re	-9.49625
特	-9.49651
てきました	-9.49657
者が	-9.49737
as	-9.49818
機構	-9.49838
申請	-9.49882
テンプレート	-9.49883
ra	-9.49893
を提供し	-9.49908
コンポーネント	-9.4992
極	-9.49946
システムの	-9.49965
四半期	-9.50052
il	-9.50114
最初に	-9.5013
とした	-9.50133
データの	-9.50153
の変更	-9.5027
オブジェクト	-9.50306
夢	-9.5032
と呼ばれる	-9.50377
▁you	-9.50438
クラウド	-9.50467
ソース	-9.50532
ma	-9.50587
と同じ	-9.50606
パラメータ	-9.50615
バック	-9.5062
動物	-9.50675
に必要な	-9.50681
であること	-9.50715
▁18	-9.50716
私たち	-9.50812
お金	-9.50841
オーディオ	-9.50844
ガラス	-9.50853
幅広い	-9.50859
計	-9.50909
上昇	-9.50965
レン	-9.50997
参加者	-9.51117
左	-9.51176
信号	-9.51197
達	-9.51198
魚	-9.51294
特定	-9.51297
ことができ	-9.51412
輸出	-9.51479
することは	-9.51781
を中心に	-9.51865
もしくは	-9.51885
企画	-9.5196
診断	-9.5205
相	-9.52061
▁私の	-9.52165
自由	-9.52244
までの	-9.52254
男性	-9.5227
論	-9.52277
になって	-9.52279
松	-9.52299
日の	-9.52336
の問題	-9.52401
フェ	-9.52429
法令	-9.52432
千	-9.52441
仕様	-9.52576
の種類	-9.52607
協会	-9.52632
タイム	-9.52658
サンプル	-9.52755
を与える	-9.52825
男	-9.52831
反	-9.52844
に向けた	-9.52959
多く	-9.52969
▁3.	-9.53018
ワイン	-9.5311
ソン	-9.53135
▁Web	-9.53181
国連	-9.53285
ていました	-9.53299
一緒に	-9.53306
mo	-9.53325
輸送	-9.53345
井	-9.53449
青	-9.53499
右	-9.53528
大会	-9.53563
速度	-9.53696
災害	-9.53697
参照	-9.5372
ユーザーが	-9.53844
シュ	-9.53889
となっています	-9.53934
かなり	-9.53937
を超える	-9.53999
列	-9.54017
実際の	-9.54025
鉄	-9.54107
楽	-9.54132
どう	-9.5414
ボード	-9.54152
ry	-9.54169
j	-9.54176
差	-9.54187
チケット	-9.54226
ex	-9.5425
としての	-9.54265
アル	-9.5431
ge	-9.54374
内部	-9.54409
▁In	-9.54445
人材	-9.54482
and	-9.54543
クラブ	-9.54568
ate	-9.54671
担当	-9.54695
ライト	-9.5472
ブル	-9.54726
した後	-9.54787
人々の	-9.54802
べき	-9.54853
アクション	-9.5486
角	-9.54876
異	-9.54909
通常	-9.54909
人気	-9.55027
最	-9.55037
を提供しています	-9.55066
ことにより	-9.55197
場合があります	-9.55239
プレイ	-9.55247
実績	-9.55269
側	-9.55276
必ず	-9.55278
増加	-9.5529
訪問	-9.55318
se	-9.55496
請求	-9.55503
彼女の	-9.55528
旅	-9.55555
検証	-9.55626
の結果	-9.55651
キャ	-9.55677
ライ	-9.55737
エン	-9.55744
ング	-9.55849
年から	-9.56009
の増加	-9.56015
することを	-9.56017
開	-9.56157
PS	-9.56186
ありません	-9.563
毎年	-9.56326
出す	-9.56326
週間	-9.56327
界	-9.56422
を見て	-9.56434
通常の	-9.5647
これを	-9.56517
ac	-9.56579
多様な	-9.56601
過	-9.56611
変	-9.56698
だと	-9.56811
手続き	-9.56888
ad	-9.5691
専門家	-9.5693
ビル	-9.56972
以降	-9.57006
ほぼ	-9.57016
公園	-9.5704
馬	-9.57065
込み	-9.57083
SA	-9.57271
脳	-9.57283
損失	-9.57286
一番	-9.57323
種類	-9.57332
基本	-9.57531
ックス	-9.57556
raw	-9.57564
世	-9.57567
ve	-9.5761
第三者	-9.57638
ut	-9.57713
罪	-9.57716
団	-9.57797
空気	-9.57869
▁日本語	-9.57879
報酬	-9.57928
血	-9.57977
▁我々は	-9.58025
ときは	-9.58039
を取り	-9.58068
のですが	-9.58072
言う	-9.58075
発行	-9.58101
あなたに	-9.58101
ホール	-9.58113
座	-9.58129
実現	-9.58153
ナー	-9.58162
マーク	-9.58208
解	-9.58248
貿易	-9.58267
交通	-9.58282
ニー	-9.58512
雨	-9.58513
未来	-9.5857
岩	-9.5866
唯一の	-9.58676
Android	-9.58804
の作成	-9.58883
フレーム	-9.59019
ニーズ	-9.59031
源	-9.5904
ap	-9.59157
取	-9.5917
レー	-9.59194
合意	-9.5923
認定	-9.59269
夏	-9.59359
ネット	-9.59364
を与え	-9.59386
強	-9.59393
達成	-9.59403
ジャ	-9.59516
よい	-9.59561
▁平成	-9.59563
広く	-9.59603
ガー	-9.59613
端	-9.5962
現	-9.59648
設置	-9.5969
メモリ	-9.59895
病気	-9.59896
込む	-9.60031
ブラウザ	-9.60051
用途	-9.60119
することが	-9.6012
経	-9.60176
人口	-9.60229
道路	-9.60237
を用いて	-9.60243
をクリックします	-9.60281
同時に	-9.60288
下さい	-9.60289
関数	-9.60326
グループの	-9.60386
料	-9.60402
いない	-9.60431
管理者	-9.60431
持ち	-9.60458
市民	-9.60466
原因	-9.60477
▁20	-9.60514
規定	-9.60525
方向	-9.60571
になっている	-9.6061
院	-9.60773
事実	-9.60796
行う	-9.6082
RE	-9.60876
レイ	-9.60895
を示す	-9.60927
▁f	-9.60931
比較	-9.60972
に係る	-9.60999
AL	-9.61113
タン	-9.61125
を作成する	-9.61134
マップ	-9.61168
女	-9.61175
調達	-9.61181
再び	-9.612
感染	-9.61226
▁p	-9.61273
彼らが	-9.6128
のない	-9.6129
▁Pro	-9.61309
ウイルス	-9.61378
がん	-9.61382
▁13	-9.61413
湖	-9.61453
教	-9.61542
の上に	-9.61621
でしょうか	-9.61637
支払い	-9.61658
携帯電話	-9.61716
の歴史	-9.61719
ソフト	-9.61723
▁2015	-9.61728
配置	-9.6173
人々は	-9.61771
ということ	-9.61779
チャンネル	-9.61791
友人	-9.61827
up	-9.61894
しましょう	-9.61948
AR	-9.61955
お客様に	-9.61968
イノベーション	-9.61969
転送	-9.62019
素	-9.62041
女の子	-9.62075
いつも	-9.6212
▁14	-9.62153
統計	-9.62361
Fi	-9.62379
布	-9.62386
ためには	-9.6244
2020	-9.62477
先生	-9.6249
サブ	-9.62541
維持	-9.62559
de	-9.62574
住宅	-9.62578
2000	-9.62755
葉	-9.62759
IN	-9.62763
複雑な	-9.62821
ヴィ	-9.62841
これら	-9.62955
席	-9.63074
要件	-9.6311
任	-9.63128
ことから	-9.63176
ロボット	-9.63181
既に	-9.63208
記	-9.63229
雪	-9.63238
▁on	-9.63276
園	-9.63334
ショー	-9.6341
スタート	-9.63423
キャリア	-9.63425
▁15	-9.63584
▁製品	-9.63653
人に	-9.63655
シーン	-9.63706
ひ	-9.63728
ことも	-9.6379
表面	-9.63865
キャンペーン	-9.63877
時計	-9.63973
ゼ	-9.63973
最大の	-9.64034
▁ホーム	-9.64138
貢献	-9.64149
資本	-9.6417
しかし	-9.64224
完了	-9.64286
形式	-9.64333
将来の	-9.64376
春	-9.6438
im	-9.64381
事故	-9.644
の内容	-9.6441
ファッション	-9.6447
35	-9.64493
訓練	-9.64515
ということです	-9.64674
▁16	-9.6468
意見	-9.64706
収集	-9.64729
十分な	-9.64735
オフ	-9.64771
観測	-9.6478
マスター	-9.64797
代表	-9.64848
ール	-9.64855
▁もちろん	-9.64875
承認	-9.6488
の詳細	-9.65014
ぐ	-9.65058
当社は	-9.65092
ドライバ	-9.65128
周辺	-9.65197
減少	-9.65199
中国の	-9.65221
▁ダウンロード	-9.65232
パワー	-9.65245
義務	-9.6525
いつでも	-9.65277
▁0	-9.65284
ers	-9.65287
ang	-9.6534
ど	-9.65408
全て	-9.65437
深い	-9.65447
簡単な	-9.65467
取締役会	-9.65477
程度	-9.65577
授業	-9.6559
ホスト	-9.65654
ment	-9.65688
mm	-9.65693
出し	-9.65771
科	-9.65798
燃料	-9.65802
背景	-9.65806
建物	-9.6587
骨	-9.65948
セル	-9.65953
バン	-9.66044
にアクセス	-9.66052
年齢	-9.66148
▁ア	-9.66197
になりました	-9.66241
際	-9.66255
ig	-9.66291
同期	-9.66296
▁De	-9.66316
使用する	-9.66336
ロン	-9.6643
会社の	-9.66438
症	-9.66451
ていきます	-9.66541
の両方	-9.66573
入れ	-9.66589
割引	-9.66609
300	-9.66668
コマンド	-9.66775
▁そこで	-9.66851
ここで	-9.6691
像	-9.66989
であります	-9.67094
いたしました	-9.67102
スキャン	-9.67146
▁一方	-9.67157
リクエスト	-9.67181
売	-9.67225
台湾	-9.67256
インフラ	-9.67257
マシン	-9.67281
na	-9.67333
ist	-9.67339
ぼ	-9.67344
ri	-9.67375
いただく	-9.67381
装飾	-9.67391
連結	-9.6743
生成	-9.67433
を見つける	-9.6744
全国	-9.67457
を持ち	-9.67498
を受けた	-9.67553
倍	-9.67637
回転	-9.67637
える	-9.67694
投資家	-9.67722
中で	-9.67759
Mac	-9.67864
▁つまり	-9.67933
ります	-9.67966
校	-9.67967
▁by	-9.68024
についても	-9.68125
切り	-9.6817
などを	-9.68276
今年	-9.68309
ふ	-9.68388
スポット	-9.68391
アフリカ	-9.68404
たくさんの	-9.68491
できるように	-9.68518
人権	-9.68565
業績	-9.68583
言	-9.68629
屋	-9.68641
CD	-9.68662
現実	-9.68678
キャッシュ	-9.68702
ないように	-9.68712
人々が	-9.68734
私たちが	-9.68742
クッキー	-9.68747
命	-9.68789
AT	-9.68803
指導	-9.68846
滞在	-9.68933
今日	-9.6895
▁Program	-9.68961
シン	-9.68975
予想	-9.68994
ジュ	-9.69026
タイプの	-9.69047
管	-9.69071
AP	-9.69114
%	-9.69155
を実行する	-9.6918
MS	-9.69192
ビジョン	-9.69269
プレイヤー	-9.69278
日から	-9.693
雇用	-9.6931
行く	-9.69328
行き	-9.69334
保管	-9.69442
一部	-9.69461
食事	-9.69491
古	-9.69506
▁=	-9.69518
可能性がある	-9.69543
たら	-9.69555
現代	-9.69578
困難	-9.69587
社員	-9.69608
を行った	-9.69644
の名前	-9.69677
ざ	-9.69771
ストレージ	-9.69776
日本人	-9.69821
のでしょうか	-9.69884
音声	-9.69884
のすべての	-9.69904
ものである	-9.69936
助け	-9.69948
共同	-9.70053
四	-9.70077
継続	-9.70107
を行っています	-9.70116
進化	-9.70167
高度な	-9.70252
大きく	-9.70255
ロシア	-9.70321
の間	-9.70325
を持って	-9.70378
ビット	-9.70379
においても	-9.70437
の場合は	-9.70438
の概要	-9.70442
回答	-9.7049
▁だから	-9.70559
リア	-9.70632
横	-9.70683
末	-9.70729
茶	-9.70735
農業	-9.70736
ドキュメント	-9.70739
アウト	-9.70746
美術館	-9.70791
ボール	-9.70858
▁U	-9.70916
向けの	-9.70919
傾向	-9.70925
)」	-9.70947
客	-9.70999
証明書	-9.71
セミナー	-9.71053
to	-9.7121
国立	-9.71277
希望	-9.71299
1000	-9.71313
状	-9.71325
ショップ	-9.7134
報告書	-9.71383
歌	-9.71392
となっている	-9.71395
を進め	-9.71522
症状	-9.71557
越	-9.71562
工学	-9.7158
レス	-9.71611
ログ	-9.71625
マルチ	-9.71702
こう	-9.71767
する必要がある	-9.71796
以来	-9.71912
有名な	-9.71921
一度	-9.71962
見る	-9.71996
バイオ	-9.72008
夫	-9.72012
基礎	-9.72029
ログイン	-9.72069
土地	-9.72132
明らかに	-9.72132
主要な	-9.7215
に関連する	-9.72161
をクリックして	-9.72164
um	-9.72197
壁	-9.72213
注目	-9.72222
顔	-9.72228
展	-9.72314
したこと	-9.72336
マネジメント	-9.72343
税	-9.72422
ユニット	-9.72476
こともできます	-9.72492
おり	-9.72506
インドネシア	-9.7265
ハウス	-9.72658
完全な	-9.72695
▁re	-9.72698
金利	-9.72712
られます	-9.7272
切	-9.72745
に行く	-9.72766
▁今回の	-9.72782
EN	-9.72831
んです	-9.72833
を介して	-9.72853
当社が	-9.72857
信	-9.72862
関係者	-9.72932
ES	-9.72958
競争	-9.72996
bit	-9.73076
距離	-9.73161
の一つ	-9.73168
強力な	-9.73178
ワークショップ	-9.73208
マイ	-9.73306
AC	-9.73309
がありました	-9.73389
コンプライアンス	-9.73466
ここ	-9.73467
務	-9.73468
してきた	-9.73525
側面	-9.73535
軸	-9.73538
SD	-9.73543
ユーザーの	-9.73703
疾患	-9.73742
hi	-9.73751
▁we	-9.73756
同意	-9.73772
単に	-9.738
年には	-9.73856
作り	-9.73891
安定	-9.73911
アイ	-9.7397
香港	-9.73982
EC	-9.7399
を得る	-9.7409
指	-9.74231
選択肢	-9.74239
検出	-9.74287
時には	-9.74335
ローカル	-9.74344
最適な	-9.74357
若い	-9.74373
歯	-9.74386
示	-9.74485
シャ	-9.74497
55	-9.74582
コーヒー	-9.74602
げ	-9.74618
違い	-9.74636
相手	-9.74637
方式	-9.74665
最終	-9.74693
lo	-9.74869
ag	-9.74872
電圧	-9.74942
を使用すると	-9.74956
政治	-9.75089
をもって	-9.75131
大統領	-9.75132
の変化	-9.75133
04	-9.75145
決済	-9.75175
USB	-9.75212
の下で	-9.75226
十	-9.75253
応用	-9.75296
宮	-9.75301
谷	-9.75367
連	-9.7545
タイトル	-9.75463
群	-9.75467
RO	-9.75514
ta	-9.75532
LE	-9.75543
ol	-9.75553
制	-9.75578
タブ	-9.75615
レベルの	-9.75629
分の	-9.75707
地震	-9.75712
▁ビデオ	-9.75714
を受ける	-9.75716
小さい	-9.75744
なぜ	-9.75748
権限	-9.75873
そこに	-9.7588
興味	-9.75889
ほとんどの	-9.75921
スマートフォン	-9.75941
▁ページ	-9.75998
が必要	-9.76044
配	-9.76076
カナダ	-9.76136
進	-9.76149
鳥	-9.76272
何も	-9.76308
審査	-9.76346
ダウン	-9.76436
プラスチック	-9.7644
ity	-9.76476
ストア	-9.76521
変動	-9.76562
ベースの	-9.76566
水準	-9.76601
身体	-9.76722
テン	-9.76742
-2	-9.76791
野菜	-9.76809
サービスの	-9.76876
選手	-9.7691
成分	-9.76911
TA	-9.76917
▁be	-9.76962
アー	-9.77017
立ち	-9.77032
▁東京	-9.77088
▁17	-9.77113
世紀	-9.7714
限定	-9.77163
メイン	-9.77166
組	-9.77203
▁Co	-9.77217
声	-9.7725
専用	-9.77264
門	-9.77287
バイ	-9.77349
件	-9.7735
能	-9.7735
であろう	-9.77382
要	-9.77467
事前に	-9.77503
相談	-9.77544
からです	-9.77637
▁ニュース	-9.77649
項	-9.77664
ダイ	-9.77723
05	-9.77729
ロール	-9.77821
規模	-9.77843
カット	-9.77904
低い	-9.77948
皮膚	-9.77997
材	-9.78009
床	-9.78013
SP	-9.78028
SE	-9.7804
する場合	-9.78069
深く	-9.78174
アップグレード	-9.78177
をはじめ	-9.78187
フランス	-9.78209
を選択し	-9.78245
をより	-9.78328
板	-9.78347
ことはできません	-9.78391
ドイツ	-9.78404
▁Twitter	-9.78406
主な	-9.78429
なしで	-9.78437
ガン	-9.78465
病院	-9.78517
人間の	-9.78548
の利用	-9.78667
all	-9.78684
グリーン	-9.78685
生物	-9.78786
▁with	-9.78793
連絡	-9.78851
2018	-9.78856
することもできます	-9.7893
パーティション	-9.78972
ine	-9.78975
秒	-9.79
実装	-9.79031
ターゲット	-9.79037
▁All	-9.79048
難しい	-9.79066
彼が	-9.792
かな	-9.79219
ne	-9.79259
支払	-9.79269
を参照してください	-9.79287
ai	-9.79334
回路	-9.79419
関心	-9.79426
としては	-9.79501
冷	-9.79514
をもたらす	-9.79544
ニュー	-9.79584
会場	-9.79584
を変更	-9.79644
02	-9.79678
今後の	-9.79699
me	-9.7971
師	-9.79728
記載	-9.79745
AS	-9.79815
シミュレーション	-9.79821
へのアクセス	-9.79831
人たち	-9.79856
大変	-9.79861
消	-9.79872
ER	-9.79881
▁%	-9.79929
▁この場合	-9.79941
こうした	-9.79962
られている	-9.8004
フォーラム	-9.8007
ご利用	-9.80075
送	-9.80116
バッグ	-9.80126
肌	-9.80156
▁<	-9.80174
するように	-9.80196
生き	-9.8021
服	-9.80272
酸	-9.80322
モン	-9.80324
をご覧ください	-9.80331
の数	-9.80349
従来の	-9.80352
調理	-9.80359
▁まず	-9.80371
豊かな	-9.80418
士	-9.80423
活躍	-9.80436
指標	-9.80482
社内	-9.80482
感覚	-9.80509
ive	-9.80571
傷	-9.80593
今まで	-9.80599
を感じ	-9.80613
断	-9.80625
予防	-9.80663
車両	-9.80744
しく	-9.8085
▁お	-9.80875
基本的な	-9.80891
▁(2)	-9.80932
▁#	-9.80938
時間を	-9.80989
事例	-9.81022
医師	-9.81057
危険	-9.81065
と思う	-9.81095
書類	-9.81251
PA	-9.81319
生命	-9.81373
カテゴリー	-9.8142
温泉	-9.81438
ab	-9.81458
コア	-9.81477
バランス	-9.81511
なければ	-9.81523
やすい	-9.81542
試	-9.81563
▁this	-9.81582
もので	-9.81645
▁当社の	-9.81654
限り	-9.81703
の上	-9.81729
調	-9.81815
片	-9.81818
プロパティ	-9.81823
ハン	-9.81867
▁こうした	-9.81904
受信	-9.81953
ランド	-9.82033
つく	-9.82044
地区	-9.82129
番目の	-9.82155
学部	-9.82168
の研究	-9.82172
過去	-9.82218
創	-9.8227
▁2014	-9.82288
通貨	-9.82295
公表	-9.82341
いただき	-9.82412
▁Google	-9.8244
好きな	-9.82449
乾燥	-9.82491
自動的に	-9.82604
年代	-9.82613
ルート	-9.82641
穴	-9.82653
ロゴ	-9.82671
コー	-9.82692
もある	-9.82726
生徒	-9.8279
今回の	-9.82809
ヶ月	-9.82821
end	-9.82823
速	-9.82856
提出	-9.82869
ベル	-9.82913
ard	-9.82915
なし	-9.82957
成果	-9.82979
博物館	-9.82986
個	-9.83023
TM	-9.83025
ハードウェア	-9.83029
時点で	-9.83038
パリ	-9.83038
社会的	-9.83053
ha	-9.831
工業	-9.83135
▁『	-9.83182
意	-9.8321
分子	-9.83213
証券	-9.83238
スピード	-9.83268
あまり	-9.83298
製品を	-9.83328
エル	-9.83378
ことによって	-9.83568
乗	-9.83576
ワン	-9.83583
可能です	-9.83583
EX	-9.83583
プール	-9.83584
2019	-9.83628
電子メール	-9.83661
センサー	-9.83669
強く	-9.83671
per	-9.83684
▁de	-9.83703
組み合わせ	-9.83833
役員	-9.83839
を使う	-9.8388
上げ	-9.8394
36	-9.83944
イエス	-9.83992
スケジュール	-9.84038
裏	-9.84038
カン	-9.84069
商	-9.84073
デバイスの	-9.84103
させて	-9.84106
ものを	-9.8413
一部の	-9.84135
時期	-9.84135
いかなる	-9.84146
転	-9.84147
ぜひ	-9.84157
損傷	-9.84215
色の	-9.8422
毛	-9.8426
証	-9.84332
▁Y	-9.84335
トラ	-9.84359
主義	-9.84472
現象	-9.84543
画	-9.84554
大きい	-9.84581
ビー	-9.84623
地方	-9.84635
弱	-9.84657
ホームページ	-9.84673
満	-9.84703
シェア	-9.84708
神の	-9.84857
ヘ	-9.84866
ホーム	-9.8487
▁m	-9.84896
深	-9.84964
ter	-9.85027
負荷	-9.85069
しないでください	-9.85121
age	-9.85127
を変更する	-9.85145
破壊	-9.85155
スーパー	-9.85253
女性の	-9.85256
をお	-9.85267
職	-9.85282
ザー	-9.85307
かけ	-9.85308
をする	-9.8533
役割	-9.85341
彼女は	-9.85371
基	-9.85406
ならびに	-9.85409
▁その他	-9.85436
保持	-9.85485
だけです	-9.855
デザイナー	-9.85568
頃	-9.85587
-1	-9.85594
首	-9.85601
2017	-9.85636
新たに	-9.85803
メートル	-9.85811
加	-9.85842
丸	-9.8588
みんな	-9.85887
神経	-9.85892
CA	-9.85913
逆	-9.85929
▁2013	-9.85935
▁it	-9.85936
たちは	-9.85943
アップロード	-9.8596
無料で	-9.85961
記憶	-9.86022
伝統	-9.86097
▁iPhone	-9.86102
になっています	-9.86156
▁“	-9.8616
no	-9.8623
ディスプレイ	-9.86236
op	-9.8628
教会	-9.86303
に関する情報	-9.86319
書き	-9.86326
紛争	-9.86373
os	-9.86386
ベスト	-9.86421
▁(1)	-9.86452
UN	-9.86556
圧力	-9.8656
安全な	-9.86582
はまだ	-9.8661
の強化	-9.86637
カバー	-9.867
気持ち	-9.86716
武	-9.8672
▁それから	-9.86812
社長	-9.86857
現地	-9.86857
08	-9.86871
ゼロ	-9.86894
会話	-9.86895
プロファイル	-9.86922
▁他の	-9.8694
推奨	-9.86944
一方	-9.86971
悪い	-9.86995
父	-9.87051
私に	-9.87062
>	-9.87109
禁止	-9.87125
負担	-9.87138
裁判所	-9.87143
▁ここでは	-9.87144
することにより	-9.87159
タグ	-9.87174
ファイルを開く	-9.87269
本社	-9.87289
得る	-9.87311
▁4.	-9.87319
民間	-9.87383
祭	-9.87417
を作成し	-9.87437
io	-9.87462
オー	-9.875
電流	-9.87503
自分で	-9.87529
IS	-9.87534
ライブラリ	-9.87577
満足	-9.87621
諸	-9.87627
皮	-9.87645
完全	-9.87676
会計	-9.877
戦争	-9.87709
▁Z	-9.87742
ir	-9.87745
信頼性	-9.87771
を用いた	-9.87785
幅	-9.87801
保	-9.87839
大規模な	-9.87889
雰囲気	-9.87916
返	-9.87921
ノード	-9.87922
お問い合わせ	-9.87926
楽しい	-9.87942
尾	-9.88019
義	-9.88061
相互	-9.88069
多数の	-9.88083
ディレクトリ	-9.88114
46	-9.88136
好	-9.88163
に沿って	-9.8819
ものの	-9.88199
に関しては	-9.88206
月の	-9.88212
AM	-9.88216
退	-9.88255
go	-9.88265
物語	-9.88279
されること	-9.88321
ベトナム	-9.88331
レート	-9.88383
ON	-9.88413
93	-9.88473
万人	-9.88609
工	-9.88623
アイコン	-9.88658
▁その結果	-9.88702
演奏	-9.88769
聖	-9.88794
を追加	-9.8881
業者	-9.88936
▁デジタル台風	-9.88948
社の	-9.88966
セグメント	-9.8898
自分自身	-9.89017
ベッド	-9.89029
ドア	-9.89056
個々の	-9.89068
▁+	-9.8908
発売	-9.89082
ub	-9.89082
掛け	-9.89123
発電	-9.89169
日間	-9.89195
概要	-9.89196
65	-9.8921
トリ	-9.89217
が多い	-9.89249
を利用して	-9.89295
ドライバー	-9.89304
MI	-9.89309
形成	-9.89388
数字	-9.89437
▁And	-9.89485
負	-9.89487
危機	-9.89517
CC	-9.89644
子会社	-9.89704
を選択する	-9.89719
旧	-9.89722
コンセプト	-9.8974
ill	-9.89762
放送	-9.89767
▁イベント	-9.89773
カフェ	-9.89821
数値	-9.89877
正確な	-9.8991
▁Ma	-9.89927
完成	-9.90001
pp	-9.90003
場所に	-9.90022
ダンス	-9.90067
US	-9.90187
▁St	-9.90222
なります	-9.90226
窓	-9.90341
ものとします	-9.90356
▁Driver	-9.90357
住民	-9.9039
開発者	-9.90405
メンテナンス	-9.90415
提示	-9.90418
▁ISSN	-9.90428
最近	-9.90449
ですね	-9.90456
海洋	-9.90476
を使った	-9.90489
デスクトップ	-9.90593
できた	-9.90631
精	-9.90631
にもかかわらず	-9.90633
人と	-9.90642
AD	-9.90643
99	-9.90648
主要	-9.90693
ていること	-9.90705
うまく	-9.90706
条約	-9.90723
サーバ	-9.9074
クラ	-9.90749
▁あらまし	-9.90778
を備えた	-9.9079
心配	-9.90812
彼ら	-9.90878
のもと	-9.90942
予算	-9.90955
藤	-9.90958
破	-9.90995
元の	-9.90996
見通し	-9.91037
ようです	-9.91038
▁Facebook	-9.9104
放	-9.91041
現場	-9.91088
積	-9.9114
の下	-9.91164
家庭	-9.91194
マウス	-9.91207
を開催	-9.91208
44	-9.91267
圧	-9.91296
振	-9.91324
おすすめ	-9.91348
を高め	-9.91348
スタ	-9.91365
庁	-9.91411
ST	-9.91423
考慮	-9.91438
を選ぶ	-9.91441
ただ	-9.91441
国際的な	-9.91484
大型	-9.91506
Asus	-9.91574
英国	-9.91576
違う	-9.91624
年以上	-9.91708
の世界	-9.91714
追加の	-9.91745
受	-9.91754
の中	-9.91759
伝統的な	-9.91765
利用者	-9.91856
日本で	-9.91876
廃棄物	-9.91885
ブログ	-9.91905
離	-9.91923
厳しい	-9.91936
原子力	-9.91953
レシピ	-9.92004
暗号化	-9.92017
▁ここで	-9.92052
つつ	-9.92059
国民	-9.92114
仕事を	-9.92141
公共	-9.92173
オペレーティングシステム	-9.92176
乳	-9.92216
法的	-9.92224
ことをお勧めします	-9.92269
▁]	-9.92282
はその	-9.92292
それに	-9.9245
圏	-9.92483
指摘	-9.92489
端末	-9.92539
33	-9.92562
割	-9.92591
特許	-9.92591
お客様が	-9.92594
することはできません	-9.92601
クリック	-9.92605
なのです	-9.92608
在庫	-9.9261
昨年	-9.92722
cm	-9.92765
マル	-9.9281
宗教	-9.92833
草	-9.92839
ME	-9.92957
ot	-9.92985
09	-9.92991
レッスン	-9.93016
▁当	-9.93073
午後	-9.93127
することができ	-9.93134
五	-9.93155
遺伝子	-9.93242
容量	-9.93251
原則	-9.9329
良く	-9.93409
▁c	-9.93412
リモート	-9.93422
プラグイン	-9.93433
one	-9.93439
マイクロ	-9.93447
感情	-9.93462
ミニ	-9.93501
の改善	-9.9352
メールアドレス	-9.93523
効果的な	-9.93548
自身の	-9.93552
06	-9.93597
精神	-9.93602
のだ	-9.93619
地元の	-9.93627
の後	-9.9364
常	-9.93642
単位	-9.93646
アパート	-9.93671
堂	-9.93722
近く	-9.93734
られています	-9.93734
の存在	-9.9378
案	-9.93813
被害	-9.9382
精度	-9.93827
」「	-9.93872
連絡先	-9.93895
プロモーション	-9.94
沖縄	-9.94037
の選択	-9.94046
―	-9.94092
十分	-9.94124
連続	-9.94135
妻	-9.94138
地図	-9.94148
が高い	-9.94178
型の	-9.94183
便利な	-9.94239
はこちら	-9.94245
2016	-9.94279
何を	-9.94307
仮想	-9.94384
保有	-9.94401
そうです	-9.94443
京都	-9.9446
▁ファイル	-9.9447
っていた	-9.94514
積極的に	-9.94527
400	-9.94539
ヌ	-9.9464
太陽	-9.94656
める	-9.94698
が可能です	-9.94717
していました	-9.94738
英	-9.9475
47	-9.94759
記述	-9.94766
49	-9.9478
定期的に	-9.94817
に伴い	-9.94865
ることができる	-9.94944
家の	-9.94967
共通	-9.94974
向	-9.95056
▁しかしながら	-9.95145
▁Intel	-9.95202
▁API	-9.95203
優先	-9.95212
を行いました	-9.95242
5%	-9.95264
指示	-9.95272
すべてが	-9.95348
形で	-9.95351
済み	-9.95385
ユーザーは	-9.9539
42	-9.95446
ゆ	-9.95464
協定	-9.95476
気候変動	-9.95501
友達	-9.95529
物件	-9.95534
MO	-9.95534
促進	-9.95539
ケア	-9.95564
仏	-9.9568
鍵	-9.95716
情報の	-9.95737
配送	-9.95746
ここに	-9.95766
sh	-9.95779
はすべて	-9.9581
vi	-9.95811
笑	-9.95894
理論	-9.959
07	-9.95905
勝	-9.95905
派	-9.95926
サウンド	-9.95931
サイド	-9.95948
のですか	-9.95978
ビーチ	-9.96011
副	-9.9603
結	-9.96065
喜び	-9.96117
細	-9.96123
利用可能な	-9.96145
34	-9.96153
する前に	-9.96165
結合	-9.96179
を取得	-9.96196
冬	-9.96198
集中	-9.96234
森	-9.9625
ショッピング	-9.96251
複数	-9.96285
求め	-9.96344
秘密	-9.96348
改革	-9.96362
とし	-9.96381
より良い	-9.96444
最後の	-9.96469
ian	-9.9649
ティー	-9.96494
ess	-9.96535
失敗	-9.96541
利点	-9.96569
諸国	-9.96592
不足	-9.96602
であれば	-9.96628
球	-9.96634
月期	-9.96665
観光客	-9.96707
方は	-9.96722
に伴う	-9.96772
ue	-9.96777
▁File	-9.96796
方法を	-9.96833
▁Server	-9.96838
講演	-9.9684
ack	-9.96867
100%	-9.96922
チップ	-9.96939
の可能性	-9.96941
るために	-9.96942
プライバシー	-9.96943
石油	-9.97003
ウェブ	-9.97028
ガイドライン	-9.9705
修復	-9.97067
生まれ	-9.97118
net	-9.97149
スクリーン	-9.97167
宿泊	-9.97189
早く	-9.97242
CH	-9.97312
栄養	-9.97331
ティング	-9.97366
ギャラリー	-9.97407
を提供	-9.97415
べきです	-9.97439
長く	-9.97445
のいずれか	-9.97446
の状況	-9.97486
ay	-9.97508
に合わせて	-9.97526
働き	-9.97529
一つ	-9.97532
TO	-9.97554
掲載	-9.97588
チャネル	-9.97668
タンパク質	-9.97688
体の	-9.97785
資格	-9.97789
難	-9.97798
されません	-9.9783
番	-9.97844
を確認する	-9.97858
man	-9.97886
興味深い	-9.9789
まとめ	-9.97908
km	-9.97947
ション	-9.97965
▁ゲーム	-9.98012
75	-9.98035
しなければならない	-9.98054
org	-9.98099
グループは	-9.9811
流れ	-9.98121
試み	-9.98132
いただけます	-9.9814
が含まれています	-9.98143
使う	-9.98181
しい	-9.98187
EL	-9.98197
整備	-9.98199
ee	-9.98217
教え	-9.98237
ell	-9.98274
ても	-9.98282
液	-9.983
自動化	-9.98305
の提供	-9.9831
していること	-9.98325
シーズン	-9.98338
を表示	-9.9836
良	-9.98385
教師	-9.98447
ドメイン	-9.98449
56	-9.9846
名の	-9.98511
2015	-9.98618
労働者	-9.98642
箱	-9.98665
交	-9.98688
応募	-9.98703
ないでください	-9.98704
分離	-9.98725
メン	-9.98739
必須	-9.98756
5000	-9.98761
独立	-9.98765
企業が	-9.98776
履歴	-9.98788
▁Copyright	-9.98809
違反	-9.98827
59	-9.98836
ジャパン	-9.98837
プライベート	-9.98847
マーケット	-9.98848
刺激	-9.98895
選択した	-9.98898
卵	-9.98927
移行	-9.98948
*	-9.9895
スイッチ	-9.99035
帯	-9.99056
に入る	-9.99072
瞬間	-9.99159
募集	-9.99179
2014	-9.99247
トピック	-9.9926
医学	-9.9926
ant	-9.99283
▁次の	-9.99307
方が	-9.99336
HD	-9.99346
コール	-9.99367
具	-9.99434
従来	-9.9944
いくつか	-9.99464
自体	-9.99467
宣言	-9.99515
失	-9.9952
比較的	-9.99552
を設定する	-9.99569
林	-9.9958
使	-9.99637
実践	-9.99644
お客さま	-9.99647
▁日本の	-9.9966
上記の	-9.99662
ステージ	-9.997
大学院	-9.99709
▁2012	-9.99787
場合でも	-9.99822
入り	-9.99838
つまり	-9.99839
54	-9.99845
衛星	-9.99855
訳	-9.99863
▁30	-9.99889
具体的な	-9.99891
SC	-9.99992
立て	-10.0001
機能を	-10.0007
今後も	-10.0008
策	-10.0011
カスタム	-10.0012
tr	-10.0013
アルコール	-10.0016
教員	-10.0018
43	-10.002
EU	-10.0026
初期	-10.0028
ッシュ	-10.0041
フィルム	-10.0043
緑	-10.0045
もあり	-10.0045
そこ	-10.0047
を参照	-10.0048
サイ	-10.0048
パーク	-10.005
季節	-10.005
したら	-10.0053
当社グループ	-10.0059
もし	-10.0059
を使用します	-10.0059
我々の	-10.0061
閲覧	-10.0061
DC	-10.0062
の状態	-10.0064
有効	-10.0068
Wi	-10.0068
極めて	-10.0072
までに	-10.0073
▁大	-10.0076
損害	-10.0076
son	-10.008
感謝	-10.0083
抵抗	-10.0086
はこの	-10.0086
のリスト	-10.0088
ブルー	-10.009
合計	-10.0092
ast	-10.0093
チン	-10.0093
充電	-10.0094
脱	-10.0094
レコード	-10.0095
ピン	-10.0097
担当者	-10.0097
安全性	-10.01
大阪	-10.0102
キャンセル	-10.0108
言った	-10.011
ユニークな	-10.0111
編	-10.0114
参考	-10.0116
ure	-10.0125
収入	-10.0126
貴重な	-10.0132
かれ	-10.0138
ミッション	-10.0139
▁それが	-10.0147
すぐ	-10.0149
合成	-10.0154
03	-10.0155
ゲスト	-10.0158
art	-10.0162
髪	-10.017
反対	-10.017
づくり	-10.0171
留学	-10.0172
▁Android	-10.0174
ance	-10.0175
交渉	-10.0176
の構築	-10.0176
fe	-10.0177
かかる	-10.0179
を実現	-10.0185
読み	-10.0186
子供の	-10.0192
デン	-10.0195
ki	-10.0197
証明	-10.02
されない	-10.0202
を開く	-10.0209
レース	-10.0211
Re	-10.0212
インポート	-10.0212
ものであり	-10.0213
情報は	-10.0214
便	-10.0214
しても	-10.0215
オーストラリア	-10.0216
把握	-10.0236
メカニズム	-10.0241
と同時に	-10.0241
際に	-10.0243
の違い	-10.0249
仲裁	-10.0251
▁b	-10.0252
天然	-10.0253
挑戦	-10.0255
MyApplication	-10.0258
セン	-10.0263
プラ	-10.0265
圧縮	-10.0266
見て	-10.0266
ルー	-10.0268
アドバイス	-10.0273
▁こちら	-10.0274
の管理	-10.0276
学会	-10.0278
汚染	-10.0281
関連する	-10.0283
周波数	-10.0283
57	-10.0284
を得	-10.0291
彼女	-10.0299
ことはありません	-10.03
37	-10.03
を使用した	-10.0309
世代	-10.0309
頻繁に	-10.032
を利用する	-10.0323
形態	-10.0331
十分に	-10.0334
仲間	-10.0334
余	-10.0335
対話	-10.0336
フィードバック	-10.0339
分割	-10.0339
複雑	-10.0341
ニューヨーク	-10.0347
応答	-10.0347
の特徴	-10.0349
最新	-10.0351
シンガポール	-10.0351
始め	-10.0356
無効	-10.0357
の実施	-10.0357
ho	-10.0357
落	-10.036
合い	-10.0363
tion	-10.0367
できること	-10.0367
商標	-10.0367
輪	-10.0369
報	-10.0372
除	-10.0372
ストーリー	-10.0375
鉄道	-10.0378
38	-10.038
port	-10.038
何が	-10.0384
たこと	-10.0384
集団	-10.0385
ブラック	-10.0385
間で	-10.0385
マネージャー	-10.0389
の前に	-10.0389
おそらく	-10.0391
金融機関	-10.0394
ブラ	-10.0395
清	-10.0399
犬	-10.04
チャット	-10.0404
であると	-10.0405
をダウンロード	-10.0408
につきましては	-10.0409
安心	-10.0411
は何	-10.0418
ものではありません	-10.0419
盤	-10.0423
立場	-10.0425
美術	-10.0426
66	-10.0429
なさい	-10.0431
規格	-10.0432
子供たち	-10.0432
下の	-10.0435
実際には	-10.0435
AN	-10.0437
代替	-10.0441
di	-10.0443
太	-10.0444
収	-10.0447
造	-10.0449
と同様に	-10.0449
ボディ	-10.0449
事業の	-10.045
銀	-10.0451
していきます	-10.0451
無料の	-10.0454
苦	-10.0459
計測	-10.046
江	-10.0461
ちょうど	-10.0466
少ない	-10.0468
いただいた	-10.0468
▁24	-10.0469
そのまま	-10.0473
に接続	-10.0479
得	-10.0483
を選択して	-10.0486
×	-10.0487
バンド	-10.0492
プロジェクトの	-10.0495
霊	-10.0498
カテゴリ	-10.0498
た場合	-10.05
2021	-10.05
OK	-10.05
ッド	-10.0501
米国の	-10.0507
商業	-10.0509
der	-10.051
問題は	-10.0512
製品は	-10.0514
べ	-10.0514
チャ	-10.052
勉強	-10.0522
最適化	-10.0527
39	-10.0528
と言う	-10.0529
署名	-10.0529
一方で	-10.0535
アルゴリズム	-10.0537
設立	-10.0539
▁彼女は	-10.0541
豊富な	-10.0542
それから	-10.0545
日付	-10.0548
58	-10.0553
ストレス	-10.0555
ie	-10.0555
LED	-10.0556
クレジットカード	-10.0558
の主な	-10.0561
大学の	-10.0564
ノート	-10.0567
されていた	-10.0568
ループ	-10.0569
さんは	-10.057
学術	-10.057
▁Video	-10.0572
<	-10.0574
脅威	-10.0576
作家	-10.0578
だが	-10.0579
おります	-10.0583
お店	-10.0585
を購入する	-10.0591
観察	-10.06
▁通常	-10.0603
れた	-10.0603
▁Unity	-10.0604
ロンドン	-10.0605
ジョン	-10.0608
回収	-10.061
を目指す	-10.0611
住所	-10.0615
視	-10.0615
学び	-10.062
我々	-10.0621
ことができない	-10.0626
▁これで	-10.0629
著作権	-10.0631
▁OS	-10.0631
惑星	-10.0632
大人	-10.0634
キャラクター	-10.064
走	-10.064
67	-10.0642
▁多くの	-10.0642
防	-10.0646
博士	-10.0655
最後に	-10.0656
事務所	-10.066
当初	-10.0662
オリジナル	-10.0662
いく	-10.0666
切り替え	-10.0666
短い	-10.0667
▁2011	-10.067
ことなく	-10.0672
サービスを	-10.0672
バッテリー	-10.0679
過程	-10.0683
の拡大	-10.0684
するとともに	-10.0685
イタリア	-10.069
▁Apple	-10.069
文字列	-10.0691
詳細な	-10.0693
▁新	-10.0695
TE	-10.0699
などで	-10.07
▁—	-10.0703
場所で	-10.0705
せる	-10.0705
▁最後に	-10.0705
リゾート	-10.0706
類似	-10.0714
伝	-10.0716
ものは	-10.0717
懸念	-10.0717
連邦	-10.0719
比率	-10.0724
弁護士	-10.0725
ゲ	-10.0726
▁海外	-10.0728
時間の	-10.0731
子ども	-10.0733
並びに	-10.0737
緊急	-10.0738
車の	-10.0738
算	-10.0739
来る	-10.0739
ことになります	-10.0739
口座	-10.0745
らない	-10.0752
を実現する	-10.0757
ul	-10.0761
自分が	-10.0769
一つの	-10.0774
普及	-10.0776
DS	-10.0777
▁Online	-10.0777
目の	-10.0779
配布	-10.078
徐々に	-10.0782
安全保障	-10.0789
-3	-10.0794
ペン	-10.0794
を知る	-10.0797
フィルター	-10.0798
カスタマイズ	-10.0801
DI	-10.0805
照明	-10.0806
台風	-10.0812
▁同時に	-10.0817
は何ですか	-10.0817
インタビュー	-10.0818
NO	-10.0819
を支援する	-10.082
メント	-10.0822
サプライヤー	-10.0825
の製造	-10.0827
事件	-10.0829
レイアウト	-10.0832
純	-10.0832
ができる	-10.0836
を求める	-10.084
記念	-10.0856
生産性	-10.0857
航空	-10.0864
ce	-10.0871
に戻る	-10.0872
誰もが	-10.0876
につながる	-10.0877
これが	-10.0878
アルバム	-10.0884
Cookie	-10.0886
アメリカの	-10.0887
アクティビティ	-10.0888
の間で	-10.0889
単語	-10.0895
形状	-10.0898
プレーヤー	-10.09
わずか	-10.0905
技術の	-10.0917
はるかに	-10.0918
約束	-10.0919
オーバー	-10.0922
フロント	-10.0922
悪化	-10.0922
ru	-10.0924
ix	-10.0935
まり	-10.0936
の重要性	-10.0939
課	-10.0942
ていません	-10.0942
53	-10.0942
受け	-10.0942
ものと	-10.0947
ビール	-10.0947
岡	-10.0948
雲	-10.0949
のお	-10.0951
外国	-10.0953
図書館	-10.0954
キリスト	-10.0959
練習	-10.0961
フォ	-10.0961
▁データ	-10.0966
シティ	-10.0967
はとても	-10.0968
プレート	-10.0973
86	-10.0975
がありません	-10.0977
を取る	-10.0979
重要です	-10.0979
一般的に	-10.0981
桜	-10.0986
クロス	-10.099
にして	-10.0991
排出	-10.0995
こそ	-10.1
able	-10.1002
してきました	-10.1002
クロ	-10.1005
マスク	-10.1009
循環	-10.1013
きた	-10.1017
を高める	-10.1017
ka	-10.1021
割り当て	-10.1022
要請	-10.1027
▁ビジネス	-10.1027
エア	-10.1027
当事者	-10.1027
エンジニア	-10.1028
お届け	-10.103
下記の	-10.1037
依存	-10.1039
当局	-10.1046
工程	-10.1048
遠	-10.1049
ようになりました	-10.1051
に直接	-10.1052
ラベル	-10.1055
プリント	-10.1057
財団	-10.106
密	-10.1066
の方	-10.1066
持続可能な	-10.1067
ウィ	-10.1067
済	-10.1067
上記	-10.1068
膜	-10.1071
という事実	-10.1072
始める	-10.1073
魅力	-10.108
八	-10.1081
使用できます	-10.1082
関	-10.1085
グラフ	-10.1091
的で	-10.1094
エンジニアリング	-10.1094
ヘッド	-10.1096
医薬品	-10.1097
修理	-10.1101
ピー	-10.1103
を簡単に	-10.1104
しばしば	-10.1106
各国	-10.1107
支配	-10.1111
イギリス	-10.1116
いま	-10.1119
中間	-10.1122
小型	-10.113
▁Mac	-10.1134
蓄積	-10.1137
▁プロジェクト	-10.1137
演	-10.1141
時代の	-10.1141
史	-10.1147
手数料	-10.1148
言い	-10.1149
▁サービス	-10.1152
DA	-10.1156
が多く	-10.1161
52	-10.1162
▁―	-10.1163
建	-10.1163
意図	-10.1165
ip	-10.1173
ませんでした	-10.1173
子どもたち	-10.1174
絶	-10.1177
の機能	-10.1178
システムは	-10.1185
ジー	-10.1185
レーション	-10.1185
のデータ	-10.1187
プラス	-10.1188
級	-10.1191
当時	-10.1194
秋	-10.1195
リアルタイム	-10.12
▁国際	-10.1204
フォー	-10.1205
のホテル	-10.1207
2008	-10.1209
を開始	-10.1214
まれ	-10.1215
mi	-10.122
免疫	-10.1224
香	-10.1228
インターフェイス	-10.1229
されていません	-10.123
なくても	-10.1232
Default	-10.1235
解決策	-10.1245
市場で	-10.1245
警告	-10.1246
ight	-10.1249
を使用しています	-10.125
▁Ch	-10.1251
の下に	-10.1253
の経験	-10.1254
であるため	-10.126
の発展	-10.126
発生する	-10.1263
事業者	-10.127
▁今回	-10.1271
RC	-10.1273
バル	-10.1277
行った	-10.1281
▁e	-10.1281
固	-10.1282
を必要とする	-10.1284
粒子	-10.1286
チャンス	-10.1288
SO	-10.1289
突然	-10.1289
を使用	-10.129
族	-10.1292
\	-10.1295
を学ぶ	-10.1296
港	-10.1298
下記	-10.13
さえ	-10.1304
受賞	-10.131
つき	-10.1313
にあり	-10.1314
起	-10.1319
の最初の	-10.132
弾	-10.1323
600	-10.1329
写真を	-10.1334
焼き	-10.1337
リス	-10.1338
接触	-10.1339
行政	-10.1341
中心	-10.1341
を取得する	-10.1343
sa	-10.1343
表示されます	-10.1343
インターフェース	-10.1344
短期	-10.1347
力を	-10.1348
風景	-10.1351
結婚	-10.1354
物流	-10.1355
可	-10.1355
▁それでも	-10.136
▁w	-10.1361
製作	-10.1361
招待	-10.1362
ップ	-10.1363
案内	-10.1363
ようになった	-10.1364
技術を	-10.1367
ソーシャルメディア	-10.1369
▁中国	-10.1375
は常に	-10.1376
誌	-10.1385
低下	-10.1385
被	-10.1389
それらは	-10.1391
必要に応じて	-10.1394
IA	-10.1399
フィリピン	-10.14
DVD	-10.1401
活動を	-10.1403
エクスポート	-10.1404
譲渡	-10.1406
概念	-10.141
おいしい	-10.1412
個人データ	-10.1417
アニメーション	-10.1418
ずに	-10.1418
85	-10.1419
いません	-10.1419
楽しみ	-10.142
▁Cloud	-10.142
分野の	-10.1424
正確に	-10.1425
ong	-10.1428
SI	-10.1433
せず	-10.1433
るように	-10.1433
2012	-10.1435
サイクル	-10.1436
見える	-10.1437
▁図	-10.1438
樹	-10.1441
の原因	-10.1446
ディング	-10.1448
パソコン	-10.1448
営	-10.145
害	-10.1453
更に	-10.1465
▁Se	-10.1465
てしまう	-10.1465
最も重要な	-10.1465
降	-10.1467
来た	-10.147
込んで	-10.1472
▁are	-10.1475
グラ	-10.1483
快適な	-10.1485
に追加	-10.1489
午前	-10.149
ユーロ	-10.1492
客室	-10.1494
クリーム	-10.1498
に参加	-10.15
79	-10.1501
▁最初の	-10.1502
に関わる	-10.1503
望	-10.1505
債務	-10.1507
ファー	-10.1509
▁世界	-10.1513
一致	-10.1516
本学	-10.1517
終	-10.1518
を追加する	-10.1521
給	-10.1522
有機	-10.1526
チームは	-10.1529
などが	-10.153
血液	-10.1535
分類	-10.1535
当たり	-10.1536
ブック	-10.1537
ジョ	-10.1539
辺	-10.1539
-4	-10.154
続いて	-10.1541
▁オンライン	-10.1541
ーン	-10.1542
証拠	-10.1545
必要はありません	-10.1549
したもの	-10.1556
▁21	-10.1557
77	-10.1558
ていて	-10.156
題	-10.1561
深刻な	-10.1562
面白い	-10.1565
になると	-10.1568
てくれる	-10.1571
治	-10.1571
FI	-10.1574
網	-10.1577
われ	-10.1582
を見つけ	-10.1586
月から	-10.1587
暮らし	-10.1589
洗浄	-10.1589
全く	-10.159
忘れ	-10.159
自ら	-10.1595
▁Wiki	-10.1597
リサイクル	-10.1597
ホワイト	-10.1597
居	-10.1599
変数	-10.1601
▁Con	-10.1605
はない	-10.1606
気候	-10.1608
プレゼンテーション	-10.161
強度	-10.1612
の役割	-10.1613
グラフィック	-10.1614
するのは	-10.1614
▁(3)	-10.1615
DE	-10.162
津	-10.1621
をご	-10.1621
だと思います	-10.1625
湯	-10.1626
許	-10.1627
を使用し	-10.1631
続ける	-10.1631
の中心	-10.1632
適	-10.1634
の範囲	-10.1638
使い	-10.1638
等を	-10.164
スケール	-10.1645
決	-10.1645
半導体	-10.1645
にお	-10.1648
輸入	-10.1649
行われ	-10.165
file	-10.165
▁今日	-10.1651
▁Le	-10.1655
の写真	-10.1656
VPN	-10.1657
▁概要	-10.166
bo	-10.166
ET	-10.1661
スクリプト	-10.1662
となって	-10.1663
トー	-10.1664
ty	-10.1665
モノ	-10.1665
を経て	-10.1667
追	-10.1671
獲得	-10.1677
もちろん	-10.1681
寄付	-10.1683
私達の	-10.1685
学ぶ	-10.1685
巻	-10.1687
ミン	-10.1698
レーザー	-10.1699
▁私が	-10.1713
▁Mo	-10.1716
場合に	-10.1717
軽	-10.1719
プロフィール	-10.172
150	-10.172
▁>	-10.1724
アーカイブ	-10.1729
脂肪	-10.1731
のに役立ちます	-10.1731
ますます	-10.1732
のほか	-10.1732
41	-10.1732
閉じ	-10.1733
炎	-10.1734
繰り返し	-10.1735
分散	-10.1738
da	-10.1738
が含まれます	-10.174
68	-10.1741
チャレンジ	-10.1741
広い	-10.1746
けど	-10.1751
起こ	-10.1751
歩	-10.1755
耳	-10.1757
さらなる	-10.1759
2009	-10.176
神様	-10.1766
だけではなく	-10.1766
モーター	-10.1767
していません	-10.1773
一日	-10.1776
を理解し	-10.1781
犯罪	-10.1783
陽	-10.1784
jp	-10.1789
段階で	-10.1792
時間が	-10.1794
▁2010	-10.1797
タッチ	-10.1798
させること	-10.1798
不安	-10.18
ガバナンス	-10.18
▁同	-10.1803
地域で	-10.1803
クリ	-10.1804
状態で	-10.1805
いつ	-10.1807
とか	-10.1807
【	-10.1809
同様の	-10.1812
▁これら	-10.1812
PR	-10.1813
スイス	-10.1816
あと	-10.1823
提携	-10.1823
高品質の	-10.1823
▁サポート	-10.1827
▁プライバシーポリシー	-10.1827
姿	-10.1828
と考えています	-10.1828
高級	-10.1837
ダイアログ	-10.1838
に変更	-10.1838
姿勢	-10.1839
クリスマス	-10.184
800	-10.1842
以前	-10.1843
▁THE	-10.1843
▁Inc	-10.1843
▁x	-10.1844
オンラインで	-10.185
はまた	-10.185
執行	-10.1854
の各	-10.1854
たちが	-10.1855
経済的	-10.1856
キロ	-10.1865
液体	-10.187
まさに	-10.1872
トロ	-10.1872
皆	-10.1875
まる	-10.1879
信仰	-10.188
行われます	-10.188
すなわち	-10.1886
入学	-10.1888
さんの	-10.1889
押し	-10.189
間に	-10.1893
ユ	-10.1893
ますが	-10.1893
原料	-10.1895
防災	-10.1896
洋	-10.1898
もない	-10.1901
できるよう	-10.1901
ずっと	-10.1902
の導入	-10.1903
市場の	-10.1905
蔵	-10.1907
事前	-10.1908
ホット	-10.1912
の動き	-10.1918
em	-10.1923
▁株式会社	-10.1923
静	-10.1926
っと	-10.1931
除去	-10.1932
助	-10.1934
にわたって	-10.1936
▁5.	-10.1948
を求め	-10.1951
寄せ	-10.1955
旨	-10.1955
枚	-10.1962
のサイズ	-10.1963
▁これが	-10.1963
2)	-10.1965
になるでしょう	-10.1975
数は	-10.1976
ましたが	-10.1976
到着	-10.1977
創造	-10.1977
を作成	-10.1981
The	-10.1982
まま	-10.1986
Apple	-10.1988
明るい	-10.1988
は約	-10.1993
BA	-10.1996
本サービス	-10.1996
作用	-10.2002
筋肉	-10.2003
を促進する	-10.2004
LO	-10.2009
過去の	-10.201
大臣	-10.201
伸び	-10.201
“	-10.2011
88	-10.2011
香り	-10.2013
メソッド	-10.2014
含まれ	-10.2017
グル	-10.2017
対処	-10.2018
フェスティバル	-10.2018
企業は	-10.202
登場	-10.202
大手	-10.2022
世界に	-10.2022
レベルで	-10.2024
選	-10.2025
LA	-10.2028
先端	-10.2029
一定の	-10.2031
酒	-10.2032
日常	-10.2032
た後	-10.2034
ジャー	-10.2035
モニタリング	-10.2039
▁当社	-10.2039
スタジオ	-10.2045
TS	-10.2045
東京都	-10.2047
51	-10.2048
を目指し	-10.2051
カレンダー	-10.2053
に保存	-10.2057
商品の	-10.2059
華	-10.2061
シンプルな	-10.2062
締結	-10.2063
KB	-10.2066
乱	-10.2068
京	-10.2069
ないこと	-10.2069
がある場合は	-10.2071
iOS	-10.2072
を受けて	-10.2075
恐れ	-10.2075
セックス	-10.2075
つか	-10.2076
取り付け	-10.208
PI	-10.2083
筋	-10.2084
EP	-10.2085
▁Vol	-10.2093
があれば	-10.2093
電池	-10.2093
▁25	-10.2099
面積	-10.21
スク	-10.21
合う	-10.21
が出	-10.2103
ものに	-10.2107
留学生	-10.2108
トランス	-10.2109
薬物	-10.211
om	-10.211
利用できる	-10.2111
プリ	-10.2111
VR	-10.2112
ける	-10.2112
依頼	-10.2116
支持	-10.2118
▁ID	-10.2119
これまでの	-10.212
は通常	-10.2122
させた	-10.2124
高く	-10.2128
▁ただ	-10.213
重量	-10.213
▁'	-10.2131
レンズ	-10.2135
焼	-10.2136
赤ちゃん	-10.2137
パートナーシップ	-10.2137
ob	-10.2137
工事	-10.214
ることで	-10.2147
科学技術	-10.2152
分野で	-10.2152
森林	-10.2152
に含まれる	-10.2153
を楽しむ	-10.2153
第二	-10.2155
印	-10.2157
世界で	-10.2158
一体	-10.216
be	-10.216
OR	-10.2164
▁はい	-10.2166
ばかり	-10.2167
ウェイ	-10.2168
お勧め	-10.217
▁do	-10.2176
買	-10.2179
進行	-10.218
を行うこと	-10.2184
革新的な	-10.2189
新鮮な	-10.2192
In	-10.2194
ボリューム	-10.22
銅	-10.2202
知っている	-10.2203
を完全に	-10.2207
▁注	-10.221
庭	-10.221
を守る	-10.2211
を含め	-10.2214
ジュエリー	-10.2214
すぎる	-10.2218
当社グループの	-10.2218
の取り組み	-10.2221
しようと	-10.2224
解説	-10.2232
一人	-10.2237
シフト	-10.2239
思い出	-10.2241
を達成	-10.2242
人類	-10.2248
奥	-10.2248
決算	-10.2249
属性	-10.225
働く	-10.2256
どこ	-10.2257
ビタミン	-10.2261
巨大な	-10.2262
※	-10.2263
95	-10.2265
遅れ	-10.227
キング	-10.2274
移転	-10.2277
log	-10.2284
次に	-10.2284
所有者	-10.2286
▁米国	-10.2288
が高く	-10.2289
やその他の	-10.229
解釈	-10.2294
確保	-10.2294
のひとつ	-10.2299
サプライチェーン	-10.23
キャンパス	-10.2301
今回	-10.2302
砂	-10.2307
開く	-10.231
きます	-10.2313
を開始する	-10.2316
を選択	-10.2319
繊維	-10.2321
そこで	-10.2321
ダン	-10.2321
▁IP	-10.2322
水素	-10.2323
アクティブ	-10.233
為	-10.2331
の活動	-10.234
ven	-10.2347
プロトコル	-10.2349
お使いの	-10.235
散	-10.2355
外観	-10.2359
を考える	-10.236
を実施	-10.2364
マニュアル	-10.2368
誰	-10.237
ませ	-10.237
決議	-10.2371
iPad	-10.2372
グローバルな	-10.2372
プレビュー	-10.2376
▁ホテル	-10.2377
白い	-10.238
スキー	-10.2381
を取り除く	-10.2382
明治	-10.2399
実証	-10.2399
腸	-10.24
侵害	-10.2402
警察	-10.2404
られました	-10.2404
II	-10.2404
所有	-10.2405
チュ	-10.241
ゾーン	-10.2411
を適用	-10.2412
現代の	-10.2412
」、「	-10.2413
ステークホルダー	-10.2418
印象	-10.2419
ボランティア	-10.242
ーション	-10.242
するという	-10.242
張	-10.2423
財政	-10.2424
DR	-10.2426
のおかげで	-10.2428
向けに	-10.2428
排出量	-10.2433
予定です	-10.2437
▁Me	-10.2443
▁CMS	-10.2443
あたり	-10.2448
進め	-10.2448
ペア	-10.2448
DB	-10.2448
フォト	-10.245
現状	-10.245
すぎ	-10.2456
出発	-10.2457
CM	-10.2458
ブリ	-10.2461
生地	-10.2465
折	-10.2466
住	-10.2471
▁have	-10.2473
ライフ	-10.2475
▁To	-10.2476
RA	-10.2476
レット	-10.2478
物価	-10.2479
少	-10.248
いわゆる	-10.2481
ノー	-10.2484
日まで	-10.2491
サイトの	-10.2496
マレーシア	-10.2497
96	-10.2498
敵	-10.2499
続き	-10.2499
あなたを	-10.2502
che	-10.2507
寄	-10.251
を再	-10.2511
IoT	-10.2518
をさらに	-10.2525
然	-10.2527
粉	-10.2528
案件	-10.2529
を理解する	-10.2529
AV	-10.2529
仕上げ	-10.2529
舞台	-10.2529
切断	-10.253
ga	-10.2536
話す	-10.2538
出荷	-10.2542
微	-10.2546
ゴールド	-10.2548
ake	-10.2549
売上	-10.255
で最も	-10.2553
2007	-10.2557
ow	-10.2559
選定	-10.256
追跡	-10.2561
の位置	-10.2561
得られた	-10.2562
適切に	-10.2567
he	-10.2568
糸	-10.2569
守	-10.2571
緩和	-10.2576
目的で	-10.2577
であっても	-10.2578
養	-10.258
センサ	-10.2582
両方の	-10.2583
つながり	-10.2587
魅力的な	-10.259
目に	-10.2591
ハード	-10.2591
カップ	-10.2591
がある場合	-10.2593
チェ	-10.2596
本部	-10.2601
シナリオ	-10.2606
復興	-10.2606
パラ	-10.2609
の流れ	-10.2611
クト	-10.2612
寝	-10.2612
人物	-10.2616
投票	-10.2618
者に	-10.2619
協議	-10.2619
食べ物	-10.2622
ダブル	-10.2628
の場所	-10.2628
ブラジル	-10.2631
をインストール	-10.2633
と判断	-10.2633
療法	-10.2637
を変え	-10.2637
72	-10.2638
mail	-10.2639
ント	-10.2641
お気に入りの	-10.2642
始めた	-10.2648
情	-10.2652
週	-10.2652
真の	-10.2652
牛	-10.2653
家具	-10.2659
電話番号	-10.2659
祈り	-10.2664
act	-10.2666
わない	-10.2667
差し	-10.2667
抽出	-10.2671
のサポート	-10.2672
GA	-10.2672
メリット	-10.2673
カタログ	-10.2675
ステータス	-10.2675
財	-10.2676
TV	-10.268
若者	-10.268
できるだけ	-10.268
真実	-10.2686
分け	-10.2687
63	-10.2688
▁22	-10.2689
▁なぜ	-10.2693
2013	-10.2695
研究室	-10.2698
主張	-10.2702
低減	-10.2705
ステ	-10.2705
温	-10.2705
行われる	-10.2712
あげ	-10.2712
配慮	-10.2713
政府は	-10.2719
▁ユーザー	-10.2719
ノイズ	-10.2724
簡単です	-10.2724
にかけて	-10.2726
の皆様	-10.2727
好き	-10.2728
吸収	-10.2731
自身	-10.2732
の評価	-10.2732
にいる	-10.2732
を減らす	-10.2732
臨床	-10.2732
プレス	-10.2733
有効な	-10.2736
福	-10.2738
au	-10.2739
猫	-10.274
保全	-10.274
従	-10.2741
感染症	-10.2742
することです	-10.2746
若	-10.2749
人気の	-10.2751
の取得	-10.2753
リアル	-10.2753
単純な	-10.2754
徒歩	-10.2756
あった	-10.2756
69	-10.2757
援助	-10.276
コンサルティング	-10.2766
習慣	-10.2767
つけ	-10.2768
ローマ	-10.2768
講義	-10.2772
ba	-10.2773
昭和	-10.2775
改正	-10.2775
コネクタ	-10.2776
SS	-10.2776
との関係	-10.2778
パーティー	-10.278
高度	-10.278
モー	-10.278
意思決定	-10.2783
エージェント	-10.2785
考える	-10.2786
ear	-10.2787
ni	-10.2791
くらい	-10.2793
遊	-10.2797
景気	-10.2799
新聞	-10.28
Qu	-10.28
クリップ	-10.2801
用語	-10.2803
▁実際	-10.2807
!!	-10.2809
の色	-10.2809
ポートフォリオ	-10.2813
2010	-10.2818
残り	-10.282
代わりに	-10.2822
クーポン	-10.2823
無線	-10.2826
かつて	-10.2826
を削除する	-10.2833
がどのように	-10.2835
が可能	-10.2835
及	-10.284
▁Home	-10.2842
RI	-10.2843
つは	-10.2844
に対応	-10.2844
顧客の	-10.2848
に入れ	-10.2851
玉	-10.2851
オブ	-10.2851
▁以下の	-10.2852
合わせ	-10.2854
皿	-10.2857
ソー	-10.2858
域	-10.286
させていただきます	-10.286
容器	-10.2861
こんな	-10.2861
バラ	-10.2867
まったく	-10.2867
の情報	-10.287
ノウハウ	-10.287
OL	-10.287
冷却	-10.2874
ベン	-10.2876
が必要な	-10.2876
一連の	-10.2877
湿	-10.2883
お客様は	-10.2883
プル	-10.2884
-8	-10.2886
向き	-10.2888
▁La	-10.2888
Nucleus	-10.2891
接	-10.2891
基金	-10.2892
便利です	-10.2893
チェーン	-10.2895
ない場合は	-10.2897
2011	-10.2901
だから	-10.2908
▁このため	-10.2908
しなければなりません	-10.2908
なのか	-10.2914
に対応する	-10.2916
息	-10.2919
62	-10.2919
を確認	-10.2919
クス	-10.2919
させます	-10.292
してから	-10.2924
▁詳細	-10.2928
が提供する	-10.2928
ニング	-10.2929
せずに	-10.293
シングル	-10.2931
好み	-10.2932
▁アメリカ	-10.2936
底	-10.2938
振動	-10.2941
なっている	-10.2946
しっかりと	-10.2949
ick	-10.2952
コーティング	-10.2957
作品を	-10.2959
を向上させる	-10.2962
iz	-10.2963
であることを	-10.2964
プラント	-10.2965
▁お知らせ	-10.2966
時点	-10.297
河	-10.2976
予	-10.2976
Vendor	-10.2981
疑問	-10.2985
▁Japanese	-10.2991
込んだ	-10.2994
エコ	-10.2996
▁Hotel	-10.2997
タブレット	-10.2997
放射線	-10.2997
手続	-10.2997
▁was	-10.2999
コンテナ	-10.3001
大規模	-10.3003
問	-10.3004
CE	-10.3006
の組み合わせ	-10.3007
似	-10.3008
▁pro	-10.3011
派遣	-10.3011
売上高	-10.3013
ain	-10.3013
価	-10.3014
選挙	-10.3015
3000	-10.3017
宿	-10.3017
▁23	-10.3022
相当	-10.3027
修	-10.3028
クル	-10.3029
定める	-10.3032
貸	-10.3034
IR	-10.3035
政府の	-10.3036
することによって	-10.3036
する場合は	-10.304
▁Vi	-10.3042
RP	-10.3047
人々に	-10.3047
そんな	-10.3047
果	-10.3048
を作り	-10.3048
と考え	-10.3053
育	-10.3054
の準備	-10.3058
加熱	-10.306
視点	-10.3062
トラフィック	-10.3063
ことができました	-10.3064
ton	-10.3065
API	-10.3074
FA	-10.3075
指定された	-10.3077
人工	-10.3077
委員	-10.308
きました	-10.3081
持	-10.3082
使用されている	-10.3089
の説明	-10.3089
内蔵	-10.309
地元	-10.3091
効率的な	-10.3092
パート	-10.3093
を作成します	-10.3094
URL	-10.3094
ことができません	-10.3094
名称	-10.3097
▁す	-10.3101
急速に	-10.3105
というのは	-10.3107
$	-10.3107
会長	-10.3107
プレミアム	-10.3108
政	-10.311
76	-10.3111
手に	-10.3111
司	-10.3116
をサポートする	-10.3117
想像	-10.3117
提供する	-10.3117
▁そんな	-10.3121
の実現	-10.3122
市の	-10.3123
市内	-10.3128
致します	-10.3128
志	-10.3129
眼	-10.3134
につき	-10.3137
マス	-10.3138
行って	-10.314
講師	-10.3141
ハンド	-10.3143
突	-10.3147
駐車場	-10.3153
を行っている	-10.3153
信用	-10.3154
キット	-10.3155
ポスト	-10.3155
nd	-10.3157
に登録	-10.3159
ようと	-10.3163
min	-10.3166
物理	-10.317
ピーク	-10.3172
全員	-10.3173
LI	-10.3178
▁Microsoft	-10.318
聖書	-10.3184
▁システム	-10.3187
頼	-10.3193
吉	-10.3193
オリンピック	-10.3196
に貢献する	-10.3196
次世代	-10.3197
半分	-10.3201
気分	-10.3205
ラム	-10.3205
券	-10.3207
池	-10.3207
強制	-10.3209
NA	-10.3209
を完了	-10.321
独立した	-10.321
▁PC	-10.321
録音	-10.3212
オイル	-10.3213
を集め	-10.3215
考え方	-10.3216
互換性	-10.3217
61	-10.3219
休	-10.3219
初の	-10.3221
の販売	-10.3222
日々	-10.3222
を考え	-10.3225
延長	-10.3225
ワー	-10.3227
時々	-10.3227
データは	-10.323
委託	-10.3232
てい	-10.3235
-5	-10.3244
オファー	-10.3244
ED	-10.3244
分布	-10.3245
の成長	-10.3246
ポンプ	-10.3246
革命	-10.3247
命令	-10.3248
打ち	-10.3249
デモ	-10.3251
出展	-10.3252
専攻	-10.3253
カ国	-10.3255
月末	-10.3255
てまいります	-10.3257
78	-10.3258
▁サイト	-10.3264
lic	-10.3267
水の	-10.3269
▁Print	-10.3269
北京	-10.3271
ci	-10.3271
海岸	-10.3272
推定	-10.3272
仕組み	-10.3273
山の	-10.3276
があること	-10.3279
氷	-10.3279
の長さ	-10.3279
例外	-10.3283
1)	-10.3285
do	-10.3288
お支払い	-10.3288
順	-10.3291
他に	-10.3292
ことになる	-10.3292
LINE	-10.3294
識別	-10.3298
破損	-10.3304
スクール	-10.3306
混乱	-10.3308
兼	-10.3308
生じる	-10.3311
性の	-10.3312
ence	-10.3316
(1	-10.3317
された場合	-10.3325
自社	-10.3325
財産	-10.3328
知見	-10.3331
責任者	-10.3335
ジン	-10.3339
対応する	-10.334
DO	-10.3341
里	-10.3343
▁主な	-10.3343
#	-10.3343
農	-10.3345
ことを意味します	-10.3345
贈り物	-10.3348
▁上記の	-10.3348
を削除	-10.3349
の追加	-10.3362
社は	-10.3363
食べ	-10.3363
をはじめとする	-10.3365
参	-10.3367
これから	-10.3367
陸	-10.337
人を	-10.3371
るべき	-10.3373
加速	-10.3377
競争力	-10.3381
に取り組む	-10.3385
▁Lo	-10.3387
寿命	-10.3393
ヒント	-10.3393
の表示	-10.3395
技	-10.3396
▁Utility	-10.3397
はもちろん	-10.3397
カジノ	-10.3402
アプリケーションの	-10.3404
用意	-10.3405
面で	-10.3406
をして	-10.3408
システムを	-10.3409
ものが	-10.3411
個人的な	-10.3412
tra	-10.3417
戸	-10.3419
の目的	-10.3419
グリ	-10.3422
を選択してください	-10.3423
▁st	-10.3425
小さく	-10.343
テロ	-10.3432
脆弱性	-10.3432
用に	-10.3434
CI	-10.3435
ちょっと	-10.3436
会合	-10.3442
施策	-10.3444
WiFi	-10.3448
使用できる	-10.3448
▁でも	-10.3449
を強化し	-10.3449
ぬ	-10.3451
MB	-10.3453
▁64-	-10.3454
ようになります	-10.3458
訴訟	-10.346
多様性	-10.346
発信	-10.346
竹	-10.3461
分解	-10.3462
胸	-10.3462
覚	-10.3471
単	-10.3473
売却	-10.3474
他の人	-10.3475
段	-10.3477
にする	-10.348
オランダ	-10.3481
ダイヤモンド	-10.3484
取り扱い	-10.3487
▁そう	-10.3489
▁can	-10.3495
▁Tr	-10.3497
を実施し	-10.3498
早	-10.3498
仮	-10.3501
初心者	-10.3504
買い	-10.3506
コンソール	-10.3509
導	-10.3511
両親	-10.3513
所属	-10.3514
RT	-10.3516
でしたが	-10.3518
利用できます	-10.3521
則	-10.3522
が非常に	-10.3524
出席	-10.3524
量の	-10.3526
ph	-10.3528
ったり	-10.3532
至	-10.3533
柱	-10.3537
仕	-10.3538
CT	-10.354
宝	-10.3541
投	-10.3546
さない	-10.3549
育成	-10.3551
遊び	-10.3552
美しく	-10.3558
▁これらは	-10.356
留	-10.3561
栽培	-10.3561
使用されています	-10.3563
想定	-10.3563
数の	-10.3564
のウェブサイト	-10.3569
処分	-10.3569
の権利	-10.357
変革	-10.3573
フード	-10.3573
ない場合	-10.3573
生まれた	-10.3574
縁	-10.3576
母親	-10.3577
分間	-10.3582
次元	-10.3582
そういう	-10.3583
党	-10.3583
を引き	-10.3583
IM	-10.3584
ポー	-10.3586
字	-10.3586
ner	-10.3586
▁So	-10.3587
を表示する	-10.3589
フォント	-10.3589
の基礎	-10.3589
開発した	-10.3591
を示します	-10.3591
が大きく	-10.3591
倫理	-10.3595
に従い	-10.3595
テック	-10.3595
チーズ	-10.3596
転換	-10.3599
メキシコ	-10.3601
の一	-10.3602
▁28	-10.3604
▁JAPAN	-10.3606
からも	-10.3606
▁Data	-10.3607
プログラムの	-10.3609
問い合わせ	-10.3611
安定した	-10.3613
を決定する	-10.3613
ドラッグ	-10.3614
正しく	-10.3616
に最適な	-10.3619
術	-10.3626
ビン	-10.3627
情報が	-10.363
政権	-10.3635
うち	-10.3635
誰も	-10.3638
qu	-10.3641
No	-10.3642
▁キーワード	-10.3643
受付	-10.3645
▁写真	-10.3646
格	-10.3648
IL	-10.365
習	-10.3654
戦い	-10.3657
va	-10.366
食べる	-10.3661
SM	-10.3664
▁このように	-10.3666
▁$	-10.3667
トレンド	-10.3667
くる	-10.3668
絵画	-10.3668
を変える	-10.367
Microsoft	-10.3672
広島	-10.3677
互いに	-10.3678
世界的な	-10.3679
デフォルト	-10.3679
話を	-10.368
再度	-10.3681
を推進し	-10.3682
包	-10.3685
CEO	-10.3688
6000	-10.3691
EV	-10.3692
抗	-10.3695
ード	-10.3696
稼働	-10.3696
公演	-10.3697
計上	-10.3699
研究成果	-10.3702
写	-10.3703
もう一度	-10.3703
神社	-10.3706
共同研究	-10.3707
ことが重要です	-10.3711
の一環として	-10.3714
長さ	-10.3716
ヨ	-10.3716
搭載	-10.3716
殺	-10.3721
タイミング	-10.3728
鋼	-10.3732
改	-10.3739
所得	-10.3739
を読む	-10.374
消え	-10.374
ウェア	-10.3741
SU	-10.3741
使える	-10.3745
駆動	-10.3745
出版	-10.3746
知る	-10.3746
百	-10.3747
衛生	-10.3751
の高さ	-10.3751
痛み	-10.3753
リース	-10.3766
最小	-10.3766
待ち	-10.3768
TI	-10.3768
自由に	-10.3769
雑誌	-10.3769
くなる	-10.3774
なしに	-10.3775
ご予約	-10.3775
Intel	-10.3778
間違いなく	-10.3779
商品を	-10.3783
トークン	-10.3786
キーボード	-10.3786
シア	-10.3787
hu	-10.3788
統一	-10.3789
フラ	-10.379
硬	-10.3791
皆さん	-10.3792
雄	-10.3793
佐	-10.3793
負債	-10.3794
LAN	-10.3794
偽	-10.3797
▁実際に	-10.3797
あなた方	-10.3804
誰か	-10.3804
長い間	-10.3806
するよう	-10.3808
などに	-10.3811
当時の	-10.3812
残りの	-10.3812
ワールド	-10.3814
終わり	-10.3814
ミー	-10.3817
決め	-10.3819
ti	-10.3819
備	-10.3821
トーク	-10.3822
採	-10.3823
を探す	-10.3827
個人情報を	-10.383
ソーシャル	-10.3832
日本銀行	-10.3832
▁ある	-10.3832
の中の	-10.3833
▁An	-10.3833
これまでに	-10.3835
▁Citrix	-10.3839
プロダクト	-10.3839
買収	-10.3841
のみならず	-10.3841
自転車	-10.3842
ax	-10.3843
ens	-10.3845
0000	-10.3848
を置く	-10.3853
▁彼の	-10.3853
太平洋	-10.3853
勤務	-10.3854
大切な	-10.3855
融資	-10.3856
主催	-10.3857
話し	-10.3859
の対象	-10.3862
セットアップ	-10.3863
ファイルが	-10.3863
の生活	-10.3865
▁from	-10.3866
取組	-10.3866
信頼できる	-10.3868
落ち	-10.3869
ナノ	-10.3871
民族	-10.3876
現金	-10.388
娘	-10.3883
にわたる	-10.3883
ペット	-10.3886
黄色	-10.3887
職場	-10.3888
▁OF	-10.3892
▁g	-10.3892
乗り	-10.3897
▁Graphics	-10.3901
彼に	-10.3901
確定	-10.3902
87	-10.3904
レイヤー	-10.3905
89	-10.3906
増え	-10.3908
2006	-10.3915
遠く	-10.3916
の中から	-10.3916
鼻	-10.3916
OT	-10.3917
彫刻	-10.3919
念	-10.392
の発生	-10.3921
チャー	-10.3927
靴	-10.3929
シンポジウム	-10.3938
るため	-10.394
詳しく	-10.394
1/	-10.3944
永	-10.3944
化する	-10.3947
▁at	-10.3948
りました	-10.3948
当日	-10.3949
デイ	-10.3949
最低	-10.3952
°	-10.3953
濃度	-10.3953
短	-10.3954
行使	-10.3955
mon	-10.3955
感じる	-10.3959
ファイ	-10.3963
上場	-10.3965
外交	-10.3965
と言って	-10.3966
デー	-10.3966
ブース	-10.397
詩	-10.3971
融合	-10.3972
変わり	-10.3972
が発生する	-10.3973
▁アカウント	-10.3973
▁26	-10.3974
全体で	-10.3975
化された	-10.3975
の減少	-10.3976
ud	-10.3976
を使い	-10.3977
への対応	-10.3981
高齢者	-10.3981
富	-10.3987
を検索	-10.3987
対象者	-10.3991
」(	-10.3992
巻き	-10.3995
聴	-10.3996
2005	-10.3997
読	-10.4002
に表示されます	-10.4002
ass	-10.4009
高さ	-10.4011
なお	-10.4014
の生産	-10.4017
ヘルプ	-10.4022
郡	-10.4028
過ぎ	-10.4029
わからない	-10.4031
幸せ	-10.4031
基本方針	-10.4034
sk	-10.4038
CS	-10.4041
厳	-10.4043
の関係	-10.4044
まして	-10.4044
隊	-10.4045
gu	-10.4057
続け	-10.4059
▁これまで	-10.4059
キャンプ	-10.4063
人事	-10.4068
を除く	-10.407
になること	-10.4072
キッチン	-10.4072
果物	-10.4077
作成した	-10.4077
sc	-10.4077
の設計	-10.4078
影	-10.408
複合	-10.408
に記載	-10.408
共	-10.4084
使用される	-10.4084
通販	-10.409
是非	-10.4091
ary	-10.4093
98	-10.4094
ko	-10.4098
消去	-10.4101
テープ	-10.4107
ターミナル	-10.4107
歳の	-10.411
▁拡張子に	-10.4114
個の	-10.4114
社会の	-10.4115
保守	-10.4115
ice	-10.4116
疑	-10.4116
PO	-10.4117
ans	-10.412
パック	-10.4121
ナン	-10.4121
医	-10.4121
削除された	-10.4122
の助けを借りて	-10.4123
庭園	-10.4129
▁今回は	-10.4129
いかに	-10.413
YouTube	-10.4133
▁6.	-10.4138
入手	-10.4139
▁not	-10.4141
の魅力	-10.4143
BC	-10.4148
以前の	-10.4152
CSR	-10.4154
礼	-10.4154
劇場	-10.4155
近年	-10.4156
万円	-10.4161
結果は	-10.4164
ところで	-10.417
装	-10.4172
やって	-10.4173
を対象に	-10.4177
困難な	-10.4178
ニア	-10.4178
上部	-10.4183
プレ	-10.4184
大量の	-10.4184
here	-10.4185
トイレ	-10.4185
av	-10.4188
時間は	-10.4199
だけが	-10.4199
どちら	-10.42
問題を	-10.4201
plugins	-10.4201
PE	-10.4203
されている場合	-10.4203
周	-10.4204
ケーキ	-10.4205
挿入	-10.4206
アド	-10.4207
必ずしも	-10.4211
積極的な	-10.4212
角度	-10.4214
ベー	-10.4217
2%	-10.422
ディレクター	-10.4223
見学	-10.4224
ボー	-10.4228
配当	-10.4228
ビア	-10.423
らせ	-10.4233
置	-10.4233
でない	-10.4234
応	-10.4236
ユーザーに	-10.4238
いただける	-10.4238
▁彼らの	-10.4239
ラップトップ	-10.4239
に影響を与える	-10.424
都	-10.424
ご利用いただけます	-10.4241
坂	-10.4241
シャツ	-10.4242
従業員の	-10.4245
するもの	-10.4247
インスタンス	-10.4249
アクセサリー	-10.4251
程	-10.4252
ound	-10.4252
によって異なります	-10.4254
支出	-10.4255
▁Al	-10.4255
97	-10.4256
殿	-10.4257
科目	-10.4262
に従う	-10.4263
理由は	-10.4263
.4	-10.4263
取る	-10.4267
弁	-10.4268
ート	-10.4269
の人々	-10.4269
を伴う	-10.4269
シェル	-10.427
の多くは	-10.4274
湾	-10.4275
マクロ	-10.4276
を読み	-10.4279
進歩	-10.4279
最終的に	-10.4281
スロット	-10.4285
を続け	-10.4285
の推進	-10.4287
2.	-10.4292
見え	-10.4292
を残し	-10.4294
北海道	-10.4295
ult	-10.4298
三菱	-10.4298
出資	-10.4301
▁Ad	-10.4301
のメンバー	-10.4302
撃	-10.4302
▁今後	-10.4302
続く	-10.4304
あなたがた	-10.4304
たちの	-10.4306
の品質	-10.4307
▁27	-10.4312
そこから	-10.4312
品種	-10.4313
コンサート	-10.4314
キーワード	-10.4316
益	-10.4318
携帯	-10.4319
眠	-10.432
ヴァ	-10.4321
下げ	-10.4326
時代に	-10.4327
oo	-10.4328
マッサージ	-10.433
プログラムは	-10.4331
pe	-10.4331
の間の	-10.4332
始まり	-10.4332
期限	-10.4333
勝利	-10.4334
起こる	-10.4334
丘	-10.4335
共和国	-10.4336
適応	-10.4336
NS	-10.4337
のインストール	-10.4339
結び	-10.4342
シス	-10.4343
各地	-10.4348
国内外の	-10.4349
ショ	-10.435
大使館	-10.4352
動向	-10.4352
、2020	-10.4355
リセット	-10.4357
▁News	-10.4358
▁App	-10.436
展覧会	-10.4366
を迎え	-10.4367
月には	-10.4369
主体	-10.4375
スペイン	-10.4377
去	-10.438
▁アプリケーション	-10.4383
ともに	-10.4383
q	-10.4388
の効果	-10.439
最良の	-10.4391
研	-10.4395
その結果	-10.4397
インチ	-10.4399
浮	-10.4399
慎重に	-10.4401
のレベル	-10.4403
を超え	-10.4405
職業	-10.4409
時は	-10.4412
耐	-10.4413
耐久性	-10.442
▁100	-10.442
六	-10.4421
羽	-10.4421
モニター	-10.4421
を購入	-10.4422
州の	-10.4424
死亡	-10.4425
▁We	-10.4431
ミス	-10.4432
ひとり	-10.4433
個別	-10.4434
黄	-10.4434
でもある	-10.4436
休日	-10.4437
たとえば	-10.4439
新しく	-10.4439
が行われ	-10.444
コンテンツを	-10.4441
▁”	-10.4441
our	-10.4442
を超えて	-10.4444
背	-10.4444
心臓	-10.4449
3.	-10.445
▁USB	-10.445
▁グローバル	-10.445
以内	-10.4451
▁ログイン	-10.4453
ブロックチェーン	-10.4455
陰	-10.4458
ドレス	-10.4459
以内に	-10.4464
▁PDF	-10.4468
決して	-10.4468
ポリ	-10.4468
国々	-10.4471
ひとつ	-10.4471
必要です	-10.4472
ゾ	-10.4472
への影響	-10.4473
▁私たち	-10.4475
血管	-10.4477
特殊	-10.4484
▁それらは	-10.4486
▁オプション	-10.4487
単一の	-10.4489
アニメ	-10.4495
鉱	-10.4497
1.	-10.4501
簡単	-10.4502
出した	-10.4504
試合	-10.4509
たくさん	-10.4511
1:	-10.4512
価値があります	-10.4513
▁International	-10.4513
エッジ	-10.4515
抜け	-10.4525
浜	-10.4527
に向かって	-10.4527
ランキング	-10.4529
継続的な	-10.453
ッチ	-10.4532
4000	-10.4532
フレ	-10.4535
▁2008	-10.4536
リード	-10.4538
1.5	-10.454
を確認してください	-10.4541
ビルド	-10.4543
整	-10.4543
ひと	-10.4545
毎	-10.4549
ヒト	-10.4549
監査役	-10.4549
配列	-10.455
の値	-10.4552
−	-10.4553
異なります	-10.4557
間違い	-10.4557
を維持し	-10.4558
息子	-10.4559
買い物	-10.4564
BI	-10.4565
近くの	-10.4569
ご使用	-10.457
のリスク	-10.4571
ヴ	-10.4573
洗	-10.4574
ポジション	-10.4574
▁小	-10.4576
ボーナス	-10.4577
透明性	-10.4579
同社	-10.4579
に比べて	-10.4579
議	-10.4581
お茶	-10.4583
ご注文	-10.4585
インターナショナル	-10.4586
らしい	-10.4588
を感じる	-10.4589
等により	-10.4589
を示しています	-10.4589
に比べ	-10.4596
側の	-10.4598
しよう	-10.4601
IO	-10.4602
ベルト	-10.4606
に焦点を当て	-10.461
ブランドの	-10.4612
複製	-10.4613
結果を	-10.4613
を入力します	-10.4613
さらには	-10.4613
彩	-10.4614
最近の	-10.4616
明らか	-10.4619
ゴム	-10.462
針	-10.4623
を引き起こす	-10.4624
調和	-10.4627
職員	-10.463
包括的な	-10.4636
イスラエル	-10.4639
クレジット	-10.464
ファミリー	-10.464
提供される	-10.4642
アーキテクチャ	-10.4644
ブラシ	-10.4644
CL	-10.4649
菌	-10.4651
後で	-10.4652
プロセスを	-10.4654
▁Contact	-10.4654
ないので	-10.4656
Facebook	-10.4656
メモ	-10.4658
パーツ	-10.4658
アンケート	-10.4658
流通	-10.4659
方法です	-10.466
閉	-10.4661
活性化	-10.4661
を設置し	-10.4663
残高	-10.4666
打	-10.4668
児童	-10.4669
イー	-10.4669
焦点	-10.467
横浜	-10.4671
・・・	-10.4672
▁ここ	-10.4673
▁•	-10.4675
んでいる	-10.4676
のダウンロード	-10.4676
いか	-10.4677
すべてを	-10.4677
見た	-10.4678
の全	-10.4679
ユーティリティ	-10.4679
勢	-10.4683
bi	-10.4683
を実行	-10.4684
願	-10.469
言及	-10.4695
の削減	-10.4698
ほ	-10.4699
ca	-10.4701
こちら	-10.4705
をダウンロードして	-10.4706
発達	-10.4707
隠	-10.471
ビザ	-10.4712
組み	-10.4714
いている	-10.4714
遅延	-10.4714
上海	-10.4715
うる	-10.4718
私たちに	-10.472
FO	-10.4722
iv	-10.4723
▁i	-10.4724
▁■	-10.4728
スタートアップ	-10.4729
をご利用	-10.473
ステーション	-10.4732
ina	-10.4733
絶対に	-10.4734
体重	-10.4734
コラボレーション	-10.4734
を提供すること	-10.4736
中止	-10.4736
妊娠	-10.4738
▁as	-10.474
抑制	-10.474
out	-10.475
軍事	-10.4751
徹底	-10.4751
途	-10.4757
あらゆるファイル拡張子を	-10.4758
.1	-10.4761
付きの	-10.4763
数多くの	-10.4764
築	-10.4765
跡	-10.4766
なった	-10.477
▁メニュー	-10.4771
一層	-10.4771
景色	-10.4773
発生した	-10.4778
再起動	-10.478
ロス	-10.4781
74	-10.4782
▁本文	-10.4786
ストリーム	-10.4787
痛	-10.4787
政治的	-10.4788
の回復	-10.4792
を踏まえ	-10.4796
を受け取る	-10.48
辞	-10.48
▁アプリ	-10.4807
120	-10.4809
出来る	-10.4812
休暇	-10.4816
はありますか	-10.4817
に適用	-10.4819
廃	-10.4823
ッキング	-10.4824
をクリックしてください	-10.4825
Ch	-10.4825
に対処する	-10.4826
軽減	-10.4832
Adobe	-10.4832
航空機	-10.4833
を支える	-10.4837
ミュージック	-10.4839
に同意	-10.4843
を図る	-10.4844
ポータル	-10.4845
さんが	-10.4846
なか	-10.4847
CR	-10.4849
腹	-10.4852
を活用した	-10.4855
キシ	-10.4863
81	-10.4864
を切り	-10.4866
set	-10.4866
WA	-10.4868
Twitter	-10.4875
sta	-10.4875
る必要があります	-10.4876
エイ	-10.4876
どこに	-10.4881
業界の	-10.4888
喜	-10.4888
訪問者	-10.4888
最適	-10.4889
HP	-10.4895
状況を	-10.4895
▁検索	-10.4896
ハワイ	-10.4897
Po	-10.4898
コントローラ	-10.4899
節約	-10.4902
替え	-10.4905
一般に	-10.4905
の仕事	-10.4909
ゴルフ	-10.4909
ますか	-10.491
赤い	-10.491
出来	-10.4914
を通じた	-10.4914
効率的に	-10.4916
ろう	-10.4916
有名	-10.4917
との間で	-10.4922
を大幅に	-10.4924
技術的	-10.4924
を設定します	-10.4928
独	-10.4931
Citrix	-10.4931
得られる	-10.4935
アプリケーションは	-10.4935
ore	-10.4937
性質	-10.4937
手術	-10.4937
の方々	-10.4943
リラックス	-10.4943
報道	-10.4943
カラ	-10.4945
中断	-10.4945
賃貸	-10.4946
炭素	-10.4949
スピーカー	-10.4951
家族の	-10.4952
自宅で	-10.4954
ISO	-10.4955
不正	-10.4956
ご連絡	-10.4962
ってきた	-10.4962
レンタル	-10.4964
共に	-10.4965
発明	-10.4968
関連の	-10.4968
▁Tableau	-10.4968
84	-10.4968
運	-10.4969
共通の	-10.497
▁トップ	-10.4972
2003	-10.4975
TR	-10.4975
HA	-10.4979
卒業	-10.4979
アンド	-10.4979
プロバイダー	-10.4982
チューブ	-10.4985
IF	-10.4985
のではなく	-10.4986
PM	-10.4986
北米	-10.4987
設	-10.4988
フォルダー	-10.499
mb	-10.499
鍋	-10.4992
の確保	-10.4993
甘	-10.4994
安全に	-10.4996
プログラミング	-10.4997
を学び	-10.4997
東南アジア	-10.5003
オーナー	-10.5006
▁前	-10.5007
短縮	-10.5008
欲しい	-10.5011
教室	-10.5013
を利用した	-10.5015
増大	-10.5015
ite	-10.5016
年度の	-10.5016
を紹介します	-10.5016
データが	-10.5016
前年同期比	-10.5017
▁それで	-10.5019
トルコ	-10.5019
柔軟性	-10.5022
兵	-10.5023
荷物	-10.5023
朝食	-10.5024
刻	-10.5026
本当の	-10.5029
既存	-10.503
ボトル	-10.5031
舞	-10.5032
が自動的に	-10.5036
と比較して	-10.5041
▁英語	-10.5042
をもとに	-10.5043
時刻	-10.5044
ギフト	-10.5045
に適しています	-10.5046
ファンド	-10.5051
先に	-10.5052
明確な	-10.5052
gr	-10.5055
患者の	-10.5056
、2019	-10.5057
行われた	-10.5059
を改善する	-10.506
スレッド	-10.5062
普通の	-10.5062
の保護	-10.5063
といいます	-10.5067
の花	-10.5068
▁同じ	-10.5073
ドー	-10.5075
▁サイトマップ	-10.5076
土壌	-10.5077
食材	-10.5078
に取り組んでいます	-10.5079
そのもの	-10.508
生きる	-10.5081
と思った	-10.5083
結論	-10.5084
宿泊施設	-10.5084
を進める	-10.5088
ep	-10.509
地上	-10.5093
に位置する	-10.5093
国内の	-10.5097
▁2009	-10.5102
ゲームの	-10.5106
研究センター	-10.5108
▁AND	-10.5108
ティック	-10.5113
べきである	-10.5114
▁University	-10.5114
はすでに	-10.5115
はほとんど	-10.5116
物の	-10.5116
の良い	-10.5117
限	-10.512
マイナス	-10.5121
を導入し	-10.5121
チョコレート	-10.5122
▁export	-10.5124
安定性	-10.5129
ストリート	-10.513
ator	-10.5131
周り	-10.5132
.2	-10.5136
重点	-10.514
7000	-10.5145
社外取締役	-10.5147
条項	-10.5148
ical	-10.5148
1,000	-10.515
情熱	-10.5151
8000	-10.5152
▁v	-10.5154
しま	-10.5155
することをお勧めします	-10.5157
取組み	-10.516
想	-10.5162
再生可能エネルギー	-10.5163
に従事	-10.5164
les	-10.5166
タンク	-10.5167
ハードドライブ	-10.5168
あまりにも	-10.5169
重大な	-10.5177
有料	-10.5179
結晶	-10.5179
▁50	-10.5183
確実に	-10.5183
する際に	-10.5184
を指定する	-10.5187
環境で	-10.5187
コート	-10.519
AB	-10.5191
はかなり	-10.5192
兆	-10.5192
さま	-10.5193
きっかけ	-10.5193
容易に	-10.5194
屋外	-10.52
補助	-10.52
競技	-10.5203
を開きます	-10.5204
冷蔵庫	-10.5205
とおり	-10.5207
止め	-10.521
おい	-10.5211
▁研究	-10.5212
int	-10.5212
ミング	-10.5213
▁Li	-10.5215
▁どの	-10.522
つです	-10.522
先の	-10.522
七	-10.5221
崎	-10.5222
事業活動	-10.5222
をすべて	-10.5227
久	-10.5229
二人	-10.523
られない	-10.5232
を作って	-10.5233
の治療	-10.5234
▁4000	-10.5235
キュー	-10.5236
屋根	-10.5237
形式で	-10.5237
暴力	-10.5238
ハー	-10.5242
歩く	-10.5245
UI	-10.5252
広がり	-10.5256
クエリ	-10.5257
▁about	-10.5259
パラメーター	-10.5263
進み	-10.5264
▁your	-10.5264
率は	-10.5266
▁Studio	-10.5266
飲み物	-10.5267
受け入れ	-10.5268
ない限り	-10.5269
沢	-10.5269
起こった	-10.527
込まれ	-10.5271
両国	-10.5271
実務	-10.5271
ier	-10.5272
LL	-10.5274
荒	-10.5274
二つの	-10.5276
▁Th	-10.5277
やかな	-10.5279
ページの	-10.5279
異常	-10.528
の観点から	-10.5281
飾	-10.5282
の専門家	-10.5283
▁ほとんどの	-10.5285
コイン	-10.5285
ホテルの	-10.5285
を目指します	-10.5285
に努め	-10.5295
作成された	-10.5296
確かに	-10.5296
研究科	-10.5297
充実	-10.5297
神戸	-10.5299
▁Management	-10.53
進出	-10.53
テル	-10.5302
ies	-10.5305
称	-10.5306
イオン	-10.5306
ish	-10.5307
ここでは	-10.5308
のまま	-10.5309
MD	-10.531
変わる	-10.531
大気	-10.5311
目を	-10.5313
フライト	-10.5314
をどのように	-10.5314
保健	-10.5315
スポンサー	-10.5315
に適した	-10.5316
欠	-10.5316
優	-10.5316
スタン	-10.5317
ya	-10.5319
を持った	-10.5319
改良	-10.532
我が国	-10.5322
に興味	-10.5323
に貢献し	-10.5326
▁29	-10.533
自らの	-10.5331
▁アクセス	-10.5333
▁発行日	-10.5335
プロセッサ	-10.5339
▁Sp	-10.5339
個人の	-10.534
アス	-10.5342
▁Ro	-10.5344
債権	-10.5345
▁ブログ	-10.5345
枠	-10.5348
認め	-10.5349
を使用すること	-10.5355
にあたり	-10.5356
の大きさ	-10.5356
覆	-10.5359
が存在する	-10.5361
モードで	-10.5367
の大	-10.5371
PL	-10.5372
利用可能	-10.5373
をクリックすると	-10.5373
▁●	-10.5375
old	-10.5375
化し	-10.5378
を体験	-10.5379
犯	-10.538
汚れ	-10.5381
に近い	-10.5384
飛び	-10.5384
プロの	-10.5385
迫	-10.5385
物を	-10.5386
わけではありません	-10.5389
彼女が	-10.5389
ロシアの	-10.5392
フラッシュ	-10.5392
、[	-10.5394
、2018	-10.5395
炉	-10.5396
をクリック	-10.5398
方法について	-10.5399
双方	-10.54
女性は	-10.5402
ケー	-10.5405
ようになる	-10.5405
が増え	-10.5406
系の	-10.5408
何らかの	-10.541
言え	-10.5411
▁Open	-10.5412
しようとする	-10.5414
line	-10.5417
胃	-10.5417
脚	-10.5419
を開き	-10.5421
に参加する	-10.5421
制約	-10.5421
最先端の	-10.5423
スパ	-10.5424
らず	-10.5427
000	-10.543
▁つの	-10.543
リサーチ	-10.5434
▁Art	-10.5435
なって	-10.5435
に変換	-10.5435
徳	-10.5436
グラム	-10.5437
原理	-10.5437
▁商品	-10.5437
手を	-10.5439
算定	-10.5439
サブスクリプション	-10.5439
失われた	-10.5439
高性能	-10.5442
リック	-10.5442
利用規約	-10.5443
マイル	-10.5443
リズム	-10.5445
されると	-10.5446
ていくこと	-10.5448
を見た	-10.5448
袋	-10.545
を指定します	-10.5453
経過	-10.5454
君	-10.5455
▁インストール	-10.5455
魂	-10.5456
▁現在の	-10.5456
でさえ	-10.5457
EE	-10.5457
多い	-10.5458
ロケーション	-10.5459
触	-10.546
探	-10.5467
つい	-10.5467
していて	-10.5472
ワークフロー	-10.5472
を発表	-10.5473
▁専門分野	-10.5476
様式	-10.5477
-19	-10.5478
等に	-10.5479
挨拶	-10.5482
スコア	-10.5482
お知らせ	-10.5482
インター	-10.5484
を維持する	-10.5484
が発生し	-10.5485
を実行します	-10.5488
始まった	-10.5488
整理	-10.5489
個人情報の	-10.549
縮	-10.5491
少年	-10.5494
スライド	-10.5497
クーポンコード	-10.55
ゴー	-10.5501
82	-10.5508
1990	-10.5509
略	-10.5509
糖	-10.5511
癌	-10.5514
スープ	-10.5514
持つ	-10.5516
なりません	-10.5518
捕	-10.5522
DM	-10.5523
炎症	-10.5523
▁さて	-10.5523
73	-10.5523
迅速に	-10.5528
EM	-10.5533
聞き	-10.5533
を開発し	-10.5533
科学者	-10.5535
の基本	-10.5535
作る	-10.5544
ライフスタイル	-10.5544
方向に	-10.5546
共産党	-10.5548
多数	-10.5549
のニーズ	-10.5549
を忘れ	-10.555
▁Part	-10.555
っており	-10.5551
始めました	-10.5555
帰	-10.5558
思う	-10.5561
適切	-10.5564
頻度	-10.5566
夏の	-10.5568
届	-10.5575
CAD	-10.5576
歩いて	-10.5576
カウンター	-10.5577
解像度	-10.5578
値を	-10.5578
リーダーシップ	-10.5578
むしろ	-10.5579
およそ	-10.558
タル	-10.5581
ASEAN	-10.5583
▁ご	-10.5584
豆	-10.5587
結果として	-10.5587
するためには	-10.5587
にアクセスする	-10.559
話題	-10.5592
チュー	-10.5592
見られる	-10.5593
組み立て	-10.5595
を描く	-10.5597
Java	-10.5598
貧困	-10.5599
▁Center	-10.5599
完璧な	-10.5603
▁INFORMATION	-10.5603
EA	-10.5604
Pro	-10.5608
FC	-10.561
限界	-10.561
美味しい	-10.5611
1%	-10.5611
▁About	-10.5612
関与	-10.5613
告	-10.5616
でもあります	-10.5618
をもつ	-10.5618
▁このような場合	-10.5622
シンプル	-10.5623
幸い	-10.5624
起こり	-10.5624
トル	-10.5625
防衛	-10.5627
革新	-10.5627
▁今すぐ	-10.5629
清掃	-10.563
添付	-10.563
▁全	-10.5631
を探し	-10.5633
ラウンド	-10.5635
ヴェ	-10.5635
なっています	-10.5636
全体を	-10.5639
そうな	-10.5641
尿	-10.5642
高品質	-10.5644
強さ	-10.5649
を維持	-10.565
を通じ	-10.5651
出て	-10.5652
にとっては	-10.5659
の際に	-10.5661
振り	-10.5662
混合	-10.5662
支	-10.5662
誰が	-10.5664
睡眠	-10.5667
メッセージを	-10.5668
投入	-10.5668
知られています	-10.5673
だけの	-10.5673
資	-10.5676
プロフェッショナル	-10.5677
▁Mar	-10.5679
わたし	-10.568
▁これを行うには	-10.5683
善	-10.5683
3:	-10.5686
言って	-10.5693
それほど	-10.5695
CK	-10.5695
を明確に	-10.5698
飛行	-10.5701
昔	-10.5703
国で	-10.5707
度の	-10.5707
接着剤	-10.5707
知られ	-10.5714
中国語	-10.5716
はあなたの	-10.5725
ミリ	-10.5727
することなく	-10.5728
観客	-10.5731
理想的な	-10.5731
便利	-10.5732
規程	-10.5732
▁その他の	-10.5732
自宅	-10.5733
老	-10.5735
way	-10.5738
内容を	-10.5741
しっかり	-10.5742
組織の	-10.5745
岸	-10.5746
前提	-10.5747
国内外	-10.5748
世界的に	-10.5748
を表示します	-10.5749
インテリア	-10.5749
を使用してください	-10.5754
置き	-10.5755
▁¥	-10.5758
に大きな	-10.5761
登	-10.5762
大使	-10.5763
受注	-10.5764
が表示され	-10.5765
前年	-10.5766
のページ	-10.5766
いき	-10.5771
近い	-10.5772
日米	-10.5774
を中心とした	-10.5774
早い	-10.5775
済みの	-10.5775
ver	-10.5777
PT	-10.5777
一時	-10.5779
島の	-10.5779
回り	-10.5782
しなかった	-10.5785
呼び出し	-10.5789
form	-10.579
▁セキュリティ	-10.5791
を入手	-10.5793
を始め	-10.5795
本件	-10.5796
pl	-10.5797
ぞ	-10.5802
Word	-10.5803
を有効に	-10.5804
ファイルは	-10.5805
を有し	-10.5807
かを	-10.5809
機器の	-10.581
浸透	-10.5811
ワード	-10.5813
を増やす	-10.5813
職人	-10.5814
国籍	-10.5814
年間の	-10.5815
ld	-10.5816
によれば	-10.5816
なども	-10.5817
をかけ	-10.5818
カスタマー	-10.5819
の方が	-10.5819
活	-10.5819
氏が	-10.5819
フィルタ	-10.5823
のであれば	-10.5823
ランプ	-10.5824
に基づいた	-10.5824
のお知らせ	-10.5824
ラル	-10.5825
視聴	-10.5825
規模の	-10.5826
助言	-10.5827
定期	-10.5828
いただきます	-10.583
MC	-10.5832
▁d	-10.5834
インデックス	-10.5834
ることが	-10.5834
タクシー	-10.5835
2004	-10.5838
を入れ	-10.5838
JR	-10.5839
エンド	-10.584
普通	-10.584
の代わりに	-10.584
2:	-10.584
戦略的	-10.5841
酸素	-10.5841
を修正	-10.5842
推移	-10.5844
迅速な	-10.5846
暗	-10.5848
をもたらし	-10.5848
できるようになります	-10.5852
数量	-10.5853
することも	-10.5856
▁Un	-10.5856
するのが	-10.5856
庫	-10.5859
宝石	-10.586
eng	-10.5862
皆様	-10.5862
に掲載	-10.5863
過ごし	-10.5867
重要である	-10.587
日産	-10.587
に向け	-10.5872
返品	-10.5873
▁Go	-10.5873
灯	-10.5876
サッカー	-10.5877
期間中	-10.5882
可能性のある	-10.5882
Gr	-10.5882
することに	-10.5882
調節	-10.5885
箇所	-10.5887
、2017	-10.5888
ツイート	-10.5889
資金調達	-10.589
下で	-10.589
ピース	-10.5892
自然な	-10.5892
再現	-10.5894
mer	-10.5896
▁エ	-10.5897
臨	-10.5897
▁いくつかの	-10.5899
Book	-10.59
事を	-10.5901
淡々と	-10.5904
覚え	-10.5904
か月	-10.5906
ごとの	-10.5907
コーナー	-10.5907
祭り	-10.591
ちゃん	-10.5913
ana	-10.5915
学んだ	-10.5916
リスク管理	-10.5919
思考	-10.5919
に役立つ	-10.592
ホルモン	-10.5922
):	-10.5922
シップ	-10.5923
チャン	-10.5924
製造業	-10.5925
を推進する	-10.5926
▁INSTITUTE	-10.5926
古代	-10.5927
変化する	-10.5929
画像を	-10.593
の中には	-10.5931
何度も	-10.5934
降り	-10.5936
チュートリアル	-10.5938
走行	-10.594
与え	-10.5943
作られた	-10.5943
沈	-10.5946
延	-10.5946
94	-10.5949
砂糖	-10.5953
切れ	-10.5953
プレゼント	-10.5954
に達し	-10.5955
いただきました	-10.5958
合わせて	-10.5959
友	-10.596
除外	-10.5961
アナ	-10.5963
虫	-10.5964
▁連絡先	-10.5966
するのに	-10.5967
世界中で	-10.5967
▁ELECTRONICS	-10.5968
ることは	-10.5971
サイズの	-10.5973
高校	-10.5977
ストリーミング	-10.5978
はず	-10.5978
資産の	-10.5979
▁COMMUNICATION	-10.5979
ボート	-10.5981
薄	-10.5981
▁2007	-10.5981
やすく	-10.5982
補償	-10.5982
令	-10.5984
9000	-10.5985
ジュース	-10.5986
ナビゲーション	-10.5987
の例	-10.599
後半	-10.5991
ているので	-10.5994
厚	-10.5994
を活用し	-10.5995
RM	-10.5996
トレ	-10.5999
の様子	-10.6
個性	-10.6001
900	-10.6001
ber	-10.6004
に参加し	-10.6009
専用の	-10.6011
クリーン	-10.6012
-2355	-10.6013
を構築し	-10.6014
水を	-10.6016
によっては	-10.6017
をしている	-10.6018
0913-56	-10.6019
:2188	-10.6019
総額	-10.602
少なく	-10.602
以外	-10.602
▁ENGINEERS	-10.6021
ワクチン	-10.6024
言えば	-10.6024
の作品	-10.6026
3%	-10.6026
混	-10.6027
lu	-10.6029
衝撃	-10.6029
ことがある	-10.603
意義	-10.6031
存	-10.6031
引用	-10.6031
誇り	-10.6032
性を	-10.6037
ING	-10.6038
の実行	-10.6038
明確に	-10.6038
確信	-10.604
以上に	-10.604
の場	-10.6043
▁they	-10.6045
為替	-10.6045
縮小	-10.6048
全部	-10.6049
修了	-10.605
たもの	-10.605
sp	-10.6051
泊	-10.6051
pa	-10.6051
オレンジ	-10.6051
を生み出す	-10.6052
クリア	-10.6053
ローン	-10.6055
▁En	-10.6056
成功した	-10.6056
ユー	-10.6056
▁私たちが	-10.6057
mp	-10.6057
この問題	-10.6058
いう	-10.606
綿	-10.6062
tor	-10.6065
値は	-10.6066
▁種別	-10.6067
海外の	-10.6067
リオ	-10.6069
塔	-10.6071
を採用し	-10.6075
と同じように	-10.6075
るか	-10.6077
公正	-10.6078
海の	-10.6086
であるか	-10.6086
ps	-10.6087
NI	-10.6088
を生み出し	-10.6089
ART	-10.6093
持っている	-10.6095
RS	-10.6096
bu	-10.6097
船舶	-10.6097
▁Tokyo	-10.6098
高温	-10.61
億ドル	-10.6101
▁Ltd	-10.6102
際には	-10.6103
使命	-10.6103
原子	-10.6104
御紹介	-10.6105
わかる	-10.6107
熟	-10.611
年まで	-10.6114
れない	-10.6114
自然の	-10.612
居住	-10.6122
飛行機	-10.6122
▁説明	-10.6124
コーポレート	-10.6125
解放	-10.6125
離れた	-10.6127
宣伝	-10.6127
今日の	-10.6129
カンパニー	-10.6132
を覚え	-10.6132
ものとする	-10.6134
にかかる	-10.6136
アセット	-10.6136
のデザイン	-10.6137
-6	-10.6137
基本的に	-10.6139
呼び	-10.614
するなど	-10.614
みたい	-10.6144
フルーツ	-10.6144
としています	-10.6145
てくる	-10.6152
盗	-10.6152
受講	-10.6154
パイプ	-10.6154
女性が	-10.6155
▁Ar	-10.6159
数が	-10.6159
日本国内	-10.6159
92	-10.6161
高まり	-10.6161
のバージョン	-10.6162
もっとも	-10.6162
オート	-10.6163
自信	-10.6163
の価値	-10.6164
ug	-10.6164
適用される	-10.6165
密度	-10.6166
はなく	-10.6166
故障	-10.6167
TP	-10.6168
滅	-10.6168
▁最も	-10.6169
SIM	-10.6169
こともあります	-10.6171
酸化	-10.6173
CP	-10.6173
ポケット	-10.6173
驚き	-10.6178
使われ	-10.6182
と考えられる	-10.6183
pro	-10.6185
を強化する	-10.6188
ビデオのダウンロードリンクを	-10.6189
と呼ばれ	-10.6191
を見せ	-10.6192
気に	-10.6196
北朝鮮	-10.6197
触れ	-10.6198
磁	-10.6198
語り	-10.6198
▁新作エ	-10.62
数学	-10.6203
)<<	-10.6204
ide	-10.6205
De	-10.6206
Mo	-10.6208
サイン	-10.6209
ピア	-10.6211
候補者	-10.6211
▁記事を購入	-10.6211
素早く	-10.6214
盛	-10.6215
▁iOS	-10.6216
ik	-10.6218
国際交流	-10.622
1999	-10.622
主導	-10.6221
にかかわらず	-10.6224
を構築する	-10.6227
倒	-10.6231
そうした	-10.6232
生じた	-10.6232
思います	-10.6233
St	-10.6233
心に	-10.6234
と思われる	-10.624
や他の	-10.624
トランザクション	-10.6243
ting	-10.6244
部の	-10.6244
割合	-10.6245
を重ね	-10.6247
観光スポット	-10.6247
リポジトリ	-10.6248
700	-10.6249
動的	-10.6249
Lab	-10.625
ワイヤレス	-10.6254
豊	-10.6255
の後に	-10.6257
埋め	-10.6257
快	-10.6259
-7	-10.6259
を食べる	-10.626
50%	-10.626
ギリシャ	-10.626
女子	-10.6261
ust	-10.6263
▁注意	-10.6263
info	-10.6265
首相	-10.6265
道を	-10.6268
:---	-10.627
化合物	-10.6271
セー	-10.6272
楽器	-10.6274
を実施する	-10.6276
ジョブ	-10.6279
への取り組み	-10.628
なくて	-10.628
ために必要な	-10.628
空の	-10.6282
pi	-10.6284
に応じた	-10.6286
▁無料	-10.6288
改めて	-10.6291
を管理する	-10.6292
との連携	-10.6292
説	-10.6292
▁It	-10.6292
を構成する	-10.6293
払	-10.6294
を示し	-10.6295
▁n	-10.6295
潜在的な	-10.6295
FS	-10.6298
キュ	-10.6298
の構成	-10.6299
始めます	-10.63
TC	-10.63
会社は	-10.6305
の確認	-10.6306
ec	-10.6307
に入って	-10.631
を代表する	-10.631
僕は	-10.6311
チームの	-10.6313
けば	-10.6313
の方法	-10.6313
樹脂	-10.6315
ご質問	-10.6316
銀河	-10.6319
の再	-10.632
全般	-10.6321
を利用し	-10.6322
ov	-10.6323
やり	-10.6325
▁コマンド	-10.6325
▁ここに	-10.6326
講座	-10.6328
様子	-10.633
GE	-10.633
シェ	-10.6331
申込	-10.6333
▁メール	-10.6336
効果的	-10.634
とは異なり	-10.6341
マッチ	-10.6342
を確実に	-10.6342
見込み	-10.6342
を与えます	-10.6345
3)	-10.6345
を積極的に	-10.6345
僕	-10.6345
候補	-10.6346
視野	-10.6348
暖かい	-10.635
を目的とした	-10.6352
ルーブル	-10.6353
ないと	-10.6353
このように	-10.6354
長期的な	-10.6355
を確認し	-10.6356
ジャンル	-10.6356
次のように	-10.6358
ブレスレット	-10.6359
リファレンス	-10.6359
chi	-10.6362
con	-10.6362
かもしれませんが	-10.6365
発送	-10.6366
クラシック	-10.6366
チベット	-10.6368
の必要性	-10.6369
エー	-10.6369
を担う	-10.6369
出来事	-10.637
ML	-10.6371
ハンドル	-10.6372
KO	-10.6375
崩壊	-10.6375
郎	-10.6377
遺	-10.6377
もう一つの	-10.6377
Ca	-10.6379
龍	-10.6379
XNUMX	-10.6379
iTunes	-10.638
デバイスを	-10.6381
わが国	-10.6382
石炭	-10.6382
道具	-10.6383
▁インターネット	-10.6384
フォロー	-10.6385
を含みます	-10.6385
可能な限り	-10.6392
レンタカー	-10.6394
事務	-10.6395
ピンク	-10.6396
ミャンマー	-10.6396
反射	-10.6396
日本と	-10.6397
サステナビリティ	-10.6397
を満たす	-10.64
もなく	-10.6401
暗号	-10.6402
6%	-10.6403
サル	-10.6406
測	-10.6406
幅広く	-10.6407
覆われ	-10.6412
武器	-10.6412
AG	-10.6413
プライ	-10.6414
規約	-10.6414
区別	-10.6414
歴史的	-10.6415
可能性が	-10.6417
返金	-10.6418
に影響	-10.6419
アジアの	-10.642
▁近年	-10.6424
見直し	-10.6426
はじめ	-10.6426
以前に	-10.6427
の中でも	-10.643
GS	-10.643
まるで	-10.6431
ou	-10.6432
透明	-10.6432
賀	-10.6433
ルド	-10.6433
単純	-10.6434
Br	-10.6434
▁Service	-10.6436
第三	-10.6436
use	-10.6437
事務局	-10.6438
誕生	-10.6438
作品は	-10.644
執行役員	-10.6441
するとき	-10.6441
含	-10.6441
▁高	-10.6442
の新しい	-10.6443
強調	-10.6443
理念	-10.6443
▁He	-10.6444
件の	-10.6444
量子	-10.6445
の割合	-10.6447
誰かが	-10.6447
捨て	-10.645
ゆっくりと	-10.645
分野における	-10.6451
▁page	-10.6452
ture	-10.6454
介護	-10.6456
固有の	-10.6457
取り外し	-10.6457
ーム	-10.6458
にくい	-10.6458
天井	-10.646
の健康	-10.6465
映	-10.6466
チームが	-10.6468
を取得し	-10.6469
を提出	-10.6469
デフォルトの	-10.647
表示される	-10.6471
書き込み	-10.6471
ade	-10.6472
地下	-10.6472
購読	-10.6472
ds	-10.6473
扱い	-10.6474
各国の	-10.6474
手紙	-10.6474
az	-10.6475
国境	-10.6479
の質	-10.648
広場	-10.6481
OP	-10.6482
方々	-10.6484
ring	-10.6485
ster	-10.6485
爆発	-10.6486
偉大な	-10.6489
コミットメント	-10.649
売上高は	-10.6491
サービスを提供する	-10.6492
精密	-10.6493
ベンダー	-10.6495
▁お客様の	-10.6495
組合	-10.6495
棚	-10.6495
伝達	-10.6495
イラン	-10.6497
珍しい	-10.6498
ことができた	-10.6501
コンテスト	-10.6501
建て	-10.6507
呼	-10.6507
講	-10.6508
スキーム	-10.6509
name	-10.651
る可能性があります	-10.651
83	-10.6511
楽しむ	-10.6513
ハイブリッド	-10.6513
神は	-10.6514
歓迎	-10.6518
旅行者	-10.6521
ave	-10.6522
市場に	-10.6523
ダイヤル	-10.6525
の適用	-10.6526
NT	-10.6529
許容	-10.653
いだ	-10.653
▁をクリックします	-10.653
野村	-10.6531
を通過	-10.6531
福祉	-10.6532
プロセスの	-10.6532
day	-10.6532
を得るために	-10.6533
後は	-10.6538
小学校	-10.6539
ウィン	-10.6543
滝	-10.6543
▁Extension	-10.6544
個人情報保護	-10.6545
クロー	-10.6547
App	-10.6548
▁Store	-10.6548
格納	-10.6549
ているため	-10.655
▁Or	-10.6553
使われる	-10.6555
DNA	-10.6557
に出	-10.6558
露	-10.6559
tt	-10.6559
を入力する	-10.656
なくなる	-10.656
ポップアップ	-10.656
大学で	-10.6561
ラボ	-10.6561
の最大	-10.6561
盛り	-10.6561
を更新	-10.6566
年金	-10.6567
原則として	-10.6569
グラス	-10.6569
心を	-10.657
の前	-10.657
▁マ	-10.6571
ご紹介	-10.6572
立つ	-10.6573
をつけ	-10.6581
,5	-10.6583
の利点	-10.6584
ことである	-10.6584
を可能にする	-10.6585
閉鎖	-10.6586
順序	-10.6587
解除	-10.6589
展望	-10.6589
を問わず	-10.6589
’	-10.6589
を食べ	-10.659
がありますが	-10.6591
生物多様性	-10.6591
ron	-10.6592
を復元する	-10.6594
遵守	-10.6594
▁«	-10.6595
必要があり	-10.6599
今年の	-10.6599
ドライ	-10.66
グレー	-10.6601
毎月	-10.6602
の構造	-10.6602
▁ゆんフリー写真素材集	-10.6606
地域社会	-10.6607
を始める	-10.6608
スティック	-10.6608
now	-10.6609
ミュー	-10.6612
正確	-10.6613
策定	-10.6613
機能は	-10.6614
人も	-10.6618
▁三	-10.6618
▁Do	-10.6619
GO	-10.662
中東	-10.6622
ire	-10.6624
簡単で	-10.6625
ッグ	-10.6626
載	-10.6627
襲	-10.6627
を防ぐ	-10.6627
氏の	-10.6629
施行	-10.663
アカウントの	-10.663
をクリックし	-10.6634
安い	-10.6634
楽しく	-10.6636
の価格	-10.6637
サイエンス	-10.6637
前後	-10.6637
担保	-10.6638
dr	-10.6639
クタ	-10.664
少数	-10.6641
健	-10.6642
完成した	-10.6644
▁グループ	-10.6645
談	-10.6645
無駄	-10.6645
は現在	-10.6649
が最も	-10.6649
性と	-10.6649
▁ソフトウェア	-10.665
いろいろな	-10.6651
損	-10.6658
コンタクト	-10.666
詰め	-10.6664
情報はこちら	-10.6671
呼吸	-10.6675
化学物質	-10.6675
▁7.	-10.6677
羊	-10.6678
にのみ	-10.6679
彼らに	-10.6679
バーチャル	-10.668
1.0	-10.6681
賞を受賞	-10.6681
がその	-10.6681
の時間	-10.6682
同時	-10.6686
に位置し	-10.6692
全世界	-10.6694
の第	-10.6696
願い	-10.6696
持続	-10.6698
の決定	-10.67
木材	-10.6703
プレイリスト	-10.6703
▁New	-10.6704
FT	-10.6705
どうやって	-10.6706
方の	-10.6707
冬の	-10.6708
レッド	-10.671
を作ります	-10.6715
▁Music	-10.6715
排除	-10.6718
九	-10.6718
送り	-10.6719
定め	-10.6719
活性	-10.672
目的の	-10.672
日本に	-10.6721
公式サイト	-10.6721
カイ	-10.6723
解明	-10.6725
効	-10.6726
相互作用	-10.6728
セクター	-10.6729
なくなった	-10.673
10%	-10.673
▁Live	-10.6731
ミックス	-10.6732
▁You	-10.6733
cl	-10.6733
に準拠し	-10.6733
を追加します	-10.6734
拒否	-10.6734
に設定	-10.6734
一定	-10.6735
という言葉	-10.6736
SDGs	-10.6736
わり	-10.6739
▁言語	-10.674
接着	-10.6741
メタ	-10.6743
をインストールする	-10.6744
▁YouTube	-10.6744
遠隔	-10.6745
直ちに	-10.6745
レプリカ	-10.6746
、2016	-10.6747
中小企業	-10.6748
けれど	-10.6749
を設け	-10.6749
の形で	-10.6749
小売	-10.6751
すこと	-10.6753
に立ち	-10.6753
欠陥	-10.6755
を挿入	-10.6757
腕	-10.6759
と述べた	-10.6759
ラジオ	-10.6764
意味で	-10.6765
本体	-10.6766
▁動画	-10.6766
指数	-10.6767
Pa	-10.6767
正規	-10.677
Li	-10.6772
下に	-10.6773
に移動します	-10.6774
行い	-10.6775
▁コミュニティ	-10.6776
ている場合	-10.6776
を共有する	-10.6776
▁ST	-10.6777
に達する	-10.6781
の安全	-10.6783
美しさ	-10.6785
▁ですから	-10.6785
にわたり	-10.6788
カリ	-10.6789
高精度	-10.679
ディス	-10.6791
際の	-10.6791
Trans	-10.6792
できますか	-10.6795
▁プレスリリース	-10.6795
技術は	-10.6796
泡	-10.6798
ヘッジ	-10.6798
探索	-10.68
属	-10.6803
▁Back	-10.6804
ーズ	-10.6805
番組	-10.6806
CPU	-10.6806
をダウンロードする	-10.6808
▁Group	-10.6811
当て	-10.6815
廃止	-10.6815
引数	-10.6816
を扱う	-10.6818
検	-10.682
の支援	-10.6821
9%	-10.6821
もはや	-10.6822
激	-10.6827
▁詳しくは	-10.6828
の支払い	-10.6831
包装	-10.6831
250	-10.6832
TH	-10.6834
ベイ	-10.6835
タイヤ	-10.6838
代理店	-10.6839
福岡	-10.6839
回の	-10.6841
をとる	-10.6843
を直接	-10.6844
を用意	-10.6845
ハードディスク	-10.6848
電車	-10.6849
▁US	-10.6849
オペレーション	-10.685
ニック	-10.6852
-10	-10.6852
いで	-10.6852
▁Be	-10.6853
ash	-10.6854
を行って	-10.6854
をご確認ください	-10.6854
腫瘍	-10.6854
増加する	-10.6856
ていますが	-10.6857
遅く	-10.6857
が生じ	-10.6859
伴	-10.6862
フレームワーク	-10.6862
方に	-10.6862
折り	-10.6863
日本企業	-10.6863
land	-10.6866
▁最近	-10.6868
top	-10.687
を確保する	-10.687
もらい	-10.6871
ings	-10.6872
▁アジア	-10.6873
配達	-10.6875
塗料	-10.6878
がより	-10.6882
上位	-10.6885
を有効にする	-10.6885
そば	-10.6886
使用されます	-10.6887
に至るまで	-10.6888
GP	-10.689
控え	-10.6893
衝突	-10.6893
やはり	-10.6893
してい	-10.6893
展示会	-10.6893
IG	-10.6893
▁Global	-10.6894
入場	-10.6894
が好き	-10.6895
ari	-10.6897
ブロ	-10.6899
枝	-10.69
議員	-10.6903
べく	-10.6903
▁Instagram	-10.6904
si	-10.6904
他人	-10.6908
▁当サイト	-10.6909
収穫	-10.6909
ることができ	-10.6909
台の	-10.6916
知られている	-10.6919
疲れ	-10.6921
合併	-10.6923
をサポート	-10.6926
化粧品	-10.6926
室内	-10.6927
オリジナルの	-10.693
がたくさん	-10.6934
伝送	-10.6936
71	-10.6937
伝え	-10.6937
ric	-10.694
テー	-10.694
▁t	-10.6942
で構成され	-10.6942
画面の	-10.6943
演出	-10.6943
棟	-10.6944
原材料	-10.6948
を見つけることができます	-10.6952
観点から	-10.6953
ランク	-10.6954
創設	-10.6954
本日	-10.6955
倉庫	-10.6956
基地	-10.6958
ダッシュボード	-10.696
心の	-10.6961
ギャップ	-10.6965
技術者	-10.6966
アリ	-10.6969
の木	-10.697
寸法	-10.697
気が	-10.6972
0.5	-10.6973
速やかに	-10.6974
緩	-10.6976
前回	-10.6977
連合	-10.6977
いずれも	-10.6978
名古屋	-10.6978
流行	-10.698
サービスは	-10.698
直径	-10.6981
未満	-10.6982
トゥ	-10.6982
つもり	-10.6982
の形	-10.6982
基板	-10.6982
由来	-10.6984
▁ネットワーク	-10.6984
払い	-10.6986
▁all	-10.6987
捉え	-10.6987
データセンター	-10.6989
に定める	-10.6989
▁Search	-10.6991
尋ね	-10.6991
ak	-10.6994
過ごす	-10.6995
ファームウェア	-10.6995
描画	-10.6997
シャワー	-10.6998
っていない	-10.6998
色合い	-10.7
の所有者	-10.7001
たびに	-10.7002
があると	-10.7004
遂行	-10.7004
▁40	-10.7005
することがあります	-10.7006
にあった	-10.7008
に感謝	-10.7009
マッピング	-10.7009
貨物	-10.7009
を加え	-10.701
価格は	-10.7017
JA	-10.7018
付属	-10.7024
韓国語	-10.7028
緊張	-10.703
row	-10.7031
を担当	-10.7032
TT	-10.7033
バリ	-10.7034
付加価値	-10.7034
SSD	-10.7035
移	-10.7037
サイトで	-10.7037
窓口	-10.7042
不要	-10.7044
Excel	-10.7046
週末	-10.705
ませんか	-10.7056
の背景	-10.706
幸福	-10.7061
しないように	-10.7061
を獲得	-10.7062
問題が解決しない場合は	-10.7065
ock	-10.7065
歴	-10.7068
たいと思います	-10.7068
経験を	-10.7068
ja	-10.7069
鏡	-10.7069
ビデオを	-10.707
を展開し	-10.7072
本規約	-10.7077
価値観	-10.7077
IE	-10.7079
を認識し	-10.708
時間と	-10.7082
を楽しみ	-10.7083
随時	-10.7083
91	-10.7086
委員会の	-10.7087
ている必要があります	-10.7087
オーブン	-10.7087
洪水	-10.7087
に行って	-10.709
グループ会社	-10.7091
について話し	-10.7093
実際	-10.7097
東京大学	-10.7097
しかも	-10.7097
ase	-10.7098
私を	-10.7098
家に	-10.7098
をご参照ください	-10.7101
▁一部の	-10.7101
プログラムを	-10.7104
を目指して	-10.7105
考えて	-10.7108
発症	-10.7109
の意味	-10.7109
互換性のないファイル	-10.7112
オリ	-10.7113
つつある	-10.7113
cal	-10.7115
問題を解決する	-10.7115
有用な	-10.7119
万ドル	-10.7122
を含めた	-10.7122
為に	-10.7123
▁上記	-10.7124
亜	-10.7125
通話	-10.7126
えた	-10.7127
無効なファイル拡張子	-10.7128
を書く	-10.7128
の維持	-10.7129
補	-10.7129
もまた	-10.7129
の形成	-10.713
問題が	-10.7131
テレ	-10.7131
、2015	-10.7131
shi	-10.7133
当期	-10.7134
▁CO	-10.7136
開放	-10.7137
を選び	-10.7138
ラス	-10.7139
▁デジタル	-10.7139
を定め	-10.714
res	-10.7141
経路	-10.7145
避け	-10.7146
指定した	-10.7148
体系	-10.7148
kg	-10.7149
ger	-10.715
▁イン	-10.715
ものだ	-10.7152
あなた自身の	-10.7157
スの	-10.7159
ラック	-10.716
部門の	-10.716
わたしたち	-10.7161
現れる	-10.7161
物事	-10.7161
のパフォーマンス	-10.7163
PP	-10.7164
新型コロナウイルス	-10.7166
感動	-10.7167
フラン	-10.7167
ならではの	-10.7168
技術と	-10.7168
顧客に	-10.7169
柄	-10.7171
ProgID	-10.7173
している場合	-10.7174
ブラウザー	-10.7175
甲	-10.7176
ソフトウェアの	-10.7176
昨日	-10.7178
DJ	-10.7179
見解	-10.718
グランド	-10.7181
を訪問し	-10.7181
ミーティング	-10.7181
利便性	-10.7181
iCloud	-10.7181
既	-10.7184
vo	-10.7186
と思って	-10.7187
▁what	-10.7188
現在は	-10.7191
できなかった	-10.7195
を得て	-10.7196
お問合せ	-10.7196
没	-10.7196
出願	-10.7198
長年	-10.7199
準	-10.7199
パッチ	-10.7201
私達	-10.7203
エクスペリエンス	-10.7203
参画	-10.7207
▁Business	-10.7208
に最適です	-10.7208
HI	-10.7208
博	-10.721
堅	-10.7211
彼を	-10.7212
しばらく	-10.7214
と考える	-10.7215
タイル	-10.7215
する必要はありません	-10.7218
議会	-10.7221
反映	-10.7222
帳	-10.7223
アルミニウム	-10.7223
ゴール	-10.7225
他にも	-10.7225
▁登録	-10.7226
OD	-10.7226
ことが可能です	-10.7227
適正	-10.7228
続けています	-10.7229
認知	-10.7231
▁For	-10.7233
しておく	-10.7236
がこの	-10.7237
一歩	-10.7239
if	-10.7239
を保護する	-10.724
に対応し	-10.7241
を図り	-10.7242
差別	-10.7243
NE	-10.7243
特長	-10.7244
必要性	-10.7245
ナイト	-10.7247
うえで	-10.7249
貴	-10.725
著者	-10.7251
を教え	-10.7251
誰でも	-10.7252
膨大な	-10.7252
ラップ	-10.7253
▁特定の	-10.7254
ありがとうございました	-10.7254
を目的として	-10.7259
気温	-10.726
ドン	-10.7261
伊	-10.7264
手で	-10.7268
数分	-10.7268
当然	-10.7269
バグ	-10.727
という意味	-10.7271
吹き	-10.7272
眺め	-10.7273
良好な	-10.7274
▁Di	-10.7277
·	-10.7279
学者	-10.728
は存在しません	-10.7281
FL	-10.7281
地球環境	-10.7281
地球の	-10.7282
売買	-10.7287
を保存する	-10.7287
などにより	-10.7289
別途	-10.7291
モデルの	-10.7292
プリンタ	-10.7292
▁cm	-10.7294
側に	-10.7297
そのうち	-10.7297
演劇	-10.7297
危険な	-10.7299
モータ	-10.73
を構築	-10.73
劇	-10.7303
▁この記事	-10.7303
思え	-10.7306
下部	-10.7307
ブレーキ	-10.7307
お金を	-10.7311
ライブラリー	-10.7315
るのは	-10.7316
上映	-10.7319
発表した	-10.7321
部署	-10.7322
の量	-10.7326
浦	-10.7326
part	-10.7326
ツリー	-10.7328
学科	-10.7328
のではないか	-10.7329
組成	-10.7329
年より	-10.7335
児	-10.7336
からなる	-10.7338
インタフェース	-10.7338
ert	-10.7343
ゲート	-10.7344
iss	-10.7345
本人	-10.7347
に来て	-10.7347
柔軟	-10.7348
入国	-10.7348
光学	-10.7348
フォン	-10.7349
クラスの	-10.7349
押	-10.7349
批判	-10.735
興奮	-10.735
ありました	-10.735
私立探偵	-10.7351
因	-10.7352
ull	-10.7353
を付け	-10.7353
cle	-10.7353
震災	-10.7353
科学的	-10.736
5,000	-10.736
明るく	-10.7361
レジ	-10.7363
イヤー	-10.7364
弊社の	-10.7368
コル	-10.737
条第	-10.737
gi	-10.737
ディー	-10.737
▁Design	-10.7371
SR	-10.7373
▁このページ	-10.7373
トラブル	-10.7374
調べ	-10.7374
護	-10.7376
の距離	-10.7376
▁自分の	-10.7376
▁設定	-10.7377
聞いて	-10.7378
ムー	-10.7379
雑	-10.7382
を保存	-10.7382
が発生した場合	-10.7383
に触れ	-10.7386
パーセント	-10.7388
お問い合わせください	-10.7393
ood	-10.7394
公的	-10.7395
なんて	-10.7395
▁Dropbox	-10.7397
チャート	-10.7399
本物の	-10.7401
しますか	-10.7401
テラス	-10.7402
等について	-10.7404
▁32	-10.7404
しつつ	-10.741
ok	-10.7411
BS	-10.7414
けれども	-10.7415
ブレ	-10.7417
食料	-10.7419
しやすい	-10.742
もありません	-10.7424
充	-10.7425
ためです	-10.7425
の責任	-10.7426
あらかじめ	-10.7426
とします	-10.7427
した場合は	-10.7427
ホイール	-10.743
▁Sa	-10.743
訴え	-10.743
これに	-10.7431
ドリンク	-10.7433
およびその他の	-10.7433
▁con	-10.7435
することが可能です	-10.7436
有価証券	-10.7437
しさ	-10.7437
棒	-10.7438
浸	-10.7439
ICT	-10.744
質量	-10.7442
▁複数の	-10.7444
▁AI	-10.7447
ああ	-10.7448
おもちゃ	-10.7449
したい場合は	-10.7449
預金	-10.7452
労	-10.7454
安全で	-10.7455
▁me	-10.7455
ポン	-10.7457
PRO	-10.7457
議長	-10.7458
年までに	-10.7462
欧米	-10.7462
含め	-10.7462
を評価する	-10.7464
程度の	-10.7465
人形	-10.7465
2.5	-10.7465
下落	-10.7466
南部	-10.7466
を使用できます	-10.7468
ことを確認してください	-10.7468
誕生日	-10.7469
射	-10.7475
追い	-10.7475
暗い	-10.7476
MAX	-10.7478
文学	-10.7479
もともと	-10.7483
LS	-10.7483
ガル	-10.7486
抱	-10.7489
機能が	-10.7489
▁31	-10.749
読む	-10.749
▁当社グループは	-10.7491
の機会	-10.7491
東北	-10.7492
なん	-10.7493
どのくらい	-10.7494
してみてください	-10.7494
エジプト	-10.7495
天候	-10.7496
ければ	-10.7499
車で	-10.75
ran	-10.75
したがって	-10.7503
▁Pay	-10.7503
状態に	-10.7506
を持つファイル	-10.7506
ファイルを開くには	-10.7509
避難	-10.751
▁Pre	-10.7511
スタンプ	-10.7512
の利益	-10.7515
oc	-10.7516
細菌	-10.7516
▁Ex	-10.7518
ヒル	-10.7519
BR	-10.7519
椅子	-10.7519
を見つけて	-10.7521
区分	-10.7523
製造業者	-10.7524
キャプチャ	-10.7526
それ以外の	-10.7527
ll	-10.7527
大幅な	-10.7528
事態	-10.7528
ニュージーランド	-10.7529
昇	-10.7529
キン	-10.753
po	-10.753
的かつ	-10.7531
▁画像	-10.7532
を務め	-10.7532
超音波	-10.7534
Link	-10.7535
ッカー	-10.7537
FX	-10.7537
まい	-10.7537
▁us	-10.7539
次第	-10.7539
の端	-10.754
ドキュメンタリー	-10.754
の処理	-10.754
より高い	-10.754
指導者	-10.7541
▁Services	-10.7542
ネス	-10.7544
カスタマーサービス	-10.7546
医者	-10.7549
寄り	-10.7553
ビットコイン	-10.7555
仮想マシン	-10.7556
▁World	-10.7557
広報	-10.7558
日現在	-10.7558
麻	-10.756
ts	-10.7561
▁記事	-10.7563
Log	-10.7563
お話	-10.7563
西洋	-10.7564
活動の	-10.7564
ができ	-10.7568
FE	-10.7568
ins	-10.7569
がない場合	-10.757
eg	-10.7571
シング	-10.7572
を対象とした	-10.7578
開設	-10.7581
▁Pri	-10.7584
エクス	-10.7586
拡張子が	-10.7586
才能	-10.7587
リティ	-10.759
と思っています	-10.7591
職務	-10.7592
を助ける	-10.7594
ii	-10.7597
クレ	-10.7599
しているか	-10.76
私達は	-10.76
SF	-10.7609
大陸	-10.761
標準的な	-10.7611
確立	-10.7614
取扱	-10.7617
磁気	-10.7618
求める	-10.7618
今では	-10.7621
当連結会計年度	-10.7621
▁Network	-10.7623
頂き	-10.7624
開かれ	-10.7625
核兵器	-10.7626
続けている	-10.7626
不要な	-10.7628
▁View	-10.7628
混合物	-10.7631
しかった	-10.7637
継	-10.7637
ことだ	-10.7638
▁2005	-10.764
町の	-10.7642
を向上させ	-10.7644
工芸品	-10.7644
お手伝い	-10.7646
プロセスは	-10.7647
賃金	-10.7647
取得した	-10.7648
算出	-10.7649
の更新	-10.765
わけではない	-10.7651
技術開発	-10.7653
兄弟	-10.7653
取引所	-10.7654
炭	-10.7658
0.0	-10.7661
薄い	-10.7661
周囲	-10.7661
ができます	-10.7661
レーター	-10.7662
ミラー	-10.7662
お祝い	-10.7665
しているので	-10.7665
を繰り返し	-10.7667
同一	-10.767
アプリの	-10.767
後ろ	-10.767
view	-10.7671
政府が	-10.7672
語る	-10.7673
学生の	-10.7675
ネイティブ	-10.7677
ポスター	-10.7677
出会い	-10.7677
ソフトウェアは	-10.7678
てくれます	-10.7678
東日本大震災	-10.7678
お部屋	-10.7679
エディタ	-10.768
を送信	-10.768
安心して	-10.768
コンパクト	-10.7682
一般的	-10.7683
を設定	-10.7683
ler	-10.7684
られて	-10.7684
蒸気	-10.7689
タワー	-10.769
形の	-10.7691
UT	-10.7693
伝説	-10.7696
溶接	-10.7697
2002	-10.7697
RAM	-10.7698
存在する	-10.7699
しましたが	-10.7703
クリスチャン	-10.7705
フィー	-10.7705
▁Wi	-10.7705
最新情報	-10.7706
渡し	-10.771
を見ることができます	-10.771
ランチ	-10.7711
視覚	-10.7713
哲学	-10.7713
▁会社概要	-10.7713
年以降	-10.7715
ng	-10.7716
国際社会	-10.7718
狂	-10.772
パブリック	-10.772
同社の	-10.7721
を続ける	-10.7721
依然として	-10.7722
燃焼	-10.7723
上限	-10.7724
ワイ	-10.7732
誤って	-10.7732
製の	-10.7734
▁Bo	-10.7737
デザインの	-10.7737
Co	-10.7737
早期	-10.7739
は本当に	-10.7741
即	-10.7742
振興	-10.7743
信託	-10.7743
▁Email	-10.7743
使用され	-10.7746
新株予約権	-10.7746
ウォーター	-10.7748
を正しく	-10.7749
誠	-10.7749
を継続	-10.7752
わずかに	-10.7752
tin	-10.7752
は完全に	-10.7753
vel	-10.7753
グリッド	-10.7753
TER	-10.7754
指針	-10.7756
履行	-10.7756
▁mm	-10.7757
の合計	-10.7757
du	-10.776
等が	-10.776
種の	-10.7761
の一つです	-10.7761
経済成長	-10.7764
省エネ	-10.7766
木の	-10.7773
ドラ	-10.7773
わけです	-10.7774
の建設	-10.7774
送金	-10.7774
外側	-10.7781
境界	-10.7782
成績	-10.7784
ise	-10.7784
拡散	-10.7785
パイ	-10.7785
▁採用情報	-10.7789
違法	-10.7794
Su	-10.7796
▁一方で	-10.7797
総会	-10.78
水平	-10.78
生態系	-10.7802
の低下	-10.7804
ウィンドウで	-10.7807
いずれ	-10.7807
aka	-10.7808
の表面	-10.7808
にあたって	-10.7809
吸	-10.7815
wa	-10.7824
▁Office	-10.7828
お互い	-10.7828
左右	-10.7828
RF	-10.783
材料の	-10.783
を正確に	-10.783
るよう	-10.783
デバイスに	-10.7831
気象	-10.7832
撮	-10.7832
に関連して	-10.7836
アナログ	-10.7837
▁詳細は	-10.7838
インフラストラクチャ	-10.7841
子供が	-10.7842
リカバリ	-10.7843
1.1	-10.7844
の成功	-10.7844
があって	-10.7847
梅	-10.7848
大幅に	-10.7848
の壁	-10.7849
▁1)	-10.7849
どこか	-10.785
協働	-10.785
集合	-10.7853
の特性	-10.7854
最初は	-10.7855
by	-10.7857
私も	-10.7859
更なる	-10.7859
付ける	-10.7859
あの	-10.7861
性の高い	-10.7863
少女	-10.7864
Star	-10.7869
者と	-10.7869
を調べ	-10.7869
ごと	-10.7871
いった	-10.7872
評	-10.7873
の上昇	-10.7874
関連付け	-10.7874
本の	-10.7876
かり	-10.7876
ノン	-10.7876
素敵な	-10.7877
に入り	-10.7877
利用する	-10.7878
Mi	-10.7879
事業を	-10.7879
▁my	-10.7881
列車	-10.7882
NC	-10.7885
の平均	-10.7885
次回	-10.7886
の手	-10.7886
ようになり	-10.7886
待	-10.7886
特典	-10.7887
バンク	-10.7888
化した	-10.7888
カップル	-10.7889
テクニック	-10.7889
を表す	-10.789
を明らかにし	-10.7891
肩	-10.7891
▁(4)	-10.7891
柔らかい	-10.7891
ten	-10.7894
ホー	-10.7896
の普及	-10.7896
アレルギー	-10.7896
初めての	-10.7896
喜んで	-10.7896
上がる	-10.7898
ml	-10.7901
手配	-10.7902
かす	-10.7904
ome	-10.7906
に移行	-10.7907
▁2006	-10.7907
このサイト	-10.7909
HO	-10.791
OM	-10.7911
HDD	-10.7912
で使用する	-10.7914
を助け	-10.7914
敷	-10.7915
シャル	-10.7916
アプリケーションを	-10.7916
なかなか	-10.7916
CF	-10.7917
▁Car	-10.7917
出演	-10.7917
検知	-10.7918
ファイルを取り扱うプログラム	-10.7918
フィン	-10.7921
する必要	-10.7923
できるようになりました	-10.7924
が含まれている	-10.7927
に合わせた	-10.7928
婦	-10.7928
審	-10.7928
▁LINE	-10.7929
シンボル	-10.793
のご	-10.7932
ラウンジ	-10.7936
たく	-10.7937
チェックアウト	-10.794
ost	-10.794
▁JP	-10.7941
現地の	-10.7941
歩き	-10.7942
ジャンプ	-10.7943
畑	-10.7944
専門知識	-10.7945
授与	-10.7945
する予定です	-10.7945
人生の	-10.7947
ヨーロッパの	-10.7947
があるので	-10.7948
合格	-10.7948
天気	-10.7949
ビジュアル	-10.7949
両方	-10.7951
ているか	-10.7952
内側	-10.7957
イラスト	-10.7958
してくれる	-10.7958
闘	-10.7958
ろうと	-10.7959
スクリーンショット	-10.7959
研究員	-10.796
待って	-10.7961
放出	-10.7961
心地	-10.7964
のに役立つ	-10.7965
が表示される	-10.7968
SNS	-10.7968
▁Inter	-10.7969
LT	-10.7971
ご案内	-10.7971
之	-10.7973
の終わり	-10.7973
を促進し	-10.7973
宗	-10.7977
業界で	-10.7977
の外観	-10.7978
code	-10.798
っていく	-10.7981
各社	-10.7981
典	-10.7981
事情	-10.7982
エフェクト	-10.7982
▁リ	-10.7983
おき	-10.7983
を見ることはできません	-10.7983
ボタンをクリックして	-10.7984
継続的に	-10.7984
の新	-10.7984
束	-10.7986
ランダム	-10.7987
MT	-10.7989
に集中	-10.7989
育て	-10.799
KI	-10.799
ことが出来ます	-10.7991
ビーム	-10.7991
最も一般的な	-10.7991
の重要な	-10.7991
期間は	-10.7992
ea	-10.7993
VM	-10.7994
ics	-10.7994
LP	-10.7995
戻	-10.7995
インスピレーション	-10.7996
4)	-10.7998
を共有し	-10.7999
ジャン	-10.8
に備え	-10.8
の購入	-10.8001
普段	-10.8002
ソウル	-10.8003
米ドル	-10.8003
アルミ	-10.8005
収容	-10.8005
しない場合	-10.8006
がインストールされていても	-10.8008
COM	-10.8008
っていました	-10.8012
復	-10.8014
偏	-10.8014
を備えています	-10.8015
入居	-10.8016
委員会は	-10.8016
の開催	-10.8017
と考えている	-10.8018
メル	-10.8021
不明	-10.8021
帰国	-10.8022
rid	-10.8022
たとえ	-10.8024
に取り組み	-10.8025
語った	-10.8027
ダム	-10.8027
あなたはあなたの	-10.8029
したとき	-10.8029
拡充	-10.803
行います	-10.8031
飲料	-10.8031
ショート	-10.8032
Sony	-10.8034
カール	-10.8035
農家	-10.8037
自由な	-10.8041
流動性	-10.8042
訂正	-10.8044
マテリアル	-10.8045
が必要である	-10.8045
の活用	-10.8046
申し上げます	-10.8046
がない場合は	-10.8046
年前	-10.8048
図面	-10.8049
多様化	-10.8052
システムに	-10.8053
尊重	-10.8054
これからも	-10.8055
続	-10.8055
設計された	-10.8057
学校の	-10.806
▁ちなみに	-10.8063
を適用する	-10.8063
芽	-10.8066
難しく	-10.8066
▁more	-10.8067
ストラップ	-10.8071
▁Media	-10.8073
を開始します	-10.8074
事業所	-10.8077
創業	-10.8077
がなく	-10.8078
笑顔	-10.8083
北部	-10.8084
UD	-10.8084
スペ	-10.8086
まって	-10.8086
世紀の	-10.8086
況	-10.8088
離れて	-10.8089
▁Corporation	-10.809
困	-10.8092
に使用する	-10.8094
Work	-10.8101
スウェーデン	-10.8102
はどう	-10.8102
ことを忘れないでください	-10.8103
容	-10.8104
経由で	-10.8105
▁HOME	-10.8108
PD	-10.8109
を共有	-10.811
内容は	-10.811
起源	-10.8112
ition	-10.8116
年間で	-10.8117
を得た	-10.812
SSL	-10.8122
UE	-10.8124
SQL	-10.8125
▁Cookie	-10.813
提言	-10.8131
介	-10.8132
うか	-10.8133
が大きい	-10.8133
かない	-10.8133
プロバイダ	-10.814
クリエイティブ	-10.814
の温度	-10.8141
ファイナンス	-10.8142
ディスカッション	-10.8142
を設定し	-10.8147
ポール	-10.8147
世界を	-10.815
発言	-10.8151
問題の	-10.8153
売り	-10.8154
えて	-10.8156
周年	-10.8157
絶対	-10.8157
を支払う	-10.8158
も多く	-10.8161
技術的な	-10.8162
連結子会社	-10.8163
興	-10.8166
が異なる	-10.8166
を支援し	-10.8166
Ag	-10.8167
それでも	-10.8169
エレクトロニクス	-10.8169
に行き	-10.8169
プライバシーポリシー	-10.8172
沿い	-10.8174
たとき	-10.8179
セント	-10.818
br	-10.818
スタンド	-10.818
any	-10.8181
荷	-10.8183
▁クライアント	-10.8185
のいくつか	-10.8188
環境保全	-10.8192
奏	-10.8192
特殊な	-10.8192
消化	-10.8193
裁	-10.8194
と言った	-10.8195
BO	-10.8196
コンピュータのユーザー	-10.8197
関連しています	-10.8199
ボン	-10.8199
通過	-10.8201
優勝	-10.8201
の変動	-10.8201
公平	-10.8202
を加える	-10.8203
–	-10.8203
点で	-10.8205
表示されるようになった	-10.8205
くて	-10.8206
説明します	-10.8217
外の	-10.8219
性的	-10.8221
意欲	-10.8221
詐欺	-10.8222
いっぱい	-10.8223
情勢	-10.8223
取引先	-10.8225
否定	-10.8225
難民	-10.8226
を紹介し	-10.8226
を送る	-10.8226
に記載されている	-10.8226
UL	-10.8226
それらが	-10.8227
認められ	-10.823
の開始	-10.8231
▁花	-10.8236
ですので	-10.8237
をした	-10.8238
ピクセル	-10.8239
でなければなりません	-10.8239
するまで	-10.824
以下に	-10.8241
経営者	-10.8241
よね	-10.8242
ペーパー	-10.8242
株価	-10.8245
東アジア	-10.8245
代表取締役社長	-10.8246
付与	-10.8247
多くの人が	-10.8248
サム	-10.8249
具体的な原因	-10.8251
▁2)	-10.8254
あなた自身	-10.8255
ファイル名の後に	-10.8257
標準設定では	-10.8259
逆に	-10.8259
の分析	-10.8259
火災	-10.8262
ようだ	-10.8265
日中	-10.8266
ファイルを含むすべてのファイル	-10.8267
誘導	-10.827
であって	-10.827
の理由	-10.827
に連絡	-10.8271
財布	-10.8272
意見交換	-10.8274
していくこと	-10.8274
借	-10.8274
く専門家に	-10.8278
すごく	-10.8279
問題が解決しないこと	-10.8279
ファイルの取り扱いに関する	-10.828
サービスを要請し	-10.8281
数多く	-10.8281
▁時にはコンピュータに	-10.8281
を診断すべ	-10.8281
境	-10.8282
エアコン	-10.8283
ated	-10.8288
スピン	-10.8288
探し	-10.8289
が可能な	-10.829
スイート	-10.829
情報セキュリティ	-10.8291
態度	-10.8293
述べ	-10.8293
喫煙	-10.8294
ハイライト	-10.8295
間接	-10.8295
京都大学	-10.8297
レンダリング	-10.83
染	-10.83
▁もっと	-10.8301
文献	-10.8309
に依存し	-10.8309
VC	-10.8311
バスルーム	-10.8312
でのみ	-10.8313
者たち	-10.8316
水分	-10.8317
ことが多い	-10.8317
ドラマ	-10.8318
革	-10.832
air	-10.832
するときに	-10.832
時から	-10.8323
処	-10.8325
激しい	-10.8326
当サイト	-10.8327
0°	-10.8328
任命	-10.8328
日本国	-10.8329
led	-10.8331
を示した	-10.8331
ris	-10.8332
を買う	-10.8332
▁メディア	-10.8334
楽しめる	-10.8334
場面	-10.8336
乾	-10.8337
▁具体的には	-10.8338
隣	-10.8342
煙	-10.8342
Port	-10.8342
地域に	-10.8344
に移	-10.8344
述	-10.8346
迷	-10.8347
ほかの	-10.8347
Acer	-10.8347
オフライン	-10.8347
▁Research	-10.8348
を開発する	-10.8348
の詳細については	-10.8349
軌道	-10.8349
自治体	-10.8351
先進	-10.8352
価格で	-10.8352
エス	-10.8352
研究機関	-10.8353
ナイ	-10.8356
冒険	-10.8357
表彰	-10.8358
20%	-10.836
▁一般	-10.836
するだけで	-10.8361
ウクライナ	-10.8361
泉	-10.8362
ウォッチ	-10.8363
幼	-10.8364
キャップ	-10.8364
の整備	-10.8366
できるようにする	-10.8368
手動で	-10.8369
が少ない	-10.8371
を知っている	-10.8371
人材育成	-10.8372
日本政府	-10.8373
読み取り	-10.8373
▁System	-10.8374
over	-10.8379
を上げる	-10.8379
るような	-10.8381
ぶり	-10.8382
▁TRIPROUD	-10.8382
誘	-10.8382
取扱い	-10.8383
フェア	-10.8383
ヘルスケア	-10.8383
ることを	-10.839
みなさん	-10.839
モール	-10.8393
連れ	-10.8394
英語で	-10.8396
寺院	-10.8396
まっている	-10.8396
ツールは	-10.8397
To	-10.8401
進展	-10.8402
ach	-10.8403
海上	-10.841
▁2003	-10.8411
できました	-10.8411
を進めています	-10.8414
の大きな	-10.8419
るもの	-10.8422
全体的な	-10.8423
平等	-10.8424
プロジェクトを	-10.8425
を確保	-10.8426
点検	-10.843
を適切に	-10.8433
の記事	-10.8436
点は	-10.8437
ジャケット	-10.8438
ke	-10.8441
ッパー	-10.8442
渡す	-10.8443
集約	-10.8443
2.0	-10.8443
経済の	-10.8446
を図っ	-10.8447
置き換え	-10.8448
就職	-10.8452
FR	-10.8452
0.1	-10.8452
を活用して	-10.8454
初め	-10.8454
祝	-10.8455
間隔	-10.8456
を反映し	-10.8456
ale	-10.8457
工夫	-10.8462
Te	-10.8462
ブリッジ	-10.8463
てしまった	-10.8463
をよく	-10.8466
▁以上	-10.8466
フランスの	-10.8466
経験豊富な	-10.8467
we	-10.8473
個別に	-10.8473
han	-10.8473
を必要とし	-10.8474
復旧	-10.8475
のバックアップ	-10.8478
期間の	-10.8479
根拠	-10.848
マウント	-10.848
を検討	-10.848
作品の	-10.8481
締約国	-10.8484
評判	-10.8486
と考えられています	-10.8486
ワシントン	-10.8486
ケン	-10.8491
遊ぶ	-10.8495
成人	-10.8495
帰り	-10.8497
札幌	-10.8498
お子様	-10.8499
▁Dis	-10.8502
Smart	-10.8502
▁This	-10.8503
使用することができます	-10.8505
を楽しんで	-10.8507
出身	-10.8508
特集	-10.8508
を起動し	-10.851
出して	-10.8514
を受け入れ	-10.8515
▁続きを読む	-10.8516
ウン	-10.8517
たった	-10.8519
▁ドキュメント	-10.8522
開発された	-10.8524
釣り	-10.8525
パスポート	-10.8527
する可能性があります	-10.8527
ベリー	-10.8529
ワイヤー	-10.8529
(3	-10.8529
競合	-10.8529
LD	-10.853
定期的な	-10.853
人々を	-10.853
開拓	-10.853
着用	-10.8532
疾患の	-10.8534
ニン	-10.8536
シェフ	-10.8537
ユニ	-10.8538
ゴン	-10.8539
最終的には	-10.854
太陽光発電	-10.8542
ドロップ	-10.8544
知らない	-10.8547
矢印	-10.8549
知的財産	-10.855
tal	-10.8552
動く	-10.8553
2001	-10.8553
の成果	-10.8554
微生物	-10.8554
を改善し	-10.8555
を保証する	-10.8556
har	-10.8557
red	-10.8559
深さ	-10.856
関節	-10.8561
は次の	-10.8562
▁加えて	-10.8562
をご提供	-10.8562
ご協力	-10.8563
該当	-10.8565
弱い	-10.8565
回避	-10.8568
UP	-10.8568
の技術	-10.8568
▁Connect	-10.857
エントリ	-10.8571
契約の	-10.8572
損益	-10.8572
作った	-10.8574
みて	-10.8574
と比較	-10.8575
芸	-10.8575
移民	-10.8579
知らせ	-10.858
慢性	-10.858
ビジネスの	-10.858
奨学金	-10.8581
部分は	-10.8583
tro	-10.8584
コマース	-10.8585
タウン	-10.8586
、2013	-10.8586
ユニバーサル	-10.8587
含む	-10.8588
軽量	-10.8588
配分	-10.8589
ファイルを含め	-10.859
府	-10.8591
を伝える	-10.8591
▁今後も	-10.8593
▁so	-10.8593
補正	-10.8593
▁Air	-10.8594
cent	-10.8595
ボタンをクリックします	-10.8597
のみが	-10.8598
03-	-10.8598
織り	-10.8603
のバランス	-10.8604
可能性があり	-10.8605
提供しています	-10.8607
マイク	-10.861
量は	-10.8611
処方	-10.8612
筆	-10.8613
システムが	-10.8613
組み込み	-10.8614
▁Ta	-10.8614
バージョンの	-10.8614
横断	-10.8616
見つかり	-10.8617
する機会	-10.8617
FF	-10.8619
▁をご覧ください	-10.8621
貼り付け	-10.8622
費や	-10.8622
コンテンツの	-10.8623
倉	-10.8623
ガーデン	-10.8629
を用いる	-10.8631
NGO	-10.8632
サービスの提供	-10.8632
ショック	-10.8634
津波	-10.8636
性別	-10.8637
に関し	-10.8638
限られ	-10.8639
クローン	-10.864
介入	-10.8641
▁自動	-10.8642
通常は	-10.8643
を自動的に	-10.8643
販	-10.8644
とりわけ	-10.8646
▁Comp	-10.8647
同様	-10.8647
ティン	-10.8648
声明	-10.8648
名を	-10.865
我々が	-10.8652
われわれ	-10.8656
コンピューティング	-10.8657
▁メッセージ	-10.8657
SH	-10.8658
ッピング	-10.8659
コードを	-10.8659
VE	-10.8661
のもの	-10.8663
HS	-10.8663
解消	-10.8664
を超えた	-10.8665
シンプルで	-10.8665
どこでも	-10.8666
しているため	-10.8667
を果たし	-10.8669
WEB	-10.8672
管轄	-10.8672
リュー	-10.8673
していますが	-10.8674
読者	-10.8674
危険性	-10.8674
確	-10.8674
送られ	-10.8676
提供します	-10.8676
ative	-10.8678
摂取	-10.8678
ドイツの	-10.868
を満たし	-10.8681
発揮	-10.8682
ホン	-10.8683
表明	-10.8685
の課題	-10.8686
の時代	-10.8686
さと	-10.8687
アラ	-10.8687
1998	-10.8688
旗	-10.8689
離れ	-10.8689
規範	-10.869
来て	-10.869
男性の	-10.8694
コンピュータに	-10.8696
係	-10.8698
加入	-10.8702
▁タイ	-10.8703
なんと	-10.8703
てしまいます	-10.8704
垂直	-10.8704
みると	-10.8706
▁だまされてはいけません	-10.8711
名が	-10.8714
ありがとうございます	-10.8714
1980	-10.8717
▁36	-10.8718
防水	-10.8718
セラミック	-10.8719
年次	-10.8719
カス	-10.8722
の水	-10.8722
サポートする単一の	-10.8722
学生が	-10.8723
世話	-10.8725
MR	-10.8726
へのファイル変換	-10.8726
ji	-10.8727
新製品	-10.8727
てくれた	-10.8728
コロ	-10.8729
洗練された	-10.8731
ION	-10.8731
リップ	-10.8732
パッド	-10.8732
装備	-10.8734
今回は	-10.8735
val	-10.874
の分野で	-10.8742
独特の	-10.8743
枠組み	-10.8744
還元	-10.8744
ions	-10.8745
バイク	-10.8748
部分を	-10.8748
モデルは	-10.8749
塗装	-10.875
ドゥ	-10.8753
▁h	-10.8753
フライ	-10.8754
コンクリート	-10.8755
▁お客様は	-10.8755
oto	-10.8756
ウェブサイトの	-10.8756
植	-10.8757
出る	-10.8758
をチェックし	-10.8759
場所です	-10.8759
アメリカ人	-10.8761
▁国内	-10.8763
シャン	-10.8764
学的	-10.8764
その時	-10.8764
日常生活	-10.8764
も多い	-10.8765
Samsung	-10.8765
囲	-10.8767
中期経営計画	-10.8767
の学生	-10.8768
るでしょう	-10.8768
様に	-10.8769
が必要になります	-10.877
わず	-10.8771
まった	-10.8773
lin	-10.8773
見せ	-10.8775
分かり	-10.8775
がございます	-10.8777
紙の	-10.8779
期の	-10.8783
VI	-10.8785
ゲル	-10.8789
全員が	-10.8789
一度に	-10.879
▁利用規約	-10.8791
スペシャル	-10.8793
領	-10.8793
というもの	-10.8796
アンプ	-10.8797
要望	-10.8797
Cl	-10.8797
名誉	-10.8798
▁それらの	-10.8799
別に	-10.8799
次のような	-10.88
株主総会	-10.8802
自主	-10.8805
スカイ	-10.8807
を伝え	-10.8807
付けられ	-10.8808
180	-10.8809
合理的な	-10.8809
を実現します	-10.8812
二次	-10.8814
▁なぜなら	-10.8815
カ月	-10.8817
を解除	-10.8817
ついた	-10.8818
▁サーバー	-10.8818
に行った	-10.8818
ところに	-10.882
副作用	-10.8821
サミット	-10.8821
アラート	-10.8822
Ma	-10.8823
を行うことができます	-10.8824
の発行	-10.8824
なりました	-10.8825
ダル	-10.8826
ペース	-10.8826
羅	-10.8827
の定義	-10.8829
を保持し	-10.883
▁ほとんどの場合	-10.8832
本ウェブサイト	-10.8832
どれだけ	-10.8833
▁イ	-10.8837
書いて	-10.8837
セクションで	-10.8837
氏名	-10.8837
幕	-10.8838
である場合	-10.8838
ナイフ	-10.884
楽天	-10.8842
ボット	-10.8844
pos	-10.8844
としている	-10.8845
に直面し	-10.8846
バイト	-10.8847
毎週	-10.885
明日	-10.8851
金融商品	-10.8853
植え	-10.8853
Auto	-10.8854
衣装	-10.8856
高価な	-10.8857
レモン	-10.8858
に関係なく	-10.8859
納	-10.886
クイック	-10.8861
理事会	-10.8861
返信	-10.8862
▁ファイル拡張子	-10.8862
来年	-10.8864
▁Mon	-10.8865
を使用している	-10.8865
体内	-10.8866
固体	-10.8867
Pandora	-10.8872
上がり	-10.8873
の製品	-10.8873
▁おそらく	-10.8874
1997	-10.8876
絶えず	-10.8877
牧	-10.8877
創出	-10.8877
アカデミー	-10.8879
分配	-10.8879
コンデンサ	-10.888
イト	-10.888
家電	-10.888
▁As	-10.888
の目標	-10.8881
模様	-10.8881
めて	-10.8883
無い	-10.8883
他社	-10.8885
紀	-10.8885
▁Play	-10.8886
▁TV	-10.8886
認可	-10.8888
鑑賞	-10.8888
用品	-10.8888
▁Project	-10.8888
▁IT	-10.8889
備え	-10.8889
スコ	-10.8891
▁昨年	-10.8892
慶	-10.8892
ことのできる	-10.8893
中央銀行	-10.8894
立地	-10.8895
パイプライン	-10.8896
▁Technology	-10.8896
おか	-10.8897
ラーメン	-10.8899
▁個人	-10.89
巨	-10.8901
匿名	-10.8902
かね	-10.8903
縦	-10.8904
選択された	-10.8904
じゃない	-10.8906
開催される	-10.8907
を形成する	-10.8907
クター	-10.8907
判	-10.8908
服用	-10.8908
掃除	-10.8909
国際協力	-10.8909
▁コメント	-10.8911
装置の	-10.8912
部屋の	-10.8912
クロック	-10.8913
する際	-10.8913
▁Remo	-10.8913
MM	-10.8915
壊れ	-10.8915
考	-10.8916
柔軟な	-10.8916
に表示される	-10.8919
にとっても	-10.8919
舎	-10.892
マーカー	-10.892
▁過去	-10.8922
審議	-10.8922
不良	-10.8922
贈	-10.8925
物理学	-10.8927
承	-10.8927
いても	-10.8927
▁以下	-10.8929
を回復する	-10.893
事が	-10.8932
学位	-10.8932
ひとつの	-10.8934
本契約	-10.8934
を確立し	-10.8934
を生かし	-10.8935
支払う	-10.8938
お客様から	-10.8938
不可	-10.8938
韓	-10.8938
役立ちます	-10.894
隠れ	-10.8941
戦闘	-10.8941
対象となる	-10.8942
役立つ	-10.8942
ツー	-10.8945
の主要	-10.8945
ヒット	-10.8949
過去に	-10.8949
復活	-10.895
留意	-10.895
ついて	-10.8951
購入した	-10.8953
演習	-10.8956
▁世界の	-10.8956
じゃ	-10.8962
述べた	-10.8965
地面	-10.8965
日時	-10.8965
▁京都	-10.8966
NU	-10.8966
に乗って	-10.8968
の味	-10.8968
産地	-10.8969
同僚	-10.8969
ないでしょう	-10.8971
選任	-10.8972
専	-10.8972
同等	-10.8972
ストリップ	-10.8973
製薬	-10.8973
の部分	-10.8975
Linux	-10.8984
▁Ba	-10.8985
効果的に	-10.8987
GT	-10.8988
トリック	-10.8988
景	-10.8988
成都	-10.8992
にご	-10.8994
散歩	-10.8994
飲み	-10.8994
欧	-10.8994
tic	-10.8996
端子	-10.8997
をベースに	-10.8997
きちんと	-10.8998
税金	-10.9
快適に	-10.9001
に対応した	-10.9002
したのは	-10.9002
▁10.	-10.9002
ページで	-10.9005
ano	-10.9006
を停止	-10.9008
お客様の個人情報	-10.901
を取り入れ	-10.901
を容易に	-10.9011
可視化	-10.9013
一人ひとり	-10.9013
年生	-10.9013
参入	-10.9014
求められる	-10.9014
夕食	-10.9015
一切	-10.9017
を挙げ	-10.9018
検索結果	-10.9019
第三者の	-10.9019
Con	-10.902
失われ	-10.902
オール	-10.902
西部	-10.902
速く	-10.9021
してしまう	-10.9022
汎用	-10.9023
を入力し	-10.9023
お客さまの	-10.9024
恐怖	-10.9027
Uni	-10.9028
だけでは	-10.9028
orn	-10.9029
してまいります	-10.903
ってくる	-10.9032
を行っております	-10.9035
365	-10.9036
▁URL	-10.9037
手の	-10.9037
加盟	-10.9038
チョ	-10.9041
支え	-10.9041
テナント	-10.9043
実は	-10.9044
迅速	-10.9044
優秀な	-10.9045
をしています	-10.905
腰	-10.905
溶液	-10.9051
注意事項	-10.9051
don	-10.9051
されていました	-10.9052
媒体	-10.9054
ンズ	-10.9054
培	-10.9055
NTT	-10.9055
バンコク	-10.9056
Se	-10.9058
のお客様	-10.9059
録	-10.906
の声	-10.906
具体的に	-10.906
フロア	-10.9062
果実	-10.9063
組み込まれ	-10.9064
のイメージ	-10.9066
金銭	-10.9067
トレーダー	-10.9068
IX	-10.9069
額を	-10.907
HTML	-10.9075
協	-10.9076
知りたい	-10.9077
物理的	-10.9077
ファイルに関する問題の	-10.9079
与えられた	-10.908
成立	-10.908
期末	-10.9083
可能性を	-10.9083
試してみ	-10.9083
を開け	-10.9085
繁栄	-10.9087
を決定	-10.9087
スーツ	-10.9088
▁ex	-10.9088
進む	-10.9088
不可欠な	-10.9089
カンボジア	-10.9089
たのは	-10.9091
の安全性	-10.9092
伸	-10.9092
文章	-10.9093
に入った	-10.9097
会社が	-10.9097
者を	-10.9098
感度	-10.9098
▁多くの場合	-10.9099
行うことができます	-10.9099
されていること	-10.9103
感じた	-10.9104
するでしょう	-10.9104
燃	-10.9106
SL	-10.9107
へのリンク	-10.9108
内部統制	-10.9108
日本は	-10.9109
を設立	-10.911
問題を解決	-10.9111
atch	-10.9114
レジストリ	-10.9115
▁Dr	-10.9115
を立ち上げ	-10.9116
日立	-10.9118
添加	-10.9118
イエスは	-10.9119
ヤン	-10.912
目で	-10.9121
個別の	-10.9122
Tech	-10.9122
Sim	-10.9123
本年	-10.9124
柔らかく	-10.9125
自体は	-10.9125
GB	-10.9127
冷たい	-10.9127
最善の	-10.9127
▁コンピュータ	-10.9129
黒い	-10.9131
父親	-10.9131
の調査	-10.9135
▁ロシア	-10.9136
人気のある	-10.9136
信頼性の高い	-10.9137
リバー	-10.9138
設備投資	-10.9141
プレー	-10.9143
請	-10.9143
地の	-10.9143
救い	-10.9144
への参加	-10.9146
、2014	-10.9147
▁people	-10.9148
-00	-10.9148
の動作	-10.915
▁新規	-10.915
と言われ	-10.915
▁イタリア	-10.915
値が	-10.9151
《	-10.9151
スタンダード	-10.9152
かん	-10.9154
裁判	-10.9154
容易	-10.9155
部長	-10.9157
々と	-10.9158
ハブ	-10.9158
▁弊社は	-10.9162
amp	-10.9164
で開催された	-10.9164
受領	-10.9165
を押し	-10.9166
を達成する	-10.9169
人数	-10.9171
止	-10.9172
薬剤	-10.9173
時価	-10.9173
LC	-10.9173
刑	-10.9174
第三者に	-10.9175
クー	-10.9177
ゲノム	-10.9177
!」	-10.9178
構	-10.9179
が難しい	-10.918
以降の	-10.918
チリ	-10.9184
品質管理	-10.9184
Instagram	-10.9185
ool	-10.9186
のようなもの	-10.9186
かわ	-10.9188
▁それぞれの	-10.9189
をサポートし	-10.919
漁	-10.9191
重い	-10.9191
無し	-10.9191
本格的な	-10.9192
衣	-10.9194
▁最新の	-10.9194
ビーズ	-10.9195
新宿	-10.9195
誠実	-10.9196
コンピュータの	-10.9197
の規定	-10.9202
緑の	-10.9202
▁個人情報の	-10.9202
▁デバイス	-10.9203
ons	-10.9204
入り口	-10.9205
移植	-10.9205
▁一	-10.9207
▁別の	-10.9208
ature	-10.9208
肺	-10.921
ium	-10.921
者として	-10.9212
誤	-10.9214
load	-10.9216
を得ることができます	-10.9216
ev	-10.9218
借り	-10.9218
nt	-10.9224
ということは	-10.9226
書いた	-10.9227
して下さい	-10.9227
▁there	-10.9231
に存在する	-10.9231
▁必要に応じて	-10.9232
ort	-10.9232
不可欠	-10.9233
送付	-10.9236
の設置	-10.9237
体を	-10.9238
洗い	-10.9241
知的財産権	-10.9241
させるために	-10.9242
ケット	-10.9243
タオル	-10.9243
活発	-10.9243
使いやすい	-10.9246
を上げ	-10.9247
執筆	-10.9248
▁日時	-10.9249
▁詳細については	-10.9249
ICE	-10.9249
実感	-10.925
拡大する	-10.9252
を強調し	-10.9252
どうすれば	-10.9252
ense	-10.9254
周りの	-10.9254
ご購入	-10.9254
》	-10.9254
不可能	-10.9254
生活を	-10.9255
を形成し	-10.9256
スタイルの	-10.9256
に転送	-10.9257
デュ	-10.9258
糖尿病	-10.926
▁no	-10.9262
トヨタ	-10.9263
Ro	-10.9264
▁最初に	-10.9265
欲	-10.9265
墓	-10.9268
チェックイン	-10.9272
独立して	-10.9272
からだ	-10.9272
世界各地	-10.9273
ことができるように	-10.9274
インパクト	-10.9274
資源の	-10.9274
の内部	-10.9275
必要とされる	-10.9276
四半期連結累計期間	-10.9277
を避ける	-10.9277
生存	-10.9277
ジェット	-10.9278
の力	-10.9278
▁カ	-10.928
福島	-10.928
致	-10.9281
漫画	-10.9283
稲	-10.9283
余分な	-10.9286
営業利益	-10.9288
nc	-10.929
が生じる	-10.929
見方	-10.929
終え	-10.929
請求書	-10.929
リスクを	-10.9292
日目	-10.9293
を大きく	-10.9293
する事	-10.9295
を除いて	-10.9297
ファイルに	-10.9297
回目	-10.9298
強み	-10.93
2,000	-10.9301
スクロール	-10.9302
エンタープライズ	-10.9302
ものではない	-10.9303
不具合	-10.9304
▁Blog	-10.9306
かかります	-10.9306
を行っ	-10.9307
てみましょう	-10.9308
mod	-10.9308
ations	-10.931
GI	-10.931
数々の	-10.931
達は	-10.9311
24.	-10.9313
結婚式	-10.9316
構想	-10.9316
表示され	-10.9316
▁カスタム	-10.932
を同時に	-10.932
サラダ	-10.9321
協調	-10.9321
多くの場合	-10.9323
以外に	-10.9323
▁Update	-10.9324
無視	-10.9325
問い	-10.9325
はい	-10.9326
ターン	-10.9328
能力を	-10.9329
夜の	-10.9331
場合を除き	-10.9331
JP	-10.9331
人民	-10.9332
オンラインストア	-10.9332
ファースト	-10.9332
される場合	-10.9333
AA	-10.9336
流体	-10.9338
gan	-10.9339
仲介	-10.934
SMS	-10.9346
メールで	-10.9346
ッツ	-10.9347
役割を果たし	-10.9347
ual	-10.9348
▁バージョン	-10.9349
back	-10.9351
みな	-10.9352
ホールディングス	-10.9353
を発行	-10.9353
結局	-10.9353
をもたらします	-10.9354
欠点	-10.9356
▁or	-10.9357
均一	-10.9357
たいという	-10.9358
訪れる	-10.9362
に来る	-10.9362
集め	-10.9363
アンテナ	-10.9363
▁SE	-10.9365
かどうかを	-10.9366
を基に	-10.9366
取り組む	-10.9369
リットル	-10.937
160	-10.9371
タップ	-10.9372
曜	-10.9373
いって	-10.9373
あなたと	-10.9374
二重	-10.9374
美容	-10.9375
OC	-10.9376
ガード	-10.9377
工具	-10.9377
救済	-10.9378
に変換する	-10.938
ソーシャルネットワーク	-10.9381
訪れ	-10.9382
を提案し	-10.9384
hy	-10.9385
3.0	-10.9386
郵便	-10.9387
初期の	-10.9387
原因はそれだけではありません	-10.9387
▁オーストラリア	-10.9388
甘い	-10.9388
fi	-10.9389
起業家	-10.9389
機能性	-10.939
マネー	-10.9391
句	-10.9392
をご紹介します	-10.9393
適合	-10.9394
文化的	-10.9396
聞く	-10.9396
すべく	-10.9397
cc	-10.9397
得た	-10.9398
形式の	-10.9399
いくら	-10.9402
ヘア	-10.9403
ようとする	-10.9409
ヘル	-10.941
富士通	-10.941
場合によっては	-10.941
するのに役立ちます	-10.9411
が行われる	-10.9412
za	-10.9412
▁テキスト	-10.9414
塗	-10.9415
▁サステナビリティ	-10.9415
に際して	-10.9418
UB	-10.9419
▁OTFE	-10.9419
▁参加	-10.942
Pr	-10.9423
ことはできない	-10.9424
の前で	-10.9426
の業績	-10.9426
NY	-10.9426
分からない	-10.9426
の言葉	-10.9426
オーダー	-10.9427
CB	-10.9432
を調整する	-10.9433
と思いました	-10.9434
記入	-10.9438
▁女性	-10.9438
the	-10.944
Me	-10.9441
表示する	-10.9441
▁FAQ	-10.9441
突き	-10.9442
をサポートします	-10.9442
を実現し	-10.9443
を許可	-10.9446
が存在し	-10.9446
相対	-10.9448
を拒否	-10.9448
の皆さん	-10.9449
ないよう	-10.9449
を背景に	-10.9451
メニューから	-10.9451
仕事の	-10.9452
スラ	-10.9454
実施した	-10.9455
の需要	-10.9456
グラフィックス	-10.9459
何かを	-10.9459
みる	-10.9459
江戸	-10.946
最終的な	-10.946
電動	-10.9461
メガ	-10.9462
▁Plus	-10.9462
を確保し	-10.9462
▁メールアドレス	-10.9465
機能します	-10.9465
上げる	-10.9466
コンサルタント	-10.9468
▁Linux	-10.9469
合金	-10.947
ページに	-10.947
るための	-10.9471
のセキュリティ	-10.9475
暴	-10.9475
階層	-10.9475
諸島	-10.9477
始めて	-10.9479
に含まれ	-10.9483
ご要望	-10.9483
360	-10.9483
単一	-10.9485
需要が	-10.9486
を使用する場合	-10.9489
プリンター	-10.949
▁Information	-10.949
read	-10.949
われる	-10.9492
正直	-10.9493
ュ	-10.9495
代謝	-10.9495
民主主義	-10.9495
はあまり	-10.9495
の自由	-10.9497
抜	-10.9498
施	-10.9499
地球温暖化	-10.95
潮	-10.95
▁Com	-10.9502
紫	-10.9503
ker	-10.9504
回数	-10.9505
苦情	-10.9506
通訳	-10.9507
要約	-10.9507
までお問い合わせください	-10.9507
私はあなた	-10.9507
流出	-10.9508
量を	-10.951
従業員が	-10.951
作業を	-10.9512
施設の	-10.9512
ization	-10.9513
▁EU	-10.9513
を生成する	-10.9514
生体	-10.9518
と共有	-10.952
をオフに	-10.9521
だろうか	-10.9521
スペイン語	-10.9522
PH	-10.9524
IDE	-10.9526
頂く	-10.9526
を選んで	-10.9526
other	-10.9529
▁お客様	-10.9529
入社	-10.9529
ご利用ください	-10.9529
関税	-10.9532
わたしは	-10.9533
冊	-10.9534
ration	-10.9536
▁our	-10.9536
▁著者	-10.9536
正常	-10.9538
30%	-10.9539
▁r	-10.9539
を公開	-10.9544
実行する	-10.9544
着実に	-10.9545
Bluetooth	-10.9545
長崎	-10.9547
▁チーム	-10.9547
満たされ	-10.9547
ご理解	-10.9551
ct	-10.9552
live	-10.9552
変形	-10.9553
1995	-10.9553
ule	-10.9553
eat	-10.9556
川の	-10.9558
心から	-10.9558
を訪れ	-10.956
デスク	-10.9561
を誇る	-10.9562
ポルノ	-10.9564
し続ける	-10.9564
デフォルトで	-10.9565
ペイ	-10.9567
▁コ	-10.9567
▁RE	-10.9569
人達	-10.9569
織	-10.9572
カウント	-10.9572
の調整	-10.9575
動機	-10.9575
が起こる	-10.9578
セイ	-10.9579
を制御する	-10.9583
隅	-10.9584
▁Company	-10.9584
静かな	-10.9585
なもの	-10.9587
の完全な	-10.9589
額は	-10.9589
世界で最も	-10.959
ございます	-10.9591
全体が	-10.9591
読み込み	-10.9592
に従ってください	-10.9594
Com	-10.9594
設定を	-10.9595
への投資	-10.9595
ms	-10.9596
江戸時代	-10.9596
揚げ	-10.9598
通りに	-10.96
がなされ	-10.96
▁従って	-10.9601
▁ヘルプ	-10.9601
ご連絡ください	-10.9603
進捗	-10.9603
単なる	-10.9604
広範囲	-10.9604
py	-10.9604
ther	-10.9604
ぐらい	-10.9608
お気に入り	-10.961
味わい	-10.9611
▁like	-10.9611
現場で	-10.9611
目的のために	-10.9614
Internet	-10.9615
▁当時	-10.9616
の運営	-10.9616
視点から	-10.9616
▁Report	-10.9617
IV	-10.9618
努力を	-10.9619
の一部を	-10.962
の家	-10.9621
替	-10.9621
確率	-10.9621
壊	-10.9623
宅	-10.9623
韓国の	-10.9623
付近	-10.9628
魅力的	-10.963
への貢献	-10.963
患者さん	-10.963
パケット	-10.9632
思って	-10.9633
▁プロフェッショナル	-10.9633
ose	-10.9634
カードを	-10.9634
の欠如	-10.9635
詳細情報	-10.9638
行事	-10.9638
RAR	-10.9639
正常に	-10.9639
Ex	-10.9641
方向性	-10.9642
教材	-10.9645
広範な	-10.9648
映画祭	-10.9649
リアルタイムで	-10.9653
▁私達は	-10.9653
ワイヤ	-10.9655
日間の	-10.9657
明示	-10.9658
の主要な	-10.9658
app	-10.9658
急いで	-10.9658
惑	-10.9658
昼	-10.9659
くれ	-10.966
できない場合	-10.9662
イング	-10.9662
解決策は	-10.9664
クション	-10.9665
古典的な	-10.9665
に使用される	-10.9665
社が	-10.9666
▁My	-10.9666
理事	-10.9667
に注意してください	-10.9669
理由で	-10.9671
フランス語	-10.9671
▁34	-10.9672
望ましい	-10.9673
の約	-10.9674
立ち上げ	-10.9674
キリスト教	-10.9675
スピーチ	-10.9677
ながらも	-10.9678
みた	-10.9679
仏教	-10.9679
存在します	-10.968
目的地	-10.9682
を増やし	-10.9683
終了後	-10.9684
耐性	-10.9689
操作が	-10.9689
ple	-10.969
バッファ	-10.9691
追求	-10.9691
貯蔵	-10.9692
の作業	-10.9693
を選択できます	-10.9693
Prof	-10.9695
供	-10.9697
を取ります	-10.9698
デル	-10.9699
ファイル名	-10.97
できるか	-10.97
ストック	-10.97
を編集	-10.97
で働く	-10.9702
自分たちの	-10.9702
連動	-10.9703
▁BIOS	-10.9705
となっております	-10.9706
ものではなく	-10.9707
等は	-10.9708
に取り組んで	-10.9708
推測	-10.9708
典型的な	-10.9709
ギャ	-10.9709
国内で	-10.971
ord	-10.971
採択	-10.9713
トマト	-10.9714
ゴミ	-10.9716
その中で	-10.9718
どれ	-10.9718
ネル	-10.9728
野生	-10.9729
手動	-10.9729
ウィザード	-10.9731
を実行し	-10.9732
委員長	-10.9733
場合にのみ	-10.9733
干渉	-10.9736
国際空港	-10.9737
▁an	-10.9738
ちゃ	-10.9738
使って	-10.9739
ビッグ	-10.9739
画像の	-10.974
▁»	-10.9741
を開いて	-10.9741
アイデンティティ	-10.9742
フィンランド	-10.9744
日程	-10.9749
許諾	-10.9749
ウェ	-10.9751
都市の	-10.9753
腕時計	-10.9754
産業用	-10.9754
揺	-10.9755
Direct	-10.9756
ica	-10.9758
郷	-10.976
かけて	-10.9761
座席	-10.9763
BE	-10.9764
減少し	-10.9764
管理システム	-10.9764
▁Manager	-10.9771
rit	-10.9772
卓	-10.9772
戦後	-10.9772
祝福	-10.9772
数回	-10.9772
▁フランス	-10.9773
光の	-10.9773
▁Language	-10.9775
に成功	-10.9775
ネットワークの	-10.9777
アカウントに	-10.9783
今は	-10.9784
▁これには	-10.9784
契約を締結	-10.9785
移住	-10.9785
再開	-10.9786
過剰	-10.9786
一年	-10.9787
近代	-10.979
▁2004	-10.9791
エディター	-10.9791
ウス	-10.9791
クルマ	-10.9793
ダイナミック	-10.9793
割引コード	-10.9794
カーソル	-10.9794
っぱ	-10.9795
の総	-10.9795
web	-10.9795
変異	-10.9797
種子	-10.9797
を開始し	-10.9797
法務	-10.9798
環	-10.9799
アプリを	-10.9799
飛	-10.98
表示されている	-10.9802
提供されます	-10.9804
▁Express	-10.9804
ある程度	-10.9804
ling	-10.9804
事は	-10.9806
ッター	-10.9807
休憩	-10.9809
先頭	-10.9809
の美しさ	-10.9809
によるもの	-10.9809
おう	-10.981
発現	-10.9811
艦	-10.9812
入金	-10.9815
▁Share	-10.9816
新機能	-10.9818
FP	-10.9818
上級	-10.9819
当ホテル	-10.982
フィット	-10.9822
システムが自動的に	-10.9822
リボン	-10.9822
見られ	-10.9823
セキュア	-10.9824
人工知能	-10.9824
分野において	-10.9827
落とし	-10.9829
ミルク	-10.9829
数を	-10.9831
▁Software	-10.9831
お得な	-10.9831
やり方	-10.9832
できれば	-10.9832
▁¶	-10.9832
方も	-10.9833
▁~	-10.9833
フラット	-10.9834
かせ	-10.9835
沼	-10.9836
てまいりました	-10.9837
オル	-10.9837
ということで	-10.9839
銃	-10.9839
、2021	-10.984
ning	-10.9841
伝える	-10.9841
がいる	-10.9841
の操作	-10.9841
の統合	-10.9842
トレイ	-10.9843
視聴者	-10.9845
速い	-10.9846
カリキュラム	-10.9848
全体として	-10.985
をお楽しみください	-10.9853
ことを可能にする	-10.9854
▁35	-10.9856
ほうが	-10.9857
本投資法人	-10.986
に到着	-10.9861
標準化	-10.9861
保有する	-10.9862
持ってい	-10.9864
治療法	-10.9866
残っている	-10.9867
汚	-10.9868
悩	-10.9868
スノー	-10.9869
変わった	-10.987
受託	-10.9871
ンス	-10.9872
が行われました	-10.9873
雅	-10.9873
いること	-10.9874
場合がございます	-10.9876
ware	-10.9876
理想	-10.9876
があるため	-10.9877
孔	-10.9878
▁まだ	-10.9879
トーン	-10.988
内外	-10.9882
▁パスワード	-10.9883
を選択すると	-10.9883
自然に	-10.9884
▁日付	-10.9884
誇	-10.9884
必	-10.9884
パルス	-10.9885
を占め	-10.9886
まし	-10.9887
の条件	-10.989
階段	-10.9892
の促進	-10.9893
wi	-10.9893
▁9.	-10.9894
家で	-10.9895
札	-10.9897
本サイト	-10.9897
1996	-10.9898
つなげ	-10.9898
挙	-10.9899
熱帯	-10.9899
トリー	-10.9899
周辺の	-10.9899
▁パンドラ	-10.9901
自分たち	-10.9903
動画を	-10.9904
楽しんでいただける	-10.9905
該当する	-10.9905
▁デザイン	-10.9905
スタッフが	-10.9905
科医	-10.9906
等で	-10.9906
答	-10.9906
▁8.1	-10.9906
プロキシ	-10.9908
生涯	-10.9909
lock	-10.991
ケイ	-10.9913
od	-10.9914
中国人	-10.9914
全体に	-10.9914
を準備する	-10.9915
に入れる	-10.9916
状の	-10.9917
有効化	-10.9917
我	-10.9917
勧告	-10.9919
▁モバイル	-10.9922
産業の	-10.9926
日以内に	-10.9926
2022	-10.9929
▁Power	-10.993
▁国立天文台暦計算室	-10.9931
チェコ	-10.9931
豊富	-10.9934
制定	-10.9934
NET	-10.9936
ものとして	-10.9937
右側	-10.9938
無償	-10.9938
てから	-10.994
の登録	-10.994
高校生	-10.9941
にした	-10.9942
の概念	-10.9942
ND	-10.9942
存在しない	-10.9944
日本では	-10.9944
両社	-10.9952
東部	-10.9953
慣れ	-10.9953
指名	-10.9953
世界各国	-10.9955
漁業	-10.9955
返済	-10.9957
領域の	-10.9959
ロング	-10.996
救	-10.996
を考慮して	-10.996
毎日の	-10.9962
保護者	-10.9963
の動向	-10.9963
寒	-10.9965
迅速かつ	-10.9966
排	-10.9967
の他の	-10.9968
質の高い	-10.9969
クラッシュ	-10.9969
影響を与え	-10.997
できるため	-10.997
▁最後の	-10.997
サイトに	-10.9971
をまとめ	-10.9971
周囲の	-10.9972
平線に一致する時刻	-10.9974
▁Ne	-10.9975
限られた	-10.9975
▁Tool	-10.9975
▁ご利用にあたって出入りの時刻は	-10.9975
を抱え	-10.9976
トラッキング	-10.9978
が行われた	-10.9978
明確	-10.9979
マット	-10.998
見込まれ	-10.9981
システムで	-10.9983
世界最大の	-10.9983
年前に	-10.9984
医療機器	-10.9985
取材	-10.9986
独自	-10.9987
男女	-10.999
出てくる	-10.9991
public	-10.9993
アカウントを	-10.9993
説明会	-10.9994
関連会社	-10.9994
有益な	-10.9995
ほんの	-10.9996
アク	-10.9996
メー	-10.9996
部分に	-11.0001
隆	-11.0001
封	-11.0001
▁クッキー	-11.0002
したいと思います	-11.0004
吹	-11.0005
▁質問	-11.0007
▁プロパティ	-11.0008
を紹介する	-11.001
晩	-11.0011
体験を	-11.0012
時間に	-11.0012
ding	-11.0012
させることができます	-11.0017
は同じ	-11.0017
で構成されています	-11.0018
デバイスで	-11.0018
ory	-11.0019
1.2	-11.002
に該当する	-11.0021
カート	-11.0023
バイナリ	-11.0024
性格	-11.0025
をつくる	-11.0025
を広げ	-11.0025
Si	-11.0025
成形	-11.0025
メモリー	-11.0026
▁電話	-11.0028
製品が	-11.0029
帽子	-11.0029
の有無	-11.0029
KA	-11.003
Red	-11.0031
来ました	-11.0033
-11	-11.0036
フラッシュドライブ	-11.0037
嫌	-11.0038
海外で	-11.004
を遵守し	-11.004
刺	-11.0042
新設	-11.0042
スパイス	-11.0042
▁Download	-11.0042
式の	-11.0043
障害者	-11.0044
部品の	-11.0045
唱	-11.0045
ギター	-11.0045
ていると	-11.0047
霧	-11.0047
を拡大し	-11.0049
カルチャー	-11.0052
ゆっくり	-11.0053
にインストール	-11.0053
こだわり	-11.0053
されてきた	-11.0054
建物の	-11.0054
を引き起こし	-11.0058
ないため	-11.0059
前から	-11.0061
▁Top	-11.0061
▁33	-11.0065
に移動	-11.0065
地帯	-11.0068
ESG	-11.0068
を実施しています	-11.007
狭い	-11.0073
リストから	-11.0073
理解し	-11.0076
モバイルデバイス	-11.0077
ress	-11.0077
ek	-11.0081
の多い	-11.0081
夕	-11.0082
マネージャ	-11.0083
侵入	-11.0083
の大部分は	-11.0084
▁この記事では	-11.0085
近隣	-11.0087
景観	-11.0088
書面	-11.0089
力が	-11.0089
声を	-11.009
人員	-11.0092
作られ	-11.0093
LNG	-11.0093
詞	-11.0095
お話し	-11.0096
通報	-11.0096
巨大	-11.0098
ブラン	-11.0098
イスラム	-11.0098
▁パートナー	-11.0098
歳以上	-11.0098
凍結	-11.0099
菜	-11.0099
南アフリカ	-11.01
造り	-11.01
GDP	-11.0102
フレーズ	-11.0103
ui	-11.0108
応援	-11.0108
▁Enterprise	-11.0109
開催された	-11.011
▁EN	-11.011
ors	-11.0111
承諾	-11.0111
迎え	-11.0112
市場は	-11.0113
わけ	-11.0114
が作成され	-11.0116
収録	-11.0117
オートメーション	-11.0117
Firefox	-11.0117
恋	-11.012
ail	-11.0121
神が	-11.0121
完	-11.0124
★	-11.0126
ヘッダー	-11.0127
を遂げ	-11.013
掲げ	-11.013
▁NTT	-11.013
企業や	-11.0131
人道	-11.0132
年後	-11.0132
▁time	-11.0132
ung	-11.0133
漢	-11.0134
きっと	-11.0134
関西	-11.0136
を描き	-11.0137
が追加され	-11.0137
リフト	-11.0137
堪能	-11.0138
▁rights	-11.014
率が	-11.0141
どちらか	-11.0143
her	-11.0144
コム	-11.0144
▁su	-11.0146
ファイルシステム	-11.0147
中でも	-11.0147
世界経済	-11.015
同盟	-11.0151
を意味する	-11.0152
に対しては	-11.0152
同志	-11.0153
を下	-11.0153
運航	-11.0154
ように見える	-11.0154
塚	-11.0156
最も人気のある	-11.0156
せて	-11.0156
拘束	-11.0158
先進国	-11.0158
を記録し	-11.0159
段ボール	-11.016
▁クラウド	-11.016
象	-11.016
似ています	-11.0161
線の	-11.0161
がありますか	-11.0162
フォーカス	-11.0162
Ti	-11.0162
を考慮する	-11.0162
▁...	-11.0163
をお持ち	-11.0164
ニュ	-11.0164
▁コンテンツ	-11.0164
天国	-11.0164
を知って	-11.0165
の伝統	-11.0166
awa	-11.0166
サラ	-11.0168
前進	-11.0171
ANA	-11.0172
音響	-11.0172
料理を	-11.0172
成田	-11.0173
だからこそ	-11.0175
留め	-11.0176
を調べる	-11.0178
論理	-11.0181
を保つ	-11.0182
与	-11.0182
判決	-11.0182
多彩な	-11.0183
GR	-11.0188
えば	-11.0189
この記事	-11.019
罰	-11.019
加盟国	-11.0195
外国語	-11.0196
ピング	-11.0196
INTEL	-11.0198
inter	-11.02
メタデータ	-11.0201
ace	-11.0202
されるため	-11.0203
したい場合	-11.0203
に資する	-11.0204
めた	-11.0206
▁子供	-11.0207
が正しく	-11.0208
オス	-11.0208
とにかく	-11.0209
が完了し	-11.0211
ドライバをインストールする	-11.0211
ei	-11.0211
とは何ですか	-11.0212
Net	-11.0212
ものでした	-11.0212
デバイスは	-11.0213
身につけ	-11.0214
鹿	-11.0215
割当	-11.0215
を使用することができます	-11.0216
込	-11.0216
争	-11.0216
終わった	-11.0217
シリコン	-11.0218
セールス	-11.0218
を考慮し	-11.0219
流れる	-11.022
効率的	-11.022
実施する	-11.0222
インテル	-11.0222
▁One	-11.0223
▁reserved	-11.0225
を支え	-11.0226
の皆さま	-11.0227
またはその	-11.0228
邦	-11.0229
准教授	-11.0232
が含まれる	-11.0233
始まる	-11.0234
数十	-11.0234
▁up	-11.0236
Netflix	-11.0237
、2012	-11.0237
鳴	-11.0237
が完全に	-11.0239
カリフォルニア	-11.0239
積み	-11.024
レア	-11.0241
可能である	-11.0242
▁必要な	-11.0242
につれて	-11.0243
されたもの	-11.0244
ルーター	-11.0246
重視	-11.0246
牛乳	-11.0248
沿岸	-11.0253
▁個人情報保護方針	-11.0254
踊り	-11.0255
注目を集め	-11.0256
それで	-11.0256
実質	-11.0256
銘柄	-11.0257
飾り	-11.0259
NG	-11.026
を減らし	-11.0263
冠	-11.0267
技能	-11.0268
自身が	-11.0269
インターネットに接続されている	-11.027
の方は	-11.0272
テント	-11.0276
進んで	-11.0276
数百	-11.0276
に反映	-11.0277
及びその	-11.0277
秘	-11.0277
退職	-11.0277
天然ガス	-11.0281
を尊重し	-11.0282
並	-11.0282
使われている	-11.0283
ベルギー	-11.0284
潜在	-11.0284
面接	-11.0287
物理的な	-11.0288
祈	-11.0289
事象	-11.029
壁に	-11.029
の姿	-11.0292
挙げ	-11.0292
夕方	-11.0292
長時間	-11.0293
画面で	-11.0296
SHO	-11.0297
現れ	-11.0298
を必要とします	-11.0298
生じ	-11.0299
を処理する	-11.0301
増加し	-11.0302
メーター	-11.0303
姿を	-11.0303
汁	-11.0304
ject	-11.0305
ご提供	-11.0306
の影響を受け	-11.0307
働いて	-11.0307
ことを可能にします	-11.0308
中毒	-11.0308
自国	-11.0308
ることなく	-11.0309
が良い	-11.0312
あなたのコンピュータ	-11.0313
考察	-11.0313
得意	-11.0314
せい	-11.0315
票	-11.0316
▁プライバシー	-11.0316
cy	-11.0317
録画	-11.0318
適しています	-11.0323
ara	-11.0324
Do	-11.0324
を経験し	-11.0324
以前は	-11.0324
▁何	-11.0325
中期	-11.0326
イラク	-11.0328
杯	-11.033
活発な	-11.033
披露	-11.033
thing	-11.0332
お送り	-11.0332
▁サ	-11.0332
によ	-11.0334
生まれる	-11.0334
煮	-11.0337
水道	-11.0338
▁get	-11.0338
わら	-11.0339
を見てください	-11.034
年代に	-11.0341
まえ	-11.0342
ロープ	-11.0343
冷凍	-11.0344
彦	-11.0344
プロジェクトは	-11.0345
-12	-11.0345
lan	-11.0346
▁Outlook	-11.0346
▁Photo	-11.0347
?」	-11.0348
裂	-11.0348
航	-11.0349
成長する	-11.0349
デュアル	-11.035
いただけ	-11.035
思想	-11.0351
直す	-11.0351
効率化	-11.0353
ship	-11.0355
をとり	-11.0356
rea	-11.0357
統括	-11.0359
会計基準	-11.036
いずれかの	-11.0362
踏	-11.0364
成長率	-11.0366
を知り	-11.0367
てはいけません	-11.0367
yn	-11.0368
チャーム	-11.0369
ドーム	-11.0369
が生まれ	-11.0369
の性質	-11.0375
トランプ	-11.0376
ウォーカー	-11.0376
清潔	-11.0379
範囲で	-11.0379
粒	-11.038
Open	-11.0381
選ばれ	-11.0381
ミュージアム	-11.0381
意志	-11.0382
にします	-11.0384
チェックボックス	-11.0387
▁プロ	-11.0387
▁今日の	-11.0389
とはいえ	-11.0391
ロイ	-11.0392
メッシュ	-11.0392
滑らか	-11.0394
推薦	-11.0396
永久	-11.0396
同様に	-11.0396
劣化	-11.0397
パル	-11.0398
ということを	-11.0398
の意見	-11.0399
非常に重要です	-11.04
に接続する	-11.0401
準拠	-11.0402
するような	-11.0406
業務執行	-11.0407
が大幅に	-11.041
......	-11.0413
Cam	-11.0416
元気	-11.0417
▁Rights	-11.042
持続可能性	-11.042
ys	-11.042
税務	-11.0421
▁II	-11.0422
動か	-11.0422
ッタ	-11.0423
大好き	-11.0424
トラブルシューティング	-11.0424
ries	-11.0424
くだ	-11.0426
2030	-11.0427
を入れる	-11.0427
子宮	-11.0428
をカスタマイズ	-11.0428
ita	-11.0431
Up	-11.0432
幸	-11.0434
鉱物	-11.0434
譲	-11.0437
男の子	-11.0437
エントリー	-11.044
もう少し	-11.044
ではありませんが	-11.0443
尚	-11.0445
シェー	-11.0445
に取り	-11.0445
▁アドレス	-11.0445
被害者	-11.0445
情報提供	-11.0447
の制限	-11.0448
さい	-11.0449
担	-11.0449
▁すべて	-11.045
ご確認ください	-11.0451
免責	-11.0452
代金	-11.0453
鎖	-11.0453
ご参加	-11.0454
TRA	-11.0454
ベルリン	-11.0454
III	-11.0455
地位	-11.0456
照	-11.0457
づ	-11.0457
の話	-11.0458
を失う	-11.0462
充填	-11.0462
Mod	-11.0463
所在地	-11.0463
表情	-11.0465
申し	-11.0468
お知らせいたします	-11.0468
▁dis	-11.0469
返し	-11.047
2.1	-11.047
シリア	-11.0471
意思	-11.0472
が低い	-11.0473
を書き	-11.0473
uc	-11.0473
ゲン	-11.0475
件数	-11.0476
青い	-11.0476
しないこと	-11.0477
改定	-11.0477
映画の	-11.0478
イル	-11.0479
アドバイザー	-11.0479
su	-11.048
のトップ	-11.0481
はありませんでした	-11.0482
未来の	-11.0482
▁全ての	-11.0483
を分析し	-11.0484
区域	-11.0485
翌日	-11.0486
地下鉄	-11.049
コミット	-11.0492
特有の	-11.0494
▁アル	-11.0494
そうだ	-11.0494
生物学	-11.0495
先行	-11.0495
態	-11.0495
UR	-11.0496
を備え	-11.0497
グッズ	-11.0499
店で	-11.0499
首脳	-11.05
作物	-11.0501
リュ	-11.0503
苦労	-11.0504
と同様	-11.0504
していただく	-11.0508
スムーズに	-11.0509
インドの	-11.0509
ボウル	-11.0509
熱い	-11.051
▁会社	-11.051
ことと	-11.0511
理学	-11.0511
傾	-11.0512
を押す	-11.0512
有用	-11.0513
▁ウェブサイト	-11.0515
▁Free	-11.0515
無く	-11.0516
瓶	-11.0516
マリ	-11.0517
急速な	-11.0518
グルメ	-11.0519
動物の	-11.0521
司法	-11.0521
こな	-11.0521
1970	-11.0522
数千	-11.0523
をチェックする	-11.0525
ブー	-11.0529
たまま	-11.053
ダウンロードできない場合	-11.053
がまだ	-11.0532
支店	-11.0534
を活かし	-11.0534
電波	-11.0535
引き出し	-11.0535
WordPress	-11.0536
ect	-11.0536
国が	-11.0537
足を	-11.0537
は自動的に	-11.0537
あって	-11.0539
植物の	-11.0539
高価	-11.054
▁ANA	-11.054
勇気	-11.054
スカ	-11.0542
によるものです	-11.0545
食物	-11.0545
飲	-11.0546
機械学習	-11.0547
ほどの	-11.0547
をサポートしています	-11.0547
hen	-11.0547
最後	-11.0548
オプションは	-11.0548
▁think	-11.0549
バルブ	-11.0551
を作ることができます	-11.0552
ビジネスモデル	-11.0552
と思い	-11.0553
センターの	-11.0553
ペル	-11.0553
車を	-11.0555
被災地	-11.0556
研究の	-11.0558
▁On	-11.0558
ley	-11.0558
の仕組み	-11.0559
レプリカが	-11.0561
立案	-11.0562
継承	-11.0564
を組み合わせる	-11.0564
がとても	-11.0564
のネットワーク	-11.0564
この種の	-11.0565
を避け	-11.0565
概	-11.0567
婚	-11.0567
可能性が高い	-11.0568
だと思う	-11.0569
またはその他の	-11.0569
私にとって	-11.0571
後者	-11.0571
アンインストール	-11.0572
終了する	-11.0574
価額	-11.0574
を開始しました	-11.0575
水で	-11.0575
奪	-11.0577
資金を	-11.0578
このオプション	-11.0579
強力	-11.058
していると	-11.0581
もいい	-11.0581
自家製	-11.0583
と同	-11.0583
にならない	-11.0586
求められます	-11.0586
ond	-11.0587
を聞く	-11.0588
小児	-11.0591
を追求し	-11.0591
ボル	-11.0591
創作	-11.0593
att	-11.0593
と言いました	-11.0594
ami	-11.0595
レジャー	-11.0601
シュー	-11.0602
▁Sign	-11.0602
新年の	-11.0602
曲げ	-11.0603
示唆	-11.0604
MIDI	-11.0605
輝き	-11.0606
yo	-11.0606
行っている	-11.0606
腫	-11.0607
試料	-11.0607
言葉を	-11.0608
サービスを提供しています	-11.0609
大きさ	-11.0611
gen	-11.0611
▁自動更新	-11.0612
▁IR	-11.0612
敬	-11.0613
年度は	-11.0613
off	-11.0614
▁リソース	-11.0616
したりする	-11.0616
のサービス	-11.0616
ホステル	-11.0617
カードの	-11.0617
だれ	-11.0617
抑え	-11.0619
続けて	-11.0619
累計	-11.062
fl	-11.062
を立て	-11.0622
▁CA	-11.0622
ヨハネ	-11.0624
スパイ	-11.0624
ファイル形式	-11.0628
ようにしてください	-11.0629
研究は	-11.063
減速	-11.063
溶	-11.063
湿度	-11.063
SHI	-11.0631
に起因する	-11.0631
お使いのコンピュータが	-11.0632
は他の	-11.0636
▁詳細ページ	-11.0636
勤	-11.0639
の旅	-11.0639
取り組んで	-11.0639
▁結局のところ	-11.064
▁開発者	-11.0641
実行されます	-11.0641
rm	-11.0641
日曜日	-11.0643
大切	-11.0643
徹底的に	-11.0643
に影響を与え	-11.0644
を見ると	-11.065
ころ	-11.065
壮大な	-11.0651
クルーズ	-11.0652
繋	-11.0653
写真の	-11.0656
自分自身を	-11.0657
だという	-11.0657
したときに	-11.0657
バッチ	-11.0658
オープンソース	-11.0658
シール	-11.0659
▁out	-11.066
以下のとおり	-11.066
▁一般的に	-11.0662
fer	-11.0664
準備ができています	-11.0664
絶縁	-11.0667
のを助ける	-11.0668
大いに	-11.0668
▁TOP	-11.0669
RD	-11.0669
▁ASUS	-11.0669
信じ	-11.0671
クリスマスツリー	-11.0671
カロリー	-11.0679
▁Events	-11.068
皆様の	-11.0682
を促す	-11.0682
柔	-11.0683
▁外部	-11.0684
ial	-11.0684
アナログレコード	-11.0684
シグナル	-11.0685
創造性	-11.0685
▁現在は	-11.0686
の共有	-11.0691
シルバー	-11.0691
ピアノ	-11.0692
ッカ	-11.0692
の真ん中	-11.0693
、2011	-11.0693
鋭	-11.0695
秩序	-11.0695
適正な	-11.07
終わる	-11.0702
上から	-11.0703
のとおり	-11.0704
トリガー	-11.0704
同士	-11.0705
沢山	-11.0706
換算	-11.0707
発生します	-11.0707
ブート	-11.0707
機密	-11.0708
は次のとおりです	-11.071
人たちが	-11.0712
の承認	-11.0712
径	-11.0712
デバイスのドライバを	-11.0712
爪	-11.0713
ことが大切です	-11.0714
噴	-11.0715
の最適化	-11.0716
を用い	-11.0719
二酸化炭素	-11.072
一時的に	-11.0723
コーチ	-11.0723
を起こし	-11.0726
コントローラー	-11.0726
▁8.	-11.0728
生息	-11.0729
スティ	-11.0729
ベンチャー	-11.073
どうぞ	-11.0733
Cal	-11.0735
溝	-11.0737
したものです	-11.0738
若しくは	-11.0739
ベータ	-11.074
れている	-11.0741
に移動し	-11.0742
催	-11.0742
決意	-11.0743
Skype	-11.0743
-9	-11.0744
店内	-11.0746
用いられ	-11.0749
より大きな	-11.0749
を終了	-11.0749
シリーズの	-11.075
にログイン	-11.0751
日々の	-11.0752
どれほど	-11.0753
温室効果ガス	-11.0753
指揮	-11.0755
の最	-11.0755
代表者	-11.0755
著しく	-11.0755
切れるか	-11.0756
かれた	-11.0757
を飲む	-11.0758
補完	-11.0759
となっており	-11.0759
するものとします	-11.0759
あれば	-11.076
因子	-11.0762
想い	-11.0764
およびその	-11.0764
量が	-11.0766
lt	-11.0767
欠かせない	-11.0768
復帰	-11.077
集積	-11.0771
クリーニング	-11.0772
ray	-11.0774
最初	-11.0774
let	-11.0776
fin	-11.0777
毎に	-11.0777
ous	-11.0778
向かい	-11.0779
動作します	-11.0779
を務める	-11.0779
はどのように	-11.0779
▁Ac	-11.0781
のさらなる	-11.0781
を常に	-11.0783
ey	-11.0785
行っています	-11.0786
なかった場合	-11.0787
ことは不可能です	-11.0788
低く	-11.0788
した結果	-11.0789
▁SDK	-11.079
▁すなわち	-11.0793
を搭載した	-11.0793
TX	-11.0794
が正常に機能するためには	-11.0794
起こります	-11.0796
生きている	-11.0799
▁Us	-11.08
モル	-11.0801
ョ	-11.0801
APU	-11.0802
のもとで	-11.0803
認	-11.0803
位置に	-11.0803
すばらしい	-11.0804
リーグ	-11.0804
自然と	-11.0806
学長	-11.0806
ソリューションを	-11.0807
個人的に	-11.0807
適切なプログラム	-11.0807
をあなたのコンピュータに繋げた	-11.0808
を思い	-11.0808
コンパイル	-11.0809
金融市場	-11.081
かける	-11.0812
プロセスが	-11.0813
グレード	-11.0814
を十分に	-11.0815
の有効性	-11.0817
を教えてください	-11.0817
に一時的にインターネット接続が	-11.0817
デバイスの接続後	-11.0817
ただし	-11.0818
信号が弱すぎて	-11.0818
DP	-11.0819
いきます	-11.082
を取得します	-11.0821
一括	-11.0822
受け付け	-11.0823
発足	-11.0825
for	-11.0825
文明	-11.0826
月より	-11.0826
状態の良い	-11.0827
するので	-11.0827
インテリジェント	-11.0829
と言われています	-11.0831
▁but	-11.0832
の最新	-11.0834
一切の	-11.0834
Amazon	-11.0835
あらゆる種類の	-11.0836
ナル	-11.0836
▁@	-11.0836
記者	-11.0837
テイ	-11.084
ze	-11.0843
クラフト	-11.0844
知って	-11.0845
ことに注意してください	-11.0846
▁よくある質問	-11.0846
お土産	-11.0846
(2	-11.0848
VA	-11.0849
に寄与する	-11.0849
代表取締役	-11.085
エンターテイメント	-11.085
ソーラー	-11.0851
ホスティング	-11.0852
を加速	-11.0852
否	-11.0853
ここから	-11.0854
企業と	-11.0854
▁詳細経路情報	-11.0856
づけ	-11.0858
ao	-11.0858
を最大限に	-11.086
禁	-11.0861
一人で	-11.0864
モスクワ	-11.0864
お願い	-11.0864
コンテキスト	-11.0865
利用者の	-11.0869
金型	-11.0869
▁know	-11.0869
薬品	-11.0869
変わります	-11.087
破損した	-11.0872
ご自身の	-11.0873
カーボン	-11.0873
で開催	-11.0873
取り扱う	-11.0876
遺産	-11.0878
ティブ	-11.0879
始	-11.0879
ファイルから	-11.0882
▁60	-11.0883
ウエ	-11.0884
get	-11.0884
に住む	-11.0885
を決め	-11.0885
サービスを提供	-11.0885
パーティ	-11.0887
-01	-11.0888
投与	-11.0888
の基準	-11.0888
されるように	-11.0889
利用可能です	-11.0889
イベント情報	-11.0891
思	-11.0891
それまで	-11.0891
、2010	-11.0891
を見つけること	-11.0892
DX	-11.0892
ィ	-11.0893
press	-11.0893
新株予約権の	-11.0894
思われ	-11.0895
らせる	-11.0895
DD	-11.0896
メンズ	-11.0896
世帯	-11.0897
業種	-11.0897
ウィジェット	-11.09
れます	-11.0901
店舗を見て	-11.0901
気圧	-11.0904
(1)	-11.0904
を意味します	-11.0904
list	-11.0904
一貫性	-11.0905
使用している	-11.0908
現時点では	-11.0908
快適	-11.0909
成長し	-11.0911
▁\	-11.0913
であることが	-11.0913
を検討し	-11.0914
VS	-11.0914
込め	-11.0915
位置づけ	-11.0916
▁Ge	-11.0919
▁MAX	-11.0919
ツールバー	-11.0919
キャンバス	-11.0919
仮想通貨	-11.0919
使用します	-11.0921
機能の	-11.0924
駅から	-11.0924
をテーマに	-11.0924
Data	-11.0924
エンゲージメント	-11.0925
ごく	-11.0926
▁社	-11.0926
周期	-11.0926
chan	-11.0928
が少なく	-11.0928
がなければ	-11.0929
ny	-11.0929
選ばれた	-11.093
の知識	-11.0931
アップル	-11.0932
サインアップ	-11.0932
テクニカル	-11.0933
お読み	-11.0933
の電源	-11.0933
トレード	-11.0934
AGE	-11.0936
を獲得し	-11.0937
検索エンジン	-11.094
友好	-11.094
割り当てられ	-11.0941
金融政策	-11.0941
を排除する	-11.0943
作動	-11.0949
特別に	-11.095
奈良	-11.095
そうでなければ	-11.0952
所定の	-11.0953
SB	-11.0953
頃から	-11.0954
に合った	-11.0956
を特定する	-11.0957
航空会社	-11.0958
表記	-11.0958
までは	-11.0958
曲線	-11.0959
放射	-11.0959
ニュースレター	-11.0961
word	-11.0961
パキスタン	-11.0963
世界遺産	-11.0963
高品質な	-11.0963
の現状	-11.0964
新興国	-11.0964
ときには	-11.0965
を目指しています	-11.0966
た場合は	-11.0966
必要とする	-11.0967
のご利用	-11.0967
そのインストール	-11.0967
同国	-11.0968
うちに	-11.0968
▁ライセンス	-11.0969
▁ドイツ	-11.0969
ッティング	-11.097
若手	-11.0972
を回避	-11.0975
重複	-11.0975
はより	-11.0977
どういう	-11.0977
ディナー	-11.0981
との間の	-11.0981
を回避する	-11.0981
過程で	-11.0983
泥	-11.0987
たる	-11.0988
小規模	-11.0988
のこと	-11.099
時期に	-11.0991
の詳細は	-11.0991
事業展開	-11.0991
AWS	-11.0993
オペレーター	-11.0993
がよく	-11.0995
aw	-11.0995
国際的	-11.0996
せない	-11.0997
‐	-11.0997
の精神	-11.0997
が見え	-11.0998
の性能	-11.0999
インク	-11.1001
アクティブな	-11.1001
獣	-11.1002
パウロ	-11.1003
営業時間	-11.1005
ユダヤ人	-11.1007
あるもの	-11.1008
テクスチャ	-11.1008
ている場合は	-11.1008
SK	-11.1008
たくない	-11.1008
ゾン	-11.1009
健全な	-11.101
企業に	-11.1011
セルフ	-11.1011
たりする	-11.1012
改訂	-11.1013
した上で	-11.1018
笑い	-11.1019
選考	-11.1021
かについて	-11.1021
一時的な	-11.1022
日より	-11.1024
多くの人	-11.1025
若干	-11.1027
省略	-11.103
ハート	-11.1031
とは異なる	-11.1032
が続く	-11.1034
最近では	-11.1035
走り	-11.1035
グループが	-11.1035
Key	-11.1036
太陽の	-11.1036
たのです	-11.1037
商用	-11.1037
プリン	-11.1037
発電所	-11.1037
影響を与える	-11.1037
それによって	-11.1038
の期間	-11.1038
楽しんで	-11.1039
プログラムが	-11.1039
Le	-11.1041
モダンな	-11.1042
ライフサイクル	-11.1043
質問を	-11.1043
にあたっては	-11.1045
回る	-11.1045
▁インド	-11.1045
その後の	-11.1048
に応じ	-11.1048
▁Life	-11.1049
合法	-11.105
効率性	-11.105
▁弊社の	-11.1052
は主に	-11.1052
ビス	-11.1053
技術が	-11.1053
▁Mobile	-11.1054
の街	-11.1056
▁リンク	-11.1056
を調整し	-11.1059
協議会	-11.1059
肝	-11.1062
IB	-11.1065
給与	-11.1065
専門的な	-11.1065
book	-11.1066
奇	-11.1066
グローバル化	-11.1068
パスワードを	-11.1068
を検討する	-11.1068
デバイスがコンピュータに接続され	-11.107
ショートカット	-11.1072
肝臓	-11.1072
排水	-11.1073
ってください	-11.1075
ライオン	-11.1076
重力	-11.1077
所有権	-11.1079
顧客が	-11.1079
宣	-11.108
っております	-11.1081
bl	-11.1081
ナッツ	-11.1082
細胞の	-11.1082
▁GB	-11.1082
て紹介しております	-11.1083
大量	-11.1084
を強く	-11.1085
ファイルを起動するだけです	-11.1085
智	-11.1085
の思いの詰まった	-11.1087
不適切な	-11.1088
に提供する	-11.1089
皆様に届ける	-11.1089
ことでしょう	-11.1089
を重視し	-11.109
ようなものを厳選し	-11.109
素敵な音を	-11.109
カム	-11.1091
sy	-11.1092
使用した	-11.1093
イニシアティブ	-11.1093
れて	-11.1094
▁当社では	-11.1094
穏やかな	-11.1094
患者は	-11.1094
▁我々はアーティスト	-11.1095
▁see	-11.1095
臓器	-11.1097
テーション	-11.1098
PHP	-11.1098
の本質	-11.11
クライ	-11.11
世代の	-11.1102
を結ぶ	-11.1102
鉱山	-11.1103
数日	-11.1104
から直接	-11.1105
幸運	-11.1107
進められ	-11.1108
開かれた	-11.1108
利用目的	-11.111
を確立する	-11.1111
お客様と	-11.1112
成果を	-11.1113
シーケンス	-11.1113
ENT	-11.1113
▁ベトナム	-11.1114
ゼータ	-11.1114
写真家	-11.1116
不快な	-11.1116
記号	-11.1117
できず	-11.1118
今も	-11.1119
ゲームを	-11.112
前年比	-11.112
見えない	-11.1122
UK	-11.1122
に提出	-11.1123
経費	-11.1124
時まで	-11.1127
Audi	-11.1128
バックグラウンド	-11.1128
歴史的な	-11.1129
▁北	-11.1129
富士	-11.113
収益性	-11.113
粗	-11.113
軒	-11.113
最先端	-11.1131
分かる	-11.1131
彼らを	-11.1133
クリックしてください	-11.1136
マガジン	-11.1137
車載	-11.1137
▁he	-11.1138
はある	-11.1139
が必要となります	-11.114
私自身	-11.114
▁サン	-11.1143
グレ	-11.1143
嬉しい	-11.1143
ama	-11.1144
Active	-11.1145
添	-11.1147
▁今後の	-11.1147
ていなかった	-11.1148
の代表	-11.1149
ご本人	-11.1149
▁Reserved	-11.115
を掲載	-11.115
の建物	-11.1151
▁〜	-11.1153
引き上げ	-11.1154
故	-11.1155
ポーランド	-11.1155
任意	-11.1156
長期間	-11.1156
お気軽に	-11.1157
▁Menu	-11.1159
▁new	-11.1159
▁結論	-11.1159
ero	-11.116
以外にも	-11.1162
ねじ	-11.1165
▁County	-11.1165
出産	-11.1166
誤った	-11.1168
データ保護	-11.1169
ことがわかります	-11.1169
再利用	-11.1169
イタリアの	-11.1169
参加者は	-11.117
電磁	-11.1173
カリフォルニア州	-11.1173
アイディア	-11.1174
浴	-11.1176
僕の	-11.1177
たちに	-11.1179
書かれた	-11.1179
次のとおりです	-11.1179
リーフ	-11.118
九州	-11.1181
サイバー	-11.1182
続けます	-11.1182
日本経済	-11.1182
賭け	-11.1183
剣	-11.1183
▁Tw	-11.1184
▁Library	-11.1185
▁もう	-11.1186
支給	-11.1187
停	-11.1188
説教	-11.119
each	-11.1191
作られています	-11.1191
プラグ	-11.1193
桁	-11.1193
立体	-11.1194
自律	-11.1194
を発表しました	-11.1195
COVID	-11.1196
屈	-11.1196
受け入れられ	-11.1196
を受けました	-11.1198
忠	-11.1198
▁更に	-11.1198
▁Institute	-11.1201
▁キー	-11.1201
を作ること	-11.1203
妨げ	-11.1203
上にある	-11.1204
ute	-11.1206
驚	-11.1206
養成	-11.1208
バター	-11.121
▁Desktop	-11.121
寿司	-11.1211
▁シンガポール	-11.1212
につながります	-11.1214
集まって	-11.1214
遭遇	-11.1216
の目的は	-11.1217
▁アン	-11.1218
行動を	-11.1219
新型コロナウイルス感染症	-11.1219
敏感	-11.122
を確認します	-11.1221
アシスタント	-11.1222
の半分	-11.1222
踏み	-11.1223
マグ	-11.1223
にまで	-11.1226
頃に	-11.1226
BL	-11.1226
のあり方	-11.1228
key	-11.1228
ox	-11.1229
発想	-11.1234
賢	-11.1235
どこで	-11.1236
▁NVIDIA	-11.1237
を残す	-11.1238
お楽しみ	-11.1239
さら	-11.1242
ミネラル	-11.1244
取り付けられ	-11.1244
Sp	-11.1245
▁Azure	-11.1247
Name	-11.1249
このたび	-11.125
きれいな	-11.1251
古代の	-11.1252
box	-11.1254
お伝え	-11.1256
場所は	-11.1257
んでいます	-11.1261
自然災害	-11.1263
音源	-11.1264
継ぎ	-11.1264
を打ち	-11.1264
▁Page	-11.1266
を提供するために	-11.1267
é	-11.1267
海水	-11.1268
それ以上	-11.1269
ドロ	-11.1271
共生	-11.1271
臨床試験	-11.1271
るという	-11.1273
以下のような	-11.1274
Code	-11.1274
Ste	-11.1275
Unity	-11.1277
アフガニスタン	-11.1278
ものとし	-11.1278
投げ	-11.1278
オーディエンス	-11.128
出現	-11.128
全社	-11.1281
頑張	-11.1283
を作成できます	-11.1284
粘	-11.1287
使い方	-11.1288
ものづくり	-11.1288
領土	-11.1288
iPod	-11.1288
ネー	-11.1288
を検出	-11.129
ずつ	-11.1291
する予定	-11.1291
系統	-11.1295
小説	-11.1296
えない	-11.1297
した後に	-11.1298
を駆使し	-11.1299
画面に	-11.1299
の紹介	-11.1301
スライス	-11.1301
静かに	-11.1301
シリアル	-11.1302
俳優	-11.1302
影響を及ぼし	-11.1303
忠実	-11.1304
寄与	-11.1306
放棄	-11.1308
たときに	-11.1308
モンゴル	-11.1309
right	-11.1309
枚の	-11.131
世の中	-11.131
することが可能	-11.131
アジア太平洋	-11.1312
戻る	-11.1315
もありました	-11.1316
ls	-11.1316
ted	-11.1318
来日	-11.1318
▁名前	-11.1319
創立	-11.1319
たいと	-11.132
YA	-11.132
途中	-11.1321
入札	-11.1322
環境負荷	-11.1323
モビリティ	-11.1323
物質の	-11.1324
▁link	-11.1325
両者	-11.1325
回目の	-11.1325
▁彼らが	-11.1325
価値がある	-11.1326
と比べて	-11.1326
ミリメートル	-11.1326
に慣れ	-11.1327
ことについて	-11.1327
次へ	-11.1327
▁Science	-11.1327
判定	-11.1328
紛失	-11.1328
ておく	-11.1331
の見直し	-11.1336
のヒント	-11.1337
▁Drivers	-11.1337
▁スターアライアンス	-11.1337
▁app	-11.1339
Blue	-11.1339
英国の	-11.134
ことが出来	-11.1341
実行される	-11.1342
▁お客様が	-11.1342
滴	-11.1343
ご自身で	-11.1344
もあった	-11.1345
Im	-11.1346
拭	-11.1346
阻害	-11.1346
}	-11.1348
しかない	-11.1349
デプロイ	-11.135
抜き	-11.135
環境に	-11.1351
用紙	-11.1351
人にとって	-11.1352
▁彼が	-11.1352
の共同	-11.1353
フィットネス	-11.1353
翼	-11.1354
併	-11.1354
取った	-11.1354
▁データベース	-11.1355
しゃ	-11.1357
敏	-11.1357
トンネル	-11.1358
提供された	-11.1359
現在では	-11.1362
フォーク	-11.1365
現行	-11.1365
の使い方	-11.1366
クオリティ	-11.1366
住友	-11.1367
している場合は	-11.1367
怒	-11.1368
▁パ	-11.1369
方法が	-11.1369
を入力して	-11.1369
▁オブジェクト	-11.1369
インストールしましょう	-11.1371
火山	-11.1372
バリエーション	-11.1374
重要性	-11.1377
変え	-11.1377
軟	-11.1377
にご注意ください	-11.1378
パーソナル	-11.1378
極端な	-11.1379
▁XML	-11.138
count	-11.138
を読んで	-11.1382
♪	-11.1382
削除されます	-11.1382
シャー	-11.1382
深刻	-11.1382
を購入し	-11.1384
易	-11.1385
を始めた	-11.1385
快適さ	-11.1386
jo	-11.1387
入った	-11.1387
探求	-11.1388
デンマーク	-11.1388
ご意見	-11.1389
に与える影響	-11.139
キャスト	-11.139
ほしい	-11.139
を入れて	-11.1393
と協力して	-11.1397
企業として	-11.1398
BB	-11.1399
知り	-11.1399
を大切に	-11.1401
街の	-11.1402
汗	-11.1402
このページ	-11.1404
締め	-11.1405
を出し	-11.1406
▁この結果	-11.141
っぽ	-11.141
ike	-11.1411
らい	-11.1412
チェン	-11.1413
ていきたい	-11.1414
表面に	-11.1414
エコシステム	-11.1415
で約	-11.1416
を低減	-11.1416
品質の	-11.1416
連結財務諸表	-11.1417
上下	-11.1417
言われ	-11.1418
広大な	-11.1419
グラン	-11.1419
を準備し	-11.142
アメリカ合衆国	-11.142
プラズマ	-11.1422
社債	-11.1423
が実現	-11.1424
▁を参照してください	-11.1425
に分かれ	-11.1426
これらは	-11.1427
なんだ	-11.1427
スは	-11.1428
▁By	-11.1428
皇	-11.1428
在住	-11.1429
Micro	-11.143
するのか	-11.1431
響	-11.1432
110	-11.1434
マッチング	-11.1434
MU	-11.1436
フィード	-11.1436
▁すでに	-11.1436
手作り	-11.1437
add	-11.1437
の充実	-11.1439
おいて	-11.1439
と考えられます	-11.144
フィールドに	-11.1441
数え	-11.1441
他者	-11.1442
共有する	-11.1442
近くに	-11.1445
を特定し	-11.1445
レンジ	-11.1445
廃棄	-11.1445
実用化	-11.1448
それとも	-11.1448
健全	-11.145
あなたがあなたの	-11.145
und	-11.145
ural	-11.1451
本来	-11.1451
メイ	-11.1451
ヌー	-11.1452
軽く	-11.1454
知ら	-11.1454
行われている	-11.1454
知っています	-11.1458
観光地	-11.1459
託	-11.1461
ドライバは正しくインストールされ	-11.1464
uck	-11.1465
機能がオフになっていると	-11.1466
誤り	-11.1467
目標は	-11.1467
watch	-11.1467
▁ソリューション	-11.1467
▁ところが	-11.1468
▁スペイン	-11.1469
日には	-11.147
張り	-11.147
広がる	-11.1471
騒音	-11.1472
に役立ちます	-11.1475
▁さまざまな	-11.1475
神様の	-11.1476
ドライバの新しいバージョンが	-11.1477
装着	-11.1478
ウル	-11.1478
器具	-11.1479
利用可能であることに気付いた	-11.1479
ガソリン	-11.1479
迷わずそれを	-11.1479
クリエイター	-11.148
を置き	-11.1482
time	-11.1482
同じく	-11.1483
成熟	-11.1485
真っ	-11.1486
を決める	-11.1486
輝く	-11.1487
マネ	-11.1487
日本人の	-11.1487
{	-11.1488
みました	-11.1489
仁	-11.1489
マルウェア	-11.1489
実行できます	-11.1489
青年	-11.149
▁確かに	-11.1492
不可欠です	-11.1493
センチ	-11.1496
石の	-11.1497
▁メイン	-11.1498
への移行	-11.15
水が	-11.15
を掲げ	-11.1501
注記	-11.1501
技術や	-11.1501
に関する事項	-11.1502
ヨー	-11.1503
を説明する	-11.1503
My	-11.1503
貸出	-11.1503
を組み合わせた	-11.1506
百万	-11.1508
ブドウ	-11.1513
書籍	-11.1513
チー	-11.1514
そこには	-11.1515
喪失	-11.1516
奨励	-11.1517
見えます	-11.1517
しまう	-11.152
tu	-11.152
感染拡大	-11.1522
▁XP	-11.1523
渋谷	-11.1524
見逃	-11.1524
ection	-11.1525
趣味	-11.1526
▁シェア	-11.1526
に非常に	-11.1526
日本文化	-11.1527
ATE	-11.1528
の要件	-11.1529
Outlook	-11.1529
妙	-11.153
KE	-11.1531
Al	-11.1532
有数の	-11.1532
余裕	-11.1534
路線	-11.1538
パンデミック	-11.1539
どちらも	-11.1539
ことにしました	-11.1539
を送信する	-11.1542
欄	-11.1543
風味	-11.1544
色々な	-11.1544
落ちる	-11.1544
のほとんどは	-11.1546
料理の	-11.1547
ごろ	-11.1552
ストラ	-11.1552
に伝え	-11.1553
-20	-11.1554
を求めて	-11.1557
レザー	-11.1557
ほとんどの場合	-11.1558
影響力	-11.1558
配線	-11.1559
体は	-11.1561
かなりの	-11.1563
相関	-11.1564
ないか	-11.1565
塊	-11.1565
を飾る	-11.1565
ダイビング	-11.1565
されていますが	-11.1566
を守り	-11.1567
を信じ	-11.1568
総合的な	-11.1569
ワーキング	-11.157
訴	-11.157
のテーマ	-11.1571
鶏	-11.1573
聞こえ	-11.1573
を除去する	-11.1573
酵素	-11.1574
発注	-11.1574
ローズ	-11.1574
陣	-11.1574
出口	-11.1576
あわせて	-11.1577
なんです	-11.1577
扱われ	-11.1578
▁JAV	-11.1578
を占める	-11.1579
与えられ	-11.1579
dy	-11.1581
購入する	-11.1582
なくなります	-11.1582
の上部	-11.1585
夜に	-11.1585
するものです	-11.1587
低コスト	-11.1588
私達が	-11.1588
の損失	-11.159
ご覧	-11.159
あい	-11.1591
肥料	-11.1591
並んで	-11.1592
上がって	-11.1593
ロジック	-11.1593
登山	-11.1594
勝ち	-11.1594
に置かれ	-11.1595
を取り巻く	-11.1595
ことが判明	-11.1599
Edge	-11.16
ux	-11.1602
農村	-11.1602
符	-11.1606
親会社	-11.1608
多くの人々	-11.1608
業績予想	-11.1609
自体が	-11.1609
本書	-11.1611
キリストの	-11.1612
▁西	-11.1616
継続して	-11.1616
ツールです	-11.1618
合同	-11.1619
スタック	-11.162
の計算	-11.162
間違った	-11.1621
に戻って	-11.1623
ではなかった	-11.1623
の要求	-11.1623
呼びかけ	-11.1624
示す	-11.1624
勧め	-11.1624
に配置され	-11.1626
を印刷	-11.1627
年代の	-11.1628
の一つである	-11.1628
ah	-11.1628
子供たちは	-11.1629
を接続する	-11.1629
見ることができる	-11.163
140	-11.1631
に努めます	-11.1633
缶	-11.1634
澤	-11.1634
駆け	-11.1635
代理人	-11.1636
どうすればよいのですか	-11.1639
ならない	-11.1639
われた	-11.1641
健康的な	-11.1641
アダプタ	-11.1644
この場合	-11.1645
見積	-11.1646
著	-11.1647
消費量	-11.1648
亡	-11.1648
を防ぐために	-11.165
exe	-11.1652
を開設	-11.1652
カメラの	-11.1653
保存されます	-11.1654
で開催される	-11.1657
はさらに	-11.1657
真空	-11.1658
恒	-11.1661
を測定する	-11.1661
爆	-11.1662
語学	-11.1662
サンド	-11.1663
▁work	-11.1663
メタル	-11.1663
設計されています	-11.1663
lect	-11.1664
月まで	-11.1665
この機能	-11.1665
様の	-11.1666
▁Bar	-11.1666
国際的に	-11.1666
GPU	-11.1667
病理学	-11.1668
首都	-11.1669
UM	-11.1669
する権利	-11.167
広げ	-11.1671
役割を果たす	-11.1671
含んでいます	-11.1671
▁Read	-11.1672
瀬	-11.1674
武装	-11.1674
ポップ	-11.1674
幼稚園	-11.1675
▁プロモーションコード	-11.1675
の確立	-11.1676
に乗る	-11.1677
子どもの	-11.1677
qui	-11.168
わずかな	-11.168
を手に入れ	-11.1681
会う	-11.1681
工場の	-11.1682
▁Asia	-11.1688
デバイスに正しくインストールされ	-11.1688
監	-11.1689
こういう	-11.169
英語の	-11.169
途中で	-11.169
代理	-11.169
の香り	-11.1691
場合もあります	-11.1691
写真は	-11.1694
腐敗	-11.1695
の幅	-11.1695
PST	-11.1696
ホルダー	-11.17
HE	-11.17
ヴォ	-11.1702
戦う	-11.1702
▁大阪	-11.1703
搭乗	-11.1704
gg	-11.1705
を楽しむことができます	-11.1706
GC	-11.1707
に対しても	-11.1708
どうして	-11.1709
発展させ	-11.171
言わ	-11.171
促	-11.171
人で	-11.1711
イギリスの	-11.1712
シック	-11.1713
儀	-11.1714
前期	-11.1715
時間がかかる	-11.1715
附属	-11.1718
に特化した	-11.1718
を保護し	-11.1718
ことば	-11.1718
▁Ko	-11.172
触媒	-11.172
と考えております	-11.172
お菓子	-11.1722
予備	-11.1725
プロモーションコード	-11.1726
中には	-11.1727
それ自体	-11.173
疑い	-11.1732
履修	-11.1733
▁Win	-11.1735
識	-11.1736
銀行の	-11.1737
気軽に	-11.1737
て下さい	-11.1737
みます	-11.1738
正当な	-11.1738
DL	-11.1739
クリスタル	-11.174
を避けるために	-11.1742
てくれました	-11.1742
ナンバー	-11.1742
ソフトバンク	-11.1743
払い戻し	-11.1744
する場合があります	-11.1744
を取って	-11.1745
ダメージ	-11.1745
計算機	-11.1746
であるという	-11.1746
▁いいえ	-11.1747
ザン	-11.175
力と	-11.1751
▁38	-11.1751
を得ること	-11.1752
rial	-11.1755
ありがとう	-11.1756
ショット	-11.1757
ために使用されます	-11.1758
は必要ありません	-11.1759
執	-11.176
えます	-11.176
対応の	-11.1761
あふれる	-11.1762
求人	-11.1764
途上国	-11.1764
物体	-11.1766
散策	-11.1768
観光情報	-11.1769
ジャック	-11.177
漂	-11.1771
フィードバックを送信	-11.1771
溶け	-11.1771
装置は	-11.1775
啓発	-11.1776
要素を	-11.1781
アイルランド	-11.1782
スプレー	-11.1783
ルイ	-11.1784
▁スマートフォン	-11.1784
ておらず	-11.1785
手がけ	-11.1785
を聞いて	-11.1786
を持っていない	-11.1786
全国の	-11.1786
幹	-11.1787
のなかで	-11.1788
ヶ月間	-11.1788
社会的責任	-11.1789
とう	-11.179
ジング	-11.179
包括的	-11.179
震	-11.1793
AZ	-11.1794
は一切	-11.1794
の枠組み	-11.1794
との間に	-11.1794
ful	-11.1795
であれ	-11.1796
そうと	-11.1796
に対応するため	-11.1796
人以上の	-11.1797
の中央	-11.1799
と言えます	-11.18
Lo	-11.18
ブラウザの	-11.1801
inc	-11.1801
ever	-11.1802
を愛し	-11.1803
交付	-11.1803
菓子	-11.1804
ルーティング	-11.1805
ONE	-11.1805
理想的	-11.1807
デザート	-11.1808
ゆく	-11.1808
運賃	-11.1809
飯	-11.1812
たかった	-11.1813
▁if	-11.1813
oy	-11.1814
即座に	-11.1814
主題	-11.1815
または他の	-11.1815
例として	-11.1819
▁残念ながら	-11.1821
の最終	-11.1822
されず	-11.1823
ていない場合	-11.1823
体に	-11.1824
今でも	-11.1824
すべての人	-11.1825
苦しみ	-11.1825
液晶	-11.1826
μ	-11.1827
帝国	-11.1829
走る	-11.1831
ney	-11.1832
mber	-11.1834
方法があります	-11.1834
ハーブ	-11.1835
音楽を	-11.1836
▁北海道	-11.184
星の	-11.184
資材	-11.1841
絞	-11.1841
ソニー	-11.1841
見られます	-11.1843
センス	-11.1845
▁Shopify	-11.1846
お知らせします	-11.1847
調製	-11.1847
の一人	-11.1848
などから	-11.1848
情報や	-11.1849
3/	-11.1849
知的	-11.1849
uk	-11.1851
こともあり	-11.1851
lf	-11.1852
社会に	-11.1853
更	-11.1854
を搭載し	-11.1854
に関心	-11.1854
沸騰	-11.1856
▁それでは	-11.1856
合わせる	-11.1858
お願いします	-11.1859
の風景	-11.1859
標的	-11.186
潤	-11.186
たいと考えています	-11.1861
男は	-11.1861
投資法人	-11.1861
紅葉	-11.1863
を恐れ	-11.1864
詳細は	-11.1865
の未来	-11.1866
非難	-11.1867
▁ヘルプセンター	-11.1867
かわいい	-11.1868
戻って	-11.1868
洞察	-11.1869
当期純利益	-11.1871
伏	-11.1871
中心部	-11.1872
を対象とし	-11.1872
非表示	-11.1872
▁TAB	-11.1873
▁テクノロジー	-11.1873
出場	-11.1873
グループでは	-11.1873
ヴァン	-11.1874
矛盾	-11.1875
▁本サイト	-11.1876
▁SD	-11.1878
杉	-11.1879
ness	-11.1882
絞り	-11.1882
補足	-11.1882
銀座	-11.1883
自社の	-11.1883
いたり	-11.1883
ファイルに関する	-11.1886
ネイ	-11.1888
の考え方	-11.1889
中部	-11.1889
いれば	-11.1889
インターンシップ	-11.1889
インフレ	-11.1892
▁同様に	-11.1893
知恵	-11.1894
を知っています	-11.1895
エピソード	-11.1895
状況は	-11.1897
に注意	-11.1898
住居	-11.1898
導き	-11.1898
送料	-11.1898
▁顧客	-11.1899
レク	-11.1899
▁ボタン	-11.1904
ケーション	-11.1905
情報開示	-11.1905
研究では	-11.1909
消費税	-11.191
チック	-11.191
▁one	-11.191
資金の	-11.1911
対象の	-11.1911
共同で	-11.1911
取られ	-11.1912
▁Ka	-11.1913
優しい	-11.1914
▁ヒント	-11.1915
ときの	-11.1915
閣	-11.1919
競	-11.192
の一部として	-11.192
されているため	-11.192
▁content	-11.1921
が持つ	-11.1922
年以来	-11.1922
ノルウェー	-11.1923
ことを確認します	-11.1924
130	-11.1926
に沿った	-11.1928
為替レート	-11.1929
An	-11.193
の自動	-11.1932
3,000	-11.1932
キャピタル	-11.1933
塗り	-11.1933
責任を負う	-11.1937
麺	-11.194
阿	-11.194
デビュー	-11.194
見ることができます	-11.194
牽引	-11.1942
に限定され	-11.1943
▁エラー	-11.1944
たっぷり	-11.1944
有効に	-11.1945
連盟	-11.1946
開催されました	-11.1947
を修正する	-11.1947
ダイニング	-11.1949
お申し込み	-11.195
▁接続	-11.1951
test	-11.1951
ご家族	-11.1951
play	-11.1951
mit	-11.1952
胆	-11.1954
考えられる	-11.1954
▁一般的には	-11.1955
リーディング	-11.1956
高効率	-11.1957
を受け入れる	-11.1957
そもそも	-11.1957
ディーゼル	-11.1957
億円の	-11.1958
Ar	-11.196
詰ま	-11.196
▁ユーザーは	-11.196
も可能です	-11.1961
search	-11.1961
Fe	-11.1961
選び	-11.1963
確認できます	-11.1966
運命	-11.1969
と言います	-11.197
の通り	-11.197
のコスト	-11.1973
▁37	-11.1977
カジュアル	-11.1977
の一つとして	-11.1977
滑	-11.1979
▁彼女の	-11.198
を作成して	-11.1981
社外	-11.1983
撮影した	-11.1983
キャッチ	-11.1983
基調	-11.1984
上司	-11.1985
直後	-11.1985
就	-11.1985
サウジアラビア	-11.1987
NPO	-11.1987
同じように	-11.1989
餌	-11.1989
有効性	-11.199
ソリューションは	-11.1991
に見える	-11.1991
Digital	-11.1993
に優れた	-11.1994
最新バージョン	-11.1995
というのが	-11.1995
新型	-11.1995
gin	-11.1996
ファンタジー	-11.1999
▁まずは	-11.2
見つけ	-11.2
まず第一に	-11.2002
家庭用	-11.2002
ient	-11.2006
コントラスト	-11.2007
はすぐに	-11.2007
――	-11.2007
スロー	-11.201
濃	-11.201
なければならず	-11.201
標準の	-11.2011
が用意され	-11.2011
憲法	-11.2012
地点	-11.2013
障	-11.2014
car	-11.2015
説明する	-11.2015
もらう	-11.2017
▁2002	-11.2018
次のステップ	-11.202
にさらされ	-11.2021
儀式	-11.2022
コスト削減	-11.2022
その日	-11.2023
ソロ	-11.2025
機種	-11.2025
▁HTTP	-11.2029
外務省	-11.2032
手順は	-11.2034
扱う	-11.2034
代表的な	-11.2034
選ぶ	-11.2035
する可能性	-11.2035
の近くに	-11.2036
短く	-11.2036
パラリンピック	-11.2037
国際会議	-11.2037
都合	-11.2038
お選び	-11.2038
を失い	-11.2039
ストーン	-11.204
キロメートル	-11.2042
均	-11.2044
太郎	-11.2044
の供給	-11.2045
ゲイ	-11.2045
宇	-11.2046
一見	-11.2047
観点	-11.2047
pri	-11.2047
直前	-11.2048
でさえも	-11.2051
定着	-11.2051
を整え	-11.2052
頂けます	-11.2055
まずは	-11.2056
ポンド	-11.2057
DNS	-11.2057
機械的	-11.2058
を受賞	-11.2058
CON	-11.2059
音が	-11.206
トータル	-11.206
幾	-11.206
穀物	-11.2061
特色	-11.2061
デッキ	-11.2063
泣	-11.2063
チル	-11.2065
されております	-11.2067
そろ	-11.2068
Drive	-11.2069
▁だが	-11.2069
▁学生	-11.2071
メートルの	-11.2072
cam	-11.2072
について詳しく	-11.2074
推奨事項	-11.2075
謎	-11.2077
▁Image	-11.2077
nn	-11.2077
元素	-11.2079
完備	-11.208
体感	-11.208
正式に	-11.208
中国で	-11.2081
茂	-11.2083
問題について	-11.2083
lot	-11.2084
比べ	-11.2086
サロン	-11.2087
▁内部	-11.2089
レイン	-11.2091
▁Net	-11.2093
ご覧ください	-11.2093
パイロット	-11.2095
を発見し	-11.2097
を上回る	-11.2098
頂	-11.2098
はっきりと	-11.2098
コマンドライン	-11.2098
開いた	-11.2098
ern	-11.2099
立った	-11.2102
ib	-11.2102
伺	-11.2103
ことが明らか	-11.2104
摩擦	-11.2106
決断	-11.2107
ていない場合は	-11.2107
誓	-11.2108
不満	-11.2108
モバイルアプリ	-11.2109
ボス	-11.2109
ことを確認する	-11.2109
納入	-11.211
言います	-11.211
何でも	-11.211
モデリング	-11.211
フェーズ	-11.2111
ていますか	-11.2111
ことを目的としています	-11.2113
に関する研究	-11.2114
多大な	-11.2115
迷惑	-11.2115
権力	-11.2119
技術革新	-11.212
電子機器	-11.212
デバイスが	-11.2121
を希望	-11.2122
ロサンゼルス	-11.2124
▁はじめに	-11.2125
再構築	-11.2125
使用量	-11.2126
rate	-11.2126
はしばしば	-11.2126
接続されている	-11.2127
プロデューサー	-11.2128
なのだ	-11.2128
`	-11.213
万人の	-11.213
oshi	-11.213
に参加した	-11.2132
アッ	-11.2138
シニア	-11.2138
を含めて	-11.2138
を定期的に	-11.2138
las	-11.2139
の創出	-11.214
教育機関	-11.214
に入れて	-11.2141
購買	-11.2142
に大きく	-11.2144
魚の	-11.2144
script	-11.2145
my	-11.2145
ウォール	-11.2146
オブジェクトの	-11.2147
▁非	-11.215
個人情報の取り扱い	-11.215
技術力	-11.215
手間	-11.215
など様々な	-11.2151
ata	-11.2151
をリードする	-11.2152
を探している	-11.2153
まあ	-11.2154
うこと	-11.2154
達が	-11.2154
のみで	-11.2156
割り	-11.2156
が開始され	-11.2157
序	-11.2159
滑り	-11.216
▁Suite	-11.2162
礼拝	-11.2162
を開発しました	-11.2162
Market	-11.2164
前連結会計年度	-11.2164
Ni	-11.2165
Build	-11.2166
は全く	-11.2167
房	-11.2169
国会	-11.217
ities	-11.217
診療	-11.217
JavaScript	-11.2173
マインド	-11.2176
山口	-11.2177
助成	-11.2178
者である	-11.2179
を作る方法	-11.2181
インストーラ	-11.2182
単位で	-11.2184
壁の	-11.2184
に就任	-11.2185
American	-11.2186
仙台	-11.2186
増収	-11.2187
▁But	-11.219
雷	-11.2191
たいです	-11.2191
▁iTunes	-11.2192
を評価し	-11.2193
体が	-11.2195
当ウェブサイト	-11.2196
遅い	-11.2196
などについて	-11.2196
修士	-11.2197
宮殿	-11.2197
費用は	-11.2197
ウム	-11.2198
一貫して	-11.2199
ush	-11.2199
延期	-11.22
理事長	-11.22
拍	-11.2201
短期間	-11.2201
サンプリング	-11.2202
ジェン	-11.2203
クラスター	-11.2204
クラスタ	-11.2204
併せて	-11.2204
ついに	-11.2205
サイクロン	-11.2205
だったので	-11.2205
コロナ	-11.2206
双	-11.2206
eak	-11.2206
反対側	-11.2206
純粋な	-11.2206
▁例	-11.2207
軽い	-11.2207
私たちを	-11.2208
しようとしている	-11.2209
▁39	-11.221
ように見えます	-11.221
原価	-11.2211
4.0	-11.2211
ステートメント	-11.2214
オフィシャルサイト	-11.2214
福音	-11.2219
運行	-11.222
発酵	-11.2221
とも呼ばれ	-11.2221
公正な	-11.2222
は大きく	-11.2223
経営成績	-11.2225
に携わ	-11.2225
以	-11.2225
数年	-11.2227
▁TEL	-11.2229
Secure	-11.223
厚い	-11.223
are	-11.2232
しますが	-11.2236
エロ	-11.224
暖房	-11.2241
関連性	-11.2241
▁〒	-11.2241
レスポンス	-11.2242
見つける	-11.2245
細かい	-11.2246
▁当該	-11.2247
がすでに	-11.2248
の森	-11.2249
秀	-11.225
MOV	-11.225
豪	-11.2251
1992	-11.2251
マイクロソフト	-11.2253
スティー	-11.2253
の測定	-11.2253
で使用される	-11.2255
期間中に	-11.2256
どんどん	-11.2256
苗	-11.2256
逮捕	-11.2259
コミュニティー	-11.226
トゥー	-11.2261
肥	-11.2261
無料ライブセックスチャット	-11.2261
を認め	-11.2261
持って	-11.2261
けて	-11.2262
メールを	-11.2262
貼	-11.2265
system	-11.2268
が登場	-11.2269
を追加し	-11.227
rs	-11.227
増強	-11.2271
株当たり	-11.2272
1960	-11.2273
国民の	-11.2274
開発の	-11.2276
入手可能	-11.2277
保障	-11.2277
(18	-11.2278
で作られた	-11.2281
.10.	-11.2281
社員の	-11.2281
格安ホテル予約	-11.2282
ているのです	-11.2285
クチコミから	-11.2285
製品開発	-11.2286
▁ビリヤード	-11.2287
▁世界のホテル情報	-11.2287
ズの	-11.2287
の編集	-11.2287
ホテルを探して最安値でホテル予約	-11.2288
まっすぐ	-11.229
漏れ	-11.229
Bitcoin	-11.2291
天皇	-11.2292
のだろうか	-11.2292
が同じ	-11.2293
集まり	-11.2293
に努めています	-11.2294
バブル	-11.2296
ora	-11.2297
寛	-11.2297
ft	-11.2297
先行き	-11.2302
あれ	-11.2302
を閲覧	-11.2302
招	-11.2304
を保持する	-11.2304
国は	-11.2306
ニャ	-11.2308
人類の	-11.2311
エキスパート	-11.2311
ままに	-11.2315
パレット	-11.2316
望み	-11.2316
厳格な	-11.2316
vers	-11.2317
▁今後は	-11.2318
巡	-11.2319
mark	-11.2322
こそが	-11.2324
の進展	-11.2324
ファイアウォール	-11.2328
を追跡	-11.233
を受けている	-11.2331
インテグレーション	-11.2332
so	-11.2332
訪	-11.2333
1994	-11.2333
顕微鏡	-11.2333
インジケータ	-11.2333
▁実は	-11.2334
JI	-11.2335
公募	-11.2335
べきか	-11.2336
中学校	-11.2336
を解決する	-11.2337
背中	-11.2339
を接続し	-11.234
その理由	-11.2342
たい場合は	-11.2342
を訪れる	-11.2343
最大限	-11.2344
▁Man	-11.2344
黄金	-11.2345
不能	-11.2347
▁Security	-11.2348
ダイレクト	-11.2348
2.4	-11.2349
異なり	-11.2349
集計	-11.2351
偶然	-11.2352
バイオマス	-11.2354
悪く	-11.2354
げる	-11.2356
量産	-11.2356
王国	-11.2357
鎮	-11.2357
を好む	-11.2358
影響を受け	-11.2358
の検討	-11.2358
テンプレートを	-11.2358
されるべきです	-11.236
source	-11.2361
どおり	-11.2361
を返します	-11.2362
口コミ	-11.2363
攻	-11.2364
open	-11.2364
ウェル	-11.2364
再編	-11.2365
収納	-11.2365
を起こす	-11.2367
にも対応	-11.2367
翌	-11.2367
簡素化	-11.2369
貴社	-11.237
▁二	-11.2374
待っている	-11.2374
の顔	-11.2374
▁メソッド	-11.2378
書く	-11.2378
支払われ	-11.238
ino	-11.2381
▁手順	-11.2381
を発揮し	-11.2381
GPS	-11.2382
RL	-11.2383
米国で	-11.2384
アンダー	-11.2385
と一致	-11.2386
ign	-11.2387
並ぶ	-11.2387
劣	-11.2388
主催者	-11.2389
▁Time	-11.2391
▁Energy	-11.2392
を集める	-11.2392
伝統的	-11.2392
厳密に	-11.2393
に関する法律	-11.2395
並列	-11.2396
▁オ	-11.2397
豪華な	-11.2397
ology	-11.2398
を展開する	-11.24
ご覧いただけます	-11.2402
Box	-11.2405
もたらされ	-11.2406
山々	-11.2407
des	-11.2407
light	-11.2409
まだまだ	-11.2411
主として	-11.2412
雪の	-11.2414
豊かに	-11.2414
充実した	-11.2416
の葉	-11.2416
申し込み	-11.2417
▁ISO	-11.2417
レッ	-11.2419
パナソニック	-11.2419
後も	-11.242
今や	-11.2421
されているので	-11.2422
役に立つ	-11.2423
夫婦	-11.2424
領域で	-11.2425
IST	-11.2429
お互いに	-11.243
アナリスト	-11.2431
はできません	-11.2432
説明した	-11.2432
▁画面	-11.2433
前半	-11.2436
土曜日	-11.2438
Play	-11.2439
ふた	-11.2439
men	-11.2441
死ぬ	-11.2441
を明らかにする	-11.2441
得られ	-11.2443
に至る	-11.2444
実用的な	-11.2444
マッ	-11.2444
スマートフォンの	-11.2444
WS	-11.2444
サードパーティの	-11.2445
営業利益は	-11.2445
▁ニューヨーク	-11.2446
に属しています	-11.2446
も可能	-11.2447
が参加し	-11.2447
レール	-11.2449
奇妙な	-11.2449
ウッド	-11.2449
▁関連	-11.245
を除き	-11.245
と主張し	-11.2451
ましたか	-11.2452
戻り	-11.2454
▁同社は	-11.2455
寒い	-11.2455
客観的	-11.2455
ラット	-11.2456
ものがあります	-11.2456
発表された	-11.2459
▁組織	-11.2459
刊	-11.2461
太陽光	-11.2462
控除	-11.2462
すべきである	-11.2465
卒業後	-11.2465
付いて	-11.2466
ペースト	-11.2466
ペイント	-11.2466
エレ	-11.2468
暮らす	-11.2469
ベット	-11.2469
三井物産	-11.2471
ヨン	-11.2472
の原則	-11.2473
サインイン	-11.2474
を試して	-11.2474
に来た	-11.2474
村の	-11.2476
の周りに	-11.248
▁JavaScript	-11.2481
メイク	-11.2482
醸造	-11.2482
宛	-11.2483
示された	-11.2484
注意してください	-11.2484
ご用意	-11.2485
唯一	-11.2485
を使用することで	-11.2486
野球	-11.2487
立って	-11.2489
気づき	-11.249
DN	-11.249
どのようにして	-11.2491
its	-11.2492
遠い	-11.2492
より一層	-11.2497
ドイツ語	-11.2498
安価な	-11.25
といわれ	-11.25
幼児	-11.2501
が容易	-11.2502
洞	-11.2503
ASUS	-11.2505
自立	-11.2505
ハッシュ	-11.2507
真剣に	-11.2509
8%	-11.2509
のコピー	-11.251
三井	-11.251
uo	-11.251
工場で	-11.2511
はそれほど	-11.2512
チャンピオン	-11.2513
tech	-11.2513
▁ビリヲカ	-11.2514
謝	-11.2514
▁San	-11.2515
をご紹介	-11.2516
運び	-11.2517
セラー	-11.2518
ラインナップ	-11.2518
ドラゴン	-11.2518
king	-11.2519
の始まり	-11.2519
tri	-11.2519
に適用されます	-11.252
▁JAEA	-11.2521
に触れる	-11.2522
Na	-11.2525
を開始した	-11.2525
顔を	-11.2528
独自に	-11.2529
の入力	-11.2529
立っている	-11.2529
サンフランシスコ	-11.2529
人体	-11.2529
はっきり	-11.2529
LIVE	-11.253
カクテル	-11.2531
も同じ	-11.2532
CSV	-11.2532
Win	-11.2533
ible	-11.2534
アフリカの	-11.2535
pr	-11.2536
まれた	-11.2537
か国	-11.2537
を策定し	-11.2538
人的	-11.2538
ですよね	-11.2539
イエス様	-11.254
複雑さ	-11.2541
ジム	-11.2543
増加した	-11.2544
ink	-11.2548
を使うこと	-11.2548
農場	-11.2549
減少した	-11.255
こともある	-11.2551
を習得	-11.2551
を確保するため	-11.2552
が進む	-11.2552
ないもの	-11.2552
は決して	-11.2554
内部の	-11.2555
かれる	-11.2557
入る	-11.2557
キャン	-11.2557
▁タブ	-11.2559
サークル	-11.2561
ジョー	-11.2562
正確性	-11.2564
ズム	-11.2566
▁マルチ	-11.2566
▁CSR	-11.2568
が発生した	-11.2568
cre	-11.257
無限	-11.2571
を活用する	-11.2571
▁サーバ	-11.2571
残る	-11.2571
ニス	-11.2572
を投げ	-11.2573
弘	-11.2573
に属する	-11.2574
李	-11.2574
思わ	-11.2575
メイド	-11.2575
査	-11.2576
▁has	-11.2577
▁Amazon	-11.2577
ご注意	-11.2578
粉末	-11.2579
多分	-11.2579
のではないでしょうか	-11.2579
桃	-11.2579
祥	-11.2581
を獲得する	-11.2581
っていて	-11.2582
Next	-11.2583
毎回	-11.2584
を確認できます	-11.2584
大丈夫	-11.2584
date	-11.2586
ウォレット	-11.2587
を深め	-11.2587
ワークスペース	-11.2588
スコープ	-11.2588
インテリジェンス	-11.2588
したくない	-11.2588
課程	-11.2588
ラク	-11.2589
新しいアプリケーション	-11.2589
SN	-11.2589
▁ソース	-11.2591
ペイン	-11.2593
ファイルの拡張子	-11.2593
当社に	-11.2593
委員は	-11.2593
デジタル化	-11.2593
決めた	-11.2594
▁但し	-11.2594
late	-11.2594
ゴールデン	-11.2595
を果たす	-11.2596
の多く	-11.2596
使っている	-11.2597
委	-11.2597
がないこと	-11.2598
描かれ	-11.2599
Force	-11.2599
リニューアル	-11.2599
食糧	-11.26
をつくり	-11.2601
洞窟	-11.2602
▁従来の	-11.2603
再発	-11.2603
経営陣	-11.2604
▁パッケージ	-11.2605
WI	-11.2606
とらえ	-11.2607
麦	-11.2607
base	-11.2608
誤解	-11.2609
ize	-11.2609
TF	-11.2611
rom	-11.2611
に戻	-11.2611
貧	-11.2614
プー	-11.2615
そういった	-11.2616
メーカーの	-11.2616
の使用は	-11.2617
逃げ	-11.2617
ender	-11.2617
アパートメント	-11.2617
▁会場	-11.2621
工芸	-11.2622
豚	-11.2625
があった場合	-11.2626
産物	-11.2627
▁1:	-11.2628
インスタレーション	-11.2628
人種	-11.263
について説明	-11.2632
位置付け	-11.2632
▁企業情報	-11.2632
MX	-11.2633
休業	-11.2633
情報を収集	-11.2634
見ると	-11.2634
ていましたが	-11.2634
卒業生	-11.2634
わかり	-11.2635
Th	-11.2635
に住んでいる	-11.2636
エンドユーザー	-11.2641
まとめて	-11.2641
▁Tube	-11.2641
ありませんでした	-11.2642
を表明し	-11.2644
医師は	-11.2645
脇	-11.2645
エンターテインメント	-11.2645
80%	-11.2645
bin	-11.2646
し続け	-11.2647
屋内	-11.2649
を聞き	-11.2649
cept	-11.2649
撮り	-11.265
ことを目的として	-11.265
設立された	-11.265
それだけ	-11.2652
協業	-11.2652
ルータ	-11.2655
水中	-11.2656
選択します	-11.2656
rap	-11.2659
ism	-11.2662
を遵守する	-11.2662
対立	-11.2662
ことを願っています	-11.2662
活気	-11.2662
ミル	-11.2664
注入	-11.2664
聞いた	-11.2664
を入力してください	-11.2665
再建	-11.2665
こちらの	-11.2666
畳	-11.2668
お母さん	-11.2668
を比較	-11.2668
エグゼクティブ	-11.267
エンティティ	-11.267
取り入れ	-11.267
つながる	-11.267
してくれた	-11.2671
を越えて	-11.2671
の上で	-11.2672
クール	-11.2674
いずれの	-11.2676
作品が	-11.2676
生態	-11.2676
研究会	-11.2678
var	-11.2678
▁1.0.	-11.2679
旋	-11.2681
効力	-11.2684
La	-11.2684
を把握する	-11.2685
シャットダウン	-11.2685
図書	-11.2686
開催されます	-11.2686
で行われた	-11.2688
▁本日	-11.2689
永遠に	-11.269
リターン	-11.269
良いです	-11.269
峰	-11.2692
捧	-11.2692
という点	-11.2692
クラッチ	-11.2693
を出す	-11.2695
ことはない	-11.2695
VO	-11.2696
基本的	-11.2697
運送	-11.2697
に基づいています	-11.2697
ロビー	-11.2698
有害な	-11.2699
of	-11.2701
ライター	-11.2705
学生は	-11.2708
苦しんで	-11.271
行われています	-11.2711
悲	-11.2713
▁今日は	-11.2714
当第	-11.2715
顕著な	-11.2715
されていない場合	-11.2718
構え	-11.2722
増益	-11.2722
提起	-11.2724
受け取り	-11.2725
▁Pinterest	-11.2725
高め	-11.2726
マドリード	-11.2726
AVI	-11.2727
台湾の	-11.2727
することができました	-11.2727
恵み	-11.2728
タバコ	-11.2728
けた	-11.273
茎	-11.2731
を要求	-11.2731
正面	-11.2732
▁Chi	-11.2733
が発生します	-11.2733
デバッグ	-11.2734
守り	-11.2734
の設立	-11.2735
一人の	-11.2735
▁Access	-11.2735
に注意を払う	-11.2737
を想定し	-11.2739
3.5	-11.274
言いました	-11.274
両面	-11.2742
環境問題	-11.2743
に行きます	-11.2744
統治	-11.2744
剥	-11.2745
を下回	-11.2745
ご相談	-11.2746
今すぐ	-11.2747
それはあなたが	-11.2747
両側	-11.2748
▁sp	-11.2749
▁3)	-11.2751
DF	-11.2754
を築く	-11.2754
den	-11.2755
可能だった	-11.2756
が確認され	-11.2756
不確実性	-11.2756
を希望する	-11.2759
6)	-11.2761
食べて	-11.2763
の最後の	-11.2764
回線	-11.2765
機能と	-11.2765
目次	-11.2766
▁these	-11.2767
に依存します	-11.277
衛	-11.277
の内側	-11.2771
自分に	-11.2771
失敗した	-11.2771
貯	-11.2771
学校で	-11.2772
働き方	-11.2772
▁just	-11.2773
熊本	-11.2774
左側	-11.2776
力学	-11.2776
マネジメントシステム	-11.2777
ことを確認し	-11.2777
▁will	-11.2779
香港の	-11.2779
現時点で	-11.278
マリア	-11.2781
▁comp	-11.2782
生成された	-11.2782
▁Ver	-11.2786
かかり	-11.2786
精神的	-11.2787
編成	-11.2787
0.2	-11.2787
情報システム	-11.279
外出	-11.279
刑事	-11.2791
受験	-11.2794
バッテリ	-11.2794
地方の	-11.2797
ドラム	-11.2797
アム	-11.2797
ウォー	-11.2797
悩み	-11.2798
を作り出す	-11.2798
応え	-11.2798
聞	-11.2798
持続的	-11.2799
交わ	-11.28
350	-11.2801
ments	-11.2803
駆	-11.2804
oll	-11.2807
リエ	-11.2808
満足度	-11.2809
▁who	-11.281
ミュ	-11.281
tern	-11.2811
いくつ	-11.2812
モニタ	-11.2813
ギア	-11.2814
が行われます	-11.2815
専門家の	-11.2817
アセンブリ	-11.2818
を傷つけ	-11.282
をめざし	-11.282
設定した	-11.282
されているか	-11.2821
▁2001	-11.2821
世界中から	-11.2821
することはありません	-11.2821
に制限	-11.2823
お使い	-11.2824
出された	-11.2825
のメリット	-11.2825
選択する	-11.2826
を可能にします	-11.2827
▁2.0	-11.2827
をやめ	-11.2827
習得	-11.2827
情報通信	-11.2829
リウム	-11.283
が有効	-11.2831
本プロジェクト	-11.2832
down	-11.2832
統	-11.2834
わる	-11.2834
館内	-11.2835
変わって	-11.2836
オーストリア	-11.2838
であるが	-11.284
yu	-11.2841
に移動する	-11.2841
のご案内	-11.2841
添え	-11.2842
を返す	-11.2844
人間が	-11.2846
こんにちは	-11.2847
ニコ	-11.2847
さくら	-11.2847
work	-11.2849
当館	-11.2849
ゅう	-11.2852
SY	-11.2855
奇跡	-11.2855
▁Player	-11.2858
そしてそれは	-11.2858
まち	-11.2861
ウォン	-11.2863
不思議	-11.2864
密接に	-11.2864
に関連した	-11.2865
cer	-11.2865
蓄	-11.2865
を利用すること	-11.2866
の速度	-11.2866
ストップ	-11.2867
の遵守	-11.2869
乗客	-11.287
と呼ばれます	-11.2871
PV	-11.2872
を保証します	-11.2874
を行うために	-11.2875
▁Analytics	-11.2878
▁Support	-11.2878
持続的な	-11.2879
開き	-11.2887
傍	-11.2889
▁Development	-11.2889
尊敬	-11.2889
欲求	-11.289
als	-11.289
総数	-11.2891
神奈川県	-11.2891
可用性	-11.2891
イニシアチブ	-11.2893
前年同期	-11.2893
正義	-11.2895
をすばやく	-11.2895
ことがわかりました	-11.2897
鉛筆	-11.2898
つの方法	-11.2899
大容量	-11.29
蓋	-11.2902
type	-11.2903
上書き	-11.2903
シリーズは	-11.2904
あなたのために	-11.2905
ほとんどすべての	-11.2905
の数は	-11.2907
MV	-11.2907
を可能にし	-11.2908
らす	-11.2909
▁当第	-11.2909
cial	-11.291
されていて	-11.2913
の採用	-11.2913
▁こちらの	-11.2915
あたりの	-11.2915
確認してください	-11.2918
(2)	-11.2918
に関連付けられ	-11.2921
RU	-11.2921
休み	-11.2922
恵	-11.2923
ROOT	-11.2924
影響を受ける	-11.2924
ぜ	-11.2924
差異	-11.2925
デリ	-11.2926
の創造	-11.2928
site	-11.2928
モチーフ	-11.2928
▁どのように	-11.2929
ラフ	-11.2932
EF	-11.2932
ビリティ	-11.2932
これからの	-11.2934
エラーメッセージ	-11.2935
▁最近の	-11.2936
▁un	-11.2936
弓	-11.2937
を迎える	-11.2937
▁タグ	-11.2937
つ以上の	-11.2938
金曜日	-11.2939
始まります	-11.2939
か否か	-11.2939
をきれいに	-11.2941
スキーマ	-11.2942
Dis	-11.2942
を慎重に	-11.2943
実習	-11.2945
7%	-11.2945
▁誰もが	-11.2947
ヨガ	-11.2948
との交流	-11.2948
番目	-11.2949
飼	-11.295
究	-11.2951
最大級の	-11.2951
AF	-11.2951
をご覧	-11.2952
望んで	-11.2955
と共同で	-11.2955
他方	-11.2956
日までに	-11.2956
燃え	-11.2957
地形	-11.2958
長官	-11.296
日本における	-11.2964
アプリケーションが	-11.2964
くれる	-11.2966
を記載	-11.2966
かのように	-11.2967
厳選	-11.2968
の理解	-11.2969
見た目	-11.297
漏洩	-11.2971
滑らかな	-11.2971
インディ	-11.2972
の記録	-11.2973
の両方で	-11.2975
生産者	-11.2976
操業	-11.2977
が向上し	-11.2978
が得られる	-11.2983
勢力	-11.2984
発行する	-11.2987
学院	-11.2988
中古	-11.2988
望む	-11.2989
ゲートウェイ	-11.2991
自分を	-11.2991
のうちに	-11.2991
毒	-11.2991
順に	-11.2991
有効期限	-11.2992
免除	-11.2992
この地域	-11.2992
丁寧に	-11.2992
クラン	-11.2993
Space	-11.2994
について説明します	-11.2994
顕著	-11.2994
予想される	-11.2995
わたしの	-11.2995
選出	-11.2996
を含める	-11.2998
サービスが	-11.2998
graph	-11.2999
すことができます	-11.3
を指します	-11.3002
の終わりに	-11.3006
潜	-11.3006
ドリ	-11.3006
年目	-11.3007
ところです	-11.3009
クレーム	-11.3009
▁ウェブ	-11.3009
待機	-11.301
定款	-11.3011
▁some	-11.3012
que	-11.3012
創造的な	-11.3013
カタ	-11.3014
Tra	-11.3014
の交換	-11.3014
付く	-11.3014
』(	-11.3017
▁80	-11.3019
ジェンダー	-11.302
オペラ	-11.3021
にぴったり	-11.3022
▁日本では	-11.3022
iao	-11.3023
手助け	-11.3023
インストールされている	-11.3024
考えている	-11.3024
親切	-11.3025
を呼び	-11.3026
アプリケーションのインストール	-11.3027
誤差	-11.3028
LLC	-11.303
月期の	-11.3031
ことがない	-11.3032
を提供している	-11.3032
顧客は	-11.3033
ことを期待	-11.3033
いただければ	-11.3034
に活用	-11.3035
っこ	-11.3035
▁原則として	-11.3035
たいと思っています	-11.3036
reg	-11.3039
フィル	-11.3039
コイル	-11.304
わかってい	-11.304
XML	-11.304
でそれを	-11.3041
世界的	-11.3041
扉	-11.3042
電極	-11.3043
細かく	-11.3045
POS	-11.3046
合併症	-11.3047
フック	-11.3047
を要する	-11.3048
af	-11.3048
残念ながら	-11.3051
ファイルを取り扱う	-11.3052
ロッ	-11.3053
進学	-11.3053
べきではありません	-11.3053
ダーク	-11.3053
専門家は	-11.3054
借入金	-11.3055
▁HKEY	-11.3056
地域における	-11.3056
を使えば	-11.3057
到達	-11.3058
▁Ra	-11.3059
ことを示しています	-11.3059
さず	-11.306
出張	-11.306
スペシャリスト	-11.3062
フラグ	-11.3063
長期的に	-11.3064
範囲内	-11.3064
デート	-11.3067
TB	-11.3067
▁world	-11.3068
をお勧めします	-11.307
敷地	-11.307
台所	-11.307
ビッグデータ	-11.307
▁注文	-11.307
コーン	-11.3071
感じられる	-11.3073
ステンレス鋼	-11.3073
学問	-11.3073
に与える	-11.3074
を表し	-11.3074
が求められる	-11.3074
ミッ	-11.3077
を組み合わせて	-11.3077
ラグ	-11.3077
ダウンロードできます	-11.3083
が可能になります	-11.3083
を送り	-11.3083
梱包	-11.3085
に乗り	-11.3086
それはおそらく	-11.3086
USD	-11.3086
QR	-11.3086
加え	-11.3087
頂いた	-11.3089
シンク	-11.309
年度から	-11.3093
世界中に	-11.3093
実態	-11.3094
を展示	-11.3095
リヤ	-11.3095
兵士	-11.3096
咲	-11.3097
の提案	-11.3097
電気自動車	-11.3098
90%	-11.3098
ファイルを新しい	-11.3099
を制作	-11.3099
教会の	-11.3101
研究活動	-11.3102
まない	-11.3102
見出し	-11.3103
励	-11.3104
いろんな	-11.3104
矢	-11.3105
内部監査	-11.3109
▁そうした	-11.3109
外部の	-11.3111
問題点	-11.3112
を歓迎し	-11.3112
ITE	-11.3113
アプリは	-11.3113
決算短信	-11.3115
era	-11.3115
鮮やかな	-11.3116
進める	-11.3117
丈	-11.3117
tory	-11.3118
▁森	-11.3119
穏やか	-11.3121
初めに	-11.3121
責任を負いません	-11.3121
▁拡張子	-11.3122
富士山	-11.3123
Game	-11.3123
人たちは	-11.3123
中長期的な	-11.3124
優先順位	-11.3125
tre	-11.3125
本文	-11.3126
ビング	-11.3127
帰属	-11.3127
未定義	-11.3128
知られる	-11.3129
を着用	-11.3129
了	-11.3131
有害	-11.3132
画質	-11.3133
の形状	-11.3133
いなかった	-11.3134
市場における	-11.3135
Exp	-11.3135
チキン	-11.3136
▁Chrome	-11.3137
描き	-11.3137
ファーム	-11.3138
もらえる	-11.3138
に違反し	-11.3139
半ば	-11.3139
不可能な	-11.314
楽曲	-11.3141
デュー	-11.3142
Text	-11.3142
コンバータ	-11.3143
の育成	-11.3143
▁them	-11.3144
大学大学院	-11.3144
パレスチナ	-11.3145
▁(5)	-11.3146
▁UTC	-11.3147
に貢献します	-11.3149
High	-11.315
暑	-11.315
なくなって	-11.3152
さんに	-11.3152
みられる	-11.3153
を決定し	-11.3153
rd	-11.3154
味わう	-11.3155
目的は	-11.3156
際は	-11.3157
換	-11.3159
を認識する	-11.316
グローバルに	-11.316
DK	-11.3161
切って	-11.3161
経済学	-11.3162
仲	-11.3163
妊娠中	-11.3163
見ている	-11.3164
する必要があり	-11.3164
このプロジェクト	-11.3165
困難です	-11.3165
尋ねる	-11.3165
架	-11.3165
返却	-11.3166
のセット	-11.3167
スマホ	-11.3168
の痛み	-11.3169
年末	-11.3169
ったら	-11.3169
空白	-11.317
楽しめ	-11.3172
するために必要な	-11.3172
自動翻訳	-11.3173
食事を	-11.3173
を管理し	-11.3174
文字通り	-11.3174
ロレックス	-11.3175
くなります	-11.3176
新作	-11.3177
必要なもの	-11.3181
の安定	-11.3181
ボルト	-11.3183
ネジ	-11.3184
数時間	-11.3184
会計処理	-11.3186
ali	-11.3186
係数	-11.3186
が必要になる	-11.3188
技法	-11.3188
VER	-11.3188
▁Tel	-11.3189
1989	-11.3191
違った	-11.3191
の景色	-11.3192
eb	-11.3193
砲	-11.3193
Apache	-11.3196
がすべて	-11.3198
をご希望	-11.3198
よりもはるかに	-11.3198
という名前	-11.3199
vis	-11.32
次の手順	-11.3203
東洋	-11.3203
バレー	-11.3204
をタップします	-11.3204
に残る	-11.3204
も含め	-11.3204
フェン	-11.3206
オーストラリアの	-11.3206
テクノロジ	-11.3206
アレンジ	-11.3207
▁定	-11.3207
対照	-11.3207
本格	-11.321
ファイバー	-11.3211
WAN	-11.3211
を無効にする	-11.3212
理解する	-11.3212
部隊	-11.3213
特徴的な	-11.3215
医療機関	-11.3215
告げ	-11.3215
に落ち	-11.3215
col	-11.3216
理由です	-11.3217
希望の	-11.3217
ヶ	-11.3217
タービン	-11.3217
を訪問する	-11.3218
遺跡	-11.3219
にしても	-11.322
暗号通貨	-11.322
▁Shop	-11.322
空き	-11.322
になるように	-11.3221
1993	-11.3221
fa	-11.3222
怒り	-11.3222
磨き	-11.3222
建築家	-11.3223
潤滑	-11.3223
▁Can	-11.3223
0.3	-11.3223
で行う	-11.3223
秋の	-11.3224
▁ニュースレター	-11.3227
十字架	-11.3228
見つけることができます	-11.3228
は限らないことに注意してください	-11.3231
高速化	-11.3232
HR	-11.3233
摂	-11.3234
リンポチェ	-11.3235
規模で	-11.3236
TL	-11.3237
:10	-11.3237
小麦粉	-11.3238
の底	-11.3238
tes	-11.3238
熟練	-11.324
多少	-11.3241
面倒	-11.3243
されるまで	-11.3244
ウィーク	-11.3245
の方に	-11.3247
を決定します	-11.3248
ユニーク	-11.3248
がたくさんあります	-11.3248
事業年度	-11.3248
自己株式	-11.3248
彼ら自身	-11.3248
するときは	-11.3249
GitHub	-11.3249
繁殖	-11.3251
故郷	-11.3251
プログラムでサポートされている	-11.3253
急激な	-11.3255
優位性	-11.3257
Stat	-11.3258
幹部	-11.3258
ブローカー	-11.3259
腎臓	-11.3259
シミュレータ	-11.3259
いただきたい	-11.3259
▁重要	-11.3259
値段	-11.3261
CN	-11.3262
再インストール	-11.3263
タングステン	-11.3264
を図るため	-11.3266
AND	-11.3268
てきます	-11.3268
なくなり	-11.3269
壁紙	-11.327
編集が可能である	-11.3271
インターネット接続	-11.3272
必ずしもそのデータ	-11.3275
遮断	-11.3275
着物	-11.3275
メンバーの	-11.3276
提供されています	-11.3277
AOMEI	-11.328
入口	-11.328
経緯	-11.3281
注意深く	-11.3282
を実現するために	-11.3282
までご連絡ください	-11.3289
の削除	-11.329
最初から	-11.3291
アクチュエータ	-11.3291
ディズニー	-11.3291
iff	-11.3291
抽象	-11.3294
スペクトル	-11.3294
スキップ	-11.3294
スケート	-11.3295
使用方法	-11.3295
に置く	-11.3296
▁特定の拡張子が	-11.3297
に戻り	-11.3297
の結果として	-11.3298
ご存知	-11.3299
に進む	-11.3299
感想	-11.33
Japan	-11.3301
ないという	-11.3304
換気	-11.3304
ping	-11.3305
描く	-11.3309
ドロップダウン	-11.3309
波長	-11.3311
詳しい	-11.3311
▁このような場合は	-11.3312
であ	-11.3312
Python	-11.3315
emp	-11.3316
ハム	-11.3316
sch	-11.3316
uz	-11.3316
▁無料ライブセックスチャット	-11.3316
機材	-11.3319
UFJ	-11.3319
Ad	-11.3319
花火	-11.332
高度化	-11.3321
任務	-11.3321
それぞれが	-11.3321
省エネルギー	-11.3325
ライド	-11.3326
NP	-11.3327
課税	-11.3327
のみが可能で	-11.3328
等による	-11.3328
参加した	-11.3328
火力発電	-11.3328
ook	-11.3329
出品	-11.3329
字幕	-11.3329
シャトル	-11.3329
探査	-11.3333
奉仕	-11.3334
好調	-11.3335
刊行	-11.3336
と私は	-11.3339
を無効に	-11.3339
補充	-11.334
▁Systems	-11.3341
ご登録	-11.3342
安定化	-11.3342
ステート	-11.3343
ユース	-11.3346
さんと	-11.3347
くれた	-11.3348
User	-11.3348
カレー	-11.3349
配当金	-11.3354
you	-11.3355
▁小さな	-11.3355
られており	-11.3356
外国の	-11.3356
トライ	-11.3356
を把握し	-11.3357
▁More	-11.3358
Add	-11.3358
手段として	-11.3365
お待ち	-11.3365
を設置する	-11.3365
格差	-11.3365
NEW	-11.3366
できるだけ早く	-11.3368
財務諸表	-11.3369
しているのか	-11.337
▁Explorer	-11.3371
作成する	-11.3372
の指示	-11.3373
賠償	-11.3373
トレーディング	-11.3373
いろいろ	-11.3374
つぶ	-11.3375
shop	-11.3376
しまった	-11.3376
センチメートル	-11.3376
Time	-11.3377
削除する	-11.3379
問題解決	-11.3379
全身	-11.338
▁At	-11.3381
ことでした	-11.3383
▁Notebook	-11.3383
ユーザが	-11.3383
すり	-11.3385
を推奨	-11.3386
ラリー	-11.3388
で行われる	-11.3388
インセンティブ	-11.3388
ことが出来る	-11.3389
RY	-11.3389
ヤマ	-11.339
の人気	-11.3391
ESS	-11.3397
博士は	-11.3397
こういった	-11.3398
ショナル	-11.3398
マンション	-11.3401
数理	-11.3402
究極の	-11.3404
日付で	-11.3404
の修正	-11.3404
に属し	-11.3407
UC	-11.3407
裕	-11.3408
航空券	-11.341
企業価値	-11.3411
ドローン	-11.3412
つつあります	-11.3412
メモリカード	-11.3413
異議	-11.3413
ファイルを開くことのできる	-11.3414
文脈	-11.3414
権威	-11.3415
将	-11.3416
示されている	-11.3416
Base	-11.3417
GL	-11.3418
正方形	-11.3421
放電	-11.3423
▁make	-11.3424
APEC	-11.3426
期間が	-11.3426
丁	-11.3433
取って	-11.3434
通期	-11.3434
アプリケーションからその	-11.3436
明白	-11.3436
のインポートがサポートされてい	-11.3439
を見つけます	-11.344
ない場合もよくあります	-11.344
形式へのデータのエクスポート	-11.344
申し出	-11.3442
アライアンス	-11.3443
国債	-11.3443
未だ	-11.3445
へ戻る	-11.3445
春の	-11.3445
Reg	-11.3446
川崎	-11.3447
オークション	-11.3448
へ移動	-11.345
ヴァー	-11.345
あなた自身の手で	-11.3451
▁Platform	-11.3451
倍の	-11.3453
マンガ	-11.3454
症候群	-11.3454
ラーニング	-11.3454
に保つ	-11.3456
抗議	-11.3457
酢	-11.3458
訪れた	-11.3458
170	-11.3459
合った	-11.3459
と予想	-11.346
▁その原因	-11.3461
セール	-11.3461
4%	-11.3463
来場者	-11.3464
てはいけない	-11.3464
に積極的	-11.3464
大衆	-11.3464
着陸	-11.3466
暖かく	-11.3467
カラム	-11.3467
明け	-11.3468
日本から	-11.3468
順次	-11.3468
ライティング	-11.3469
▁pre	-11.3469
▁壁紙	-11.347
わかります	-11.347
予め	-11.3471
洗濯	-11.3472
メンバーが	-11.3473
ピッチ	-11.3474
言われた	-11.3474
適当	-11.3474
並べ	-11.3475
に関するお知らせ	-11.3477
▁Foodion	-11.3478
または手動	-11.3478
切る	-11.348
の雰囲気	-11.3481
公正価値	-11.3481
の策定	-11.3483
佐藤	-11.3484
災	-11.3485
動脈	-11.3489
▁very	-11.3491
涙	-11.3491
を適用することができます	-11.3492
▁HTML	-11.3492
に相当する	-11.3493
ward	-11.3493
俊	-11.3494
ブレード	-11.3496
信念	-11.3497
子供は	-11.3497
CLASSES	-11.3498
寒さ	-11.3499
厳しく	-11.3499
敷設	-11.35
ロイヤル	-11.35
2~3	-11.3501
▁Site	-11.3501
ren	-11.3501
しているのは	-11.3503
40%	-11.3505
config	-11.3506
せた	-11.3507
のが良いです	-11.351
データ復旧	-11.3511
190	-11.3512
に影響を及ぼす	-11.3514
作者	-11.3517
を継続的に	-11.3518
契約書	-11.352
SW	-11.352
を示している	-11.3522
朝鮮	-11.3524
在籍	-11.3525
National	-11.3525
知識と	-11.3526
経常利益	-11.3527
砂漠	-11.3527
仮定	-11.3527
少しずつ	-11.3527
レンガ	-11.3527
楽しさ	-11.3528
からもう一度ダウンロードしてみ	-11.3528
に到達	-11.3529
兆円	-11.3529
ジャガイモ	-11.3529
一致する	-11.353
オススメ	-11.3531
出た	-11.3531
▁予約	-11.3533
国立公園	-11.3534
将来的には	-11.3537
驚くべき	-11.3538
表示された	-11.3538
を軽減する	-11.3538
VP	-11.3538
実質的に	-11.3539
この世	-11.3539
流動	-11.3539
このファイルは	-11.3541
重さ	-11.3543
鋭い	-11.3545
Res	-11.3546
営業日	-11.3547
ホイ	-11.3547
soft	-11.3547
と言える	-11.355
子さん	-11.355
収集した	-11.3551
必要となる	-11.3552
を楽しめる	-11.3552
陳	-11.3556
プッシュ	-11.3556
取り出し	-11.3556
天体	-11.3557
を実行して	-11.3557
申し上げ	-11.3558
掲げる	-11.3566
を定義する必要があり	-11.3566
ポルトガル	-11.3567
財政状態	-11.3569
地獄	-11.3569
お花	-11.3572
与える	-11.3572
JBIC	-11.3574
申告	-11.3574
CU	-11.3574
/10/	-11.3575
は全て	-11.3575
日系	-11.3576
を持っていた	-11.3577
不安定	-11.3577
を実施しました	-11.3577
を作った	-11.3578
Mail	-11.3578
利用者が	-11.3578
ウイ	-11.3579
永遠の	-11.358
の基盤	-11.358
不思議な	-11.3581
姉妹	-11.3583
気になる	-11.3583
ケル	-11.3584
ごみ	-11.3584
CHA	-11.3584
工学部	-11.3585
才	-11.3586
無理	-11.3586
弟子	-11.3587
が設置され	-11.3588
を表現し	-11.3589
MF	-11.3589
ニンニク	-11.359
ope	-11.3591
コロンビア	-11.3592
ってきて	-11.3592
尊	-11.3593
防御	-11.3593
をどう	-11.3594
教えてくれ	-11.3594
を参照する必要があります	-11.3595
んですよ	-11.3595
▁白	-11.3597
ってしまう	-11.3597
移動する	-11.3598
開くことができないファイル	-11.36
眠り	-11.3604
文化財	-11.3606
画期的な	-11.3607
人々と	-11.361
MAN	-11.3611
四季	-11.3611
rc	-11.3614
丹	-11.3614
てほしい	-11.3614
分野での	-11.3614
スピ	-11.3615
低温	-11.3619
に依存する	-11.362
ことを考え	-11.3621
を見てみましょう	-11.3621
uni	-11.3621
が得られます	-11.3622
慣行	-11.3624
措置を講じ	-11.3624
▁Engine	-11.3625
外付け	-11.3625
起き	-11.3626
夜間	-11.3626
Option	-11.3627
カルシウム	-11.3628
ばかりの	-11.3628
ハイパー	-11.3629
ているのか	-11.3629
と考えられ	-11.3631
疲労	-11.3632
カスタマイズされた	-11.3633
出身の	-11.3633
ラッシュ	-11.3633
公益財団法人	-11.3633
2.2	-11.3634
良かった	-11.3635
サービスを提供し	-11.3635
貧しい	-11.3635
アメリカン	-11.3636
ean	-11.3636
Search	-11.3638
められ	-11.3639
今後とも	-11.3639
教えてください	-11.3641
専門性	-11.3642
の更なる	-11.3642
兆候	-11.3647
健康な	-11.3647
教職員	-11.3648
の授業	-11.3648
シェアハウス	-11.3649
▁Control	-11.3649
▁Technologies	-11.365
▁Recovery	-11.365
環境保護	-11.3652
gh	-11.3654
プリセット	-11.3654
struct	-11.3654
OB	-11.3656
イスラエルの	-11.3656
心理	-11.3657
高等	-11.3658
ブラウン	-11.3658
てみてください	-11.366
繊細な	-11.3661
することができない	-11.3661
需給	-11.3666
内にある	-11.3667
繋がる	-11.3667
HC	-11.3667
大事な	-11.3668
輝	-11.3669
cho	-11.367
前期比	-11.3671
往復料金	-11.3671
まらない	-11.3672
でありながら	-11.3673
素子	-11.3673
覚えておく	-11.3673
ユーザー名	-11.3674
▁2:	-11.3675
そうでない	-11.3677
かかって	-11.3679
由	-11.3681
は適用されない可能性があります	-11.3684
すごい	-11.3684
ベビー	-11.3686
取得したい場合は	-11.3688
▁Team	-11.3688
高齢化	-11.3688
手元	-11.3688
時間以内に予約	-11.3689
法第	-11.3689
音量	-11.369
ストロ	-11.3691
グロ	-11.3695
金額は過去	-11.3695
Visual	-11.3695
プロット	-11.3696
優れ	-11.3697
外科	-11.3698
ファイルをサポートしている	-11.3699
そのバージョン	-11.37
ハラ	-11.37
サービス提供	-11.3701
アスリート	-11.3702
PANDORA	-11.3702
ベクトル	-11.3702
John	-11.3702
ark	-11.3703
価格が	-11.3703
▁Flash	-11.3704
アクリル	-11.3705
全面	-11.3705
の下の	-11.3706
(2018	-11.3706
史上	-11.3706
.4%	-11.3706
をかけて	-11.3707
著しい	-11.3708
福島県	-11.3709
袖	-11.3709
借入	-11.3709
ことは可能です	-11.3709
エンドポイント	-11.371
会議室	-11.371
BT	-11.3711
だし	-11.3711
考えられ	-11.3711
▁共有	-11.3713
ローラー	-11.3713
被災	-11.3714
似ている	-11.3715
と見なされ	-11.3715
を持つこと	-11.3716
どれくらい	-11.3716
付加	-11.3717
エキス	-11.3719
ces	-11.3719
▁この方法は	-11.3719
巣	-11.3721
に努める	-11.3722
を定義する	-11.3723
の効率化	-11.3726
混雑	-11.3728
歯科	-11.3728
UV	-11.3729
▁going	-11.3729
モーション	-11.3732
JSON	-11.3733
を参照して	-11.3733
鉄鋼	-11.3733
テク	-11.3735
ご支援	-11.3735
竜	-11.3735
が現れ	-11.3735
損害賠償	-11.3736
ディア	-11.3736
保存する	-11.3737
臨時	-11.374
IPS	-11.374
男性は	-11.3742
PF	-11.3742
を実行するために必要な	-11.3745
含有量	-11.3745
輪郭	-11.3746
周知	-11.3746
原油	-11.3747
知覚	-11.3747
を達成するために	-11.3748
と考えます	-11.3749
申し立て	-11.3749
高速道路	-11.3749
干	-11.3751
拡張機能	-11.3752
ori	-11.3752
▁Type	-11.3754
トレース	-11.3756
ロケット	-11.3758
デバイスから	-11.3759
New	-11.3759
になっており	-11.376
Multi	-11.376
blog	-11.3761
fu	-11.3761
を使うことができます	-11.3761
ジャーナル	-11.3763
直後に	-11.3766
できるようになる	-11.3766
を行なっ	-11.3766
ミック	-11.3766
性のある	-11.3767
10,000	-11.3767
浅草	-11.3767
明るさ	-11.3768
与えられる	-11.3768
側で	-11.3768
を使用するには	-11.3769
を取り除き	-11.377
といえる	-11.377
CV	-11.3773
世紀に	-11.3775
となること	-11.3775
を計算する	-11.3776
恋人	-11.3776
アワード	-11.3777
ことが可能	-11.3778
から約	-11.3779
▁Aspire	-11.3779
全額	-11.3779
様な	-11.3779
相互に	-11.378
を設立し	-11.378
を目的とする	-11.378
product	-11.378
▁Str	-11.3781
てきている	-11.3782
を迅速に	-11.3782
挑	-11.3782
せん	-11.3785
主流	-11.3785
imp	-11.3785
に囲まれ	-11.3786
右上	-11.3786
発掘	-11.3786
サポートされている	-11.3787
つ目の	-11.3789
使用可能な	-11.3792
エリ	-11.3792
Application	-11.3793
技術の開発	-11.3793
国外	-11.3793
ef	-11.3794
アピール	-11.3795
識別子	-11.3795
敷地内	-11.3796
van	-11.3796
ボタンをタッチ	-11.3796
ボイス	-11.3797
で起こりうる	-11.3797
侵	-11.3797
が強く	-11.3798
られるように	-11.3798
cat	-11.3799
ポルシェ	-11.3799
○	-11.3799
ISS	-11.38
▁want	-11.38
▁Cre	-11.3801
課題解決	-11.3803
ロータリー	-11.3803
Exchange	-11.3803
をインストールした後に	-11.3804
スカート	-11.3804
と呼ぶ	-11.3805
ご希望の	-11.3806
数週間	-11.3807
重要な役割を果たし	-11.3807
忍耐	-11.3808
シールド	-11.3808
フィート	-11.3808
望遠鏡	-11.3809
平面	-11.3813
PayPal	-11.3813
同氏	-11.3814
給付	-11.3814
レコーダー	-11.3815
unt	-11.3815
昼食	-11.3817
愛好家	-11.3819
人びと	-11.3819
方法を参照してください	-11.3819
アイス	-11.3819
貸付	-11.382
.7%	-11.3821
から削除	-11.3821
カレッジ	-11.3822
練	-11.3823
鈴木	-11.3824
ガム	-11.3824
読んだ	-11.3826
照射	-11.3826
格安	-11.3827
tribu	-11.3828
送信されます	-11.3829
経済的な	-11.3829
その中身	-11.3831
が低下し	-11.3832
→	-11.3835
地理的	-11.3835
を望む	-11.3835
を再現	-11.3836
自動運転	-11.3836
インタラクティブ	-11.3839
唐	-11.384
された後	-11.3841
有益	-11.3842
しなさい	-11.3843
リアン	-11.3844
フー	-11.3844
ating	-11.3844
を開催しました	-11.3846
講演会	-11.3847
モダン	-11.3847
親戚	-11.3847
関連付ける必要があります	-11.3848
1991	-11.3848
開業	-11.3849
建てられた	-11.385
お越し	-11.385
述べる	-11.3852
FM	-11.3852
準備ができている	-11.3853
ポリマー	-11.3855
に対応しています	-11.3855
匂い	-11.3856
遺伝	-11.3857
の研究開発	-11.3857
にお問い合わせください	-11.3858
続行	-11.3863
tel	-11.3863
も含めて	-11.3863
半島	-11.3866
ファイルを開こうとするとき	-11.3867
市況	-11.3867
をキャンセル	-11.387
ネーション	-11.3871
と思っている	-11.3871
広め	-11.3872
Ruby	-11.3874
マク	-11.3875
同年	-11.3875
却	-11.3876
▁when	-11.3877
溢れ	-11.3877
木製の	-11.3877
ロシア語	-11.3878
起きた	-11.3878
をリリース	-11.3879
▁::	-11.3879
HTTP	-11.3881
明記	-11.3884
責	-11.3885
届き	-11.3886
番目に	-11.3886
ヘルス	-11.3889
が設定され	-11.3891
法律事務所	-11.3892
パール	-11.3892
書式	-11.3893
になりたい	-11.3894
緩やかな	-11.3895
手頃な価格	-11.3896
邸	-11.3896
が必要な場合は	-11.3896
投資口	-11.3897
削	-11.3898
卓越した	-11.3899
Soft	-11.39
アプリケーションに関連付けさせる	-11.39
浄化	-11.3901
ku	-11.3901
対称	-11.3902
その中に	-11.3904
悪影響	-11.3904
よう努め	-11.3907
抗体	-11.3907
の関連付けが間違ってい	-11.3907
有効です	-11.3908
FU	-11.3911
true	-11.3913
多種多様な	-11.3913
cell	-11.3913
を判断する	-11.3913
▁Display	-11.3913
声が	-11.3915
zi	-11.3916
尽力	-11.3918
月曜日	-11.3919
治療薬	-11.392
イーサネット	-11.392
nu	-11.392
順調に	-11.3924
適用されます	-11.3924
定められた	-11.3924
たいとしましょう	-11.3924
最優先	-11.3925
を待つ	-11.3925
で起こりうる問題	-11.3926
日本酒	-11.3927
万トン	-11.3927
イスラーム	-11.3927
スプリング	-11.3928
悪魔	-11.3928
オプ	-11.3934
カンファレンス	-11.3935
出版物	-11.3935
確実な	-11.3935
揃	-11.3935
芸術家	-11.3936
旬	-11.3937
作り上げ	-11.3938
を見つけることができないと	-11.3939
シューズ	-11.394
にアクセスできます	-11.3941
エレガントな	-11.3943
図表	-11.3943
死者	-11.3943
実に	-11.3947
できるので	-11.3947
パズル	-11.3947
リダイレクト	-11.3947
スルー	-11.3947
これにより	-11.3947
るまで	-11.3948
みてください	-11.3949
あなたはおそらく	-11.3949
に位置しています	-11.3949
が得られ	-11.395
を節約する	-11.3951
品目	-11.3951
ひどい	-11.3952
わけで	-11.3952
指向	-11.3953
頑	-11.3953
Bo	-11.3954
不正な	-11.3955
威	-11.3955
作成してみてください	-11.3955
阪	-11.3959
kin	-11.396
イエスの	-11.3961
っていう	-11.3961
▁data	-11.3962
繰り	-11.3962
Core	-11.3963
誘致	-11.3964
犠牲	-11.3967
異なる場合があります	-11.3968
胞	-11.3969
不十分	-11.3969
今週	-11.3969
が記載されています	-11.3969
禅	-11.397
写真や	-11.397
プローブ	-11.3971
革新的	-11.3972
ポータブル	-11.3973
次のようなメッセージが表示され	-11.3975
ユニクロ	-11.3975
愚	-11.3976
オリーブオイル	-11.3978
してもらう	-11.3979
には多くの	-11.398
の強み	-11.398
関わり	-11.398
マジック	-11.3981
が起き	-11.3982
DOC	-11.3982
ご説明	-11.3982
簡易	-11.3982
を閉じる	-11.3983
がほとんど	-11.3984
gram	-11.3985
お使いのコンピュータにインス	-11.3985
細部	-11.3986
ボタンを押して	-11.3986
サードパーティ	-11.3986
晴	-11.3987
見つかった	-11.399
確かめ	-11.399
彼女に	-11.3991
▁戸越銀座商店街	-11.3991
生産量	-11.3991
育児	-11.3993
議決権	-11.3997
硬化	-11.3997
を使用している場合	-11.3997
表示されることです	-11.3998
5.0	-11.4001
編み	-11.4002
WE	-11.4003
▁わかりやすい例	-11.4004
設定された	-11.4004
知事	-11.4004
時間帯	-11.4004
SV	-11.4005
安価	-11.4006
▁because	-11.4007
辞書	-11.4007
ゲージ	-11.4007
方法については	-11.4007
トルク	-11.4011
即時	-11.4011
できるようにします	-11.4012
の数が多くなるため	-11.4012
ムーブメント	-11.4012
アプリケーションによってサポート	-11.4012
を押して	-11.4014
アプリケーションで開き	-11.4014
クローズ	-11.4014
中国語に翻訳して	-11.4015
▁当ホームページについて	-11.4015
に用い	-11.4015
動的な	-11.4017
するよう努めましょう	-11.4017
バージョンが新しいほど	-11.4017
必要がある場合は	-11.4017
注力	-11.4019
いる内容が含まれ	-11.4019
このプロセス	-11.4019
ジャズ	-11.402
ewbo	-11.402
違って	-11.402
ile	-11.402
レジストリに手動で	-11.4021
展開する	-11.4021
EI	-11.4022
子会社の	-11.4022
プログラムの最新バージョンを入手	-11.4023
分泌	-11.4023
がインストールされている	-11.4023
Cisco	-11.4024
ようとしている	-11.4025
買う	-11.4026
億円となりました	-11.4028
供与	-11.4029
暦	-11.403
お電話	-11.403
▁School	-11.4031
のインストール済	-11.4031
他の方から	-11.4032
ファイルが壊れている可能性があり	-11.4033
訪日	-11.4033
旅客	-11.4033
テージ	-11.4033
tain	-11.4034
トラベル	-11.4034
際にエラーが発生した	-11.4034
長方形	-11.4036
ように設計されています	-11.4036
芸能	-11.4036
等に関する	-11.4037
を呼び出す	-11.4037
3.1	-11.4038
の中で最も	-11.4038
を自由に	-11.404
視点で	-11.4041
実用	-11.4041
したところ	-11.4041
バングラデシュ	-11.4041
原発	-11.4042
インサイト	-11.4042
見積り	-11.4042
といえば	-11.4043
されるファイル拡張子	-11.4043
懐	-11.4044
▁Recover	-11.4045
フリ	-11.4045
精製	-11.4045
ことができるので	-11.4046
長い拡張子	-11.4046
バーグ	-11.4046
妨害	-11.4047
ファイルを取得した場合	-11.4047
により英語	-11.4047
システムが指定された	-11.4048
rad	-11.4048
独立性	-11.4048
にあって	-11.4048
前面	-11.4049
なさ	-11.405
社員が	-11.4051
掛	-11.4051
典型的な問題は	-11.4054
レジストリ項目	-11.4055
▁Tour	-11.4056
再送してもら	-11.4056
プログラム又は	-11.4058
本当	-11.4059
を開いたり読み込んだりする	-11.406
yapplication	-11.406
中に自動的に追加され	-11.406
ファイルの別のコピーを見つけるか	-11.406
拡張子およびファイルテーブル	-11.406
トールされているプログラムと	-11.4061
当面	-11.4061
設けられ	-11.4062
短い拡張子	-11.4063
線量	-11.4065
忙しい	-11.4065
嵐	-11.4069
プログラムとの関連付け	-11.407
左側の	-11.4071
に示す	-11.4071
▁Now	-11.4071
強固な	-11.4072
進行中	-11.4073
Square	-11.4075
以後	-11.4076
に関わらず	-11.4076
hin	-11.4077
を持つファイルを	-11.4078
メールが	-11.4078
縛	-11.4079
微細	-11.4079
のアイコン	-11.408
ライダー	-11.4081
▁look	-11.4082
授	-11.4084
血圧	-11.4085
不透明	-11.4085
勢い	-11.4086
どのように行うのですか	-11.4088
ヒーロー	-11.4089
茶色	-11.4089
帯域幅	-11.409
スリランカ	-11.4091
が良く	-11.4091
を推察する	-11.4094
言っている	-11.4097
郵送	-11.4097
つ星	-11.4099
を与えた	-11.41
ez	-11.4101
持分	-11.4101
ファイルとアプリケーションを	-11.4101
▁were	-11.4103
ally	-11.4103
ご提案	-11.4103
非常	-11.4103
に携わる	-11.4103
ドット	-11.4103
レジストリエントリで	-11.4107
配偶者	-11.4108
ガイダンス	-11.4109
選手権	-11.4109
を受け取ったことがあります	-11.411
▁Mode	-11.4112
▁ン	-11.4113
house	-11.4113
志向	-11.4114
dia	-11.4115
新しいもの	-11.4116
発音	-11.4116
に関連するファイルを削除	-11.4116
山形	-11.4116
Pass	-11.4118
や社会	-11.4118
▁フォームに入力して	-11.4119
ってきました	-11.4119
した後にもう一度	-11.4119
を止め	-11.412
sign	-11.412
で初めて取り扱う	-11.412
ナス	-11.4121
PowerPoint	-11.4121
▁そのための構文	-11.4121
ファイルを開こうとした時	-11.4121
▁洋楽	-11.4122
指定するアプリケーションの	-11.4122
低価格	-11.4122
サブキーを作成する	-11.4123
の定義に関する情報を	-11.4123
プログラムの識別子	-11.4123
GUI	-11.4124
レジストリに短い拡張子	-11.4124
皆さま	-11.4125
オバマ	-11.4126
のシステムは通常	-11.4127
.8%	-11.4127
start	-11.4128
るべきです	-11.4128
何らかの理由によりこの	-11.4129
浄	-11.4129
ほう	-11.413
---	-11.413
の兆候	-11.413
mar	-11.4131
ムービー	-11.4133
季	-11.4133
エラーを直す	-11.4135
リンチェンドルジェ	-11.4135
飽和	-11.4135
を調理する	-11.4135
ワット	-11.4136
関連付けを追加する	-11.4137
そのように	-11.4137
LIN	-11.4137
なるべく迅速に対応	-11.4137
には次のようなものが挙げられ	-11.4137
上手く行かなかった場合	-11.4138
を装備しているか	-11.4138
▁Maps	-11.4138
を推進しています	-11.4139
フォード	-11.4139
を使います	-11.414
version	-11.414
ト調	-11.4141
ough	-11.4143
と長い拡張子	-11.4144
js	-11.4144
涼	-11.4146
を起動する	-11.4148
-02	-11.4149
古典	-11.4149
を持つファイルには	-11.4151
沖	-11.4152
アプリケーション選択	-11.4152
用いられる	-11.4152
中です	-11.4154
ドリル	-11.4156
積み重ね	-11.4157
カーブ	-11.4157
示した	-11.4157
128	-11.4159
好評	-11.416
開け	-11.416
text	-11.4161
He	-11.4164
4.5	-11.4165
焼け	-11.4165
説得	-11.4166
の皆様に	-11.4167
▁Form	-11.4168
以下のように	-11.4169
1.3	-11.4169
排気	-11.417
ファイルを起動すると	-11.4173
一時停止	-11.4175
ソル	-11.4175
始まりました	-11.4176
と信じています	-11.4177
厚さ	-11.4178
繋がり	-11.4179
直線	-11.4179
tan	-11.418
スー	-11.4181
▁上記のリストにある	-11.4182
呼ばれ	-11.4183
プログラムを関連付ける	-11.4185
同じような	-11.4187
のは難しい	-11.4187
透明な	-11.4187
テラ	-11.4189
皆さんの	-11.419
に置き換え	-11.4191
随	-11.4193
インフルエンザ	-11.4193
ファイルとインストールされ	-11.4193
とは何か	-11.4193
から構成され	-11.4194
を付与	-11.4194
の中心部	-11.4197
事前の	-11.4199
-15	-11.42
ブックマーク	-11.42
に署名	-11.4201
内装	-11.4202
アーツ	-11.4203
の地位	-11.4203
中長期	-11.4205
優れている	-11.4205
べきだ	-11.4206
▁Bi	-11.4208
要求される	-11.4208
踊	-11.4211
わかりません	-11.4212
動作する	-11.4213
オーク	-11.4214
建築物	-11.4215
Photoshop	-11.4217
70%	-11.4218
ff	-11.4218
併用	-11.4218
何百	-11.4218
安く	-11.4219
を制限する	-11.4219
Object	-11.422
ているのは	-11.422
に及ぶ	-11.422
直面	-11.4221
ようになっています	-11.4222
並み	-11.4222
ことのない	-11.4224
調査結果	-11.4225
をかける	-11.4225
を効果的に	-11.4225
荘	-11.4226
叫	-11.4228
癒し	-11.423
視察	-11.4231
開いて	-11.4231
行うこと	-11.4231
以下の手順	-11.4232
が出る	-11.4234
Cr	-11.4234
も様々であること	-11.4236
宛先	-11.4237
すべてのドライバをインストール	-11.4237
同一の	-11.4238
サポートする拡張子	-11.4239
かい	-11.4239
本資料	-11.424
たいと思う	-11.424
急性	-11.424
▁Sub	-11.4242
がかかります	-11.4242
ウー	-11.4243
画家	-11.4244
又は古い	-11.4244
▁Virtual	-11.4244
辛	-11.4245
運転手	-11.4247
を説明し	-11.4248
合理化	-11.4248
施工	-11.4249
肉体	-11.425
部屋に	-11.4251
てもらえ	-11.4252
大量に	-11.4252
プレスリリース	-11.4254
ich	-11.4259
が中心	-11.426
▁Health	-11.426
確かな	-11.426
BD	-11.4261
オペレータ	-11.4262
死んだ	-11.4267
Advanced	-11.4267
隠し	-11.4269
安全衛生	-11.4269
河川	-11.427
が適用されます	-11.4271
▁さんの投稿	-11.4272
zer	-11.4272
濡れ	-11.4273
レセプション	-11.4275
解決することができます	-11.4277
と連携し	-11.4278
優秀	-11.4279
ビート	-11.4279
打ち上げ	-11.4279
灰色	-11.4281
アブ	-11.4282
みたいな	-11.4282
送迎	-11.4282
を有しています	-11.4285
がかかる	-11.4287
並び	-11.4287
電気通信	-11.4288
家計	-11.4289
田中	-11.4292
に立って	-11.4295
に適用される	-11.4295
敬意	-11.4295
台北	-11.4296
lat	-11.4301
増殖	-11.4302
をお願いします	-11.4302
国際機関	-11.4303
の実装	-11.4305
ストン	-11.4306
Black	-11.4306
っち	-11.4308
大企業	-11.431
TOKYO	-11.431
ユネスコ	-11.4315
等しい	-11.4315
▁Award	-11.4316
dis	-11.4316
トラン	-11.4316
OEM	-11.4316
ウィーン	-11.4318
お好み	-11.4319
ランス	-11.4319
造船	-11.432
目指す	-11.432
共感	-11.432
信じられないほど	-11.4322
乗馬	-11.4323
インターネット上で	-11.4323
メディ	-11.4324
▁適切なプログラムバージョン	-11.4325
▁Edition	-11.4326
光沢	-11.4326
偶	-11.4328
アフター	-11.4328
(2017	-11.4329
出血	-11.4329
つ目は	-11.4332
を掲載しております	-11.4335
▁War	-11.4335
に含まれている	-11.4336
の大半	-11.4338
的なもの	-11.4338
と連携	-11.4338
とのこと	-11.4339
ベトナムの	-11.434
を参考に	-11.4341
アクセシビリティ	-11.4342
露出	-11.4345
重要な要素	-11.4346
レータ	-11.4346
Wallpapers	-11.4348
できて	-11.4348
をクリア	-11.4349
ソースコード	-11.435
三角形	-11.4351
衆	-11.4355
校正	-11.4357
会談	-11.4358
ハイキング	-11.4358
▁would	-11.4358
次世代の	-11.436
YO	-11.4362
異なった	-11.4362
忍	-11.4362
を置いて	-11.4362
プロトタイプ	-11.4364
出来ない	-11.4364
することも可能です	-11.4365
ことが望ましい	-11.4365
ミラノ	-11.4366
トーナメント	-11.4367
マラソン	-11.4369
Va	-11.4369
皆様に	-11.4371
義務付け	-11.4372
処置	-11.4377
の過程	-11.4378
XP	-11.4381
ワイド	-11.4382
GHz	-11.4382
挙動	-11.4382
▁Real	-11.4382
ロジー	-11.4386
になることができます	-11.4387
提	-11.4389
フレキシブル	-11.4391
を削除します	-11.4392
になるまで	-11.4392
生き物	-11.4393
腐食	-11.4394
魔	-11.4394
栄養素	-11.4394
幸せな	-11.4395
▁City	-11.4395
致しました	-11.4396
していきたい	-11.4396
サムスン	-11.4397
▁Policy	-11.4399
女優	-11.4399
側から	-11.4401
met	-11.4401
単独	-11.4402
届ける	-11.4402
起こっている	-11.4405
フレンドリーな	-11.4406
博士課程	-11.4408
001	-11.4409
ことなど	-11.4409
たくさんあります	-11.441
できない場合は	-11.441
を見据え	-11.4412
win	-11.4412
その実行	-11.4413
を使用する必要があります	-11.4414
市長	-11.4414
浅	-11.4414
に連絡してください	-11.4415
などがあります	-11.4415
アナリティクス	-11.4415
あら	-11.4415
を想像	-11.4416
多言語	-11.4416
座標	-11.4417
話し合い	-11.4417
康	-11.4418
マルチメディア	-11.4419
に当たって	-11.442
のに十分です	-11.4422
行動計画	-11.4424
聖霊	-11.4425
が開催され	-11.4428
制裁	-11.4428
方面	-11.4432
双日	-11.4434
現在も	-11.4438
騒	-11.444
にあたる	-11.444
を切る	-11.444
▁Plan	-11.4441
関東	-11.4441
に満ちた	-11.4443
nes	-11.4445
先進的な	-11.4446
このゲーム	-11.4447
vol	-11.4447
に分割	-11.4449
新年	-11.4451
急増	-11.4451
1,2	-11.4451
髪の	-11.4451
アミノ酸	-11.4451
納期	-11.4451
完全性	-11.4453
電話で	-11.4453
▁Description	-11.4453
発見された	-11.4458
に戻ります	-11.4459
シオ	-11.4462
ホル	-11.4462
感じている	-11.4462
が認められ	-11.4463
魔法	-11.4463
新鮮	-11.4463
彼自身	-11.4464
岡山	-11.4466
オリーブ	-11.4467
加入者	-11.4467
メダル	-11.447
前提条件	-11.4471
すばやく	-11.4471
詳しい情報	-11.4471
リム	-11.4472
キス	-11.4472
ことではありません	-11.4475
ニッ	-11.4476
解体	-11.4476
埋	-11.4478
〉	-11.4479
Ba	-11.4479
uro	-11.448
生物学的	-11.4482
多様	-11.4484
やり取り	-11.4486
を目的に	-11.4486
を追い	-11.4486
帯域	-11.4487
Enter	-11.4488
ブッシュ	-11.449
に接続します	-11.4494
保安	-11.4495
陸上	-11.4498
混ぜ	-11.4499
者達	-11.4499
▁how	-11.45
スクリーニング	-11.4502
週に	-11.4502
ROM	-11.4502
総務	-11.4504
ini	-11.4505
上がった	-11.4505
描写	-11.4506
前述の	-11.4507
過ごした	-11.4507
カントリー	-11.4508
KU	-11.4509
だけでも	-11.451
顧問	-11.4511
集会	-11.4512
ことになりました	-11.4514
aki	-11.4514
どの程度	-11.4515
▁NEWS	-11.4516
濃い	-11.4516
危	-11.4516
の対戦成績	-11.4517
コーポレートガバナンス	-11.4521
FAT	-11.4521
を向上	-11.4521
▁テスト	-11.4522
預	-11.4522
をつなぐ	-11.4523
ume	-11.4523
rr	-11.4523
フラワー	-11.4523
xi	-11.4527
ミュージシャン	-11.4529
栄光	-11.4529
提唱	-11.4531
以外で	-11.4532
働いている	-11.4534
を指定して	-11.4534
に掲載されている	-11.4535
ハノイ	-11.4535
アニ	-11.4536
を検索する	-11.4536
民俗	-11.4537
受入	-11.4537
をお願い	-11.4538
落ち着いた	-11.4538
早期に	-11.4538
ノール	-11.4539
消費電力	-11.4541
トピックス	-11.4542
になれば	-11.4543
ular	-11.4544
狙	-11.4545
課金	-11.4545
cul	-11.4546
お酒	-11.4547
できる限り	-11.4547
絶景	-11.4547
熊	-11.4548
を最大化	-11.4549
預言者	-11.4549
定めた	-11.455
ストレッチ	-11.4554
で初めて	-11.4554
ナショナル	-11.4555
組成物	-11.4556
〈	-11.4558
堀	-11.4558
が豊富	-11.4559
に寄与し	-11.4559
大学生	-11.4562
に適応	-11.4562
膝	-11.4562
パンダ	-11.4563
を見ている	-11.4566
一次	-11.4567
判明	-11.4567
の信頼性	-11.4567
優れています	-11.4567
それゆえ	-11.4568
ママ	-11.4568
ストローク	-11.457
が原因で	-11.4571
一貫した	-11.4575
が好きな	-11.4576
非常に高い	-11.4576
初回	-11.4576
採取	-11.4577
を引く	-11.4579
送る	-11.4581
プライマリ	-11.4581
レオ	-11.4582
教訓	-11.4585
それはあなたの	-11.4586
マージ	-11.4586
乗車	-11.4586
フォロワー	-11.4587
奴隷	-11.459
必要とされ	-11.4591
とのコミュニケーション	-11.4591
開花	-11.4591
学研究科	-11.4592
を書いて	-11.4592
おく	-11.4593
こちらは	-11.4594
ようやく	-11.4595
債券	-11.4597
想像力	-11.4598
をクリックする	-11.4602
淡	-11.4602
漆	-11.4605
ことを示す	-11.4607
祖	-11.4608
遅	-11.4608
所長	-11.4608
伝えられ	-11.4608
が使用されます	-11.4611
追加情報	-11.4611
救われ	-11.4612
シームレス	-11.4612
を更新する	-11.4613
補助金	-11.4616
共存	-11.4618
やがて	-11.462
ラオス	-11.4623
初期化	-11.4624
Environment	-11.4627
ボタンを押す	-11.4628
駐	-11.4628
如	-11.4629
と言われる	-11.463
我が国の	-11.463
確実	-11.4632
を聞いた	-11.4633
に変え	-11.4634
レーン	-11.4634
を持たない	-11.4635
人気があります	-11.4636
溶解	-11.4637
テニス	-11.4638
産業界	-11.4638
に満足	-11.4638
改修	-11.4639
取り組んでいます	-11.4639
看板	-11.4639
の出現	-11.464
が必要な場合	-11.4642
有意	-11.4642
を発行します	-11.4642
産学連携	-11.4642
▁had	-11.4644
だけではありません	-11.4644
探偵事務所	-11.4645
品質と	-11.4645
頭痛	-11.4646
をオンに	-11.4646
出される	-11.4648
妥当	-11.4649
free	-11.4649
果たし	-11.465
平方メートル	-11.465
断片	-11.4652
ブラウザで	-11.4652
を行っており	-11.4652
掘削	-11.4653
幻想	-11.4653
▁う	-11.4654
PU	-11.4655
事が出来	-11.4655
par	-11.4656
普通株式	-11.4657
▁Partner	-11.4657
膣	-11.4659
アムステルダム	-11.4659
受賞者	-11.466
BY	-11.466
お客様へ	-11.4661
居住者	-11.4662
uan	-11.4662
玉ねぎ	-11.4662
Acronis	-11.4664
sec	-11.4667
dd	-11.4668
過剰な	-11.4668
を有している	-11.4672
使用された	-11.4672
心より	-11.4673
あなたはそれを	-11.4673
これも	-11.4673
本来の	-11.4674
也	-11.4675
Oracle	-11.4675
を作るために	-11.4676
が開きます	-11.4679
怪我	-11.4679
点灯	-11.4679
新興	-11.468
自動で	-11.468
アジア太平洋地域	-11.4681
レル	-11.4682
シカゴ	-11.4684
化学的	-11.4685
を構成し	-11.4685
神話	-11.4686
最も高い	-11.4692
ファイルを何	-11.4692
戒	-11.4695
オーガニック	-11.4695
を浴び	-11.4698
斜面	-11.4699
▁What	-11.47
する能力	-11.4701
▁適切な	-11.4703
カーテン	-11.4703
リッチ	-11.4706
点字	-11.4706
▁私たちのサイトでは	-11.471
リビング	-11.4711
小屋	-11.4712
拾	-11.4712
を受け取ります	-11.4712
印象的な	-11.4713
行動規範	-11.4713
心理学	-11.4714
CG	-11.4714
を訪れた旅行者や地元民が投稿した	-11.4718
所在	-11.472
Dr	-11.4721
使徒	-11.4722
狭	-11.4726
アトラクション	-11.4727
鑑	-11.4728
の売上	-11.4729
ピット	-11.4729
フェイ	-11.4731
後期	-11.4732
実効性	-11.4732
に注力し	-11.4737
式典	-11.4739
展望台	-11.4739
光景	-11.474
kW	-11.4741
キャラ	-11.4742
地理	-11.4742
受けられ	-11.4743
月中旬	-11.4744
換え	-11.4746
盛ん	-11.4746
の際は	-11.4747
▁Limited	-11.4748
しているもの	-11.4748
を取り戻す	-11.4748
▁Products	-11.4748
とくに	-11.4749
んじ	-11.4751
に搭載	-11.4753
を維持するために	-11.4753
行われました	-11.4753
粘土	-11.4755
てきて	-11.4756
rel	-11.4758
排他的	-11.4759
はならない	-11.4759
になれ	-11.4761
ようとしています	-11.4761
に使用されます	-11.4762
サス	-11.4762
られること	-11.4762
vert	-11.477
ジェイ	-11.4771
出店	-11.4772
を追求する	-11.4772
AK	-11.4773
アラブ	-11.4773
陶	-11.4774
孫	-11.4775
ハンガリー	-11.4776
Car	-11.4777
消毒	-11.4778
ニット	-11.4778
扱っ	-11.4779
透過	-11.478
源泉	-11.4782
lay	-11.4782
救助	-11.4782
症例	-11.4783
裁量	-11.4783
を指定し	-11.4787
泳	-11.4789
▁Am	-11.479
部位	-11.479
を徹底	-11.4791
暑い	-11.4792
耐え	-11.4792
lit	-11.4793
ギー	-11.4793
が楽しめる	-11.4794
を探して	-11.4794
臭い	-11.4795
ラブ	-11.4796
を築い	-11.4796
就任	-11.4797
Care	-11.4797
変わらない	-11.4799
をめぐる	-11.4799
image	-11.4799
のシンボル	-11.48
リスクマネジメント	-11.48
希	-11.4804
持参	-11.4805
興味のある	-11.4805
粉砕	-11.4806
video	-11.4807
に浸	-11.4808
税率	-11.4808
tar	-11.4809
しやすく	-11.481
中核	-11.4811
放射性	-11.4811
▁その場合	-11.4815
先ほど	-11.4815
揺れ	-11.4815
EST	-11.4818
同社は	-11.4818
周年記念	-11.4819
tter	-11.4819
スパム	-11.4822
IBM	-11.4822
をご用意	-11.4822
東芝	-11.4824
結びつけ	-11.4824
荷重	-11.4824
都心	-11.4825
AW	-11.4825
退屈	-11.483
バナー	-11.4831
緑色の	-11.4833
▁デフォルトでは	-11.4833
石鹸	-11.4834
ムスリム	-11.4834
述べました	-11.4834
食べた	-11.4835
ピックアップ	-11.4836
少しでも	-11.4836
を計画し	-11.4837
カプセル	-11.484
埋め込み	-11.484
栄	-11.4841
lib	-11.4841
きれいに	-11.4841
ASRock	-11.4841
CSS	-11.4843
受ける	-11.4844
されなければなりません	-11.4845
締	-11.4845
はまったく	-11.4846
OFF	-11.4848
ズーム	-11.4849
ディーラー	-11.485
と思われます	-11.4851
を最適化する	-11.4851
固定資産	-11.4852
を表現する	-11.4852
ハリ	-11.4855
シアター	-11.4855
到来	-11.4857
の場合もそうで	-11.4857
紅	-11.4858
が異なります	-11.4861
数ヶ月	-11.4861
の過程で	-11.4862
ova	-11.4862
Green	-11.4862
▁been	-11.4862
占	-11.4863
代わり	-11.4864
▁ウィキペディアで	-11.4864
鬼	-11.4865
スナップショット	-11.4865
1.4	-11.4866
今度は	-11.4866
兄	-11.4867
使われています	-11.4868
FTP	-11.4868
シル	-11.4871
ヘン	-11.4871
ability	-11.4871
を提案する	-11.4872
そんなに	-11.4873
本投資法人の	-11.4873
ことを目指しています	-11.4873
継続的	-11.4873
オメガ	-11.4874
▁their	-11.4874
▁リスト	-11.4875
であろうと	-11.4875
less	-11.4876
くなった	-11.4876
が正常に	-11.4878
述べています	-11.4879
行列	-11.4879
に注目し	-11.4881
太鼓	-11.4884
旅館	-11.4884
Cloud	-11.4885
ハウジング	-11.4886
ポーズ	-11.4886
の最も一般的な形式は	-11.4888
邪魔	-11.4889
合って	-11.489
死刑	-11.489
のタイプのファイルと	-11.4892
これを行う	-11.4892
に達した	-11.4892
ega	-11.4893
を施し	-11.4893
の後ろに	-11.4894
しておりません	-11.4895
パノラマ	-11.4895
スナック	-11.4896
二国間	-11.4897
に囲まれた	-11.4898
赤外線	-11.49
項の規定	-11.49
考えています	-11.4901
に関するお問い合わせ	-11.4901
Bit	-11.4901
月下旬	-11.4901
ッジ	-11.4902
互い	-11.4903
ファイルに関する情報を検索し	-11.4905
暖	-11.4905
高く評価され	-11.4905
Master	-11.4905
一般的な質問に対し	-11.4906
わせ	-11.4907
専門的な回答	-11.4909
NASA	-11.4909
激しく	-11.4909
障壁	-11.4909
これらのごく	-11.4912
脚本	-11.4913
商業施設	-11.4913
原子炉	-11.4913
ことができるでしょう	-11.4913
Message	-11.4913
place	-11.4914
を取り付ける	-11.4914
を学びます	-11.4915
個展	-11.4915
[...]
