<pad>	0
<unk>	0
<s>	0
</s>	0
▁	-2.71192
、	-2.86551
。	-3.34129
の	-3.7833
は	-4.23121
0	-4.47628
1	-4.55027
が	-4.59663
を	-4.64217
2	-4.73722
に	-4.81253
と	-4.8454
で	-5.02909
)	-5.27809
・	-5.3517
.	-5.41123
3	-5.44333
(	-5.46197
や	-5.56354
:	-5.61144
5	-5.66327
」	-5.71041
,	-5.72014
4	-5.73353
から	-5.84972
9	-5.87723
「	-5.92915
6	-5.95617
8	-5.9901
です	-6.03607
7	-6.07588
も	-6.10325
し	-6.13327
-	-6.16566
する	-6.20773
年	-6.30216
s	-6.36514
では	-6.50918
には	-6.5584
▁(	-6.57273
ます	-6.58147
した	-6.58479
/	-6.63545
月	-6.63928
として	-6.64231
その	-6.70536
この	-6.72792
します	-6.7655
か	-6.77468
または	-6.80362
?	-6.80526
た	-6.80712
など	-6.817
▁この	-6.81995
および	-6.82025
日	-6.82923
▁-	-6.83597
な	-6.84139
である	-6.87246
て	-6.93417
して	-6.94358
について	-6.98899
る	-7.01516
▁また	-7.04974
された	-7.07181
という	-7.10166
によって	-7.11195
への	-7.15043
ています	-7.19838
ました	-7.19916
_	-7.20101
!	-7.21601
"	-7.22698
による	-7.23658
により	-7.30096
サービス	-7.31419
ている	-7.33162
情報	-7.33554
]	-7.34748
している	-7.35508
より	-7.38669
及び	-7.39079
しています	-7.39378
▁「	-7.44741
こと	-7.47136
人	-7.47152
d	-7.47887
そして	-7.48458
環境	-7.50287
ス	-7.51033
%	-7.51161
に関する	-7.5137
データ	-7.51827
における	-7.52873
される	-7.53841
システム	-7.56041
すべての	-7.5666
a	-7.57505
において	-7.58337
しました	-7.58438
方法	-7.58482
つの	-7.60886
▁しかし	-7.61382
機能	-7.61549
まで	-7.62159
等	-7.62383
され	-7.63974
c	-7.64236
ことができます	-7.64626
m	-7.64918
のために	-7.66293
新しい	-7.674
▁[	-7.67797
などの	-7.68171
性	-7.6927
技術	-7.6932
ために	-7.69417
▁これは	-7.70023
的な	-7.70393
ため	-7.70601
事業	-7.71052
日本	-7.71662
であり	-7.71716
り	-7.72644
本	-7.73795
があります	-7.74189
へ	-7.75767
時間	-7.75839
されます	-7.75968
もの	-7.77331
▁|	-7.78181
のための	-7.78497
ように	-7.79094
管理	-7.79743
ので	-7.79986
製品	-7.80624
中	-7.81208
にも	-7.8175
できます	-7.81873
研究	-7.81936
e	-7.82314
大	-7.83495
多くの	-7.8356
化	-7.84077
水	-7.84247
ら	-7.84839
でも	-7.85158
開発	-7.85291
プログラム	-7.85419
ファイル	-7.86037
い	-7.86827
的	-7.86925
あなたの	-7.87036
活動	-7.87119
それは	-7.87384
できる	-7.88941
ない	-7.89072
することができます	-7.89613
他の	-7.89744
場合	-7.91824
▁、▁「	-7.91924
また	-7.92312
されている	-7.94148
国	-7.94602
に対する	-7.95143
者	-7.95968
g	-7.97048
からの	-7.97538
後	-7.97628
t	-7.98385
ト	-7.98424
お	-7.98463
x	-8.01192
リ	-8.01537
ア	-8.01762
時	-8.0182
く	-8.0223
数	-8.02552
用	-8.03392
それ	-8.0378
設定	-8.04251
がある	-8.0479
▁そして	-8.05228
必要があります	-8.05676
第	-8.05997
企業	-8.06071
~	-8.06555
名	-8.06578
法	-8.07041
あなたは	-8.07063
分	-8.07149
b	-8.07664
にある	-8.08093
ク	-8.08235
されています	-8.08276
一	-8.08897
つ	-8.09306
グループ	-8.09702
ー	-8.11322
さ	-8.12036
約	-8.12052
ことを	-8.13285
については	-8.13949
でしょう	-8.13964
場合は	-8.14148
に対して	-8.14399
各	-8.14671
n	-8.14981
年に	-8.15886
これらの	-8.15937
使用	-8.15994
私は	-8.16288
ラ	-8.16741
き	-8.16853
だ	-8.17041
回	-8.17189
v	-8.18292
ある	-8.18366
com	-8.18901
上	-8.19719
問題	-8.20085
力	-8.20802
▁a	-8.21093
ズ	-8.21361
世界	-8.21675
大学	-8.22164
社会	-8.22559
f	-8.2296
での	-8.23356
ための	-8.2496
してください	-8.24995
地域	-8.25043
プロジェクト	-8.25089
山	-8.25259
デザイン	-8.25269
す	-8.25502
上の	-8.2578
ビジネス	-8.25999
さまざまな	-8.26113
i	-8.26254
ル	-8.26263
k	-8.26263
教育	-8.26428
▁それは	-8.2654
様々な	-8.26641
を含む	-8.27132
国際	-8.27461
利用	-8.27557
ネットワーク	-8.27629
を使用して	-8.28125
み	-8.28582
イベント	-8.28791
変更	-8.28934
計画	-8.2949
p	-8.29699
場所	-8.30161
非常に	-8.30217
高	-8.30442
って	-8.30761
処理	-8.31388
サイト	-8.31453
評価	-8.31483
大きな	-8.3194
状況	-8.32232
r	-8.32801
'	-8.33173
o	-8.33266
いくつかの	-8.33522
を持つ	-8.34038
販売	-8.34114
カ	-8.34787
▁その	-8.34798
▁/	-8.35061
でした	-8.35295
型	-8.36079
▁さらに	-8.36279
最も	-8.37216
センター	-8.37457
会社	-8.37592
地	-8.37819
』	-8.38398
になる	-8.38456
前に	-8.385
ゲーム	-8.3864
ド	-8.38911
あなたが	-8.38979
ビデオ	-8.39035
ユーザー	-8.391
経済	-8.39135
モデル	-8.39243
アプリケーション	-8.39293
するために	-8.39337
投資	-8.39423
▁私は	-8.39706
er	-8.40026
内	-8.40078
▁"	-8.40164
▁これらの	-8.40181
ing	-8.40206
よう	-8.40277
マ	-8.40615
ナ	-8.40782
すること	-8.40885
関係	-8.40886
ソフトウェア	-8.41912
支援	-8.41976
ロ	-8.42206
点	-8.42259
&	-8.42375
手	-8.43338
見	-8.43411
オプション	-8.43486
コ	-8.43561
特に	-8.436
タ	-8.44042
人の	-8.44187
取引	-8.44355
h	-8.44965
だけでなく	-8.4551
これは	-8.45614
の中で	-8.45657
となる	-8.45693
になります	-8.45792
ことは	-8.45819
ツール	-8.45919
金	-8.46185
エネルギー	-8.46325
それを	-8.46487
デバイス	-8.46489
写真	-8.47177
文化	-8.4791
った	-8.48116
新	-8.48206
のみ	-8.48318
時に	-8.48728
日本の	-8.48917
シ	-8.48958
物	-8.49043
方	-8.49215
ており	-8.49403
コンテンツ	-8.49466
等の	-8.49742
中国	-8.49792
があり	-8.49923
市場	-8.50014
光	-8.50898
会	-8.51022
前	-8.51087
▁the	-8.51218
を行う	-8.51303
ページ	-8.51436
ことができる	-8.5153
を通じて	-8.51597
プロセス	-8.51637
色	-8.51858
対応	-8.51956
接続	-8.52014
する必要があります	-8.52242
部	-8.52335
行	-8.52545
組織	-8.52695
とともに	-8.52696
調査	-8.52881
y	-8.53439
だった	-8.5344
『	-8.53496
株式会社	-8.53519
▁)▁。	-8.53686
生産	-8.53823
バ	-8.53824
ed	-8.53931
市	-8.54049
生	-8.54173
ご	-8.54751
▁–	-8.54756
米国	-8.55332
子	-8.55368
イ	-8.55508
重要な	-8.55512
同	-8.55807
ながら	-8.55815
のような	-8.56195
▁and	-8.56894
自分の	-8.56957
特定の	-8.5715
線	-8.57157
リスク	-8.57472
関連	-8.57537
を使って	-8.57644
なら	-8.57756
ソリューション	-8.57833
されました	-8.57852
います	-8.57985
的に	-8.58171
▁of	-8.58312
施設	-8.58318
バー	-8.58352
目	-8.5849
作業	-8.58544
よりも	-8.58729
下	-8.59057
結果	-8.59708
体	-8.59912
以下	-8.60136
う	-8.60181
l	-8.60196
ください	-8.60212
家	-8.60327
サポート	-8.60336
▁あなたは	-8.60344
条件	-8.60425
商品	-8.6047
又は	-8.6048
とき	-8.6068
学	-8.60845
さらに	-8.6102
アクセス	-8.61251
彼の	-8.61459
ダ	-8.61524
リスト	-8.61652
登録	-8.61798
ことが	-8.61819
分析	-8.62156
同じ	-8.62403
上で	-8.62461
現在	-8.62506
先	-8.62593
すると	-8.6267
長	-8.62789
設計	-8.62833
のある	-8.62866
ン	-8.63739
業務	-8.6374
そのような	-8.64334
小さな	-8.64674
不	-8.6525
ません	-8.65697
コード	-8.66095
度	-8.66141
内の	-8.6699
値	-8.66992
島	-8.67049
社	-8.67143
状態	-8.67243
何	-8.67245
適切な	-8.67306
ホテル	-8.67472
プラットフォーム	-8.67622
フ	-8.67802
ですが	-8.67877
サ	-8.67958
j	-8.68334
道	-8.68355
ポイント	-8.68432
オ	-8.68594
▁本	-8.6869
すべて	-8.68719
契約	-8.6885
田	-8.68905
いた	-8.68995
私たちの	-8.69189
私たちは	-8.69356
▁to	-8.69492
別の	-8.69575
とは	-8.69586
チーム	-8.69624
新たな	-8.69671
異なる	-8.69866
音楽	-8.69877
私の	-8.70031
材料	-8.7023
生活	-8.70375
レ	-8.70463
海	-8.70481
いる	-8.70726
ことで	-8.70768
間	-8.70789
ブ	-8.70924
エ	-8.71073
構造	-8.71106
経験	-8.71119
心	-8.71139
出	-8.71333
作品	-8.71389
▁私たちは	-8.71429
今	-8.71433
カード	-8.71557
表示	-8.71718
w	-8.71995
高い	-8.72226
レベル	-8.72264
場	-8.72603
次の	-8.73092
テスト	-8.73184
内容	-8.73477
にとって	-8.73582
車	-8.73647
ではなく	-8.73677
当社	-8.73817
させる	-8.73938
画像	-8.7414
保護	-8.74306
イン	-8.74387
成長	-8.74451
事	-8.74658
ような	-8.74744
製造	-8.7485
月に	-8.75261
】	-8.75534
日に	-8.75903
元	-8.75932
外	-8.75939
検索	-8.7598
co	-8.76302
川	-8.76311
ていた	-8.76724
windows	-8.76796
リンク	-8.77232
それが	-8.77303
課題	-8.77598
良い	-8.77616
行動	-8.77623
ム	-8.78005
メール	-8.78036
女性	-8.78145
アプリ	-8.78175
経営	-8.78254
コース	-8.78291
人が	-8.78314
安全	-8.78373
能力	-8.78402
のように	-8.78556
産業	-8.78813
通信	-8.78841
非	-8.79021
することで	-8.79299
円	-8.79617
キ	-8.7985
ま	-8.79865
都市	-8.79973
にて	-8.80004
u	-8.80153
効果	-8.80247
ね	-8.80291
協力	-8.80667
...	-8.80753
小	-8.80852
キー	-8.80936
ジ	-8.80997
旅行	-8.81037
インターネット	-8.8114
選択	-8.81227
しており	-8.82112
東京	-8.82145
のです	-8.82556
年の	-8.82573
彼らは	-8.82623
図	-8.82754
言語	-8.82866
ミ	-8.82868
当該	-8.82916
ブランド	-8.82926
操作	-8.82961
以下の	-8.83052
複数の	-8.83206
ほど	-8.83254
彼らの	-8.83276
セキュリティ	-8.83553
書	-8.83726
店	-8.83923
するための	-8.83948
価格	-8.84114
政策	-8.84136
▁あなたが	-8.84143
年間	-8.84342
サイズ	-8.84361
だけ	-8.84575
健康	-8.84577
▁第	-8.8459
体験	-8.84675
特別な	-8.84691
を通して	-8.84717
機	-8.84789
制御	-8.84847
顧客	-8.84899
しない	-8.84925
その他の	-8.84998
期間	-8.85007
必要な	-8.85011
ことです	-8.85138
ip	-8.85296
所	-8.85333
確認	-8.85354
当社の	-8.85354
ものです	-8.85401
▁)▁、	-8.85426
z	-8.85458
中の	-8.85467
となります	-8.85502
かつ	-8.85551
愛	-8.85827
版	-8.85927
ましょう	-8.85975
といった	-8.86021
州	-8.86047
したり	-8.86057
素晴らしい	-8.86434
ニ	-8.8644
メッセージ	-8.86563
報告	-8.86758
治療	-8.86972
リー	-8.86997
カメラ	-8.87019
コンピュータ	-8.87064
ノ	-8.87328
こ	-8.87351
サーバー	-8.87476
会議	-8.87506
プ	-8.87646
仕事	-8.87767
予約	-8.87808
中に	-8.87867
認証	-8.8815
変化	-8.88209
彼は	-8.88291
▁in	-8.88348
id	-8.88358
オンライン	-8.88417
全	-8.88462
参加	-8.88631
たり	-8.88686
のか	-8.88791
it	-8.89028
▁i	-8.89181
品質	-8.89413
よく	-8.89489
[	-8.89796
これ	-8.89933
簡単に	-8.89951
アカウント	-8.89985
お客様の	-8.90071
よ	-8.90083
主	-8.90325
あるいは	-8.90532
わ	-8.90551
学生	-8.90599
▁したがって	-8.90747
入力	-8.90913
あらゆる	-8.91035
いたします	-8.91036
資料	-8.91135
▁for	-8.91146
装置	-8.91201
映画	-8.91213
目的	-8.91662
機器	-8.91889
デ	-8.91977
したい	-8.92137
試験	-8.92188
以上	-8.92213
式	-8.92274
面	-8.92314
料理	-8.92372
後に	-8.92433
神	-8.92507
最大	-8.92531
品	-8.92571
石	-8.92592
ウェブサイト	-8.92705
マン	-8.92774
改善	-8.92879
最初の	-8.9291
広告	-8.93
木	-8.9305
基準	-8.93302
▁windows	-8.93358
ず	-8.93361
チ	-8.93475
医療	-8.93498
機関	-8.93594
グ	-8.93717
web	-8.93888
パートナー	-8.93914
戦略	-8.94163
▁p	-8.94172
▁当社は	-8.94366
気	-8.94501
音	-8.94518
なかった	-8.94638
常に	-8.94661
制度	-8.94684
購入	-8.94803
編集	-8.94882
ではありません	-8.95191
感	-8.95228
海外	-8.95265
熱	-8.95431
メディア	-8.95677
テキスト	-8.95731
人は	-8.95831
ときに	-8.96012
以上の	-8.96131
部門	-8.96256
はありません	-8.96491
追加	-8.9655
ではない	-8.96585
め	-8.96746
町	-8.96935
デジタル	-8.96955
しております	-8.9696
家族	-8.97062
▁なお	-8.97304
室	-8.97331
していた	-8.97383
すぐに	-8.97408
可能な	-8.97436
再	-8.97622
文字	-8.97762
てください	-8.97771
更新	-8.97862
号	-8.97966
▁e	-8.98005
パ	-8.98231
テ	-8.98431
構成	-8.98455
例	-8.98457
コン	-8.98642
万	-8.98729
向け	-8.98735
ん	-8.98776
部分	-8.99105
q	-8.99113
分野	-8.99124
であった	-8.99162
量	-8.99279
なく	-8.99285
ウ	-8.99394
▁no	-8.99443
決定	-8.99516
個人	-8.99547
移動	-8.99555
説明	-8.99609
ディ	-8.99681
グローバル	-8.99923
発表	-9.00019
船	-9.00079
▁c	-9.00234
理由	-9.00244
全ての	-9.00269
エラー	-9.00366
電子	-9.00462
年度	-9.006
ビ	-9.00714
〜	-9.00804
それら	-9.00806
提供	-9.01136
口	-9.0119
▁例えば	-9.01555
▁f	-9.01723
▁b	-9.018
美しい	-9.01883
英語	-9.01907
表	-9.02168
実行	-9.02367
ボタン	-9.02588
モ	-9.02598
の場合	-9.02609
低	-9.02632
動画	-9.02643
取得	-9.02839
自然	-9.02903
の使用	-9.03033
対策	-9.03145
▁ただし	-9.03208
スペース	-9.03253
白	-9.03492
三	-9.03498
作成	-9.03587
通知	-9.03622
政府	-9.03625
必要	-9.03666
al	-9.03682
ダウンロード	-9.0381
できない	-9.0387
領域	-9.03902
原	-9.0402
番号	-9.04086
検査	-9.04133
国内	-9.04145
花	-9.04276
ならば	-9.04409
調整	-9.04421
in	-9.04793
re	-9.04795
無	-9.05199
画面	-9.05282
export	-9.05372
タイプ	-9.05404
最高の	-9.05603
コスト	-9.05617
▁【	-9.05672
モード	-9.05726
南	-9.05748
風	-9.05979
科学	-9.06023
平成	-9.06038
保存	-9.06057
用の	-9.06185
条	-9.06299
空間	-9.06307
準備	-9.06315
ツ	-9.06433
語	-9.06873
薬	-9.06957
お客様	-9.06968
公開	-9.072
率	-9.07301
認識	-9.07445
ッ	-9.07505
▁日本	-9.07588
拡大	-9.07782
を選択します	-9.07831
項目	-9.07927
ところ	-9.0796
表現	-9.07961
要素	-9.08074
▁その後	-9.0809
レポート	-9.08097
対象	-9.08111
かもしれません	-9.08143
ネ	-9.08168
発	-9.08188
テーブル	-9.08251
共有	-9.08389
とても	-9.08494
優れた	-9.08562
インストール	-9.08607
▁彼らは	-9.08657
機会	-9.09204
理解	-9.09204
アジア	-9.0933
ております	-9.09499
系	-9.09516
細胞	-9.09619
ガ	-9.09675
となりました	-9.09784
氏	-9.09993
二	-9.10042
利益	-9.10091
地球	-9.10121
そう	-9.10255
開始	-9.10324
ガイド	-9.1037
委員会	-9.10627
リング	-9.10752
観光	-9.10754
パッケージ	-9.10828
エリア	-9.10942
pc	-9.10961
cookie	-9.11188
to	-9.11247
ファイルを	-9.11316
出力	-9.11359
のため	-9.11407
たい	-9.11582
銀行	-9.11613
価値	-9.11638
or	-9.11671
目標	-9.1179
直接	-9.11858
レストラン	-9.12153
データベース	-9.12162
素材	-9.12171
設備	-9.12231
アン	-9.12722
業界	-9.12754
に対し	-9.12816
開催	-9.12917
少し	-9.12921
可能性があります	-9.13036
られた	-9.1305
費用	-9.13062
測定	-9.13265
一覧	-9.13453
質問	-9.13552
情報を	-9.13569
テクノロジー	-9.1359
実施	-9.13618
ライン	-9.13642
手順	-9.13732
させ	-9.13755
どのような	-9.13855
学校	-9.14008
はずです	-9.14171
形	-9.14382
んだ	-9.14557
データを	-9.1456
さん	-9.1458
責任	-9.14699
が必要です	-9.14915
運営	-9.15112
を行い	-9.15343
スポーツ	-9.15412
東	-9.15434
影響	-9.15545
予定	-9.15639
特別	-9.15717
文	-9.15724
ボ	-9.15787
すでに	-9.15823
コミュニケーション	-9.15855
考え	-9.15972
まだ	-9.15994
運用	-9.16134
回復	-9.16267
バス	-9.16345
どの	-9.16385
▁あなたの	-9.16395
メーカー	-9.16411
食品	-9.16532
もあります	-9.16802
人間	-9.16818
に関して	-9.16868
台	-9.16935
規制	-9.16966
世界の	-9.16967
ディスク	-9.16995
バージョン	-9.17012
es	-9.17113
となり	-9.1715
っている	-9.17153
ティ	-9.17367
保証	-9.17412
体制	-9.17538
ガス	-9.17575
セット	-9.17592
セ	-9.17735
メニュー	-9.1774
資金	-9.17769
食	-9.18021
の設定	-9.18021
ly	-9.18136
メ	-9.18148
統合	-9.18163
についての	-9.18191
研究所	-9.1823
を使用する	-9.18241
制限	-9.18351
リリース	-9.18454
;	-9.18467
パス	-9.18492
着	-9.18542
記録	-9.18546
と思います	-9.18569
パフォーマンス	-9.18587
どんな	-9.18626
期	-9.18831
金融	-9.18834
空	-9.18922
北	-9.19041
それらの	-9.19051
だろう	-9.19162
あ	-9.19349
現在の	-9.19541
額	-9.19598
▁apache	-9.19636
方針	-9.19741
どのように	-9.1987
層	-9.19949
西	-9.20008
に基づいて	-9.2005
リソース	-9.20059
の開発	-9.2007
を提供します	-9.20177
注文	-9.20262
足	-9.20273
ザ	-9.20307
紹介	-9.20337
となった	-9.20338
話	-9.20462
例えば	-9.20514
資産	-9.206
独自の	-9.20763
▁お問い合わせ	-9.20771
完全に	-9.21107
プロ	-9.21181
)▁-	-9.21324
当	-9.2147
天	-9.2163
てきた	-9.21695
野	-9.21705
解析	-9.21863
本当に	-9.21943
宇宙	-9.22011
クラス	-9.22075
味	-9.22105
計算	-9.22106
村	-9.22255
指定	-9.22353
記事	-9.22427
そ	-9.22561
む	-9.22773
部品	-9.22779
多	-9.22805
外部	-9.2295
いい	-9.22956
アート	-9.22958
流	-9.23075
チェック	-9.23163
カー	-9.23192
net	-9.23203
へと	-9.23403
mp	-9.23555
られる	-9.23562
工場	-9.236
によると	-9.23703
を持っています	-9.23719
iphone	-9.23734
紙	-9.23941
位置	-9.23942
学習	-9.23994
マーケティング	-9.24011
実	-9.24024
間の	-9.24064
あります	-9.24099
推進	-9.24167
バックアップ	-9.24297
強化	-9.24326
機械	-9.24454
|	-9.24509
何か	-9.24533
▁彼は	-9.24621
要求	-9.24635
文書	-9.24813
オン	-9.24911
電力	-9.25074
来	-9.25135
いて	-9.2517
▁mod	-9.2521
ち	-9.25229
実験	-9.25372
別	-9.25508
コミュニティ	-9.25638
再生	-9.25657
▁すべての	-9.2576
ば	-9.25922
サーバ	-9.26044
米	-9.26154
アメリカ	-9.26176
期待	-9.26202
ドライブ	-9.26225
ること	-9.26254
私	-9.26265
変換	-9.26333
億	-9.26356
▁たとえば	-9.26405
を受け	-9.2642
ic	-9.26434
ハ	-9.26458
子供	-9.26477
億円	-9.2652
ことに	-9.2663
ライセンス	-9.26721
運動	-9.26957
電気	-9.26978
それぞれの	-9.27018
®	-9.27036
け	-9.27106
火	-9.27165
入	-9.27205
それぞれ	-9.27214
@	-9.27222
と共に	-9.27251
ドル	-9.27259
れ	-9.27282
▁re	-9.27312
ていない	-9.27516
動作	-9.27529
▁english	-9.2764
その他	-9.27684
会員	-9.27808
規則	-9.27815
少なくとも	-9.27847
ニュース	-9.27868
テレビ	-9.27889
行為	-9.27893
向上	-9.2793
必要がある	-9.28012
その後	-9.28061
標準	-9.28124
ですか	-9.28229
でき	-9.28274
ai	-9.28278
ソ	-9.28289
特徴	-9.28335
自動	-9.28407
電話	-9.28518
今後	-9.28527
取り組み	-9.28534
名前	-9.28585
ファイルの	-9.28775
▁そのような	-9.28932
インド	-9.28975
ブロック	-9.29101
イメージ	-9.29125
os	-9.29182
展開	-9.29314
団体	-9.2941
▁.▁.▁.	-9.2953
アドレス	-9.296
発展	-9.29619
▁※	-9.29619
シリーズ	-9.29647
あなた	-9.29789
▁x	-9.29857
に基づき	-9.29969
on	-9.30043
▁もし	-9.30108
全体	-9.3017
次	-9.30176
le	-9.30213
器	-9.30271
モジュール	-9.30278
予測	-9.30463
賞	-9.30618
アイテム	-9.30672
駅	-9.30742
このような	-9.30766
有	-9.30785
▁g	-9.30806
になり	-9.30884
建設	-9.31157
の間に	-9.31229
導入	-9.31237
とする	-9.31338
ケース	-9.31476
正	-9.31487
プラン	-9.31553
加工	-9.31609
は非常に	-9.3161
になった	-9.31612
業	-9.31808
リクエスト	-9.31988
”	-9.31994
を見	-9.32081
思い	-9.32092
土	-9.32158
が表示されます	-9.32281
頭	-9.32321
個人情報	-9.32404
手法	-9.32417
映像	-9.32558
と一緒に	-9.3265
私が	-9.3265
植物	-9.32657
展示	-9.32674
タスク	-9.32706
っ	-9.32718
▁q	-9.32821
種	-9.32822
▁現在	-9.32833
することができる	-9.32859
種類の	-9.33167
制作	-9.33169
▁t	-9.33179
トレーニング	-9.33185
製品の	-9.33228
無料	-9.33277
通り	-9.33429
に基づく	-9.3348
議論	-9.3353
テーマ	-9.33531
意識	-9.33586
=	-9.33594
ポリシー	-9.33804
を提供する	-9.33875
解決	-9.33895
芸術	-9.33969
削除	-9.33971
場合には	-9.34058
ていく	-9.341
死	-9.34224
に応じて	-9.34239
温度	-9.344
する方法	-9.34407
コメント	-9.34457
法律	-9.34751
可能	-9.34774
かもしれない	-9.34824
株	-9.34859
和	-9.34954
歴史	-9.35032
要因	-9.35111
+	-9.35137
惑星	-9.35391
あり	-9.3542
供給	-9.35427
オブジェクト	-9.3548
されていない	-9.35648
内部	-9.35686
成功	-9.35806
ブラウザ	-9.35808
内で	-9.35818
適用	-9.35848
xhtml	-9.35902
撮影	-9.35951
フォーム	-9.36062
▁&	-9.3608
セッション	-9.36197
営業	-9.3624
美	-9.36284
付け	-9.36436
だけで	-9.3646
翻訳	-9.36508
▁これにより	-9.36575
以外の	-9.36631
オープン	-9.36645
タイ	-9.3669
▁m	-9.36836
ツアー	-9.36942
従業員	-9.36977
修正	-9.37029
実際に	-9.37128
長い	-9.37218
将来	-9.37221
中央	-9.37253
彼女の	-9.37322
各種	-9.37351
th	-9.37353
ピ	-9.37384
直	-9.37472
ときは	-9.37473
権利	-9.37497
にあります	-9.37514
古い	-9.37708
需要	-9.37746
知識	-9.37747
攻撃	-9.37756
連携	-9.37773
オフィス	-9.37971
達	-9.37986
韓国	-9.38037
可能性	-9.38039
ロー	-9.38109
スタッフ	-9.38114
位	-9.38128
肉	-9.38217
印刷	-9.38233
提案	-9.38254
交換	-9.38287
no	-9.38337
の一部	-9.38341
すれば	-9.38356
様	-9.38393
ことがあります	-9.38461
前の	-9.38488
城	-9.38536
通	-9.3862
fi	-9.38625
後の	-9.38651
▁今	-9.38662
一般的な	-9.38754
障害	-9.38757
フィールド	-9.38857
百万円	-9.38868
ター	-9.38873
pdf	-9.38961
氏は	-9.39023
存在	-9.39105
ごとに	-9.39122
人々	-9.39134
ソース	-9.39258
トン	-9.39283
日本語	-9.39294
料金	-9.39348
トラック	-9.39421
もしくは	-9.39561
権	-9.3964
区	-9.39728
対	-9.39739
波	-9.39942
ma	-9.39953
の中に	-9.3997
不動産	-9.40024
方法で	-9.40117
アップ	-9.40192
検討	-9.40197
しません	-9.40272
ファン	-9.40478
があった	-9.40549
もっと	-9.40587
するには	-9.4075
戦	-9.40805
物質	-9.4091
国の	-9.40919
▁各	-9.40935
取り	-9.40999
のうち	-9.41
ポ	-9.41031
ケ	-9.4107
▁特に	-9.41128
▁我々は	-9.41147
スタイル	-9.41173
テンプレート	-9.41199
においては	-9.41232
国家	-9.41246
▁*	-9.41267
▁j	-9.41282
動き	-9.41319
資源	-9.41354
がない	-9.41458
▁次に	-9.41464
ビュー	-9.41487
ディレクトリ	-9.41846
残	-9.41866
油	-9.42058
しか	-9.42099
段階	-9.4219
▁japan	-9.4222
監督	-9.42284
者の	-9.42285
感じ	-9.42338
収益	-9.4236
公	-9.42395
増	-9.42438
ボックス	-9.42467
手段	-9.42484
▁all	-9.42505
コントロール	-9.42589
エンジン	-9.4261
スト	-9.42618
停止	-9.42648
パラメータ	-9.42686
研究者	-9.42918
時代	-9.42951
▁このような	-9.43023
地域の	-9.4307
彼らが	-9.43208
活用	-9.43211
々	-9.43224
していない	-9.4339
自動車	-9.43522
初めて	-9.43561
ウィンドウ	-9.43768
株式	-9.43928
自分	-9.43937
ta	-9.43989
既存の	-9.43998
かどうか	-9.44013
▁that	-9.44124
の間	-9.44167
努力	-9.44216
するか	-9.44389
省	-9.4446
トップ	-9.44461
コピー	-9.44479
平	-9.44523
パターン	-9.44611
なければなりません	-9.44701
監視	-9.4475
特性	-9.44779
としても	-9.44852
転送	-9.44858
リン	-9.4487
▁©	-9.44886
ゴ	-9.44992
アップデート	-9.44999
されて	-9.45003
我々は	-9.45026
注	-9.45135
もう	-9.45211
に向けて	-9.45281
▁そのため	-9.45292
ハイ	-9.45356
交流	-9.45361
店舗	-9.45381
通常の	-9.45432
とその	-9.45485
▁web	-9.45487
企業の	-9.4552
採用	-9.45665
ことができ	-9.45731
平和	-9.45824
と同じ	-9.45833
シー	-9.4595
まず	-9.45977
ro	-9.45997
曲	-9.4607
フォーマット	-9.46128
▁新しい	-9.46161
ラー	-9.46186
作	-9.46227
合	-9.46301
意味	-9.46441
え	-9.46534
星	-9.4655
ion	-9.46593
ヤ	-9.46645
を作る	-9.46683
するため	-9.46684
ルーム	-9.46731
スター	-9.46827
パネル	-9.46829
建築	-9.46846
ルール	-9.46873
新規	-9.46959
必ず	-9.46997
なければならない	-9.47016
に加えて	-9.47071
通常	-9.47097
強い	-9.47149
定義	-9.47151
ほとんど	-9.47279
▁v	-9.47457
上に	-9.475
任意の	-9.47514
コレクション	-9.47534
それらを	-9.47587
機構	-9.47594
重	-9.47601
最新の	-9.47629
夢	-9.47651
とも	-9.47701
自己	-9.47721
魚	-9.47863
しながら	-9.47874
街	-9.47945
ユーザーが	-9.4799
正しい	-9.48059
cm	-9.48112
▁de	-9.48133
配信	-9.48142
拠点	-9.48192
毎日	-9.48359
の影響	-9.48497
と呼ばれる	-9.4862
▁これ	-9.48671
に従って	-9.48693
観測	-9.48807
取締役	-9.4882
を行います	-9.48826
ていました	-9.48873
全体の	-9.48922
ユーザ	-9.48936
金属	-9.48986
▁それ	-9.492
開示	-9.49251
未	-9.49286
ドキュメント	-9.49323
これまで	-9.49335
電源	-9.49368
部屋	-9.49412
教授	-9.49415
アプローチ	-9.49592
より多くの	-9.49651
空港	-9.49657
を有する	-9.49731
夜	-9.49847
王	-9.4989
時の	-9.49918
手続き	-9.50003
性能	-9.5001
代	-9.50086
動物	-9.50106
これを	-9.5014
リーダー	-9.50182
▁it	-9.50302
カラー	-9.50314
固定	-9.50395
アーティスト	-9.5044
us	-9.50459
じ	-9.50465
場合があります	-9.50553
なる	-9.50831
超	-9.50838
を持っている	-9.50887
申請	-9.50932
se	-9.5108
内に	-9.51085
アル	-9.5109
幅広い	-9.51155
質	-9.5126
ログ	-9.51281
株主	-9.51324
していく	-9.51345
ロック	-9.51387
論文	-9.51397
スキル	-9.51418
マップ	-9.51489
フル	-9.51528
最初に	-9.51609
を超える	-9.51711
サン	-9.51713
反応	-9.51785
かなり	-9.51816
言葉	-9.51895
ることができます	-9.51899
局	-9.51952
立	-9.52001
れば	-9.52001
を見る	-9.52007
ほか	-9.52074
基盤	-9.52101
欧州	-9.52117
ガラス	-9.52128
マシン	-9.52172
塩	-9.52177
クライアント	-9.52234
速度	-9.52257
ケーブル	-9.52281
日の	-9.52315
されており	-9.52354
証明書	-9.52393
フリー	-9.52397
黒	-9.52429
なので	-9.52467
に向けた	-9.52473
研修	-9.52513
化学	-9.52565
▁h	-9.52673
大会	-9.52729
ポート	-9.5275
の種類	-9.5283
お金	-9.52866
送信	-9.52901
赤	-9.5297
投稿	-9.53031
終了	-9.53071
運転	-9.53071
に加え	-9.53123
輸送	-9.53284
となっています	-9.53365
措置	-9.53417
地震	-9.53458
mm	-9.53496
信頼	-9.53524
拡張	-9.53573
費	-9.53643
を使う	-9.53669
ac	-9.53714
定	-9.53762
を示す	-9.53842
en	-9.53861
の問題	-9.53927
キャッシュ	-9.53927
できません	-9.5393
寺	-9.53999
類	-9.54017
たち	-9.54025
章	-9.54149
を中心に	-9.5418
範囲	-9.54204
実際の	-9.54255
の増加	-9.54463
形式	-9.54484
▁日本語	-9.54553
フォルダ	-9.54633
他	-9.54655
総	-9.54668
主に	-9.54693
ステップ	-9.5484
に必要な	-9.54867
明	-9.54906
の高い	-9.54956
橋	-9.55028
監査	-9.55058
メンバー	-9.55072
太陽	-9.5511
節	-9.55124
いない	-9.55221
声	-9.55221
ホスト	-9.55282
クッキー	-9.55301
年から	-9.55448
判断	-9.55465
としての	-9.55643
承認	-9.55726
脳	-9.5581
同時に	-9.55811
ri	-9.55866
減	-9.55877
世界中の	-9.55917
ch	-9.55932
引き続き	-9.56078
既に	-9.56193
再び	-9.56216
階	-9.56286
の結果	-9.56336
構築	-9.56346
コンポーネント	-9.56374
ライブ	-9.5647
原因	-9.56504
ヨーロッパ	-9.56513
方法は	-9.5656
なり	-9.56733
事実	-9.56791
の向上	-9.56806
パスワード	-9.56872
根	-9.56878
のない	-9.56983
▁on	-9.57102
朝	-9.57121
核	-9.57126
ベース	-9.57133
までの	-9.57136
製	-9.57167
の変更	-9.57227
てきました	-9.57227
スマートフォン	-9.57248
のでしょうか	-9.57291
人々の	-9.57309
び	-9.57479
▁ファイル	-9.57515
▁ステップ	-9.5757
de	-9.57619
請求	-9.57631
関数	-9.5764
ation	-9.57794
しかし	-9.57807
タブ	-9.57808
電	-9.57836
st	-9.5788
パン	-9.57886
した場合	-9.57922
員	-9.57956
協会	-9.5808
企画	-9.58178
▁私たちの	-9.58232
ap	-9.58314
システムの	-9.58332
者は	-9.58341
シート	-9.58541
を用いて	-9.58562
効率	-9.58618
患者	-9.58667
専門家	-9.58687
サンプル	-9.58693
削減	-9.58759
レビュー	-9.58875
ると	-9.58879
親	-9.58939
ということです	-9.58983
毎年	-9.58998
回答	-9.59009
こともできます	-9.59177
ユーザーの	-9.59202
android	-9.59204
ソフト	-9.59243
輸出	-9.59403
▁pro	-9.59483
計	-9.5949
アクション	-9.59543
動	-9.59566
特定	-9.59634
保険	-9.59682
市民	-9.597
実現	-9.59728
御	-9.59741
ウェブ	-9.59745
―	-9.59815
を見て	-9.59816
人々は	-9.59832
多様な	-9.59926
参照	-9.59995
災害	-9.60013
sa	-9.6023
bit	-9.60296
発見	-9.60408
母	-9.60416
ペ	-9.60513
公園	-9.60515
支払い	-9.60574
診断	-9.60607
la	-9.60607
ms	-9.60775
未来	-9.6084
▁r	-9.60866
になっている	-9.60926
訪問	-9.61014
私たち	-9.61091
at	-9.61094
as	-9.61153
従来の	-9.61185
付き	-9.61238
▁co	-9.61315
データの	-9.61317
最高	-9.61397
メモリ	-9.61426
フロー	-9.61513
旅	-9.61611
ロード	-9.61651
フランス	-9.61667
労働	-9.6171
強	-9.61755
ne	-9.6179
であろう	-9.61791
チャンネル	-9.61793
▁d	-9.61837
一般	-9.61853
ga	-9.61971
千	-9.62003
チケット	-9.62054
▁私の	-9.62064
産	-9.62086
担当	-9.621
モバイル	-9.62145
ワイン	-9.62156
国連	-9.62175
▁もちろん	-9.62188
時計	-9.62344
を提供しています	-9.6235
左	-9.62362
実績	-9.62369
歳	-9.62406
中で	-9.62407
▁つまり	-9.62436
注意	-9.62538
ぎ	-9.62542
岩	-9.62561
予想	-9.62575
発生	-9.62821
外国人	-9.62896
簡単な	-9.62902
携帯電話	-9.62947
重要	-9.62956
ファ	-9.63046
許可	-9.63145
クラブ	-9.63159
ベ	-9.63175
せ	-9.63194
全て	-9.63219
人材	-9.63236
をクリックします	-9.63335
についても	-9.63373
用途	-9.63382
サー	-9.63387
クラウド	-9.63407
el	-9.63526
研究開発	-9.63527
事項	-9.63633
コンピューター	-9.63678
ワ	-9.63682
最大の	-9.63693
ット	-9.63803
ック	-9.6382
いました	-9.63824
調達	-9.63828
列	-9.63855
マーク	-9.63904
基本	-9.63964
ファイル拡張子	-9.6403
の作成	-9.64121
これら	-9.64146
消費者	-9.64149
ラン	-9.64314
唯一の	-9.64418
将来の	-9.64461
剤	-9.64465
仕様	-9.64632
>	-9.64634
であること	-9.64637
マルチ	-9.64685
住宅	-9.64721
ものである	-9.6473
台湾	-9.64799
お客様に	-9.64804
コマンド	-9.64997
当社は	-9.65072
貿易	-9.65075
建物	-9.65126
▁ホーム	-9.65215
要件	-9.65224
グループの	-9.65225
認定	-9.65256
の歴史	-9.65298
第一	-9.6537
感染	-9.65373
フレーム	-9.65412
回転	-9.65413
カル	-9.6546
になりました	-9.65508
土地	-9.65543
報酬	-9.65624
raw	-9.65705
ロボット	-9.6575
を与える	-9.65796
te	-9.65941
ロシア	-9.66054
中国の	-9.66093
ビル	-9.66168
na	-9.6619
深い	-9.66264
あなたに	-9.66313
▁cgi	-9.66338
使用する	-9.66378
人々が	-9.6645
春	-9.66581
設置	-9.6659
十分な	-9.66595
権限	-9.6673
を作成する	-9.66807
高速	-9.66822
週間	-9.66823
今日	-9.66845
発行	-9.66921
ホ	-9.66923
最適な	-9.67007
極	-9.67013
mac	-9.67016
を持ち	-9.67019
専門	-9.67023
に係る	-9.67087
することは	-9.67103
どう	-9.67129
者が	-9.67143
ほぼ	-9.67176
詳細	-9.67311
ホール	-9.67494
ベトナム	-9.67494
維持	-9.67498
ここで	-9.67623
▁<	-9.67625
だと	-9.67637
▁k	-9.67639
会社の	-9.67725
表面	-9.67751
込み	-9.67781
ウイルス	-9.67911
へのアクセス	-9.6799
広く	-9.67991
たくさんの	-9.68005
オーディオ	-9.68015
両	-9.68026
▁一方	-9.6803
ということ	-9.68039
道路	-9.68081
一緒に	-9.68088
ネット	-9.68195
四半期	-9.68212
ことにより	-9.68218
音声	-9.68267
配置	-9.6831
ログイン	-9.6835
▁そこで	-9.68368
した後	-9.68408
行う	-9.68455
側	-9.68537
を与え	-9.6855
男性	-9.68601
背景	-9.68781
彼	-9.68789
法人	-9.68857
▁you	-9.68883
ヒ	-9.68889
訓練	-9.6893
夏	-9.68968
is	-9.69081
の両方	-9.691
信号	-9.69236
群	-9.69315
規定	-9.69373
平均	-9.69389
ローカル	-9.69443
サブ	-9.69453
半	-9.69461
事故	-9.69477
実装	-9.69494
アフリカ	-9.69507
明らかに	-9.69578
雨	-9.6961
et	-9.6961
文字列	-9.69633
彼が	-9.69667
角	-9.69691
いつでも	-9.69739
キャリア	-9.69821
自由	-9.69829
からです	-9.69857
メールアドレス	-9.69884
一番	-9.69895
セクション	-9.69914
ps	-9.69965
do	-9.70054
ライブラリ	-9.70078
方式	-9.70082
ra	-9.70233
総合	-9.70359
▁この場合	-9.70398
▁)▁」	-9.70421
湖	-9.70453
▁、▁[	-9.70491
男	-9.70499
食事	-9.70508
のすべての	-9.70521
が必要	-9.70565
キャンペーン	-9.70579
の下で	-9.70588
ボール	-9.70633
イノベーション	-9.70655
シュ	-9.70661
日から	-9.70707
友人	-9.7073
▁平成	-9.70751
損失	-9.70756
がありました	-9.70766
主要な	-9.70835
シーン	-9.70849
座	-9.70862
報告書	-9.70922
ことから	-9.70923
においても	-9.71031
なぜ	-9.71047
パワー	-9.7107
パー	-9.7131
第三者	-9.71412
マー	-9.71433
会場	-9.71437
ライト	-9.71492
フェ	-9.71493
増加	-9.715
空気	-9.71551
安	-9.7163
ボード	-9.71654
の上に	-9.71677
日本人	-9.71706
今後の	-9.71727
法令	-9.7173
マスター	-9.71754
複雑な	-9.7179
貢献	-9.7182
コア	-9.71909
自	-9.7191
の名前	-9.71969
プレイ	-9.71982
私たちが	-9.72011
閲覧	-9.72016
合意	-9.72028
井	-9.72145
▁ip	-9.7219
▁home	-9.72219
美術館	-9.72249
項	-9.72388
を提供し	-9.72405
年には	-9.72456
っています	-9.72467
行く	-9.72492
論	-9.72493
なしで	-9.72559
検出	-9.72568
mo	-9.72576
農業	-9.72626
しましょう	-9.72645
屋	-9.72645
当社が	-9.72692
館	-9.7271
検証	-9.72732
ファッション	-9.72755
分の	-9.7277
ことはできません	-9.72923
▁is	-9.73001
ショップ	-9.73091
人間の	-9.73171
ve	-9.73252
に関連する	-9.73321
医師	-9.7336
強力な	-9.7338
義務	-9.73444
となっている	-9.73459
▁ゆんフリー写真素材集	-9.73492
起動	-9.73552
バック	-9.7356
絵	-9.73681
セミナー	-9.73719
のですが	-9.73825
成	-9.73848
すべき	-9.73863
pp	-9.73906
安全な	-9.74027
小さい	-9.7403
▁program	-9.74064
とした	-9.7409
かかる	-9.74133
向けの	-9.74202
si	-9.7433
選択肢	-9.74501
一部	-9.74523
を受けた	-9.74675
身体	-9.74709
院	-9.7472
の変化	-9.74734
割引	-9.74735
可能性がある	-9.74754
葉	-9.74781
ad	-9.74786
▁だから	-9.74844
になって	-9.74948
共同	-9.74995
指導	-9.75009
ドライバ	-9.75093
雪	-9.75101
横	-9.75173
変数	-9.75185
審査	-9.75242
▁ニュース	-9.75263
復元	-9.75276
病	-9.75385
ていきます	-9.75393
税	-9.75414
の数	-9.7547
完全な	-9.75483
消費	-9.75505
渡	-9.75523
フィ	-9.75528
タイム	-9.75558
the	-9.75581
ことも	-9.7564
スタート	-9.75651
人生	-9.75704
疾患	-9.75765
付	-9.7586
戦争	-9.7586
▁今回の	-9.7595
競争	-9.76027
社員	-9.76084
馬	-9.76124
の詳細	-9.76166
種類	-9.76166
をする	-9.76175
取締役会	-9.76188
時には	-9.76233
エン	-9.7632
病気	-9.76407
鉄	-9.7642
いたしました	-9.76533
雇用	-9.76555
▁ダウンロード	-9.76616
を介して	-9.76719
をご覧ください	-9.76731
公式	-9.76765
ユニット	-9.76775
身	-9.76801
いかなる	-9.76859
インフラ	-9.76862
年齢	-9.76902
政治	-9.76909
マネジメント	-9.76921
下さい	-9.76976
授業	-9.7699
人口	-9.7701
過去	-9.77012
成分	-9.7705
相	-9.77056
連絡	-9.77216
言う	-9.77278
をはじめ	-9.77422
タグ	-9.77436
▁ページ	-9.7746
引き	-9.77533
在	-9.77567
に関しては	-9.77571
燃料	-9.77589
上昇	-9.7759
指	-9.77601
同意	-9.77683
がん	-9.77706
右	-9.7775
希望	-9.77791
ドイツ	-9.778
ためには	-9.77804
の概要	-9.77844
軍	-9.77851
財務	-9.77853
多く	-9.77958
ソン	-9.77968
してきた	-9.77972
何も	-9.77986
罪	-9.77987
ワークショップ	-9.77997
am	-9.7807
ダー	-9.78176
をクリックして	-9.782
たら	-9.78202
を持って	-9.78231
最近	-9.78302
でしょうか	-9.78464
ギ	-9.78471
ルート	-9.78511
ブル	-9.78534
することを	-9.78548
を選択し	-9.78707
スマート	-9.78713
作り	-9.78717
を行っています	-9.78721
席	-9.78723
病院	-9.78731
床	-9.78742
ほとんどの	-9.78839
人に	-9.7885
セル	-9.78946
人権	-9.78954
▁by	-9.79059
関係者	-9.7907
コーヒー	-9.79122
go	-9.79124
同期	-9.79169
多数の	-9.79196
することが	-9.79217
よい	-9.7927
などを	-9.79285
高度な	-9.79344
長期	-9.79381
単に	-9.79452
開	-9.79487
現象	-9.79505
をもって	-9.79551
差	-9.79552
ce	-9.7964
個々の	-9.79715
防止	-9.79753
もので	-9.79771
管理者	-9.79781
大きく	-9.79807
分子	-9.79834
google	-9.79853
調理	-9.79859
観	-9.79875
料	-9.79932
を使用すると	-9.79935
安定	-9.79963
の場合は	-9.80004
になっています	-9.80031
▁まず	-9.80079
人気	-9.80087
の内容	-9.80093
プラスチック	-9.80135
れる	-9.80228
あまり	-9.80246
自動的に	-9.80254
°	-9.80319
ビジョン	-9.80332
ia	-9.80421
番目の	-9.80443
▁#	-9.80506
こうした	-9.8056
ストレージ	-9.80569
オペレーティングシステム	-9.80594
可能です	-9.8062
io	-9.80628
端	-9.80645
li	-9.80657
できるように	-9.80672
統計	-9.80683
フォーラム	-9.80703
されません	-9.8071
彼ら	-9.8073
を行った	-9.80769
ニー	-9.80802
民	-9.81085
答え	-9.81087
歌	-9.81089
以降	-9.81138
大変	-9.81201
ニーズ	-9.8123
骨	-9.81245
usb	-9.81278
若い	-9.81287
を参照してください	-9.81357
保管	-9.81372
の研究	-9.81398
完了	-9.81409
▁n	-9.81455
比	-9.81494
ホームページ	-9.81547
状	-9.81593
コンプライアンス	-9.81597
スポット	-9.81625
社会的	-9.81754
ダンス	-9.81787
事例	-9.81838
数字	-9.81842
源	-9.81864
資本	-9.81868
cc	-9.81888
今まで	-9.82024
現	-9.82098
メイン	-9.82203
▁東京	-9.82205
するように	-9.8222
秒	-9.82265
me	-9.82273
世	-9.82351
生命	-9.82363
そこに	-9.82405
ストア	-9.82422
暗号化	-9.82434
生物	-9.82467
としては	-9.82472
急	-9.82588
ba	-9.82663
参加者	-9.82695
交通	-9.82696
ko	-9.82752
log	-9.8276
に沿って	-9.82795
業績	-9.82934
一つの	-9.82944
初	-9.82964
元の	-9.82969
ショー	-9.83054
引	-9.83056
門	-9.8306
カバー	-9.8327
こう	-9.83329
応答	-9.83335
指標	-9.83346
地区	-9.83378
意見	-9.83413
ti	-9.83415
を受ける	-9.83422
の利用	-9.83468
やすい	-9.83473
pa	-9.83508
開発者	-9.83572
da	-9.83635
知	-9.83683
温泉	-9.83712
有名な	-9.83715
line	-9.83794
▁製品	-9.83848
込む	-9.83864
松	-9.8391
▁」▁「	-9.83936
)」	-9.83938
ります	-9.83967
英国	-9.84007
方向	-9.8401
管	-9.84077
利	-9.84144
程度	-9.84178
日間	-9.84183
ment	-9.84228
アイデア	-9.84247
持ち	-9.8425
症	-9.84255
今回の	-9.84361
バン	-9.84439
月の	-9.84465
の存在	-9.84466
ar	-9.84513
女	-9.84529
一度	-9.8457
主な	-9.84577
ハウス	-9.84636
を取り	-9.84656
ことをお勧めします	-9.84659
要	-9.84668
書類	-9.8468
に行く	-9.84734
側面	-9.84764
を実行する	-9.8477
の上	-9.8508
いつも	-9.85082
壁	-9.85104
スケジュール	-9.85192
官	-9.85245
べきです	-9.85258
sc	-9.85299
一部の	-9.85301
▁こうした	-9.85353
おり	-9.85476
eu	-9.85495
グリーン	-9.85512
ベースの	-9.85513
を使った	-9.8555
ならびに	-9.85553
レン	-9.85621
科	-9.85621
ことによって	-9.85712
宮	-9.85719
をもたらす	-9.85722
tm	-9.85739
先生	-9.85748
組	-9.85781
時期	-9.85806
▁ア	-9.85809
際に	-9.85813
損傷	-9.8594
圧力	-9.85941
役	-9.85942
代表	-9.85942
全国	-9.85959
女性の	-9.85976
野菜	-9.85994
インドネシア	-9.86067
ただ	-9.86097
収集	-9.86112
られ	-9.86127
ビット	-9.86141
逆	-9.86145
▁ビデオ	-9.86156
ca	-9.86162
感覚	-9.86197
香港	-9.86198
最終	-9.86225
鳥	-9.86238
法的	-9.86286
することもできます	-9.86287
際	-9.86304
最後の	-9.8636
追加の	-9.86411
現代	-9.86462
一つ	-9.86464
にもかかわらず	-9.86476
ベル	-9.8649
*	-9.86508
誰もが	-9.8661
ku	-9.86651
wi	-9.86675
ここ	-9.86714
スキャン	-9.86723
破壊	-9.86818
レベルの	-9.86858
と思う	-9.86875
▁+	-9.86876
▁so	-9.86973
応用	-9.86983
校	-9.87035
悪	-9.87067
教	-9.87126
asus	-9.87131
試み	-9.87181
展	-9.8723
近	-9.87231
数値	-9.87239
ぜひ	-9.87257
条約	-9.87287
カン	-9.87293
▁we	-9.87319
概要	-9.87379
デバイスの	-9.87442
選手	-9.87444
出す	-9.87529
彼女は	-9.87539
プレート	-9.87558
ひ	-9.87587
症状	-9.8761
学部	-9.87616
▁ここで	-9.87782
ワーク	-9.87843
ci	-9.87881
km	-9.87917
いただく	-9.88036
のですか	-9.88072
シミュレーション	-9.88131
ありません	-9.88225
カット	-9.8824
理論	-9.88249
谷	-9.88324
アイ	-9.88397
団	-9.88399
事前に	-9.88452
雰囲気	-9.88486
を用いた	-9.88488
金額	-9.885
経	-9.88534
ハードウェア	-9.88553
ジェ	-9.88599
言	-9.8863
▁それから	-9.88638
制	-9.88647
正確な	-9.88778
であります	-9.88787
倍	-9.88803
cd	-9.8881
▁他の	-9.88815
比較	-9.88825
限り	-9.88848
▁ここでは	-9.88849
▁しかしながら	-9.88873
県	-9.89019
オフ	-9.89141
服	-9.89151
助け	-9.89234
大規模な	-9.8924
特	-9.8924
豊かな	-9.89258
ものを	-9.8926
ジャ	-9.89301
記	-9.89322
乾燥	-9.8933
予算	-9.89445
形成	-9.89475
署名	-9.8948
タイプの	-9.89486
危険	-9.89501
達成	-9.89532
楽しい	-9.89578
プロパティ	-9.89604
命	-9.89619
気持ち	-9.89622
が可能です	-9.89638
世紀	-9.89647
プール	-9.89696
▁サポート	-9.89711
地方	-9.89714
電圧	-9.89723
ha	-9.89798
html	-9.89809
んで	-9.8982
国民	-9.8982
工業	-9.89844
材	-9.89914
ki	-9.89936
ベッド	-9.89938
国際的な	-9.90003
相談	-9.90094
ter	-9.90102
顔	-9.90119
べき	-9.90151
大きい	-9.90171
解	-9.9018
を得る	-9.90255
jp	-9.9033
に関する情報	-9.90419
長く	-9.90449
路	-9.90462
▁url	-9.90479
▁その結果	-9.90576
メートル	-9.90636
自体	-9.90656
ge	-9.90671
傾向	-9.90698
警告	-9.90701
定期的に	-9.90716
演奏	-9.90725
圧	-9.90749
軸	-9.9075
なのです	-9.90753
レシピ	-9.90771
生成	-9.90772
生まれ	-9.90818
海洋	-9.90856
取	-9.90865
▁ディレクティブ	-9.90886
紛争	-9.9089
センサー	-9.90931
装飾	-9.90937
特許	-9.90953
ようです	-9.90957
の後	-9.90965
ka	-9.91167
すべてが	-9.91176
教会	-9.9127
夫	-9.91309
パーティション	-9.91318
指示	-9.91345
保持	-9.91351
の改善	-9.91404
の可能性	-9.91468
ど	-9.91492
自分で	-9.91498
業者	-9.91548
圧縮	-9.91629
お問い合わせ	-9.91635
ターゲット	-9.9165
大学院	-9.9165
売	-9.91652
▁サーバ	-9.91681
件	-9.91704
出し	-9.91714
生徒	-9.9173
記憶	-9.91753
ものの	-9.91809
を作成し	-9.91862
通貨	-9.91898
する必要がある	-9.91906
ドア	-9.91978
ie	-9.91979
距離	-9.91982
変動	-9.91992
成果	-9.92025
これが	-9.92038
プロトコル	-9.92094
お客様が	-9.92126
連結	-9.92171
▁copyright	-9.9219
が多い	-9.92232
サービスの	-9.92242
ニューヨーク	-9.92274
レス	-9.92303
禁止	-9.92323
記載	-9.92359
我々の	-9.92422
便利な	-9.92444
タイトル	-9.92455
精神	-9.92471
水準	-9.9248
▁その他	-9.92498
困難	-9.92511
はまだ	-9.92514
穴	-9.92573
米国の	-9.92578
アップグレード	-9.92584
負荷	-9.92602
発売	-9.92608
専用	-9.92619
大型	-9.92624
博物館	-9.92636
滞在	-9.92654
公共	-9.92671
本社	-9.92718
ディスプレイ	-9.92756
負担	-9.92849
ぐ	-9.92879
航空	-9.92889
記述	-9.92928
ヶ月	-9.92966
であれば	-9.92972
セグメント	-9.9305
個	-9.93183
見る	-9.93194
単位	-9.932
バイオ	-9.93254
ギャラリー	-9.93258
午後	-9.93266
カテゴリー	-9.93289
主義	-9.93341
オー	-9.93416
掲載	-9.93432
シャ	-9.93583
マウス	-9.93585
遺伝子	-9.93632
以来	-9.93634
オーストラリア	-9.93706
の中	-9.93739
の選択	-9.93741
プロファイル	-9.93847
していました	-9.93853
現実	-9.93878
パリ	-9.9399
上記の	-9.94013
マイ	-9.94058
家庭	-9.94058
祭	-9.94062
割	-9.94076
することにより	-9.94079
son	-9.94135
アルゴリズム	-9.94196
を利用して	-9.94197
と同様に	-9.94199
▁当社の	-9.94234
それから	-9.94254
ok	-9.94356
像	-9.94377
頃	-9.94411
私達の	-9.9446
つつ	-9.94579
大統領	-9.94585
板	-9.94601
切り	-9.94693
真	-9.94702
▁this	-9.94703
地図	-9.94734
バランス	-9.94745
旧	-9.94753
伝統的な	-9.94754
メンテナンス	-9.9478
カフェ	-9.94809
シン	-9.94887
電流	-9.94915
ユーザーは	-9.9492
だけです	-9.94934
したこと	-9.94952
ドライバー	-9.94958
おそらく	-9.9497
myapplication	-9.94998
はその	-9.95009
ダウン	-9.9502
決済	-9.9506
▁イベント	-9.95109
名の	-9.95251
レッスン	-9.95252
カナダ	-9.95282
古	-9.9531
▁id	-9.9533
の提供	-9.95416
関心	-9.95431
減少	-9.95435
楽	-9.95439
の強化	-9.95451
ヴィ	-9.95457
連続	-9.95523
傷	-9.95544
界	-9.95576
気候変動	-9.95591
の一つ	-9.95641
布	-9.95649
日付	-9.95666
派	-9.95814
番	-9.9582
放送	-9.95962
ですね	-9.95985
を利用する	-9.9599
推奨	-9.96
を行いました	-9.96032
アイコン	-9.96079
ドメイン	-9.96105
デザイナー	-9.96122
茶	-9.96126
社内	-9.96157
事件	-9.96186
連	-9.96193
かった	-9.96215
季節	-9.96279
プライバシー	-9.96288
基	-9.96296
ものとします	-9.96323
心配	-9.96338
社長	-9.96343
資格	-9.96345
▁w	-9.96353
ロール	-9.96374
ないように	-9.96388
に伴い	-9.96404
人たち	-9.96412
容量	-9.96424
を見つける	-9.96439
歯	-9.96473
原則	-9.96491
tv	-9.96522
ていること	-9.96654
集	-9.96786
主要	-9.96793
住民	-9.96827
尾	-9.96843
ut	-9.96877
ベスト	-9.96881
ニュー	-9.96908
製品を	-9.96928
デスクトップ	-9.96949
pi	-9.96997
ノード	-9.96999
四	-9.97018
た場合	-9.97104
シェア	-9.97217
必須	-9.97263
▁information	-9.97285
▁do	-9.97296
が高い	-9.97325
弊社	-9.97329
限定	-9.9738
ナー	-9.97427
基本的な	-9.97435
仮想	-9.97548
ry	-9.9763
喜び	-9.97653
タン	-9.97703
led	-9.97738
園	-9.9778
ゼロ	-9.97799
の前に	-9.97805
強く	-9.97833
完全	-9.97881
それに	-9.97886
青	-9.97897
ても	-9.9791
はすべて	-9.97973
ケア	-9.98008
進化	-9.98009
man	-9.98026
ミニ	-9.98101
プロモーション	-9.98151
反	-9.98201
違う	-9.98282
タンパク質	-9.98343
つまり	-9.98458
窓	-9.9847
一方	-9.98547
する場合	-9.98567
回路	-9.98611
スーパー	-9.98618
裏	-9.98628
金利	-9.98631
継続	-9.98647
会計	-9.98649
ir	-9.98658
たちは	-9.9866
▁with	-9.98676
んです	-9.98729
信	-9.98749
ものは	-9.98766
幅	-9.98785
最	-9.98803
ふ	-9.98932
集団	-9.98941
bo	-9.99037
アウト	-9.99143
役割	-9.99157
電子メール	-9.99166
形態	-9.99229
担当者	-9.99263
投資家	-9.99272
チャネル	-9.99367
収入	-9.99427
雲	-9.99488
人と	-9.99497
端末	-9.99563
ts	-9.9959
▁通常	-9.99591
今後も	-9.99626
方は	-9.99652
されること	-9.99662
un	-9.99666
ゲスト	-9.99688
に合わせて	-9.99706
交渉	-9.9971
観察	-9.99743
レース	-9.99764
間で	-9.99795
女の子	-9.99861
url	-9.99884
住所	-9.99926
ds	-9.99977
を使用します	-10.0001
ステージ	-10.0002
シフト	-10.0005
証券	-10.001
証拠	-10.0011
深く	-10.0016
会話	-10.0024
父	-10.0028
森	-10.0028
しばしば	-10.0031
ファイルを開く	-10.0032
しなければならない	-10.0034
在庫	-10.004
▁api	-10.0042
プライベート	-10.0043
スクリーン	-10.0046
カテゴリ	-10.005
周辺	-10.0055
▁それが	-10.0057
促進	-10.006
ことなく	-10.0063
default	-10.0064
合成	-10.0065
配布	-10.0067
プラグイン	-10.0069
留学	-10.0073
現地	-10.0075
具体的な	-10.0077
チップ	-10.0077
リア	-10.0079
より良い	-10.0079
副	-10.0081
配送	-10.0083
型の	-10.0083
が含まれています	-10.0091
下の	-10.0095
関連する	-10.0095
諸国	-10.0099
伝統	-10.01
神の	-10.0104
抵抗	-10.0106
シンガポール	-10.0108
基礎	-10.012
何を	-10.012
瞬間	-10.0124
の実施	-10.0127
自身の	-10.0127
神経	-10.0131
di	-10.0133
▁次の	-10.0137
皮膚	-10.0138
働き	-10.0145
満足	-10.0146
ガイドライン	-10.0147
vpn	-10.0147
好	-10.0149
複数	-10.0153
ちょうど	-10.0154
することはできません	-10.0156
危機	-10.0156
so	-10.0158
アルコール	-10.016
dc	-10.0167
民間	-10.0168
興味	-10.0168
選択した	-10.0175
近く	-10.0175
の管理	-10.0179
形で	-10.0192
ビーチ	-10.0194
冬	-10.0195
公表	-10.0195
行き	-10.0196
コンセプト	-10.0196
なさい	-10.0196
場所に	-10.02
を設定する	-10.0201
保	-10.021
ent	-10.0211
安全性	-10.0216
支払	-10.0217
変	-10.0217
ていて	-10.0231
のリスト	-10.0245
厳しい	-10.0247
メカニズム	-10.0247
栄養	-10.025
宿泊	-10.0251
mb	-10.0251
それらは	-10.0263
▁当	-10.0264
されていた	-10.0264
ガン	-10.0271
▁twitter	-10.0278
カスタム	-10.0284
実践	-10.0287
合計	-10.0288
血	-10.0289
ストレス	-10.0291
が含まれます	-10.0292
▁for▁windows	-10.0293
もある	-10.0293
レイ	-10.0295
マスク	-10.0303
ers	-10.0317
ii	-10.0318
衛星	-10.0324
ver	-10.0325
子供の	-10.0326
色の	-10.0326
スピード	-10.0327
エル	-10.0335
rt	-10.0344
ブログ	-10.0353
改革	-10.0357
沖縄	-10.0357
新たに	-10.036
美術	-10.0362
ホーム	-10.0364
リモート	-10.0365
聖	-10.0373
キャ	-10.0374
と同時に	-10.0375
対話	-10.0376
丸	-10.0379
アドバイス	-10.0382
の間で	-10.0385
師	-10.0386
」「	-10.0387
社の	-10.0398
異	-10.04
ていません	-10.0403
ユニークな	-10.0408
感情	-10.0408
サイ	-10.0408
lo	-10.041
反対	-10.0413
たこと	-10.0414
好きな	-10.0422
の状態	-10.0422
までに	-10.0424
連絡先	-10.043
▁デジタル台風	-10.0433
マーケット	-10.0434
のいずれか	-10.0438
短い	-10.0439
まさに	-10.0439
グループは	-10.044
の下	-10.044
ループ	-10.0442
スイッチ	-10.0446
箱	-10.045
▁inc	-10.0451
集中	-10.0455
信頼性	-10.0458
フィルム	-10.0466
サウンド	-10.0472
そうです	-10.0476
ピン	-10.0478
▁日本の	-10.048
ことができない	-10.0483
ソーシャルメディア	-10.0485
みんな	-10.0488
図書館	-10.0489
オリジナル	-10.0492
トラ	-10.0493
はこの	-10.0496
貴重な	-10.0498
バッグ	-10.0504
案内	-10.0509
▁about	-10.0514
の機能	-10.0519
商標	-10.0522
表示されます	-10.0525
早く	-10.0527
レコード	-10.053
自分自身	-10.0531
笑	-10.0534
▁sa	-10.0534
なし	-10.0535
講演	-10.0537
転	-10.0541
結合	-10.0547
使う	-10.0548
宗教	-10.0548
卵	-10.0548
場合でも	-10.055
属性	-10.055
英	-10.0554
球	-10.0555
をより	-10.056
分離	-10.0563
充電	-10.0564
を求める	-10.0566
今年	-10.0566
諸	-10.0567
もし	-10.057
db	-10.057
アー	-10.0583
ランド	-10.0595
車両	-10.0599
と言う	-10.0602
役員	-10.0605
緊急	-10.0607
pro	-10.061
のだ	-10.061
依頼	-10.0611
修復	-10.0612
▁あらまし	-10.0616
ハン	-10.0617
ワン	-10.062
booking	-10.0621
を選択する	-10.0625
アパート	-10.063
完成	-10.0632
当事者	-10.0634
ことになります	-10.0636
予防	-10.0642
ロンドン	-10.0643
低い	-10.0647
▁最後に	-10.0653
客	-10.0653
入れ	-10.0654
file	-10.0654
▁」▁(	-10.0654
の状況	-10.0666
立場	-10.0676
いただいた	-10.0676
京都	-10.0678
▁be	-10.068
um	-10.0685
いただけます	-10.0688
豊富な	-10.0696
トピック	-10.0699
ジャパン	-10.07
家の	-10.0703
実際には	-10.0703
真実	-10.0706
ec	-10.0707
につきましては	-10.0707
を開く	-10.0707
工学	-10.0713
上記	-10.0714
普及	-10.0719
することができ	-10.0723
ここに	-10.0726
下記の	-10.0728
の違い	-10.0735
地元の	-10.0738
設立	-10.0739
分割	-10.074
の世界	-10.0742
チャ	-10.0745
済み	-10.0746
十分	-10.0748
計測	-10.0752
を高め	-10.0759
子ども	-10.076
大阪	-10.0763
org	-10.0777
pe	-10.0779
ライ	-10.078
太	-10.078
ティー	-10.0783
意図	-10.0784
年以上	-10.0785
▁un	-10.0787
立ち	-10.0791
勉強	-10.0793
に伴う	-10.0794
intel	-10.0794
過去の	-10.0802
を目指す	-10.0803
ないでください	-10.0805
の方	-10.0806
言った	-10.0808
並びに	-10.0817
▁同時に	-10.0817
em	-10.0819
▁。▁」	-10.082
違い	-10.0822
sd	-10.0827
石油	-10.083
理	-10.0831
ダイ	-10.0834
ブルー	-10.0842
していきます	-10.0842
得る	-10.085
ずっと	-10.0851
を使用した	-10.0854
されない	-10.0857
た後	-10.0859
ヌ	-10.0859
などで	-10.0862
草	-10.0862
入り	-10.0869
を簡単に	-10.0871
万人	-10.0874
流れ	-10.0876
レイアウト	-10.0879
徐々に	-10.0879
<	-10.0883
能	-10.0884
財団	-10.0884
客室	-10.0885
hi	-10.0888
を備えた	-10.0891
支配	-10.0893
ロゴ	-10.0894
突然	-10.0895
世代	-10.0899
▁file	-10.0899
教員	-10.0902
インタビュー	-10.0906
難しい	-10.0907
無料の	-10.0919
最適化	-10.092
フィルタ	-10.0923
×	-10.0925
周波数	-10.0931
解決策	-10.0939
医薬品	-10.094
自分が	-10.0941
ぶ	-10.0941
づくり	-10.0942
▁彼女は	-10.0943
お店	-10.0947
弁護士	-10.0951
マネージャー	-10.0953
イエス	-10.0955
協定	-10.0958
進	-10.0959
物語	-10.0963
学会	-10.0968
ール	-10.097
地球の	-10.0971
懸念	-10.0973
il	-10.0973
排出	-10.0974
利用者	-10.0977
乗	-10.0978
▁server	-10.0978
受信	-10.0982
場所で	-10.0985
初期	-10.0988
は常に	-10.0989
教師	-10.0989
上げ	-10.0989
アクティビティ	-10.0992
良く	-10.0997
何が	-10.0998
スタ	-10.1
に直接	-10.1004
マイクロ	-10.1006
ビー	-10.1009
の主な	-10.1009
フィリピン	-10.1012
なります	-10.1013
クリック	-10.1014
を選択して	-10.1014
一般的に	-10.1014
さんは	-10.1015
方法を	-10.1016
便	-10.1018
応募	-10.1019
無料で	-10.102
私に	-10.1023
必要に応じて	-10.1024
かけ	-10.1026
単語	-10.1029
の範囲	-10.103
ios	-10.1031
▁これが	-10.1033
極めて	-10.1041
移行	-10.1044
当局	-10.1045
につながる	-10.1045
フィードバック	-10.1046
一方で	-10.1049
機能を	-10.1056
情報は	-10.1057
sh	-10.1063
下記	-10.1065
サイド	-10.1066
ものであり	-10.1068
▁概要	-10.1068
rs	-10.1069
桜	-10.107
深	-10.1078
▁多くの	-10.1081
行った	-10.1082
照明	-10.1082
解釈	-10.1085
の原因	-10.1089
企業が	-10.109
▁これで	-10.1094
アメリカの	-10.1094
整備	-10.1094
刺激	-10.1099
観光客	-10.1114
必要はありません	-10.1117
金融機関	-10.1118
現場	-10.1121
▁最初の	-10.1121
バッテリー	-10.1121
せず	-10.1123
を参照	-10.1124
しないでください	-10.1127
ストーリー	-10.1128
本サービス	-10.113
作家	-10.1132
hd	-10.1134
シーズン	-10.1139
フェスティバル	-10.1139
製作	-10.114
▁モジュール	-10.114
秘密	-10.1143
回収	-10.115
誌	-10.1152
mi	-10.1153
したら	-10.1167
を選ぶ	-10.1168
宣言	-10.1171
被害	-10.1172
そこ	-10.1174
末	-10.1182
po	-10.1184
場合に	-10.1186
ゼ	-10.1189
事務所	-10.1192
sp	-10.1197
規模	-10.1207
アルバム	-10.1207
リゾート	-10.121
中心	-10.1214
のに役立ちます	-10.1216
メソッド	-10.1216
▁—	-10.1217
緑	-10.1217
練習	-10.1219
手数料	-10.1222
の下に	-10.1226
げ	-10.1237
五	-10.1244
形状	-10.1244
プロジェクトの	-10.1247
共通	-10.1255
▁注	-10.1261
弾	-10.1261
利点	-10.1261
募集	-10.1269
インターフェース	-10.127
する前に	-10.1273
は何ですか	-10.1274
利用可能な	-10.1278
おいしい	-10.1282
システムは	-10.1282
フィルター	-10.1283
そこで	-10.1284
続ける	-10.1286
ノート	-10.1296
到着	-10.13
ana	-10.1302
持続可能な	-10.1304
の位置	-10.1305
クラ	-10.1309
体の	-10.1311
ずに	-10.1312
職	-10.1313
工程	-10.1319
起こる	-10.1322
興味深い	-10.1323
クレジットカード	-10.1325
サイクル	-10.1331
を購入する	-10.1331
end	-10.1336
著作権	-10.1337
コー	-10.1337
汚染	-10.1337
イギリス	-10.134
過	-10.1347
港	-10.1349
プレイヤー	-10.135
キャラクター	-10.1351
▁go	-10.1354
従来	-10.1359
ラベル	-10.1362
義	-10.1367
断	-10.1376
読み	-10.138
鍵	-10.1382
日本で	-10.1384
を追加	-10.1387
リアルタイム	-10.1388
方が	-10.1389
の写真	-10.1392
損害	-10.1398
ss	-10.1398
える	-10.1401
巻	-10.1402
我々	-10.1402
代わりに	-10.1408
▁news	-10.1408
魅力	-10.1428
状態で	-10.143
明るい	-10.1431
十	-10.1431
物件	-10.1435
サプライヤー	-10.1437
pr	-10.1439
▁android	-10.1441
▁図	-10.1443
であると	-10.1445
林	-10.1447
▁お知らせ	-10.1447
iot	-10.1454
編	-10.1462
受賞	-10.1466
▁my	-10.147
調	-10.1472
▁iphone	-10.1474
があれば	-10.1476
問題は	-10.1476
ty	-10.1477
とか	-10.1479
分類	-10.1484
の製造	-10.1484
プラス	-10.1485
始め	-10.1485
に関わる	-10.1486
プレーヤー	-10.1492
時間を	-10.1495
がある場合は	-10.1495
事業者	-10.1495
は通常	-10.1496
自身	-10.1497
be	-10.1503
を取得する	-10.1508
an	-10.1515
頻繁に	-10.1521
バンド	-10.1525
首	-10.1537
仲間	-10.1541
士	-10.1543
するとともに	-10.1545
しても	-10.1545
を取得	-10.1546
すなわち	-10.1546
履歴	-10.1547
低下	-10.1548
受け	-10.1551
の拡大	-10.1551
kb	-10.1552
仕事を	-10.1557
提出	-10.1565
把握	-10.1566
独立	-10.1567
テン	-10.1572
ディレクティブ	-10.1575
スレッド	-10.1575
パソコン	-10.1581
自ら	-10.1582
の最初の	-10.1582
ex	-10.1588
チームは	-10.1589
有機	-10.1592
次元	-10.1598
犬	-10.1604
いただき	-10.1605
wa	-10.1609
修理	-10.1609
が多く	-10.1609
訳	-10.161
はない	-10.1614
挑戦	-10.1615
すぐ	-10.162
の中心	-10.1621
大学の	-10.1621
エンジニア	-10.1622
目的で	-10.1624
になるでしょう	-10.1626
とし	-10.1628
気候	-10.1629
リサイクル	-10.163
いく	-10.1632
年代	-10.1633
▁google	-10.1636
効果的な	-10.1638
ni	-10.1638
焼き	-10.164
口座	-10.1641
友達	-10.1641
かな	-10.1642
具	-10.1642
を開始	-10.1642
▁これら	-10.1642
時点で	-10.1646
昨年	-10.1649
分散	-10.1653
生き	-10.1654
を変更する	-10.1654
sn	-10.1658
江	-10.1659
姿勢	-10.1661
自動化	-10.1665
姿	-10.1665
▁of▁the	-10.167
薬物	-10.1675
輸入	-10.1679
さらなる	-10.1681
鉄道	-10.1684
譲渡	-10.1685
悪い	-10.1685
発電	-10.1686
月から	-10.1687
していること	-10.1689
わずか	-10.1692
おすすめ	-10.1695
のサイズ	-10.1696
面白い	-10.1696
ックス	-10.1697
▁今回	-10.1697
相互	-10.1701
でない	-10.1702
出発	-10.1704
▁http	-10.1706
除去	-10.1708
全く	-10.1709
不足	-10.171
暮らし	-10.1713
の流れ	-10.1714
ことはありません	-10.1722
割り当て	-10.1724
好み	-10.1727
てしまう	-10.1728
時代の	-10.173
風景	-10.1731
うまく	-10.1736
外国	-10.1736
クリスマス	-10.1739
広い	-10.1742
巨大な	-10.1744
快適な	-10.1745
所有者	-10.1747
にあり	-10.1747
経済的	-10.1751
スクリプト	-10.1755
ショッピング	-10.1757
有効な	-10.1758
液体	-10.176
アーカイブ	-10.176
十分に	-10.1763
ザー	-10.1767
原料	-10.177
犯罪	-10.1771
\	-10.1774
物流	-10.1775
子会社	-10.1777
アニメーション	-10.1781
筋肉	-10.1781
不安	-10.1785
if	-10.1788
車の	-10.1791
レート	-10.1797
債務	-10.1797
カスタマイズ	-10.18
イタリア	-10.1802
ロン	-10.1803
人類	-10.1806
越	-10.1807
お客さま	-10.1808
皮	-10.181
グラフ	-10.1812
堂	-10.1812
示	-10.1816
キリスト	-10.1817
書き	-10.1817
を経て	-10.182
▁『	-10.1822
なければ	-10.1825
博士	-10.1825
ミッション	-10.1826
っていた	-10.1826
らない	-10.183
記念	-10.1832
▁l	-10.1832
を必要とする	-10.1836
作用	-10.1836
さえ	-10.1836
してきました	-10.1842
プロフィール	-10.1845
追跡	-10.1856
であるため	-10.1857
難	-10.1858
脂肪	-10.186
医学	-10.1862
毛	-10.1863
“	-10.1864
という事実	-10.1866
を表示	-10.1866
証明	-10.1868
ブラック	-10.1868
クリーム	-10.1873
過程	-10.1873
を完全に	-10.1877
だけではなく	-10.1877
していません	-10.1881
結婚	-10.1882
の導入	-10.1884
ガバナンス	-10.1886
藤	-10.1887
られます	-10.1889
を使用しています	-10.1892
事前	-10.1895
スケール	-10.1899
混乱	-10.1899
エンジニアリング	-10.1902
あった	-10.1904
したもの	-10.1905
サイトの	-10.1905
の発展	-10.1907
ml	-10.1908
だと思います	-10.1908
庁	-10.1909
になると	-10.191
せずに	-10.1913
のもと	-10.1913
入学	-10.1917
当社グループ	-10.192
の役割	-10.1925
▁以下の	-10.193
られている	-10.1931
▁>	-10.1932
の特徴	-10.1933
素	-10.1938
向	-10.194
課	-10.1941
各国	-10.1942
商業	-10.1945
液	-10.195
発生する	-10.1951
妻	-10.1956
mail	-10.1957
台風	-10.196
選挙	-10.1965
いつ	-10.1972
フォト	-10.1973
の活動	-10.1974
▁私が	-10.1975
けど	-10.1975
の動き	-10.1979
に入る	-10.1981
創造	-10.1982
を含め	-10.1987
ist	-10.199
炎	-10.1994
を取る	-10.1998
▁apple	-10.2001
lan	-10.2001
私達は	-10.201
仲裁	-10.2011
ipad	-10.2012
八	-10.2015
案	-10.2017
api	-10.2019
の説明	-10.2022
援助	-10.2024
の取り組み	-10.2024
原子力	-10.2034
解説	-10.2034
に含まれる	-10.2036
常	-10.2042
情報の	-10.2043
ぼ	-10.2046
ができる	-10.205
安心	-10.205
ホワイト	-10.205
ることができる	-10.2053
中間	-10.2057
はとても	-10.2058
カレンダー	-10.206
に戻る	-10.2061
策	-10.2063
数は	-10.2065
皆	-10.2074
▁それでも	-10.2078
あと	-10.2079
コール	-10.2083
ru	-10.2084
帯	-10.2086
させて	-10.2086
所有	-10.209
はこちら	-10.2092
▁お	-10.2096
事業の	-10.2096
広	-10.2099
ご利用	-10.2105
▁今日	-10.2112
ea	-10.2113
がありません	-10.2114
などが	-10.2116
市場の	-10.2117
プレゼンテーション	-10.2118
はまた	-10.2124
裁判所	-10.2132
を進め	-10.2134
工	-10.2136
失敗	-10.214
小型	-10.2141
マレーシア	-10.2147
大規模	-10.2149
積極的に	-10.2151
武	-10.2151
ke	-10.2152
史	-10.2154
赤ちゃん	-10.2157
やその他の	-10.2163
そのまま	-10.2164
もあり	-10.2164
を楽しむ	-10.2172
▁海外	-10.2179
指定された	-10.2192
廃棄物	-10.2193
のデータ	-10.2194
dvd	-10.2195
国立	-10.2196
ましたが	-10.2199
に変更	-10.2206
主張	-10.2206
配	-10.2211
圏	-10.2215
▁app	-10.2216
循環	-10.2217
時間が	-10.222
製品は	-10.222
意	-10.2222
水素	-10.2223
週	-10.2224
酸	-10.223
対処	-10.223
の間の	-10.2233
ian	-10.2234
は約	-10.2235
▁新	-10.2236
時間の	-10.2238
ものと	-10.2239
天然	-10.2247
▁page	-10.2247
にして	-10.225
半導体	-10.2252
精度	-10.2252
酒	-10.2257
レーザー	-10.226
▁unity	-10.2261
ジュ	-10.2267
ビタミン	-10.2267
▁data	-10.2272
信仰	-10.2274
京	-10.2275
移転	-10.2276
けれども	-10.2281
一定の	-10.2282
▁なぜ	-10.2283
命令	-10.2284
高く	-10.2287
考慮	-10.2288
ガー	-10.229
ny	-10.2291
銀	-10.2295
▁プログラム	-10.2297
に対応する	-10.2303
バイ	-10.2304
プリント	-10.2306
の重要性	-10.2306
オンラインで	-10.2307
留学生	-10.2307
アップロード	-10.231
二つの	-10.2313
の構築	-10.2314
来る	-10.2319
造	-10.2321
ろ	-10.2324
シンプルな	-10.2327
高品質の	-10.2333
できること	-10.2335
研究室	-10.2336
今回	-10.2336
チャレンジ	-10.2338
見て	-10.2339
電池	-10.2342
グローバルな	-10.2342
細	-10.2348
落	-10.235
実証	-10.2351
用語	-10.2356
ング	-10.2357
マニュアル	-10.2358
労働者	-10.2359
と考えています	-10.2359
レンズ	-10.2364
▁ゲーム	-10.2374
▁詳細	-10.2375
感謝	-10.2375
森林	-10.2376
結	-10.2379
正確に	-10.2386
るために	-10.2397
シナリオ	-10.2397
フロント	-10.2405
▁intel	-10.2408
子供たち	-10.2413
▁ただ	-10.2415
寄付	-10.2416
をさらに	-10.2417
洗浄	-10.2419
トリ	-10.2422
電話番号	-10.243
白い	-10.2435
▁セキュリティ	-10.2437
舞台	-10.2445
に参加	-10.2447
チャット	-10.245
行われる	-10.2452
の各	-10.246
は何	-10.2464
適切に	-10.2465
が必要な	-10.2466
たちが	-10.2468
を追加する	-10.2468
ジョン	-10.2469
ゲ	-10.247
セックス	-10.2474
加	-10.2475
るように	-10.2476
スタジオ	-10.2478
得られた	-10.248
ビール	-10.248
感染症	-10.2483
糸	-10.2484
さんの	-10.2491
日まで	-10.2496
を使用し	-10.2497
現代の	-10.2498
印象	-10.2498
ボディ	-10.2498
仏	-10.2503
清	-10.2506
▁vol	-10.2507
分野の	-10.2507
協議	-10.2507
庭	-10.2508
につき	-10.251
ことを意味します	-10.251
の中の	-10.2511
保有	-10.2511
輪	-10.2512
交	-10.2514
当時	-10.2515
最新	-10.2518
次に	-10.2524
優先	-10.2527
プレス	-10.253
若者	-10.2534
パーク	-10.2538
商品の	-10.2539
生産性	-10.2539
党	-10.2542
ul	-10.2542
を確認する	-10.2543
キャンパス	-10.2543
一連の	-10.2543
工事	-10.2545
キロ	-10.2545
のおかげで	-10.2545
【	-10.2547
画	-10.2554
されていません	-10.2557
安全保障	-10.2558
信用	-10.2561
膜	-10.2565
はるかに	-10.2566
概念	-10.2571
の値	-10.2582
もちろん	-10.2584
ヘ	-10.2587
モニタリング	-10.259
深刻な	-10.2597
▁at	-10.2605
レー	-10.2605
いません	-10.2607
免疫	-10.261
面積	-10.261
のサポート	-10.2614
プラ	-10.2616
繊維	-10.2616
しなければなりません	-10.2621
▁le	-10.2622
革新的な	-10.2622
チャンス	-10.2629
的で	-10.2631
を受けて	-10.2634
▁me	-10.2636
個人データ	-10.2639
規格	-10.2643
向けに	-10.2651
▁プライバシーポリシー	-10.2653
スキー	-10.2654
最後に	-10.2654
世界で	-10.266
ヘルプ	-10.2661
無線	-10.2664
支持	-10.2664
振動	-10.2667
▁これらは	-10.2667
使い	-10.2668
だが	-10.2668
使用される	-10.2669
組み合わせ	-10.2671
投票	-10.2676
を高める	-10.2686
公演	-10.2687
卒業	-10.2688
行政	-10.2689
キャンセル	-10.269
皿	-10.2693
キーワード	-10.2693
ya	-10.2694
なのか	-10.2701
にいる	-10.2704
時刻	-10.2708
dr	-10.2709
氷	-10.2711
くらい	-10.2711
▁“	-10.2713
重量	-10.2714
人気の	-10.2717
展覧会	-10.2718
参考	-10.2719
互いに	-10.272
かつて	-10.2728
大臣	-10.2729
旨	-10.274
外観	-10.275
いわゆる	-10.275
知る	-10.2755
apache	-10.2762
押し	-10.2766
吸収	-10.2766
新聞	-10.2767
相手	-10.277
お客様は	-10.2773
進め	-10.2774
劇場	-10.2775
chi	-10.2775
メキシコ	-10.2783
ようになった	-10.2784
トラフィック	-10.2789
ボリューム	-10.2789
を選択	-10.2789
にわたって	-10.2791
繰り返し	-10.2793
売上	-10.2794
▁オンライン	-10.2795
インポート	-10.2796
gs	-10.2796
強度	-10.2797
▁as	-10.2808
段階で	-10.281
想定	-10.281
ab	-10.2818
を理解し	-10.2819
▁ですから	-10.2819
ユ	-10.2822
違反	-10.2822
path	-10.2823
▁mac	-10.2834
コンテナ	-10.2835
昭和	-10.2837
生地	-10.2838
one	-10.284
使える	-10.2843
使用できます	-10.2843
がある場合	-10.2848
試	-10.285
▁ホテル	-10.2851
ものではありません	-10.2853
目に	-10.2856
を実現する	-10.2859
比較的	-10.2859
サプライチェーン	-10.286
容器	-10.2862
脅威	-10.2869
津	-10.2874
最近の	-10.2884
ダイアログ	-10.2887
モーター	-10.2891
というのは	-10.2892
ませんでした	-10.2892
軽	-10.2893
▁アドレス	-10.2893
券	-10.2895
行われ	-10.2899
良	-10.29
するのは	-10.2902
エージェント	-10.2905
大人	-10.291
の評価	-10.2911
ますが	-10.2912
をサポートする	-10.2915
執行	-10.2915
できた	-10.2919
デン	-10.2926
冷却	-10.2929
の情報	-10.293
ことができました	-10.2931
最も重要な	-10.2936
)▁|	-10.2938
例外	-10.2939
きた	-10.294
切断	-10.2944
の長さ	-10.2946
を探す	-10.295
報	-10.295
name	-10.2953
▁このように	-10.2956
手続	-10.2957
出荷	-10.2958
視	-10.2974
との関係	-10.2977
岡	-10.2981
単純な	-10.2981
脱	-10.2985
普通	-10.2986
プレビュー	-10.2987
の場所	-10.2987
働く	-10.2997
有効	-10.3002
に接続	-10.3003
▁大	-10.3004
▁はい	-10.3006
活動を	-10.301
牛	-10.3011
に追加	-10.3013
チン	-10.3013
魂	-10.3014
ゴールド	-10.3015
box	-10.3015
ol	-10.3017
企業は	-10.3019
訴訟	-10.302
マル	-10.3023
を設定します	-10.3025
家具	-10.3025
ものが	-10.3026
以前の	-10.3032
▁hotel	-10.3033
に従い	-10.3034
一人	-10.3035
をお	-10.3041
要請	-10.3042
メリット	-10.3049
▁実際	-10.3052
知っている	-10.3055
独立した	-10.3059
返	-10.3059
を作成	-10.306
の経験	-10.3061
仕上げ	-10.3065
魅力的な	-10.3068
モン	-10.3069
ゆ	-10.307
等を	-10.307
トーク	-10.307
サービスを	-10.3074
設定ファイル	-10.3075
※	-10.3082
案件	-10.3085
湯	-10.3086
ライフ	-10.3087
▁cookie	-10.3088
だけが	-10.3089
世界に	-10.3091
▁同	-10.3092
猫	-10.3092
高級	-10.3093
ph	-10.3095
クロス	-10.3096
想像	-10.31
片	-10.3101
ノウハウ	-10.3101
証	-10.3104
地元	-10.311
できるよう	-10.3111
会合	-10.3114
込んだ	-10.3118
の実現	-10.312
ヘッド	-10.3123
同様の	-10.3123
マイル	-10.3124
モノ	-10.3129
食べ物	-10.313
▁プロジェクト	-10.3131
視点	-10.3134
一日	-10.3135
ペン	-10.3135
個人的な	-10.314
終わり	-10.314
血液	-10.314
タブレット	-10.3147
北京	-10.3149
任	-10.3151
▁株式会社	-10.3154
ブラジル	-10.3154
▁part	-10.3158
を目指し	-10.3158
を指定する	-10.3162
ジー	-10.3164
cl	-10.3164
カタログ	-10.3166
▁中国	-10.317
める	-10.3173
考える	-10.3174
がどのように	-10.3175
ur	-10.3177
wifi	-10.3178
秋	-10.3179
贈り物	-10.3192
防災	-10.3193
神社	-10.3193
識別	-10.3194
治	-10.3195
意思決定	-10.3196
講義	-10.32
にお	-10.3203
彼女	-10.3203
を行っている	-10.3204
を提供	-10.3204
ようになりました	-10.3205
▁top	-10.3207
センサ	-10.3209
政	-10.3214
顧客の	-10.3219
務	-10.3221
▁このため	-10.3223
つく	-10.3223
を作り	-10.3227
ペア	-10.3228
誰も	-10.3229
決して	-10.3229
分間	-10.3231
本部	-10.3234
注目	-10.3237
▁facebook	-10.3237
満	-10.324
▁米国	-10.3241
残りの	-10.3241
代替	-10.3245
つは	-10.3247
加熱	-10.3249
させていただきます	-10.3249
bi	-10.3251
続く	-10.3252
長い間	-10.3255
学び	-10.3261
駐車場	-10.3263
プログラムの	-10.3266
▁os	-10.3266
を作成します	-10.3266
真の	-10.3267
確保	-10.3268
起	-10.3272
仕組み	-10.3276
コーティング	-10.3279
root	-10.3285
提携	-10.3287
シティ	-10.329
物理	-10.329
ブラ	-10.329
イラン	-10.3291
$	-10.3293
▁pc	-10.3294
接触	-10.3301
長さ	-10.3302
転換	-10.3305
ことが重要です	-10.3308
詳しく	-10.3309
させた	-10.3318
予定です	-10.3319
差し	-10.332
sm	-10.332
▁en	-10.3323
することによって	-10.3324
はもちろん	-10.3326
勝	-10.3327
人物	-10.3331
gi	-10.3331
パーティー	-10.3338
まったく	-10.3339
youtube	-10.3343
始める	-10.3347
防	-10.3352
現状	-10.3353
イスラエル	-10.3353
引数	-10.3354
東京都	-10.3356
▁当社	-10.3357
精	-10.3357
日々	-10.3359
ev	-10.3359
両方の	-10.3369
ジュエリー	-10.337
ノイズ	-10.3373
を実現	-10.3377
痛み	-10.3378
責任者	-10.3378
互換性	-10.3379
ルー	-10.3382
伸び	-10.3385
福	-10.3385
インターフェイス	-10.3385
正しく	-10.3387
を学ぶ	-10.3388
分布	-10.339
オファー	-10.339
▁ad	-10.3391
▁アクセス	-10.3392
教え	-10.3397
赤い	-10.3409
誰	-10.3411
チェーン	-10.3413
延長	-10.3413
更に	-10.3415
▁rights▁reserved	-10.3418
ho	-10.3418
だから	-10.3418
を選択してください	-10.3419
ft	-10.3422
個人情報を	-10.3424
てくれる	-10.3424
両親	-10.3424
つき	-10.3425
発明	-10.3426
もう一度	-10.3428
新鮮な	-10.3428
なしに	-10.3431
進行	-10.3431
放射線	-10.3433
ものに	-10.3434
▁open	-10.3437
の組み合わせ	-10.344
ばかり	-10.344
」、「	-10.344
オランダ	-10.3442
これから	-10.3447
学術	-10.3447
決議	-10.3456
これまでの	-10.3461
保全	-10.3462
加速	-10.3462
期限	-10.3466
縁	-10.3466
習慣	-10.347
をはじめとする	-10.3473
fr	-10.3477
▁your	-10.3477
pl	-10.3478
雑誌	-10.3479
母親	-10.348
の中から	-10.3482
効率的な	-10.3483
柱	-10.3488
ear	-10.3491
受付	-10.3492
世界的な	-10.3495
クロ	-10.3496
ローマ	-10.3499
ちょっと	-10.35
処分	-10.3502
致します	-10.3504
つけ	-10.3505
水の	-10.3509
研究成果	-10.3509
子どもたち	-10.351
ことに注意してください	-10.3513
ッド	-10.3513
政府の	-10.3516
気分	-10.3521
▁ビジネス	-10.3522
用に	-10.3522
蓄積	-10.3524
合い	-10.3525
枚	-10.3525
パートナーシップ	-10.353
プレミアム	-10.353
離	-10.3535
近くの	-10.3535
▁上記の	-10.3538
対応する	-10.3538
お使いの	-10.3542
▁今後	-10.3542
ポートフォリオ	-10.3543
美しく	-10.3546
競技	-10.3546
眼	-10.3552
▁コミュニティ	-10.3555
▁主な	-10.356
強制	-10.3562
自社	-10.3564
当時の	-10.3568
を取り除く	-10.3572
にアクセス	-10.3573
可	-10.3578
でしたが	-10.3579
思い出	-10.3579
次世代	-10.3582
聖書	-10.3584
比率	-10.3584
粒子	-10.3585
ファイルが	-10.3587
の成長	-10.359
を実施	-10.3592
自由に	-10.3593
こそ	-10.3593
基金	-10.3594
プリ	-10.3595
創	-10.3598
収	-10.36
を決定する	-10.36
app	-10.36
シェル	-10.3601
開く	-10.3603
バル	-10.3604
au	-10.3606
当社グループの	-10.3609
主催	-10.3617
兼	-10.3618
所属	-10.3621
ソー	-10.3623
を使用	-10.3626
生まれた	-10.3626
銅	-10.363
られています	-10.3631
療法	-10.3632
通過	-10.3635
大量の	-10.3637
するという	-10.3644
鼻	-10.3645
北米	-10.3646
玉	-10.3647
大手	-10.3648
ユーロ	-10.3648
ビルド	-10.3652
売上高	-10.3652
の高さ	-10.3654
連邦	-10.3657
髪	-10.3659
データは	-10.3665
▁■	-10.3666
肌	-10.3667
テープ	-10.3671
デモ	-10.3672
ようと	-10.3673
行われます	-10.3676
講師	-10.3679
ステータス	-10.3681
蔵	-10.3682
他の人	-10.3687
を行うこと	-10.3687
技術の	-10.3688
ける	-10.3691
を指定します	-10.3693
影	-10.3694
port	-10.3695
個の	-10.3695
vr	-10.3696
−	-10.3696
安定した	-10.3697
変革	-10.3704
力を	-10.3704
委託	-10.3706
エコ	-10.3707
出版	-10.3707
録音	-10.3708
べ	-10.3713
衛生	-10.3715
込んで	-10.3716
知見	-10.3717
せる	-10.3718
政権	-10.3718
砂	-10.3722
クーポン	-10.3722
pm	-10.3729
▁キーワード	-10.3729
コネクタ	-10.3732
オリンピック	-10.3732
たとえば	-10.3732
放	-10.3739
間に	-10.374
グラフィック	-10.3742
プロダクト	-10.3743
▁そんな	-10.3743
を強化し	-10.3744
月期	-10.3745
ダイヤモンド	-10.3746
▁それらは	-10.3747
普通の	-10.3754
することです	-10.3756
あたり	-10.3761
オイル	-10.3763
まり	-10.3763
が提供する	-10.3765
ないこと	-10.3767
テロ	-10.3768
の追加	-10.3769
人々に	-10.377
ペット	-10.3771
ceo	-10.3778
プログラムは	-10.3782
売却	-10.3786
好き	-10.379
発信	-10.379
楽しみ	-10.3793
」(	-10.3795
食べ	-10.3796
ボランティア	-10.38
してから	-10.3804
を実施し	-10.3808
ステークホルダー	-10.3809
濃度	-10.381
依存	-10.3811
稼働	-10.3817
エア	-10.3827
所得	-10.383
ところで	-10.383
の販売	-10.3832
フォ	-10.3835
ご予約	-10.3837
ポンプ	-10.3844
施策	-10.3848
▁ana	-10.3848
物価	-10.3851
▁se	-10.3851
詳細な	-10.3853
であっても	-10.3869
訪問者	-10.3872
初心者	-10.3878
のホテル	-10.3882
商	-10.3884
竹	-10.3884
複合	-10.3885
確実に	-10.3885
#	-10.3886
up	-10.3891
コンソール	-10.3891
way	-10.3892
財政	-10.3892
食べる	-10.3894
trans	-10.3895
信頼できる	-10.3895
からも	-10.3896
一致	-10.3897
科学技術	-10.39
my	-10.3901
▁new	-10.3904
が非常に	-10.3906
を開始する	-10.3908
に取り組む	-10.3908
プレ	-10.3914
の減少	-10.3915
いま	-10.3918
ロシアの	-10.3919
map	-10.3919
fe	-10.392
誰か	-10.3921
ユーザーに	-10.3923
の色	-10.3928
追い	-10.3929
キット	-10.3929
少ない	-10.393
小さく	-10.3931
保守	-10.3932
本件	-10.3932
の一環として	-10.3934
選	-10.3935
ターミナル	-10.3937
域	-10.3939
cs	-10.3939
選定	-10.3944
技術を	-10.3949
単	-10.395
を知る	-10.3952
▁国際	-10.3953
写真を	-10.3953
▁international	-10.3953
twitter	-10.3959
type	-10.3961
ハード	-10.3962
ピーク	-10.3962
統一	-10.3966
絵画	-10.3968
を変更	-10.3971
勤務	-10.3972
取組	-10.3974
ミン	-10.3974
高齢者	-10.3977
うち	-10.398
form	-10.3982
のみならず	-10.3983
目の	-10.3989
最低	-10.3996
委員	-10.4
の目的	-10.4
▁ma	-10.4005
送	-10.4006
リース	-10.4011
▁世界	-10.4011
ゾーン	-10.4015
すぎる	-10.4018
▁$	-10.4022
疑問	-10.4024
コンテンツを	-10.4025
rc	-10.4028
facebook	-10.4028
▁an	-10.403
政府は	-10.4032
起こ	-10.4035
マッチ	-10.4037
を検索	-10.4039
その結果	-10.4041
暗号	-10.4041
フォント	-10.4044
▁u	-10.4047
財産	-10.405
社は	-10.405
栽培	-10.405
のほか	-10.405
が可能	-10.4051
便利です	-10.4051
高さ	-10.4052
iso	-10.4053
のレベル	-10.4054
ニュースレター	-10.4055
敵	-10.4056
後で	-10.4056
を使い	-10.406
利用できる	-10.4064
太平洋	-10.4065
そういう	-10.4065
プル	-10.4065
軍事	-10.407
オーバー	-10.407
ヒント	-10.4071
見通し	-10.4071
カ国	-10.4073
を伴う	-10.4075
郡	-10.4078
皆さん	-10.4081
などに	-10.4083
フード	-10.4084
▁ca	-10.4089
ダン	-10.4089
のお	-10.4091
不正	-10.4091
耳	-10.4101
させます	-10.4101
慎重に	-10.4105
爆発	-10.4105
ファイル名	-10.4108
終	-10.4111
走	-10.4114
を再	-10.4116
磁気	-10.4126
ことになる	-10.4128
値は	-10.4128
▁検索	-10.4133
会長	-10.4134
mc	-10.4138
の推進	-10.4138
人工	-10.4141
重要です	-10.4144
程	-10.4145
居	-10.4146
への影響	-10.4152
タッチ	-10.4154
ヒト	-10.4161
話を	-10.4162
警察	-10.4169
破損	-10.417
ジン	-10.4171
全員	-10.4174
最終的に	-10.4174
洋	-10.4177
vendor	-10.4178
形式で	-10.4179
クス	-10.4179
勝利	-10.4183
の多くは	-10.4183
▁mo	-10.4183
航空機	-10.4189
しく	-10.4191
アプリケーションの	-10.4191
吉	-10.4192
確定	-10.4193
最小	-10.4193
志	-10.4197
の助けを借りて	-10.4198
何らかの	-10.4199
ity	-10.4199
息	-10.42
bin	-10.42
!!	-10.4204
に向かって	-10.4204
によって異なります	-10.4206
された場合	-10.4207
復興	-10.421
宿泊施設	-10.421
結果は	-10.421
複雑	-10.4213
以前	-10.4214
vo	-10.4216
搭載	-10.4216
に最適な	-10.4217
ui	-10.4217
ることで	-10.4217
そんな	-10.4219
しい	-10.4219
csr	-10.422
ヘッダ	-10.4223
カジノ	-10.4229
を対象に	-10.423
▁どの	-10.4232
印	-10.4232
忘れ	-10.4232
できるだけ	-10.4234
失	-10.4235
新しく	-10.4236
国々	-10.4238
▁ltd	-10.4241
抑制	-10.4242
適応	-10.4248
▁複数の	-10.4248
推定	-10.4254
hp	-10.4259
彫刻	-10.4263
積極的な	-10.4265
改正	-10.4269
を除く	-10.4273
の発生	-10.4273
価	-10.428
▁la	-10.4282
▁time	-10.4282
作成した	-10.4284
合う	-10.429
関	-10.4293
なお	-10.4294
に貢献する	-10.4296
分解	-10.43
焼	-10.4302
shi	-10.4303
お気に入りの	-10.4304
ファイルは	-10.4306
約束	-10.4306
派遣	-10.4308
遅延	-10.4309
陽	-10.4309
ともに	-10.431
スクール	-10.431
科目	-10.4311
を共有し	-10.4311
退	-10.4312
トレンド	-10.4317
への対応	-10.4317
地域で	-10.4317
▁per	-10.4318
▁オプション	-10.4319
職員	-10.4321
メモ	-10.4322
▁コメント	-10.4329
▁con	-10.4331
ページの	-10.4333
自転車	-10.4338
提供する	-10.4339
で最も	-10.4339
)▁=	-10.4345
エクスポート	-10.4346
ner	-10.435
all	-10.4352
fa	-10.4354
抽出	-10.4355
問	-10.4356
シングル	-10.4357
low	-10.4359
掛け	-10.4359
恐れ	-10.436
▁al	-10.4361
のメンバー	-10.4361
でもある	-10.4364
ジャー	-10.4373
妊娠	-10.4375
扱い	-10.4375
雄	-10.4381
純	-10.4381
を感じる	-10.4382
以前に	-10.4382
ディレクター	-10.4384
ハワイ	-10.4386
を示します	-10.4389
チーズ	-10.4393
排出量	-10.4394
のではなく	-10.4398
方法です	-10.44
複製	-10.4402
の代わりに	-10.4406
の表示	-10.4406
が出	-10.4408
娘	-10.4411
百	-10.4418
そこから	-10.4422
いくつか	-10.4423
従業員の	-10.4424
▁-▁-	-10.4425
メント	-10.4426
をして	-10.4428
per	-10.4429
温	-10.4431
ぬ	-10.4432
万円	-10.4432
年度の	-10.4434
▁参照	-10.4434
靴	-10.4438
▁are	-10.4438
vi	-10.4442
▁それで	-10.4443
br	-10.4447
量の	-10.4448
彼に	-10.4449
情報が	-10.4449
駆動	-10.4455
なか	-10.4459
に対応	-10.4462
報道	-10.4463
▁content	-10.4469
られました	-10.447
月には	-10.4474
戸	-10.4474
幸せ	-10.4478
地上	-10.4481
国内外の	-10.4481
網	-10.4482
買収	-10.4482
を示しています	-10.4483
s▁japan▁wiki	-10.4484
でさえ	-10.4484
nucleus▁c	-10.4484
なくても	-10.4489
レベルで	-10.4491
ラップトップ	-10.4492
デフォルトの	-10.4493
個人の	-10.4494
ケーキ	-10.4499
市の	-10.45
休日	-10.4502
巻き	-10.4503
ストリーム	-10.4505
のウェブサイト	-10.4506
透明性	-10.4509
スイス	-10.4511
▁o	-10.4512
ソーシャル	-10.4514
里	-10.4518
を変える	-10.4518
初の	-10.4519
メン	-10.4519
▁今回は	-10.4522
ファミリー	-10.4524
ja	-10.4524
の対象	-10.4527
社会の	-10.453
上海	-10.453
im	-10.4531
簡単	-10.4532
don	-10.4539
続いて	-10.454
レイヤー	-10.4541
のインストール	-10.4543
red	-10.4546
▁同じ	-10.4548
理由は	-10.455
手紙	-10.4552
の設計	-10.4553
ue	-10.4556
の全	-10.4557
▁group	-10.4557
ロケーション	-10.4557
チェ	-10.4558
あなたを	-10.4558
▁from	-10.4562
取り付け	-10.4562
af	-10.4563
区別	-10.4563
現金	-10.4563
の生産	-10.4565
▁その他の	-10.457
むしろ	-10.4574
コンサート	-10.4574
価値があります	-10.4576
プラント	-10.4578
主体	-10.4585
時間は	-10.4587
▁ある	-10.4588
共通の	-10.4592
底	-10.4594
是非	-10.4599
華	-10.46
べきである	-10.4602
を理解する	-10.4604
であることを	-10.4605
速	-10.4609
ファイルシステム	-10.4609
と比較して	-10.461
ji	-10.461
もう一つの	-10.4612
アクセサリー	-10.4613
システムを	-10.4617
カップ	-10.4621
人を	-10.4624
得	-10.4626
キッチン	-10.4628
対象者	-10.4628
弱	-10.4633
コンパイル	-10.4634
▁●	-10.4635
数の	-10.4636
始めた	-10.464
プロバイダー	-10.4641
化された	-10.4642
第二	-10.4647
の大きさ	-10.4651
エッジ	-10.4651
打ち	-10.4653
を超えて	-10.4654
運	-10.4654
ようになります	-10.4655
息子	-10.4658
を支える	-10.4658
負	-10.466
iv	-10.4662
学ぶ	-10.4663
▁実際に	-10.4663
再起動	-10.4665
▁サイトマップ	-10.4665
短期	-10.4667
ウィ	-10.4672
▁ac	-10.4672
安全に	-10.4672
▁youtube	-10.4672
間違い	-10.4673
山の	-10.4674
坂	-10.4674
アクティブ	-10.4674
の保護	-10.4678
をもとに	-10.4682
患者の	-10.4684
無効	-10.4685
tech	-10.4686
そのもの	-10.4694
霊	-10.4696
遅れ	-10.4697
マッサージ	-10.4698
を送る	-10.4703
明らか	-10.4703
作品を	-10.4704
▁写真	-10.4706
監査役	-10.4709
の効果	-10.4712
su	-10.4715
最良の	-10.4717
保健	-10.4718
本当の	-10.4719
若	-10.4719
を支援する	-10.472
cam	-10.4721
を扱う	-10.4728
するよう	-10.4729
▁line	-10.473
数多くの	-10.4731
柔軟性	-10.4732
age	-10.4733
ユーティリティ	-10.4737
▁ログイン	-10.4737
▁これまで	-10.4741
を見つけ	-10.4744
ance	-10.4748
行われた	-10.4752
あげ	-10.4755
調和	-10.4762
レット	-10.4765
問い合わせ	-10.4765
になること	-10.4771
ep	-10.4771
リード	-10.4771
パック	-10.4773
特殊	-10.4778
▁でも	-10.4778
彩	-10.4779
インデックス	-10.4782
洪水	-10.4783
飛行機	-10.4784
の後に	-10.4786
単一の	-10.4788
活躍	-10.4789
冷蔵庫	-10.4798
▁彼の	-10.4806
るべき	-10.4807
たちの	-10.4808
異常	-10.4809
▁スクリプト	-10.4813
提示	-10.4815
中断	-10.4819
ション	-10.482
を持った	-10.4821
結果を	-10.4821
さらには	-10.4821
が高く	-10.4821
する場合は	-10.4823
銀河	-10.4824
オブ	-10.4826
休暇	-10.4826
確かに	-10.4828
衝突	-10.4829
接	-10.4829
を確認	-10.483
▁or	-10.4831
表示される	-10.4831
性質	-10.4832
香り	-10.4833
を置く	-10.4837
遊	-10.4838
インチ	-10.4838
ブック	-10.4839
技	-10.4839
メッセージを	-10.4842
出資	-10.4845
飛行	-10.4845
個別	-10.4845
▁'	-10.4846
ブランドの	-10.4846
出来事	-10.4848
時は	-10.4851
遠	-10.4852
演劇	-10.4853
うる	-10.4855
ホット	-10.4856
農	-10.4858
生きる	-10.4859
負債	-10.486
ベルト	-10.4864
に比べて	-10.4864
なった	-10.4867
共に	-10.4867
▁ユーザー	-10.4867
州の	-10.4867
乳	-10.4867
絶対に	-10.4868
誰が	-10.4868
付きの	-10.4869
の場	-10.4872
品種	-10.4872
コンサルティング	-10.4872
池	-10.4874
ボーナス	-10.4875
あなたがた	-10.4876
セン	-10.4877
ランキング	-10.4878
民族	-10.4878
段	-10.488
max	-10.4885
分野で	-10.4887
ワールド	-10.4887
お支払い	-10.4888
本学	-10.4889
きます	-10.4896
フォー	-10.4901
fin	-10.4904
スロット	-10.4905
▁he	-10.491
ニア	-10.4913
被	-10.4914
tor	-10.4919
冷	-10.4919
の仕事	-10.492
▁tokyo	-10.4921
アーキテクチャ	-10.4924
▁バージョン	-10.4925
包括的な	-10.4925
コラボレーション	-10.4928
祈り	-10.493
観客	-10.493
緩和	-10.4934
筋	-10.4935
使用されています	-10.4938
兵	-10.4946
を利用した	-10.4946
がその	-10.4947
ワクチン	-10.4948
樹	-10.4953
トルコ	-10.4954
させること	-10.4954
試合	-10.4956
先に	-10.4957
gu	-10.4958
▁st	-10.4964
▁inter	-10.4971
▁設定	-10.4972
の実行	-10.4972
ビザ	-10.4974
▁)▁(	-10.4975
ics	-10.4979
を向上させる	-10.4979
トイレ	-10.498
国内の	-10.4984
関連の	-10.4984
していて	-10.4986
▁what	-10.4986
鍋	-10.4992
粉	-10.4999
link	-10.5004
を活用した	-10.5007
シャツ	-10.5009
を表示する	-10.501
の取得	-10.5011
ポジション	-10.5013
ice	-10.5017
を通じた	-10.5018
等により	-10.502
apple	-10.502
者に	-10.5024
こともあります	-10.5025
キーボード	-10.5025
クリップ	-10.5027
▁pdf	-10.5031
op	-10.5033
▁説明	-10.5035
われ	-10.5038
▁•	-10.5039
来た	-10.5039
ご注文	-10.5041
欲しい	-10.5042
自宅で	-10.5043
bu	-10.5043
▁one	-10.5045
教室	-10.5046
侵害	-10.5049
考え方	-10.5053
流通	-10.5053
使用できる	-10.5059
モニター	-10.5059
替え	-10.5064
関与	-10.5065
東南アジア	-10.5066
gen	-10.5066
都	-10.5068
前年同期比	-10.5069
を入力します	-10.5074
に表示されます	-10.5076
ジャンル	-10.5079
高度	-10.5082
ようになる	-10.5083
商品を	-10.5084
近い	-10.5089
の準備	-10.509
重大な	-10.5094
に位置する	-10.5094
容易に	-10.5095
もっとも	-10.5097
出展	-10.5098
彼女が	-10.5099
を考え	-10.5106
大陸	-10.5106
胸	-10.5109
を変え	-10.5111
もまた	-10.5113
明確な	-10.5115
の関係	-10.5115
クレジット	-10.5116
革命	-10.5118
ブース	-10.5118
自らの	-10.512
であるか	-10.5123
ポリ	-10.5123
余	-10.5126
わけではありません	-10.5132
を活用し	-10.5138
を受け取る	-10.5141
のであれば	-10.5143
住	-10.5143
データが	-10.5145
▁in▁the	-10.5147
施行	-10.5147
すべてを	-10.5148
▁search	-10.515
を維持する	-10.5153
に基づいた	-10.5154
ディング	-10.5155
お知らせ	-10.5162
ポスト	-10.5163
午前	-10.5168
の処理	-10.517
リセット	-10.5171
結晶	-10.5172
共	-10.5174
指定した	-10.5178
字	-10.5182
プロセッサ	-10.5183
はず	-10.5184
を踏まえ	-10.5188
jr	-10.519
の中には	-10.519
機能は	-10.5191
環境で	-10.5191
he	-10.5193
育成	-10.5195
の人々	-10.5196
乱	-10.5196
の良い	-10.5199
接着剤	-10.52
議会	-10.5201
先の	-10.5204
ive	-10.5206
お茶	-10.5211
限界	-10.5212
返信	-10.5213
ang	-10.5216
日本銀行	-10.5219
宣伝	-10.5226
を目指します	-10.5227
為	-10.5231
家族の	-10.5236
ロス	-10.5237
インスタンス	-10.5237
見え	-10.5238
book	-10.5244
▁su	-10.5245
補助	-10.5246
をもつ	-10.5248
time	-10.5249
合わせ	-10.5249
土壌	-10.525
競争力	-10.5251
消去	-10.5255
リサーチ	-10.5256
事業活動	-10.5257
が行われ	-10.5258
手術	-10.5258
▁design	-10.526
おります	-10.5265
児童	-10.5265
至	-10.5265
をダウンロード	-10.5266
助言	-10.5266
当たり	-10.5266
を構築し	-10.5271
ラム	-10.5273
はほとんど	-10.5275
動向	-10.5275
食材	-10.5276
するもの	-10.5277
残高	-10.5278
▁注意	-10.5279
land	-10.5279
切	-10.5279
スコア	-10.5279
の方々	-10.5282
挿入	-10.5284
アニメ	-10.5286
テック	-10.5287
族	-10.5288
時代に	-10.5291
外交	-10.5292
受	-10.5293
出来る	-10.5293
どこ	-10.5294
を有し	-10.5298
殺	-10.5301
を削除する	-10.5303
▁not	-10.5303
内蔵	-10.5303
の確保	-10.5303
のリスク	-10.5306
盛	-10.5308
拒否	-10.531
利用可能	-10.5315
との間で	-10.5317
nd	-10.5317
に適しています	-10.5319
を推進し	-10.532
を開きます	-10.5323
私達が	-10.5325
カウンター	-10.5339
▁これを行うには	-10.5339
枠	-10.5339
屋外	-10.534
取組み	-10.5341
頻度	-10.5342
宿	-10.5342
に近い	-10.5344
を使用してください	-10.5345
をすべて	-10.5345
out	-10.5349
フライト	-10.535
ナノ	-10.5353
指摘	-10.5355
win	-10.5355
サブスクリプション	-10.5356
ベン	-10.5356
プロセスを	-10.5358
さんが	-10.5361
にあたり	-10.5363
まとめ	-10.5363
に影響を与える	-10.537
方向に	-10.537
の専門家	-10.5376
改良	-10.5377
を開き	-10.5378
有料	-10.5379
をクリックすると	-10.5382
チョコレート	-10.5382
弁	-10.5382
star	-10.5386
▁service	-10.5389
der	-10.5392
▁get	-10.5394
といいます	-10.5397
によっては	-10.5397
セットアップ	-10.5398
気が	-10.5399
私たちに	-10.5399
久	-10.5402
建	-10.5402
配列	-10.5402
イオン	-10.5405
ウェイ	-10.541
▁management	-10.541
インター	-10.5411
ここでは	-10.5412
飲み物	-10.5415
屋根	-10.5416
清掃	-10.5418
隠	-10.5419
グリ	-10.542
定期	-10.5427
にする	-10.5428
荷物	-10.5431
▁彼らの	-10.5434
さない	-10.5434
全体で	-10.5437
ngo	-10.5437
神様	-10.5438
ますか	-10.544
作成された	-10.544
の確認	-10.5441
に参加する	-10.5442
隊	-10.5444
▁system	-10.5447
アド	-10.5449
臨床	-10.5451
存在する	-10.5452
舞	-10.5453
朝食	-10.5455
をどのように	-10.5456
過ぎ	-10.5457
寿命	-10.5459
シンポジウム	-10.5463
チュートリアル	-10.5467
ag	-10.5468
戦い	-10.547
▁本文	-10.5472
パイプ	-10.5473
の治療	-10.5477
▁ディレクトリ	-10.5481
進歩	-10.5483
結果として	-10.5488
提供される	-10.549
混合	-10.5491
急速に	-10.5493
カスタマーサービス	-10.5495
の品質	-10.5496
横浜	-10.5501
読	-10.5502
▁私達は	-10.5504
を含みます	-10.5504
kg	-10.5506
政治的	-10.5508
を見た	-10.5508
ブロックチェーン	-10.551
ナビゲーション	-10.5511
zip	-10.5515
軽減	-10.5515
早	-10.5518
バラ	-10.552
利用規約	-10.5521
cgi	-10.5522
過ごし	-10.5524
庭園	-10.5525
休	-10.5525
ワー	-10.5526
トークン	-10.5527
ぞ	-10.5532
崩壊	-10.5532
を読む	-10.5533
▁japanese	-10.5536
▁サイト	-10.5536
plugins	-10.5537
にわたり	-10.5537
焦点	-10.5538
クル	-10.5538
当日	-10.554
の権利	-10.554
大切な	-10.5541
事務	-10.5541
女性は	-10.5542
▁project	-10.5547
スープ	-10.5551
情熱	-10.5553
助	-10.5557
検索結果	-10.5558
マイナス	-10.556
バイト	-10.5564
閉	-10.5565
守	-10.5567
にアクセスする	-10.5567
を示し	-10.5569
話題	-10.557
▁アカウント	-10.5571
はすでに	-10.5572
用意	-10.5573
▁アメリカ	-10.5574
▁microsoft	-10.5574
のダウンロード	-10.5575
もない	-10.5575
香	-10.5576
これまでに	-10.5578
のひとつ	-10.5578
原理	-10.5578
ix	-10.5579
なっている	-10.5583
順	-10.5584
にのみ	-10.5584
北海道	-10.5584
が増え	-10.5585
切り替え	-10.5589
箇所	-10.5591
することなく	-10.5597
▁”	-10.5597
言及	-10.5597
打	-10.5597
しっかりと	-10.5598
キャンプ	-10.5598
性の	-10.5599
ファイルに	-10.56
整理	-10.5602
▁more	-10.5606
六	-10.5607
当サイト	-10.5607
組織の	-10.5608
受け入れ	-10.561
の観点から	-10.5613
▁contact	-10.5613
富	-10.5616
ig	-10.5616
再生可能エネルギー	-10.5617
しなかった	-10.5618
が自動的に	-10.5618
に取り組んでいます	-10.5625
ストリーミング	-10.5626
酸素	-10.5629
候補	-10.563
入手	-10.5631
防衛	-10.5635
成功した	-10.5636
核兵器	-10.5637
そうな	-10.5637
問題を	-10.5639
data	-10.5645
作られた	-10.565
▁center	-10.5652
ったり	-10.5653
▁view	-10.5655
に比べ	-10.5657
を見せ	-10.5663
デフォルト	-10.5664
世界中で	-10.5666
待ち	-10.5668
辺	-10.5668
▁ほとんどの	-10.5674
もなく	-10.5675
添付	-10.5679
獲得	-10.5681
除	-10.5681
出した	-10.5682
向き	-10.5685
の方が	-10.5686
大使	-10.569
国境	-10.5691
チューブ	-10.5693
技術的	-10.5693
共同研究	-10.5694
遠く	-10.5694
携帯	-10.5694
歳の	-10.5694
にわたる	-10.5698
賃貸	-10.5698
いう	-10.57
ck	-10.5701
視聴	-10.5701
炉	-10.5701
北朝鮮	-10.5701
できるようになります	-10.5703
つです	-10.5706
プロキシ	-10.5709
でもあります	-10.5712
スピーカー	-10.5712
最先端の	-10.5714
ファー	-10.5715
を開発し	-10.5717
ファンド	-10.5719
誰かが	-10.5719
nt	-10.5724
を引き起こす	-10.5727
▁私たち	-10.5729
をしている	-10.5731
三菱	-10.5734
一般に	-10.5735
やって	-10.5736
▁language	-10.5739
▁ドキュメント	-10.5739
リズム	-10.5739
半分	-10.574
実際	-10.5742
なくて	-10.5745
制約	-10.5748
自然な	-10.5749
値を	-10.575
多い	-10.5751
を感じ	-10.5752
便利	-10.5755
出席	-10.5756
や他の	-10.5758
化学物質	-10.5758
コイン	-10.5759
ヨ	-10.5762
海外の	-10.5763
書き込み	-10.5764
相当	-10.5764
ストリート	-10.5768
ライフスタイル	-10.5768
▁さて	-10.5768
ますます	-10.5772
業界の	-10.5772
側の	-10.5773
フォルダー	-10.5774
のお知らせ	-10.5775
ピクセル	-10.5778
明治	-10.5779
河	-10.5779
少年	-10.5783
らしい	-10.5784
はかなり	-10.5785
職業	-10.5788
許容	-10.5791
るか	-10.5791
するためには	-10.5795
こんな	-10.5798
を明確に	-10.5798
癌	-10.5802
いろいろな	-10.5806
全部	-10.5809
▁menu	-10.5811
の回復	-10.5811
首相	-10.5812
招待	-10.5814
針	-10.5814
衝撃	-10.5815
の基礎	-10.5815
接着	-10.5816
グラ	-10.5816
寝	-10.5817
を作ります	-10.5817
ステーション	-10.5818
マス	-10.5825
ips	-10.5826
しようと	-10.5827
ほ	-10.5828
方法について	-10.5829
ない場合は	-10.583
▁インストール	-10.583
ee	-10.5834
パート	-10.5837
貨物	-10.5837
暴力	-10.5838
▁、▁(	-10.5838
融合	-10.5839
によれば	-10.5839
みると	-10.5842
ま▁す	-10.5842
va	-10.5843
を表示します	-10.5844
script	-10.5845
人事	-10.5849
に適した	-10.5851
しよう	-10.5855
この問題	-10.5857
利用できます	-10.5857
を設置し	-10.5859
ホルモン	-10.5859
環境変数	-10.586
者達	-10.586
アプリケーションは	-10.5861
迅速な	-10.5864
期間中	-10.5865
次のように	-10.5866
袋	-10.5867
このように	-10.5869
・・・	-10.587
ピー	-10.5871
っと	-10.5872
氏が	-10.5873
パラ	-10.5875
情	-10.588
潜在的な	-10.5882
盤	-10.5883
サイズの	-10.5883
研究センター	-10.5883
明確に	-10.5884
意義	-10.5885
薄	-10.5885
同社	-10.5885
を確認し	-10.5885
可能な限り	-10.5886
結論	-10.5889
ct	-10.5889
とします	-10.589
まして	-10.589
反射	-10.589
変化する	-10.5892
黄	-10.5893
asean	-10.5895
美味しい	-10.5896
オーナー	-10.5902
振	-10.5903
家に	-10.5903
が表示され	-10.5904
ak	-10.5907
継続的な	-10.5907
何度も	-10.5908
を促進する	-10.591
必要性	-10.591
積	-10.5913
にあった	-10.5916
ノー	-10.5917
可能性のある	-10.592
完璧な	-10.5922
ワークフロー	-10.5927
コーナー	-10.5927
ジョ	-10.5929
市場で	-10.5929
算定	-10.5931
インテリア	-10.5933
ざ	-10.5933
レンタル	-10.5936
年間の	-10.594
作る	-10.594
砂糖	-10.594
説	-10.5947
高校	-10.5948
羽	-10.5949
上書き	-10.5952
使用されている	-10.5953
君	-10.5953
▁詳しくは	-10.5953
億ドル	-10.5958
量子	-10.5961
air	-10.5962
中東	-10.5967
革新	-10.5967
言い	-10.5973
まる	-10.5978
ないので	-10.5982
デー	-10.5983
本体	-10.5984
スライド	-10.5987
睡眠	-10.5994
をご	-10.5996
地下	-10.5999
七	-10.6
▁特定の	-10.6001
かもしれませんが	-10.6002
ない場合	-10.6003
系の	-10.6003
ブリ	-10.6003
と判断	-10.6004
マッピング	-10.601
持っている	-10.6011
既存	-10.6011
と述べた	-10.6013
jo	-10.6014
av	-10.6016
に貢献し	-10.6018
条項	-10.6018
をダウンロードして	-10.6027
困難な	-10.6028
を中心とした	-10.6029
上場	-10.603
仮	-10.6031
cr	-10.6036
ステ	-10.6036
出て	-10.6036
見える	-10.6038
ob	-10.604
周	-10.6043
海の	-10.6043
▁ここ	-10.6048
、[	-10.605
補償	-10.6059
を実施する	-10.6059
定め	-10.606
と同じように	-10.6061
を通じ	-10.6064
ッシュ	-10.6065
への取り組み	-10.6065
ごとの	-10.6067
営	-10.6067
さま	-10.6068
共和国	-10.607
▁ブログ	-10.607
ハイブリッド	-10.6071
道具	-10.6071
と考えられる	-10.6071
fo	-10.6071
果物	-10.6071
話す	-10.6071
思考	-10.6073
が存在する	-10.6073
と思われる	-10.6077
za	-10.6079
dna	-10.6088
のバージョン	-10.6089
を忘れ	-10.6094
続き	-10.6097
▁グローバル	-10.6097
中国語	-10.6097
古代	-10.6098
短縮	-10.61
以内	-10.6101
を引き	-10.6101
するのに	-10.6103
ヴァ	-10.6104
日本と	-10.6105
を実行します	-10.6108
▁can	-10.6108
▁アプリケーション	-10.6111
ゴム	-10.6114
▁mm	-10.6115
プロセスの	-10.6116
ランプ	-10.612
戦略的	-10.6122
sha	-10.6123
適	-10.6126
締結	-10.6128
夏の	-10.6131
スパ	-10.6131
mer	-10.6132
歩いて	-10.6132
microsoft	-10.6135
を始め	-10.6135
節約	-10.6136
▁graphics▁driver	-10.6138
スキーム	-10.6138
支出	-10.6139
▁ios	-10.6141
故障	-10.6144
mu	-10.6147
ゲームの	-10.6147
シンボル	-10.6148
返品	-10.6148
pandora	-10.6152
暖かい	-10.6152
専用の	-10.6155
自信	-10.6155
名称	-10.6156
ger	-10.6158
術	-10.6161
をクリックしてください	-10.6163
▁cm	-10.6164
▁us	-10.6166
折	-10.6168
インターナショナル	-10.6172
▁up	-10.6172
に応じた	-10.6173
組み	-10.6175
ミス	-10.618
軌道	-10.618
彼らに	-10.6181
景気	-10.6181
▁従って	-10.6182
数学	-10.6182
▁pre	-10.6183
の様子	-10.6184
規約	-10.6185
▁export	-10.6185
ているので	-10.6187
ミャンマー	-10.6187
職人	-10.6187
を得るために	-10.6191
角度	-10.6192
ラウンド	-10.6192
host	-10.6192
候補者	-10.6193
コーポレート	-10.6196
を紹介します	-10.6198
ハー	-10.62
を可能にする	-10.6203
伝達	-10.6206
きました	-10.6208
▁research	-10.6211
持	-10.6212
ホテルの	-10.6219
に従う	-10.6222
同一	-10.6225
ことができません	-10.6227
れた	-10.6227
密度	-10.6227
僕は	-10.6231
の花	-10.6232
もはや	-10.6233
づ	-10.6235
武器	-10.6236
解像度	-10.6239
化合物	-10.6241
一体	-10.6243
パーツ	-10.6245
今日の	-10.6246
留	-10.6248
迅速に	-10.6249
体重	-10.6249
する際に	-10.6251
押	-10.6253
ao	-10.6253
再度	-10.6255
基本的に	-10.6255
痛	-10.6256
買	-10.6258
ろう	-10.6258
を与えます	-10.6259
割合	-10.626
職場	-10.626
に変換	-10.626
トー	-10.6262
称	-10.6263
理想的な	-10.6264
ゆっくりと	-10.6264
タクシー	-10.6265
解除	-10.6265
我が国	-10.6267
ブラシ	-10.6267
高温	-10.6268
奥	-10.6268
まるで	-10.6269
くる	-10.627
直ちに	-10.627
活性	-10.6271
md	-10.6272
に記載	-10.6273
ram	-10.6274
プログラムを	-10.6274
に役立つ	-10.6274
縮小	-10.6275
天井	-10.6275
各国の	-10.6276
貧困	-10.6279
▁いくつかの	-10.628
行って	-10.628
見た	-10.6281
済みの	-10.6283
降	-10.6286
ご連絡	-10.6289
飛び	-10.6289
改めて	-10.6294
fer	-10.6294
コミットメント	-10.6294
ひと	-10.6295
閉鎖	-10.6295
wiki	-10.6296
あらゆるファイル拡張子を	-10.6296
の削減	-10.6298
使命	-10.6299
ことがある	-10.6301
降り	-10.6302
に達する	-10.6303
僕	-10.6303
振り	-10.6303
そうした	-10.6305
の質	-10.6306
重要である	-10.6306
ボート	-10.631
それほど	-10.6312
を直接	-10.6317
か月	-10.6318
fs	-10.6318
▁コマンド	-10.6318
製造業	-10.6319
他に	-10.632
以上に	-10.6322
点で	-10.6325
殿	-10.6328
神戸	-10.633
light	-10.633
泊	-10.633
為に	-10.6332
受注	-10.6333
宝	-10.6333
ff	-10.6334
を切り	-10.6336
血管	-10.6337
ハードドライブ	-10.6339
アンケート	-10.6339
を生み出す	-10.634
兆	-10.6343
状況を	-10.6344
▁na	-10.6345
コンテスト	-10.6346
▁言語	-10.6347
を確認してください	-10.6347
bl	-10.6348
自宅	-10.6358
ドレス	-10.636
プログラミング	-10.6369
緊張	-10.6372
するのが	-10.6374
落ち	-10.6375
ダブル	-10.638
を有効にする	-10.6384
ならない	-10.6385
散	-10.6386
会社は	-10.6389
氏の	-10.639
たくさん	-10.6395
ハンドラ	-10.6396
ant	-10.6397
サイン	-10.6397
専攻	-10.6399
水を	-10.6401
なっています	-10.6403
ju	-10.6403
修了	-10.6404
活	-10.6409
が大きく	-10.641
▁cloud	-10.641
の必要性	-10.641
ll	-10.6412
を描く	-10.6413
ber	-10.6414
ーン	-10.6416
けれど	-10.6416
様子	-10.6418
を進める	-10.6419
島の	-10.642
女性が	-10.642
を問わず	-10.6426
全般	-10.6429
なくなる	-10.643
はありますか	-10.6433
の構成	-10.6436
船舶	-10.6437
級	-10.6438
年まで	-10.6439
失われた	-10.6442
リダイレクト	-10.6443
通常は	-10.6444
▁but	-10.6444
先端	-10.6444
返金	-10.6449
が発生し	-10.6449
ラジオ	-10.645
科学者	-10.6454
▁university	-10.6454
▁network	-10.6457
を目的として	-10.646
にかかる	-10.6463
質量	-10.6463
もありません	-10.6464
パラメーター	-10.6464
作品は	-10.6465
必要があり	-10.6468
du	-10.647
撮	-10.6475
食料	-10.6478
精密	-10.648
宝石	-10.6481
▁現在の	-10.6486
同時	-10.649
doc	-10.649
いただきました	-10.6491
ひとつ	-10.6493
祭り	-10.6494
サッカー	-10.6497
ary	-10.6499
きっかけ	-10.65
▁前	-10.65
▁詳細は	-10.6501
脚	-10.6501
なども	-10.6506
プロの	-10.6506
▁li	-10.6506
因	-10.6507
’	-10.6507
密	-10.6509
されると	-10.651
▁=	-10.6511
画像を	-10.6511
tion	-10.6512
イー	-10.6514
リス	-10.6518
原則として	-10.6519
ハンドル	-10.6521
す▁る	-10.6523
▁global	-10.6524
info	-10.6526
下に	-10.653
融資	-10.6531
弊社の	-10.6532
長期的な	-10.6532
の形で	-10.6533
医	-10.6535
able	-10.6536
の新しい	-10.6536
お問い合わせください	-10.6537
ワイヤレス	-10.6538
講座	-10.6538
を構築する	-10.6541
生じる	-10.6546
プレゼント	-10.6549
ができます	-10.6549
資金調達	-10.6551
全体を	-10.6552
の中でも	-10.6552
との連携	-10.6553
樹脂	-10.6553
を始める	-10.6555
ルーブル	-10.6556
だけの	-10.6556
個人情報は	-10.6557
タンク	-10.6557
近年	-10.6564
ate	-10.6569
徳	-10.657
sdgs	-10.6571
▁world	-10.6572
介護	-10.6575
を図る	-10.6576
腫瘍	-10.6579
決	-10.6579
塔	-10.658
番組	-10.6581
利用する	-10.6582
使用されます	-10.6585
今年の	-10.6585
続け	-10.6591
事を	-10.6592
分野における	-10.6593
の構造	-10.6595
を食べる	-10.6595
題	-10.6598
チームの	-10.6602
フラ	-10.6603
事務局	-10.6606
機器の	-10.6607
呼吸	-10.6608
楽器	-10.6608
完成した	-10.6608
art	-10.6609
を管理する	-10.661
をご確認ください	-10.661
歓迎	-10.661
化粧品	-10.6613
▁インターネット	-10.6613
度の	-10.6615
データセンター	-10.6617
許	-10.6618
チャー	-10.662
前後	-10.6621
日米	-10.6623
からなる	-10.6624
▁メニュー	-10.6625
確	-10.6625
回の	-10.6626
それらが	-10.6628
かれ	-10.6628
達は	-10.6633
リオ	-10.6633
lin	-10.6635
▁上記	-10.6636
執行役員	-10.6636
たとき	-10.6636
グラム	-10.6636
の大	-10.6637
珍しい	-10.6638
しないように	-10.6638
第三	-10.6639
推移	-10.664
チュ	-10.6641
施設の	-10.6641
排除	-10.6648
暗い	-10.6651
を設け	-10.6653
早い	-10.6657
開放	-10.6658
どうやって	-10.6664
発送	-10.6666
棟	-10.6666
を考える	-10.6667
の作品	-10.6669
太陽の	-10.6673
脆弱性	-10.6674
経過	-10.6677
にとっては	-10.6682
lu	-10.6683
幅広く	-10.6683
▁ja	-10.6683
旅行者	-10.6684
public	-10.6685
を構成する	-10.6686
ことが可能です	-10.6688
はあなたの	-10.6689
ns	-10.669
包装	-10.6691
にくい	-10.6693
重点	-10.6694
クラシック	-10.6696
全世界	-10.6696
際には	-10.6696
を減らす	-10.6697
に参加し	-10.6698
経路	-10.67
▁business	-10.6702
を作って	-10.6703
浜	-10.6704
崎	-10.6709
を使用すること	-10.6711
健	-10.6713
gl	-10.6713
残り	-10.6717
▁tel	-10.672
有用な	-10.672
るため	-10.6725
をクリック	-10.6726
レーション	-10.6733
明るく	-10.6739
司	-10.6743
サイエンス	-10.675
tu	-10.675
念	-10.675
本規約	-10.6752
棚	-10.6752
を正しく	-10.6753
決算	-10.6753
出願	-10.6755
ボトル	-10.6756
▁アプリ	-10.6758
ict	-10.676
窓口	-10.6762
かを	-10.6763
固有の	-10.6768
詰め	-10.6768
月末	-10.6772
進出	-10.6772
エディタ	-10.6775
ご利用いただけます	-10.6776
オリジナルの	-10.6777
▁専門分野	-10.6779
観光スポット	-10.6781
ita	-10.6781
にかけて	-10.6782
チームが	-10.6784
そば	-10.6789
ために必要な	-10.6789
リック	-10.6791
ng	-10.6793
がこの	-10.6795
▁they	-10.6795
を強化する	-10.6795
シア	-10.6797
広場	-10.6798
言って	-10.6799
女子	-10.6799
の割合	-10.6805
コート	-10.6806
ウェ	-10.6807
▁」▁、▁「	-10.6808
上映	-10.6809
できなかった	-10.681
エジプト	-10.681
▁ko	-10.6811
使って	-10.6812
消え	-10.6815
を維持し	-10.6815
を追加します	-10.6818
毎月	-10.6819
津波	-10.682
we	-10.6821
令	-10.6822
を得	-10.6822
電車	-10.6823
自然の	-10.6823
dy	-10.6824
スク	-10.6829
グル	-10.6829
時点	-10.6831
ブラウザー	-10.6831
たとえ	-10.6831
mon	-10.6833
伝送	-10.6833
タイミング	-10.6834
育	-10.6836
ご紹介	-10.6838
▁発行日	-10.6838
展望	-10.6839
クリア	-10.684
ニュージーランド	-10.6841
pos	-10.6843
大使館	-10.6844
▁y	-10.6848
をかけ	-10.6851
我々が	-10.6854
に位置し	-10.6855
▁bo	-10.6857
心臓	-10.6858
収穫	-10.6858
楽しく	-10.6858
みたい	-10.686
美しさ	-10.6862
▁max	-10.6863
およそ	-10.6867
事態	-10.6867
物事	-10.6868
ste	-10.6868
小学校	-10.6871
指導者	-10.6871
yo	-10.6873
は現在	-10.6873
トランス	-10.6876
したい場合は	-10.6877
耐久性	-10.6878
他人	-10.6879
▁mi	-10.6879
従	-10.6881
▁無料	-10.6888
豆	-10.6895
犯	-10.6895
と思った	-10.6897
に登録	-10.6898
策定	-10.6898
徒歩	-10.6899
を加える	-10.6902
▁私たちが	-10.6907
ップ	-10.6908
のデザイン	-10.691
一定	-10.691
▁z	-10.6911
無視	-10.6912
撃	-10.6914
広報	-10.6915
抗	-10.6916
切れ	-10.6917
したがって	-10.6917
共産党	-10.6918
wo	-10.6918
いずれも	-10.6918
の安全	-10.692
の例	-10.6922
パーセント	-10.6922
誰でも	-10.6922
set	-10.6923
に向け	-10.6923
▁」▁。	-10.6925
tt	-10.6926
テル	-10.6926
デフォルトで	-10.693
の量	-10.693
ミーティング	-10.693
率は	-10.6933
熟	-10.6933
適切	-10.6935
海岸	-10.6936
の一	-10.6937
有名	-10.6939
リーダーシップ	-10.6944
itunes	-10.6945
破	-10.6945
od	-10.6946
パケット	-10.6951
養	-10.6952
ミー	-10.6953
消	-10.6953
塗料	-10.6954
展示会	-10.6955
見学	-10.6957
広島	-10.6958
著者	-10.696
▁was	-10.6963
ひとり	-10.6968
流行	-10.6969
移	-10.6971
▁ka	-10.6976
のパフォーマンス	-10.6979
の価値	-10.6984
年金	-10.699
社外取締役	-10.6991
湾	-10.6992
▁user	-10.6992
まれ	-10.6993
バグ	-10.6993
▁最近	-10.6994
色合い	-10.6996
キュー	-10.6996
おもちゃ	-10.6996
皆様	-10.6997
鏡	-10.6997
直径	-10.7004
をクリックし	-10.7005
ポケット	-10.7006
べく	-10.7007
クーポンコード	-10.7009
ジョブ	-10.7011
多様性	-10.7015
技術者	-10.7015
に大きな	-10.7018
滝	-10.7018
▁をクリックします	-10.7019
が発生する	-10.7019
通販	-10.7021
▁プレスリリース	-10.7024
簡単です	-10.7027
▁services	-10.7027
ート	-10.7029
の形	-10.7029
室内	-10.7036
ていますが	-10.7041
描画	-10.7042
様式	-10.7042
永	-10.7045
ポール	-10.7046
後は	-10.7047
大気	-10.7048
することをお勧めします	-10.705
の形成	-10.705
サインイン	-10.7051
▁京都	-10.7051
地域社会	-10.7055
ポータル	-10.7057
危険な	-10.7057
ギフト	-10.7059
どこか	-10.7059
を共有する	-10.706
尿	-10.7062
中小企業	-10.7062
ソウル	-10.7062
眺め	-10.7065
当第	-10.7066
欠陥	-10.7068
インタフェース	-10.707
アフガニスタン	-10.7073
サステナビリティ	-10.7074
eng	-10.7075
廃止	-10.7075
▁そう	-10.7076
▁studio	-10.7077
画面の	-10.708
細菌	-10.708
であって	-10.7081
枝	-10.7081
▁di	-10.7081
問題を解決	-10.7081
龍	-10.7081
ベイ	-10.7082
たもの	-10.7082
装	-10.7086
いかに	-10.7086
酸化	-10.7088
過去に	-10.709
時々	-10.7098
存	-10.7099
参	-10.7099
スペイン	-10.7099
基板	-10.7102
かり	-10.7104
がありますが	-10.711
沢	-10.711
事業所	-10.7115
をインストールする	-10.7116
ことを確認してください	-10.7117
分け	-10.7118
幸福	-10.7118
を維持	-10.7121
アセット	-10.7121
取る	-10.7124
たびに	-10.7125
台の	-10.7126
願	-10.7127
走行	-10.7127
丘	-10.713
上部	-10.713
速やかに	-10.7131
九	-10.7132
pu	-10.7133
プリンタ	-10.7135
羊	-10.7137
ef	-10.7138
のみが	-10.7139
腹	-10.7139
コントローラ	-10.714
の生活	-10.714
まま	-10.7141
つか	-10.7144
ラボ	-10.7145
レッド	-10.7145
倫理	-10.7146
cpu	-10.7147
トランザクション	-10.7147
icloud	-10.7148
南部	-10.7148
エントリ	-10.715
を求め	-10.7151
ものだ	-10.7151
という言葉	-10.7151
リスク管理	-10.7151
立て	-10.7152
腸	-10.7153
オーブン	-10.7154
に至るまで	-10.7156
▁」▁)	-10.7156
space	-10.716
ヨーロッパの	-10.7162
絶	-10.7162
浸透	-10.7164
レンタカー	-10.7165
men	-10.7165
の意味	-10.7167
やはり	-10.7167
あらかじめ	-10.7167
▁our	-10.7168
やすく	-10.7168
日常	-10.717
張	-10.7171
あまりにも	-10.7173
クリ	-10.7174
に入って	-10.7175
グループ会社	-10.7177
アカウントの	-10.7177
open	-10.7178
▁apache▁http	-10.7179
direct	-10.7179
しばらく	-10.7179
放出	-10.7182
強調	-10.7183
セクター	-10.7189
腕	-10.719
▁会社概要	-10.7191
批判	-10.7193
見解	-10.7197
同様に	-10.7197
んでいる	-10.7198
ナン	-10.7201
▁今すぐ	-10.7201
願い	-10.7202
ていくこと	-10.7203
を含めた	-10.7204
の基本	-10.7205
の木	-10.7206
の責任	-10.7207
の支払い	-10.7209
▁vi	-10.721
ゴール	-10.7211
標準的な	-10.7211
を完了	-10.7211
地球環境	-10.7212
計上	-10.7212
使われる	-10.7214
へのリンク	-10.7215
医者	-10.7217
どこに	-10.7217
大学で	-10.7217
典	-10.7217
数が	-10.7218
ニング	-10.7218
カリ	-10.7218
求め	-10.7219
うえで	-10.722
sim	-10.7221
ドー	-10.7222
最新情報	-10.7222
マクロ	-10.7222
遊び	-10.7225
疲れ	-10.7225
シグナル	-10.7226
を取得し	-10.7229
ゴルフ	-10.7229
を担当	-10.7232
メタ	-10.7236
入国	-10.7236
ファイ	-10.7237
配当	-10.7239
excel	-10.724
国際社会	-10.724
ティック	-10.7243
キング	-10.7244
投	-10.7248
を食べ	-10.7249
スポンサー	-10.7252
らず	-10.7255
アンド	-10.7256
ありました	-10.7257
付属	-10.7257
コンテンツの	-10.7258
▁corporation	-10.7258
人形	-10.7259
サル	-10.7259
▁ステータス	-10.7259
することに	-10.726
写	-10.7261
ツリー	-10.7264
ラウンジ	-10.7264
当然	-10.7267
に移動します	-10.7272
議長	-10.7273
できますか	-10.7277
耐	-10.7277
すぎ	-10.7278
申込	-10.7279
特典	-10.7279
済	-10.7279
の決定	-10.7279
導	-10.7281
組成	-10.7282
周囲	-10.7282
gp	-10.7284
実行する	-10.7284
安い	-10.7287
▁have	-10.7287
伝	-10.7291
炭素	-10.7291
コンタクト	-10.7291
sy	-10.7291
無い	-10.7292
生じた	-10.7292
それ以外の	-10.7295
研究科	-10.7297
ダッシュボード	-10.7299
があること	-10.73
週末	-10.73
倉庫	-10.7302
と言って	-10.7302
短	-10.7306
安全で	-10.7306
▁car	-10.7309
オペレーション	-10.7309
冬の	-10.731
公式サイト	-10.7311
日本に	-10.7312
▁動画	-10.7313
現在は	-10.7318
カラ	-10.7321
ダイヤル	-10.7322
の際に	-10.7323
年までに	-10.7327
神は	-10.7329
わずかに	-10.7331
歩	-10.7332
の魅力	-10.7334
▁近年	-10.7338
後半	-10.734
乗り	-10.734
イラク	-10.7343
cp	-10.7347
があると	-10.7349
公正	-10.735
価値観	-10.735
ありがとうございました	-10.7351
our	-10.7351
一層	-10.7353
指数	-10.7355
聞き	-10.7355
主導	-10.7356
光学	-10.7357
▁usb	-10.7359
を表す	-10.736
▁expressvpn	-10.7361
サービスは	-10.7362
reg	-10.7362
のページ	-10.7365
ine	-10.7367
▁%▁)	-10.7367
差別	-10.7367
となって	-10.7369
工芸品	-10.737
を迎え	-10.7372
の時間	-10.7373
思う	-10.7373
ことである	-10.7375
灯	-10.7376
uk	-10.7376
活性化	-10.7377
ポスター	-10.7378
感じる	-10.7381
チベット	-10.7382
盛り	-10.7384
タル	-10.7385
担保	-10.7386
物の	-10.7387
使	-10.7387
をご参照ください	-10.7387
介入	-10.739
基本方針	-10.7391
ポー	-10.7393
ジュース	-10.7395
淡々と	-10.7395
歴史的	-10.7396
目的の	-10.7396
荷	-10.7396
を書く	-10.7398
内容を	-10.74
があって	-10.7402
▁technology	-10.7402
を図り	-10.7404
薄い	-10.7404
トラブル	-10.7405
に対処する	-10.7406
フルーツ	-10.7408
を許可	-10.7409
クエリ	-10.7411
の前	-10.7411
シンプル	-10.7412
シス	-10.7413
を使用できます	-10.7415
わけです	-10.7415
形の	-10.7416
岸	-10.7416
年より	-10.7417
に触れ	-10.7422
開発した	-10.7424
ならではの	-10.7427
の声	-10.743
木材	-10.7431
特長	-10.7432
ことができた	-10.7432
om	-10.7432
と共有	-10.7432
北部	-10.7433
den	-10.7433
更なる	-10.7434
原材料	-10.7437
tur	-10.7439
いている	-10.7439
ことのできる	-10.744
をした	-10.7441
動く	-10.7442
。▁※	-10.7445
が起こる	-10.7447
東京大学	-10.7447
利便性	-10.7447
ica	-10.7447
がなく	-10.7448
を務め	-10.7449
ピア	-10.745
est	-10.745
通話	-10.745
を増やす	-10.745
を改善する	-10.745
ギャップ	-10.7452
お祝い	-10.7456
ファームウェア	-10.7456
あの	-10.7457
と考える	-10.7461
ゲート	-10.7461
毎に	-10.7461
事情	-10.7465
一時	-10.7465
▁out	-10.7467
合併	-10.7467
応	-10.7469
▁and▁communi	-10.7474
認知	-10.7478
の適用	-10.7479
本物の	-10.7479
確立	-10.7483
ケー	-10.7483
本日	-10.7483
タイル	-10.7486
▁全	-10.7487
フレームワーク	-10.7488
▁the▁institute	-10.7488
▁art	-10.749
ナイト	-10.7493
総額	-10.7495
▁連絡先	-10.7495
なって	-10.7496
するなど	-10.7497
菌	-10.7499
配慮	-10.7501
グランド	-10.7504
ドラマ	-10.7507
の皆様	-10.7507
▁company	-10.7509
がない場合は	-10.7509
良好な	-10.751
今では	-10.7511
のまま	-10.7511
を体験	-10.7514
広がり	-10.7516
多数	-10.7518
訂正	-10.752
他にも	-10.752
ハードディスク	-10.7522
▁httpd	-10.7522
込まれ	-10.7522
ブレスレット	-10.7526
万ドル	-10.7529
吹き	-10.7531
▁of▁electronics	-10.7531
アジアの	-10.7533
回り	-10.7533
▁utility	-10.7536
pt	-10.7537
に来て	-10.7537
少なく	-10.7537
▁people	-10.7538
たいと思います	-10.7542
ければ	-10.7548
が最も	-10.7549
▁online▁issn	-10.7551
cation▁engineers	-10.7552
本人	-10.7553
必ずしも	-10.7553
▁print▁is	-10.7553
寄	-10.7554
ator	-10.7556
柄	-10.7556
を保存する	-10.7558
▁ro	-10.7558
config	-10.756
寸法	-10.756
cad	-10.7561
学科	-10.7563
▁tableau	-10.7563
ミックス	-10.7568
ster	-10.7573
ごと	-10.7573
混合物	-10.7574
▁connect	-10.7576
を見つけることができます	-10.7577
発表した	-10.7579
除外	-10.7582
読む	-10.7583
ドン	-10.7584
算	-10.7584
lp	-10.7585
類似	-10.7588
ッチ	-10.7595
ご質問	-10.7595
規模の	-10.7596
拡張子	-10.7597
必要です	-10.7598
スタートアップ	-10.76
老	-10.76
規程	-10.7601
▁お客様の	-10.7603
伝説	-10.7604
コル	-10.7606
省エネ	-10.7608
偉大な	-10.7611
アプリの	-10.7614
プライバシーポリシー	-10.7615
▁suexec	-10.7615
の背景	-10.7615
方々	-10.7616
景色	-10.7618
と呼ばれ	-10.7618
ためです	-10.762
デバイスを	-10.762
しているか	-10.7623
欧米	-10.7625
ポン	-10.7625
ている場合	-10.7629
宗	-10.7631
御紹介	-10.7632
にかかわらず	-10.7633
タイヤ	-10.7634
感動	-10.7636
使われ	-10.7636
covid	-10.7638
置	-10.7641
本の	-10.7641
リラックス	-10.7642
際の	-10.7642
の動作	-10.7645
市場に	-10.7646
より高い	-10.7647
益	-10.765
話し	-10.765
を評価する	-10.7651
の手	-10.7651
▁tr	-10.7653
の分析	-10.7653
に興味	-10.7654
▁free	-10.7656
独	-10.7657
を確実に	-10.7658
uc	-10.7658
進展	-10.7661
を対象とした	-10.7661
の再	-10.7662
クラスの	-10.7663
ないでしょう	-10.7665
▁sp	-10.7666
を入力する	-10.7667
気象	-10.7669
興奮	-10.7669
がより	-10.767
テクニック	-10.767
製の	-10.7673
が必要になります	-10.7674
もともと	-10.7676
未満	-10.7676
に達し	-10.7676
望	-10.7677
を見ることができます	-10.768
dj	-10.768
汚れ	-10.768
聞いて	-10.7684
与えられた	-10.7684
充実	-10.7685
▁種別	-10.7691
▁英語	-10.7693
エンド	-10.7695
天候	-10.7704
xnumx	-10.7704
を定め	-10.7705
製造業者	-10.7707
の第	-10.771
部の	-10.771
震災	-10.7714
の方法	-10.7715
西洋	-10.7715
胃	-10.7717
の活用	-10.7717
バーチャル	-10.7718
サービスの提供	-10.7719
居住	-10.7719
▁お客様は	-10.7719
tp	-10.7721
bc	-10.7725
取り扱い	-10.7725
の一つです	-10.7725
▁―	-10.7726
ビデオのダウンロードリンクを	-10.7727
調べ	-10.7729
個人情報保護	-10.773
挨拶	-10.773
世界的に	-10.7742
)<<	-10.7742
いただける	-10.7743
▁live	-10.7743
物を	-10.7744
読者	-10.7745
経由で	-10.7746
▁新作エ	-10.7749
▁記事を購入	-10.7749
ゾ	-10.7751
の価格	-10.7751
を実行	-10.7752
▁それぞれの	-10.7754
欠	-10.7756
難民	-10.7756
ure	-10.7757
廃	-10.7758
誕生	-10.7758
学生の	-10.7758
心の	-10.7759
アナログ	-10.7762
氏名	-10.7764
の上昇	-10.7764
に最適です	-10.7765
バイナリ	-10.7765
私を	-10.7766
ページに	-10.7766
死亡	-10.7769
ーズ	-10.7772
彼を	-10.7774
▁小	-10.7775
ton	-10.7776
文学	-10.7776
の外観	-10.7777
生態系	-10.7777
に同意	-10.7778
次第	-10.7779
てまいります	-10.7781
で使用する	-10.7781
行い	-10.7783
当初	-10.7784
アルミニウム	-10.7785
を構築	-10.7786
間違いなく	-10.7786
パブリック	-10.7787
誘導	-10.7788
車で	-10.7789
プロセスは	-10.779
随時	-10.7791
che	-10.7792
決め	-10.7795
▁vpn	-10.7795
善	-10.7796
▁ta	-10.7797
子供が	-10.7798
を探し	-10.7798
弱い	-10.7799
野村	-10.7799
タワー	-10.7801
性的	-10.7803
tc	-10.7803
ニック	-10.7804
はじめ	-10.7808
ting	-10.7809
技術開発	-10.7811
:---	-10.7814
▁一部の	-10.7815
をもたらし	-10.7817
目を	-10.7817
ブレーキ	-10.7817
プロバイダ	-10.7819
▁ai	-10.782
タップ	-10.782
ウクライナ	-10.7821
問題が	-10.7823
の距離	-10.7823
取り外し	-10.7825
の更新	-10.7827
con	-10.7828
と言った	-10.7828
技術は	-10.7828
ill	-10.7828
跡	-10.7829
tr	-10.783
local	-10.7832
給	-10.7834
ツイート	-10.7835
解放	-10.7839
指針	-10.7841
自由な	-10.7842
敷	-10.7842
道を	-10.7842
変わり	-10.7842
の低下	-10.7842
ハイライト	-10.7844
▁instagram	-10.7849
の所有者	-10.7852
安心して	-10.7853
を守る	-10.7853
不要な	-10.7855
らせ	-10.7856
することがあります	-10.7856
を上げ	-10.7857
年以降	-10.7858
なんて	-10.7858
以下に	-10.7863
同社の	-10.7864
の端	-10.7868
価格は	-10.7868
の支援	-10.787
▁ho	-10.7872
に出	-10.7872
火山	-10.7872
拡張子が	-10.7873
tra	-10.7876
をご利用	-10.7876
低減	-10.7883
するとき	-10.7883
カンパニー	-10.7884
モー	-10.7885
▁«	-10.7886
ソフトウェアの	-10.7887
を正確に	-10.7888
前提	-10.7892
mt	-10.7892
条第	-10.7893
高性能	-10.7893
回避	-10.7893
の成功	-10.7893
rp	-10.7896
る必要があります	-10.7903
国で	-10.7905
られない	-10.7905
原子	-10.7908
を超え	-10.7909
属	-10.7909
ドラッグ	-10.791
次回	-10.7911
柔らかい	-10.7912
]▁-	-10.7912
移住	-10.7913
by	-10.7914
リアル	-10.7915
ah	-10.7919
モータ	-10.7919
リポジトリ	-10.7919
しやすい	-10.7919
ことができるように	-10.7922
算出	-10.7924
昨日	-10.7926
お部屋	-10.7927
出演	-10.7928
財	-10.7928
あなた自身	-10.793
哲学	-10.7932
に努め	-10.7933
house	-10.7935
sl	-10.7935
に入り	-10.7935
学者	-10.7937
中止	-10.7938
ビジュアル	-10.7938
列車	-10.7939
すごく	-10.7939
トル	-10.794
count	-10.7941
購読	-10.7943
損	-10.7947
に影響	-10.7948
クタ	-10.7951
が生じ	-10.7952
これに	-10.7952
出会い	-10.7953
▁ネットワーク	-10.7954
手を	-10.7956
デイ	-10.7957
プレイリスト	-10.7959
ina	-10.7962
燃焼	-10.7964
相互作用	-10.7965
喜んで	-10.7966
▁mar	-10.7966
var	-10.7967
が可能な	-10.7967
生物多様性	-10.7969
等について	-10.7969
ten	-10.7972
最適	-10.7972
背	-10.7973
ブッシュ	-10.7977
ているか	-10.7977
を積極的に	-10.798
の購入	-10.7984
兄弟	-10.7985
チャート	-10.7985
する必要はありません	-10.7988
js	-10.7988
誕生日	-10.7989
付与	-10.799
帰	-10.7992
▁当社グループは	-10.7992
bb	-10.7993
甲	-10.7994
クリスチャン	-10.7998
遅く	-10.7998
▁こちら	-10.8
人達	-10.8002
ダム	-10.8002
を調べ	-10.8003
特殊な	-10.8003
起こった	-10.8005
ランチ	-10.8007
キン	-10.8008
▁デフォルト	-10.8008
書く	-10.8011
▁ssl	-10.8016
の普及	-10.8019
畑	-10.8019
変わる	-10.8021
それでも	-10.8021
行使	-10.8022
態度	-10.8023
発達	-10.8023
初めての	-10.8026
ical	-10.8026
スクリーンショット	-10.8027
▁採用情報	-10.8027
コンパクト	-10.8029
火災	-10.803
を大幅に	-10.8031
再現	-10.8031
の表面	-10.8033
区分	-10.8033
恐怖	-10.8034
ということは	-10.8035
ence	-10.8035
▁ir	-10.8037
経済成長	-10.8037
を目指して	-10.804
個性	-10.804
超音波	-10.804
を適用する	-10.8041
糖	-10.8042
min	-10.8044
デバイスに	-10.8045
▁リンク	-10.8046
は完全に	-10.8047
およびその他の	-10.8048
が必要である	-10.8049
ているため	-10.8051
proxy	-10.8051
を除いて	-10.8052
化する	-10.8052
ベー	-10.8052
を採用し	-10.8057
行います	-10.8057
▁一方で	-10.806
之	-10.806
誤って	-10.806
表明	-10.8061
取扱	-10.8061
驚き	-10.8062
喫煙	-10.8063
売り	-10.8063
▁ヘッダ	-10.8064
害	-10.8064
ヴ	-10.8064
期間は	-10.8067
▁グループ	-10.8067
程度の	-10.8068
▁wi	-10.807
ルーター	-10.8073
個人情報の	-10.8073
早期	-10.8078
ネイティブ	-10.8079
uni	-10.8079
上位	-10.8081
同様	-10.8082
知的財産	-10.8085
場合にのみ	-10.8091
介	-10.8092
を制御する	-10.8093
お客さまの	-10.8094
修	-10.8094
資産の	-10.8094
ホイール	-10.8094
gr	-10.8095
検知	-10.8095
炎症	-10.8097
sql	-10.8098
している場合	-10.8102
を伝える	-10.8102
res	-10.8105
を続け	-10.8109
の開始	-10.8111
単純	-10.8114
速く	-10.8114
ssd	-10.8115
スウェーデン	-10.8115
ログファイル	-10.8117
友	-10.8118
達が	-10.8119
apu	-10.812
特集	-10.812
ノン	-10.812
の成果	-10.8121
を上げる	-10.8121
登場	-10.8123
のニーズ	-10.8123
日現在	-10.8126
送金	-10.8128
スティック	-10.8129
情報はこちら	-10.8129
アレルギー	-10.8129
を学び	-10.813
書式	-10.813
ときには	-10.8131
モデルの	-10.8131
なりました	-10.8132
東日本大震災	-10.8132
▁例	-10.8136
履行	-10.8136
綿	-10.8137
ミュージック	-10.8138
が異なる	-10.8139
しますか	-10.8139
普段	-10.8141
激しい	-10.8145
てくる	-10.8145
考えて	-10.8146
ビン	-10.8146
引用	-10.8148
移植	-10.815
それで	-10.815
バンク	-10.8154
受け付け	-10.8157
ラック	-10.8157
別途	-10.8158
http	-10.816
上限	-10.816
を担う	-10.8162
階層	-10.8162
▁am	-10.8164
php	-10.8177
オレンジ	-10.8177
継続的に	-10.8179
に記載されている	-10.818
反映	-10.818
進む	-10.8182
action	-10.8183
ユーザが	-10.8184
sk	-10.8184
知らない	-10.8184
アナ	-10.8185
文章	-10.8185
gb	-10.8186
エイ	-10.8187
詩	-10.8189
厳	-10.819
日本政府	-10.8193
年間で	-10.8194
したとき	-10.8195
肩	-10.8195
をダウンロードする	-10.8197
連合	-10.8202
があるので	-10.8203
ことを忘れないでください	-10.8208
に集中	-10.8212
しようとする	-10.8212
▁ちなみに	-10.8213
表彰	-10.8214
することが可能です	-10.8214
匿名	-10.8214
を続ける	-10.8216
▁post	-10.8217
探	-10.8221
を得て	-10.8221
地帯	-10.8223
ヘッジ	-10.8224
鋼	-10.8224
準	-10.8227
創業	-10.8228
を調べる	-10.8229
エクスペリエンス	-10.823
手動で	-10.823
ユー	-10.8231
プロフェッショナル	-10.8231
リファレンス	-10.8231
セント	-10.8232
科学的	-10.8233
使用することができます	-10.8233
帳	-10.8234
部分は	-10.8235
移民	-10.8238
view	-10.8241
てしまった	-10.8244
fx	-10.8247
nasa	-10.8248
の開催	-10.825
形式の	-10.825
たった	-10.8253
の重要な	-10.8253
少女	-10.8253
始めました	-10.8254
つながり	-10.8259
これからも	-10.826
gif	-10.8264
賃金	-10.8265
カール	-10.8265
▁life	-10.8265
を得た	-10.8268
棒	-10.8269
ギリシャ	-10.827
当期	-10.8273
福祉	-10.8275
柔軟な	-10.8278
してみてください	-10.8279
の調整	-10.8281
に行き	-10.8286
フランスの	-10.8286
政府が	-10.8288
を設定し	-10.8289
陰	-10.8289
数量	-10.829
▁(▁)	-10.8292
ですので	-10.8292
日産	-10.8292
意味で	-10.8293
見られる	-10.8293
·	-10.8294
▁」▁、	-10.8295
取引先	-10.8295
を有効に	-10.8297
)[	-10.8298
面で	-10.8301
種の	-10.8301
ついた	-10.8304
専門知識	-10.8304
理念	-10.8306
の特性	-10.8308
喜	-10.8313
フラッシュ	-10.8314
の理由	-10.8315
ディー	-10.8315
ないと	-10.8317
機能が	-10.8318
を知っている	-10.8321
成人	-10.8322
▁power	-10.8322
世紀の	-10.8322
てしまいます	-10.8323
名が	-10.8323
紙の	-10.8323
木の	-10.8326
地域に	-10.8328
ことが多い	-10.8331
と考えられています	-10.8331
ランク	-10.8332
old	-10.8332
周り	-10.8333
人も	-10.8337
の促進	-10.8337
しているので	-10.8338
米ドル	-10.8339
京都大学	-10.834
りました	-10.8341
なかなか	-10.8343
ている必要があります	-10.8346
くなる	-10.8347
ong	-10.8347
みなさん	-10.8347
ssl	-10.8348
ページで	-10.8349
が大きい	-10.8349
両方	-10.835
町の	-10.835
寺院	-10.8352
経営者	-10.8353
迫	-10.8353
備	-10.8356
いただきます	-10.836
件の	-10.8361
基地	-10.8363
お金を	-10.8366
間隔	-10.8368
ass	-10.8369
本契約	-10.837
▁トップ	-10.8372
でのみ	-10.8373
ラル	-10.8374
状態に	-10.8375
▁登録	-10.8375
ヘルスケア	-10.8377
ティング	-10.8379
最も一般的な	-10.838
を進めています	-10.8381
仕	-10.8381
などにより	-10.8382
乾	-10.8383
▁ssi	-10.8386
▁リクエスト	-10.8387
fl	-10.8387
泉	-10.839
変わって	-10.8391
書いた	-10.8393
ひとつの	-10.8394
ものとする	-10.8394
拡散	-10.8395
遂行	-10.8395
材料の	-10.8396
探索	-10.8401
心を	-10.8402
を読み	-10.8405
▁share	-10.8407
才能	-10.8409
運航	-10.841
初め	-10.841
避難	-10.8411
mr	-10.8412
のに役立つ	-10.8413
発言	-10.8416
チェックイン	-10.8416
呼び出し	-10.8417
ld	-10.8418
追	-10.842
溶接	-10.842
二重	-10.8421
係	-10.8423
天気	-10.8423
することも	-10.8424
の整備	-10.8425
物理学	-10.8427
逆に	-10.8427
提言	-10.8427
できるようになりました	-10.8428
val	-10.8429
san	-10.8433
図面	-10.8433
sns	-10.8435
vision	-10.8437
ボタンをクリックします	-10.8438
シャワー	-10.8439
ウェブサイトの	-10.8439
してくれる	-10.844
の維持	-10.8442
をご提供	-10.8443
現地の	-10.8446
疑	-10.8448
意見交換	-10.8448
を生み出し	-10.8448
デザインの	-10.845
をサポート	-10.8451
代表取締役社長	-10.8451
をよく	-10.8451
量は	-10.8452
ウェア	-10.8454
の定義	-10.8456
を目的とした	-10.8458
user	-10.8459
▁バーチャルホスト	-10.846
技術的な	-10.8461
▁ha	-10.8466
技術と	-10.8466
▁ほとんどの場合	-10.8468
を拒否	-10.8468
を防ぐ	-10.8469
を達成する	-10.847
▁クライアント	-10.8472
ゲル	-10.8473
市内	-10.8473
可能性があり	-10.8475
空の	-10.8475
の画像	-10.8476
使われている	-10.8481
農家	-10.8484
▁jp	-10.8485
▁ソフトウェア	-10.8487
戻	-10.8487
ストリップ	-10.8488
時から	-10.8489
ピンク	-10.8489
▁自分の	-10.849
厚	-10.849
nu	-10.8491
意欲	-10.8492
とおり	-10.8493
▁この記事	-10.8493
を支払う	-10.8494
絶えず	-10.8496
垂直	-10.8496
とは異なり	-10.8498
設	-10.8498
なくなった	-10.8499
出身	-10.85
先進	-10.8504
優勝	-10.8504
が少ない	-10.8504
始めます	-10.8506
が表示される	-10.8508
ルド	-10.8509
した場合は	-10.8509
国際交流	-10.851
let	-10.8511
ベンダー	-10.8512
ラーメン	-10.8513
ジャン	-10.8513
景	-10.8514
素敵な	-10.8516
とりわけ	-10.8518
▁ご	-10.852
段ボール	-10.852
ああ	-10.8521
dm	-10.8522
を認識し	-10.8522
を重ね	-10.8522
お子様	-10.8523
外の	-10.8524
カップル	-10.8525
vm	-10.8525
為替	-10.8527
微生物	-10.8527
クリエイティブ	-10.8527
int	-10.8528
問題が解決しない場合は	-10.8529
遵守	-10.8529
を超えた	-10.8529
遠隔	-10.853
あなた自身の	-10.8531
虫	-10.8533
zo	-10.8533
スタンド	-10.8536
を受け入れ	-10.8536
▁加えて	-10.8537
に存在する	-10.8538
潮	-10.8538
習得	-10.8539
▁ar	-10.854
ボタンをクリックして	-10.8543
を入れ	-10.8544
の変動	-10.8545
の機会	-10.8546
トロ	-10.8547
fu	-10.8547
gt	-10.8548
投入	-10.8551
韓国語	-10.8552
を買う	-10.8554
然	-10.8555
学校の	-10.8555
としています	-10.8555
視野	-10.8558
自治体	-10.8559
に使用する	-10.8564
▁blog	-10.8566
受講	-10.8566
グリッド	-10.8566
クライアントの	-10.857
ほかの	-10.8571
サミット	-10.8572
こちら	-10.8572
限	-10.8573
は存在しません	-10.8573
金銭	-10.8575
フェア	-10.8575
▁具体的には	-10.8576
チェックアウト	-10.8577
モードで	-10.8578
あなたはあなたの	-10.8579
聴	-10.858
▁質問	-10.8581
演習	-10.8581
の力	-10.8581
にとっても	-10.8584
を開始します	-10.8584
フロア	-10.8587
conf	-10.8587
該当	-10.8588
スイート	-10.859
定期的な	-10.8592
ビーム	-10.8594
クリーン	-10.8594
伝え	-10.8594
合理的な	-10.8597
個別に	-10.8597
han	-10.8597
亜	-10.8603
登	-10.8604
を提供すること	-10.8605
を保護する	-10.8605
エレクトロニクス	-10.8605
取引所	-10.8606
インスピレーション	-10.8607
sho	-10.8609
苦情	-10.8609
の建設	-10.8612
楽しめる	-10.8613
ご購入	-10.8613
研	-10.8614
▁ex	-10.8617
に表示される	-10.8617
以外に	-10.8617
システムが	-10.8618
ドイツの	-10.8619
評判	-10.8623
振興	-10.8624
▁dis	-10.8626
linux	-10.8626
みな	-10.8629
次のような	-10.8629
すこと	-10.863
情勢	-10.8631
ウィンドウで	-10.8637
安定性	-10.8639
progid	-10.8639
ジャンプ	-10.864
きちんと	-10.8641
oc	-10.8642
を獲得	-10.8644
単なる	-10.8644
の部分	-10.8645
研究員	-10.8646
互換性のないファイル	-10.8651
全体的な	-10.8653
年次	-10.8656
気温	-10.8656
パスポート	-10.8656
改	-10.8656
私達	-10.8656
別に	-10.8657
システムに	-10.8657
▁なぜなら	-10.8658
着用	-10.8658
bra	-10.8659
自主	-10.8663
枠組み	-10.8663
チャン	-10.8665
無効なファイル拡張子	-10.8667
人材育成	-10.8667
を備えています	-10.8668
は本当に	-10.867
議員	-10.867
パッチ	-10.8671
を形成する	-10.8674
一度に	-10.8675
を活用して	-10.8675
ビットコイン	-10.8675
払い	-10.8676
水分	-10.8679
声明	-10.868
パイ	-10.8683
作品の	-10.8685
her	-10.8686
連れ	-10.8689
るのは	-10.8691
▁linux	-10.8692
透明	-10.8693
▁デジタル	-10.8695
オート	-10.8696
bs	-10.8698
key	-10.8698
ゼータ達	-10.8699
の利益	-10.8701
笑顔	-10.8702
の記事	-10.8703
倉	-10.8703
税金	-10.8708
彼等の	-10.8711
順序	-10.8712
福岡	-10.8715
多くの人が	-10.8717
簡単で	-10.8718
コードを	-10.8718
メールで	-10.8719
悪化	-10.8719
サイトで	-10.8722
借り	-10.8723
知的財産権	-10.8726
キャップ	-10.8727
果	-10.8728
ワード	-10.8728
アルミ	-10.8734
時間と	-10.8736
情報セキュリティ	-10.8736
よね	-10.8736
プログラムが	-10.8739
アス	-10.8745
を適切に	-10.8747
を改善し	-10.8747
ial	-10.8752
して下さい	-10.8753
繁栄	-10.8755
他社	-10.8755
彼等は	-10.8755
干渉	-10.8758
ようだ	-10.876
▁sub	-10.8761
する予定です	-10.8761
名誉	-10.8762
▁まだ	-10.8763
築	-10.8765
豊	-10.8767
開発された	-10.8768
を使用している	-10.8768
加入	-10.877
sms	-10.8771
貴	-10.8772
▁アジア	-10.8774
歩き	-10.8775
貼り付け	-10.8775
男性の	-10.8779
ように見える	-10.8779
旗	-10.878
iii	-10.8781
ることは	-10.8783
ゲノム	-10.8784
今年は	-10.8784
▁work	-10.8785
するでしょう	-10.8785
摂取	-10.8786
英語で	-10.879
下げ	-10.879
関節	-10.879
方に	-10.8791
本ウェブサイト	-10.8792
興	-10.8793
広範囲	-10.8794
スカイ	-10.8795
海水	-10.8796
買い物	-10.8797
双方	-10.8797
近代	-10.8798
患者さん	-10.8798
を開発する	-10.8798
シリア	-10.88
書かれた	-10.88
初期の	-10.8801
習	-10.8802
締約国	-10.8807
ntt	-10.8807
and	-10.8809
調節	-10.881
を修正	-10.8812
連結子会社	-10.8813
キュ	-10.8815
異なります	-10.8815
出る	-10.8817
銃	-10.8817
の規定	-10.8821
の内部	-10.8821
開催される	-10.8821
創設	-10.8823
釣り	-10.8824
ドゥ	-10.8824
ローン	-10.8826
光の	-10.8828
クレ	-10.8829
を生成する	-10.883
fp	-10.8831
持続	-10.8831
効果的に	-10.8832
の温度	-10.8832
シンプルで	-10.8832
上がり	-10.8833
に関し	-10.8834
開設	-10.8834
点検	-10.8836
集約	-10.8837
預金	-10.8837
お客様から	-10.8838
不可能	-10.8838
ケン	-10.8839
しつつ	-10.8839
研究機関	-10.8841
ビデオを	-10.8845
業界で	-10.8846
▁メール	-10.8847
取得した	-10.885
実は	-10.8851
下で	-10.8854
奨学金	-10.8854
ug	-10.8855
ドライ	-10.8855
ファイナンス	-10.8856
受領	-10.8857
マイク	-10.8858
tri	-10.8859
いか	-10.886
ショック	-10.8862
の壁	-10.8863
adobe	-10.8864
を自動的に	-10.8864
始まった	-10.8865
隣	-10.8866
を代表する	-10.8866
人生の	-10.8869
されていました	-10.887
司法	-10.8871
てから	-10.8873
裁判	-10.8873
ぐらい	-10.8873
ミング	-10.8874
黒い	-10.8875
par	-10.8875
シェ	-10.8875
理由で	-10.8876
も多く	-10.8879
お気に入り	-10.8879
スペシャル	-10.888
クリスマスツリー	-10.8881
シェフ	-10.8882
人数	-10.8884
を持つファイル	-10.8885
営業利益	-10.8885
削除された	-10.8885
冒険	-10.8888
しっかり	-10.8894
参加する	-10.8894
xi	-10.8897
▁画像	-10.8897
以外	-10.8897
人々を	-10.8898
javascript	-10.8898
hdd	-10.89
期間の	-10.8903
組み込み	-10.8906
学生が	-10.8907
注意事項	-10.8912
部門の	-10.8912
チリ	-10.8913
day	-10.8913
▁report	-10.8914
マウント	-10.8914
日本国内	-10.8919
を下	-10.8921
エアコン	-10.8925
っており	-10.8925
新製品	-10.8928
取扱い	-10.8928
両国	-10.893
を取ります	-10.893
成立	-10.8931
▁を参照してください	-10.8931
軽量	-10.8932
じゃない	-10.8933
年生	-10.8934
▁今後も	-10.8934
てい	-10.8935
位置に	-10.8936
体系	-10.894
方の	-10.894
ード	-10.8942
用品	-10.8944
コマース	-10.8944
▁add	-10.8944
nc	-10.8946
クト	-10.8947
等で	-10.8948
を確保する	-10.8949
終わる	-10.8951
ようにしてください	-10.8952
と思っています	-10.8954
エフェクト	-10.8961
に対応し	-10.8962
▁最も	-10.8962
東アジア	-10.8963
性別	-10.8963
鑑賞	-10.8963
行事	-10.8964
糖尿病	-10.8964
誤	-10.8966
仮想マシン	-10.8969
詐欺	-10.8969
▁see	-10.8971
述べた	-10.8972
を基に	-10.8974
テー	-10.8975
使用します	-10.8977
まった	-10.8977
復旧	-10.8977
▁おそらく	-10.8978
媒体	-10.8978
キャプチャ	-10.898
ドキュメンタリー	-10.898
本サイト	-10.8985
の新	-10.8988
問題の	-10.8989
マテリアル	-10.8989
要約	-10.8989
不可	-10.8989
▁ba	-10.8991
以下のような	-10.8992
オフライン	-10.8993
レスポンス	-10.8997
選択された	-10.8997
溶液	-10.8998
側に	-10.8998
の時代	-10.8999
株価	-10.9001
に関係なく	-10.9005
来年	-10.9006
–	-10.9006
▁support	-10.9007
補正	-10.9007
▁core	-10.9008
を残し	-10.901
ウォッチ	-10.901
ot	-10.901
送付	-10.9011
浮	-10.9012
有益な	-10.9013
▁全ての	-10.9014
を確立し	-10.9016
ようとする	-10.9017
ご確認ください	-10.9018
▁set	-10.9018
配達	-10.9019
中期経営計画	-10.9021
価格で	-10.9023
していくこと	-10.9026
ガーデン	-10.9026
▁外部	-10.9028
年前	-10.9028
求める	-10.9029
支払う	-10.9031
ファイルを開くには	-10.9032
二次	-10.9035
チュー	-10.9035
適合	-10.9037
ブックマーク	-10.9039
流動性	-10.904
act	-10.9041
▁html	-10.9041
▁リソース	-10.9042
▁ヘルプ	-10.9043
下部	-10.9043
債権	-10.9044
どちら	-10.9045
弊社は	-10.9047
ナイフ	-10.9049
ショ	-10.905
アリ	-10.9052
の設置	-10.9052
望ましい	-10.9054
手に	-10.9055
ワイヤー	-10.9058
agent	-10.9058
欲	-10.9059
ポールシフト	-10.906
ide	-10.9061
財布	-10.9064
を提案し	-10.9064
推測	-10.9065
ユニバーサル	-10.9065
競合	-10.9066
▁商品	-10.9067
ヒット	-10.9069
▁music	-10.907
買い	-10.907
作った	-10.907
演	-10.907
値が	-10.9073
必要とされる	-10.9075
▁?▁」	-10.9076
幕	-10.9077
毎週	-10.9079
場所です	-10.908
どれだけ	-10.908
縦	-10.9083
パッド	-10.9085
に対応した	-10.9087
組み立て	-10.9089
cat	-10.9091
を実現します	-10.9093
シップ	-10.9094
請求書	-10.9095
してしまう	-10.9096
固体	-10.9096
日常生活	-10.9096
を伝え	-10.9096
様に	-10.91
できました	-10.9101
を容易に	-10.9101
備え	-10.9101
▁これには	-10.9103
お願い	-10.9103
難しく	-10.9104
が難しい	-10.9104
本年	-10.9104
ze	-10.9105
衣装	-10.9107
も多い	-10.9108
肺	-10.9108
のいくつか	-10.9113
採	-10.9113
部分を	-10.9113
されている場合	-10.9114
▁続きを読む	-10.9114
エー	-10.9117
エス	-10.9118
fc	-10.912
off	-10.9121
表示する	-10.9121
出来	-10.9121
抜け	-10.9123
が生じる	-10.9123
世界を	-10.9123
▁store	-10.9124
太陽光発電	-10.9124
▁記事	-10.9125
たのは	-10.9126
への参加	-10.9127
父親	-10.9129
ストラップ	-10.9131
要望	-10.9131
洗練された	-10.9133
役立つ	-10.9133
分配	-10.9133
▁listen	-10.9135
国籍	-10.9135
今回は	-10.9136
求められる	-10.9136
副作用	-10.9136
最終的には	-10.9138
腰	-10.914
▁それらの	-10.9141
損益	-10.9142
▁site	-10.9143
着実に	-10.9143
ものとして	-10.9144
子プロセス	-10.9144
新型コロナウイルス	-10.9145
独立して	-10.9147
の需要	-10.9147
アメリカ人	-10.9148
顧客に	-10.9149
▁三	-10.9149
二人	-10.915
の大きな	-10.9151
new	-10.9153
日中	-10.9153
instagram	-10.9154
の詳細については	-10.9155
上がる	-10.9158
選任	-10.916
▁text	-10.9163
作られ	-10.9163
装備	-10.9163
を公開	-10.9165
成績	-10.9168
リボン	-10.9169
行うことができます	-10.917
▁file▁extension	-10.9172
▁events	-10.9173
▁type	-10.9174
集合	-10.9174
増加する	-10.9176
革	-10.9176
バンコク	-10.9178
読み込み	-10.9178
合わせて	-10.9185
入場	-10.9185
ach	-10.9186
▁)▁:	-10.9186
楽しむ	-10.9188
名古屋	-10.919
装置の	-10.919
が行われる	-10.9192
物体	-10.9193
来て	-10.9193
具体的に	-10.9196
インパクト	-10.9197
炭	-10.9202
しましたが	-10.9202
を満たす	-10.9203
実行される	-10.9203
荒	-10.9203
余分な	-10.9206
ベリー	-10.9208
うか	-10.9208
歩く	-10.921
▁イ	-10.921
ドロップ	-10.9211
サラダ	-10.9215
カンボジア	-10.9215
福島	-10.9216
シング	-10.9217
容易	-10.9218
やり	-10.9219
場合を除き	-10.9219
最後	-10.9219
会社が	-10.922
カスタマー	-10.922
者たち	-10.9222
ジャケット	-10.9223
使われます	-10.9223
下落	-10.9224
の運営	-10.9225
に行った	-10.9225
個別の	-10.923
座席	-10.9231
を確保し	-10.9231
word	-10.9231
▁unix	-10.9231
毎日の	-10.9234
top	-10.9235
場合によっては	-10.9235
lib	-10.9237
飲み	-10.9241
復活	-10.9244
航空会社	-10.9244
侵入	-10.9246
に入れ	-10.9247
周辺の	-10.9248
快適に	-10.9249
▁video	-10.9253
満たされ	-10.9253
ヴェ	-10.9255
までお問い合わせください	-10.9256
柔らかく	-10.9257
rf	-10.9259
を設定	-10.926
を見つけて	-10.9261
動か	-10.9261
審議	-10.9261
ソーシャルネットワーク	-10.9264
所在地	-10.9265
▁自動	-10.9267
残っている	-10.9268
全員が	-10.9269
に際して	-10.927
煙	-10.927
設定を	-10.9271
訪れ	-10.9273
バッファ	-10.9273
々と	-10.9274
ゴン	-10.9274
内容は	-10.9276
event	-10.9277
game	-10.9278
▁-▁.	-10.928
スタンダード	-10.928
の発行	-10.928
同僚	-10.9281
尊重	-10.9282
watch	-10.9285
沿岸	-10.9286
鉱	-10.9288
ニン	-10.9288
フラン	-10.9288
の制限	-10.9289
▁office	-10.9291
わたし	-10.9292
付近	-10.9293
佐	-10.9293
日間の	-10.9293
を行うことができます	-10.9294
独特の	-10.9295
アカデミー	-10.9295
塗装	-10.9296
を処理する	-10.9297
に注目	-10.9298
教材	-10.93
洗	-10.9308
境	-10.9311
レンダリング	-10.9313
ビーズ	-10.9313
散歩	-10.9314
のバランス	-10.9315
無く	-10.9319
わからない	-10.932
的かつ	-10.9322
の安全性	-10.9325
ものではない	-10.9326
▁ii	-10.933
性と	-10.9332
▁最初に	-10.9333
構想	-10.9335
で開催された	-10.9336
ディスカッション	-10.9337
海上	-10.9337
かかります	-10.9339
左右	-10.9339
利用者の	-10.9339
職務	-10.9339
可視化	-10.934
限られた	-10.9342
ある程度	-10.9346
予	-10.9348
▁access	-10.9348
果実	-10.9349
パイプライン	-10.9349
本格的な	-10.9351
経験を	-10.9352
江戸時代	-10.9353
規範	-10.9356
▁pa	-10.9358
ることが	-10.9359
高価な	-10.9359
に定める	-10.9361
のではないか	-10.9364
の完全な	-10.9368
を見ることはできません	-10.9368
コンピュータの	-10.9371
▁plus	-10.9371
モデルは	-10.9372
紀	-10.9373
止め	-10.9373
江戸	-10.9373
画像の	-10.9377
ナイ	-10.9379
周りの	-10.9379
クイック	-10.938
生涯	-10.9383
に来る	-10.9385
動機	-10.9385
je	-10.9386
入り口	-10.9389
博	-10.939
htaccess	-10.9391
っていない	-10.9391
通訳	-10.9392
▁拡張子に	-10.9394
巨大	-10.9395
ミラー	-10.9398
知らせ	-10.9399
夜の	-10.94
資	-10.9401
部屋の	-10.9401
やり方	-10.9401
ボット	-10.9402
king	-10.9402
アク	-10.9405
使用され	-10.9406
実行されます	-10.9407
《	-10.9407
事業を	-10.9409
japan	-10.9409
gan	-10.941
▁多くの場合	-10.9411
スクロール	-10.9412
緑の	-10.9414
既	-10.9415
を同時に	-10.9416
執筆	-10.9419
当ホテル	-10.942
フランス語	-10.9422
ることができ	-10.9422
重い	-10.9423
を集め	-10.9425
ケイ	-10.9425
日目	-10.9428
マーカー	-10.9428
に関連して	-10.943
プリンター	-10.9432
していますが	-10.9432
を訪問し	-10.9433
再開	-10.9434
件数	-10.9434
すべく	-10.9436
生体	-10.9437
今は	-10.9439
高品質	-10.9441
ser	-10.9444
大きさ	-10.9444
ling	-10.9446
参入	-10.9447
揚げ	-10.945
に移動	-10.9452
学位	-10.9453
auth	-10.9454
の登録	-10.9454
▁media	-10.9455
をインストール	-10.9455
ファイルを取り扱うプログラム	-10.9456
フレ	-10.9457
ようになり	-10.9459
一歩	-10.9461
ゴミ	-10.9465
avi	-10.9465
数々の	-10.9466
のお客様	-10.9466
本プライバシーポリシー	-10.9467
を確保	-10.9468
最終的な	-10.9469
協調	-10.9472
をつけ	-10.9473
を得ることができます	-10.9474
評	-10.9474
組合	-10.9474
本研究	-10.9474
▁software	-10.9477
の家	-10.9478
に乗って	-10.9479
ib	-10.9482
を見てください	-10.9484
流体	-10.9485
▁now	-10.9485
サービスを提供する	-10.9487
わけではない	-10.9487
注意してください	-10.9488
承諾	-10.9489
礼	-10.949
自身が	-10.9493
人気のある	-10.9494
を必要とします	-10.9495
典型的な	-10.9495
得た	-10.9496
sr	-10.9496
》	-10.9496
触れ	-10.9497
蒸気	-10.9498
ハブ	-10.9498
委員長	-10.9499
頂く	-10.9503
モジュールの	-10.9504
の目標	-10.9505
強み	-10.9505
ドリンク	-10.9506
rar	-10.9508
補	-10.9513
四半期連結累計期間	-10.9513
スタイルの	-10.9513
ker	-10.9514
つい	-10.9514
の方へ	-10.9515
▁tool	-10.9515
代理店	-10.9516
効果的	-10.9517
をサポートします	-10.952
▁同様に	-10.9521
sw	-10.9522
ウォーター	-10.9525
日時	-10.9526
グラス	-10.9527
明日	-10.9532
尋ね	-10.9538
売買	-10.9538
を調整する	-10.954
等が	-10.954
聞く	-10.9542
欠点	-10.9543
詳細情報	-10.9543
現場で	-10.9543
がインストールされていても	-10.9544
補足	-10.9544
というもの	-10.9545
改訂	-10.9549
スタン	-10.9549
わない	-10.955
▁online	-10.9551
lock	-10.9553
を発表	-10.9553
貯蔵	-10.9555
防水	-10.9556
▁過去	-10.9559
directory	-10.9559
られて	-10.956
一時的に	-10.956
採択	-10.9562
高精度	-10.9562
の味	-10.9564
lt	-10.9564
をご紹介します	-10.9564
▁すなわち	-10.9565
送り	-10.9565
qu	-10.9565
oo	-10.9566
信託	-10.9567
否定	-10.9568
国内外	-10.9568
されるように	-10.9569
インドの	-10.9569
周囲の	-10.9569
を行っております	-10.957
オール	-10.957
オバマ	-10.957
に立ち	-10.957
以前は	-10.9571
▁ディレクティブは	-10.9573
略	-10.9574
▁詳細については	-10.9575
▁タイプ	-10.9576
梅	-10.9576
するまで	-10.958
が発生した場合	-10.958
水平	-10.9581
票	-10.9581
▁以上	-10.9581
石炭	-10.9581
配分	-10.9582
資料の	-10.9583
の紹介	-10.9584
lc	-10.9588
信頼性の高い	-10.9588
からだ	-10.9588
化し	-10.9591
いだ	-10.9593
提供します	-10.9593
ゴー	-10.9596
発現	-10.9597
目的のために	-10.9597
の皆さん	-10.9597
を準備する	-10.9598
▁よくある質問	-10.9599
▁カスタム	-10.9601
ませ	-10.9603
テラス	-10.9607
関税	-10.961
バイク	-10.9612
をつくる	-10.9613
経験豊富な	-10.9614
手動	-10.9615
拡大する	-10.9615
ess	-10.9616
ンス	-10.9617
立地	-10.9617
cf	-10.9618
クロック	-10.9619
クローン	-10.962
ことだ	-10.962
地位	-10.9622
ミュー	-10.9623
テナント	-10.9627
苦	-10.9628
夕食	-10.963
通りに	-10.963
とはいえ	-10.9633
ファイル名の後に	-10.9635
soft	-10.9636
呼びかけ	-10.9638
諸島	-10.9638
臨	-10.9638
アンテナ	-10.9641
韓国の	-10.9642
後ろ	-10.9643
レプリカ	-10.9645
民主主義	-10.9645
人民	-10.9646
かす	-10.9647
見方	-10.9647
の統合	-10.9651
を入手	-10.9652
バージョンの	-10.9653
増え	-10.9653
カリフォルニア	-10.9654
string	-10.9655
関連会社	-10.9656
の課題	-10.966
つつある	-10.9662
▁必要に応じて	-10.9662
を入れる	-10.9662
浦	-10.9663
適用される	-10.9665
と思いました	-10.9665
回数	-10.9667
を行なう	-10.9669
に行って	-10.967
▁read	-10.967
ワシントン	-10.9671
新年の	-10.9671
のイメージ	-10.9671
小売	-10.9672
メガ	-10.9672
環境保全	-10.9673
心から	-10.9675
たときに	-10.9675
言えば	-10.9675
table	-10.9678
静	-10.9679
をもたらします	-10.9679
速い	-10.9679
ゆっくり	-10.968
不具合	-10.9681
をとり	-10.9681
▁av	-10.9682
dd	-10.9684
ニビル	-10.9687
レジストリ	-10.9687
のネットワーク	-10.9688
使いやすい	-10.969
見直し	-10.969
を加え	-10.969
終了後	-10.9693
カリキュラム	-10.9694
に掲載	-10.9694
映画祭	-10.9695
▁like	-10.9696
はあまり	-10.9698
東北	-10.97
紫	-10.9701
デュ	-10.9701
制定	-10.9702
アンプ	-10.9702
公的	-10.9703
進捗	-10.9703
権力	-10.9705
ls	-10.9706
このオプション	-10.9706
well	-10.9707
理事会	-10.9708
離れた	-10.971
に対しては	-10.9711
pass	-10.9714
国内で	-10.9716
の学生	-10.9718
run	-10.9721
sky	-10.9721
結婚式	-10.9721
ご連絡ください	-10.9722
古典的な	-10.9723
スパイス	-10.9726
成形	-10.9728
工具	-10.973
翼	-10.9731
可能性が	-10.9732
自分たちの	-10.9733
コンピュータのユーザー	-10.9734
にあたって	-10.9734
▁パスワード	-10.9736
表示されるようになった	-10.9738
cu	-10.9743
アラート	-10.9744
tic	-10.9745
川の	-10.9745
nic	-10.9745
を増やし	-10.9746
▁コンテキスト	-10.9747
である場合	-10.9748
ネットワークの	-10.9748
ミュージアム	-10.9749
一時的な	-10.975
を避け	-10.975
オーダー	-10.9751
仏教	-10.9753
訪れる	-10.9754
静かな	-10.9755
飛	-10.9756
漫画	-10.9758
ビジネスの	-10.9758
変形	-10.9759
数十	-10.9759
タウン	-10.9761
がたくさん	-10.9762
貸出	-10.9763
最初	-10.9764
役割を果たし	-10.9765
呼	-10.9765
その中で	-10.9768
数百	-10.9771
現れ	-10.9772
地点	-10.9772
▁世界の	-10.9773
始まり	-10.9773
vs	-10.9773
省略	-10.9778
数回	-10.9779
コマンドライン	-10.9783
具体的な原因	-10.9785
の分野で	-10.9785
抱	-10.979
exe	-10.979
観点から	-10.979
bluetooth	-10.9791
エンタープライズ	-10.9794
ウィン	-10.9795
トレーダー	-10.9795
標準設定では	-10.9796
となっております	-10.9798
学的	-10.9798
の操作	-10.98
含む	-10.9801
コンクリート	-10.9801
多くの場合	-10.9803
コンデンサ	-10.9803
コンサルタント	-10.9804
sing	-10.9804
ファイルを含むすべてのファイル	-10.9804
を開始し	-10.9805
凍結	-10.9808
実務	-10.9809
稲	-10.981
を示した	-10.9811
流出	-10.9813
味わい	-10.9814
の欠如	-10.9814
延	-10.9816
起こります	-10.9817
く専門家に	-10.9818
問題が解決しないこと	-10.9818
ファイルの取り扱いに関する	-10.9818
サービスを要請し	-10.9819
▁時にはコンピュータに	-10.9819
を診断すべ	-10.982
スの	-10.9823
品質管理	-10.9825
の一覧	-10.9825
食物	-10.9825
設備投資	-10.9826
日程	-10.9829
tan	-10.9829
ご協力	-10.9831
を誇る	-10.9831
書面	-10.9833
point	-10.9834
てくれた	-10.9836
欄	-10.9837
贈	-10.9839
魅力的	-10.9839
継承	-10.984
フィート	-10.9842
mit	-10.9844
広範な	-10.9846
の作業	-10.9846
を導入し	-10.9849
収容	-10.9849
のご	-10.985
準備ができています	-10.9852
経済の	-10.9852
アイデンティティ	-10.9853
を訪れ	-10.9854
の主要な	-10.9855
unity	-10.9855
高校生	-10.9855
起業家	-10.9858
示唆	-10.986
分野において	-10.9861
後者	-10.9862
劇	-10.9862
端子	-10.9866
▁faq	-10.9867
南アフリカ	-10.987
激	-10.9871
標準化	-10.9872
前進	-10.9874
人工知能	-10.9879
ところに	-10.9879
空白	-10.9882
使用している	-10.9882
▁du	-10.9883
▁サステナビリティ	-10.9885
してまいります	-10.9886
ies	-10.9887
▁dr	-10.9887
パルス	-10.9889
文化的	-10.9889
甘い	-10.9889
見込み	-10.989
加盟国	-10.989
踊り	-10.9893
gui	-10.9893
過剰	-10.9893
あなたと	-10.9894
を意味する	-10.9894
中央銀行	-10.9896
オリ	-10.9896
▁man	-10.9896
だけでは	-10.9897
が行われました	-10.9897
イエスは	-10.9898
sf	-10.9898
のご案内	-10.99
▁dropbox	-10.9901
トゥ	-10.9901
眠	-10.9903
を開いて	-10.9905
の有無	-10.9905
に従事	-10.9905
▁現在は	-10.9909
治療法	-10.9911
椅子	-10.9914
ei	-10.9914
の性質	-10.9915
硬	-10.9916
協働	-10.9917
▁triproud	-10.992
カイ	-10.9921
az	-10.9922
理解し	-10.9923
曲げ	-10.9923
を選択できます	-10.9923
▁著者	-10.9926
パキスタン	-10.9926
かについて	-10.9927
家で	-10.9927
実施する	-10.9927
するときに	-10.9927
続	-10.9929
昼	-10.993
▁sim	-10.9931
保護者	-10.9931
▁win	-10.9932
世界で最も	-10.9932
取材	-10.9934
ということを	-10.9938
し続ける	-10.9938
を広げ	-10.9939
がなければ	-10.994
お話	-10.994
▁メイン	-10.9941
改定	-10.9943
追求	-10.9943
いっそう	-10.9943
をとる	-10.9945
の概念	-10.9945
に入れる	-10.9946
ターン	-10.995
美容	-10.9952
バリ	-10.9952
プロジェクトを	-10.9955
gar	-10.9957
を利用し	-10.9957
多彩な	-10.9958
菜	-10.9962
は以下の	-10.9962
勧告	-10.9963
急いで	-10.9963
全体が	-10.9965
を検討	-10.9967
お届け	-10.9967
は自動的に	-10.9969
戦後	-10.9969
を作ることができます	-10.9969
フォロー	-10.9969
you	-10.9973
確率	-10.9974
作業を	-10.9974
check	-10.9976
クロー	-10.9977
明確	-10.9977
重力	-10.9978
を削除	-10.9978
近隣	-10.9978
プレー	-10.9981
ヘッダー	-10.9981
単一	-10.9984
▁一般的に	-10.9984
▁最後の	-10.9986
スピーチ	-10.9986
アプリケーションを	-10.9988
定める	-10.9989
▁citrix	-10.999
はい	-10.9991
牛乳	-10.9991
と言いました	-10.9992
自然に	-10.9994
仲介	-10.9994
きっと	-10.9994
休憩	-10.9995
ながらも	-10.9996
長年	-10.9997
またはその他の	-10.9998
階段	-11
▁弊社は	-11.0002
質の高い	-11.0002
適しています	-11.0003
狭い	-11.0004
への投資	-11.0005
を促進し	-11.0006
ソフトウェアは	-11.0006
トランプ	-11.0008
▁メディア	-11.0011
心に	-11.0012
楽天	-11.0012
できるか	-11.0012
uri	-11.0013
に直面し	-11.0013
わたしは	-11.0014
▁fa	-11.0014
を使用することができます	-11.0016
を支え	-11.0017
指名	-11.002
デバイスで	-11.002
自分たち	-11.0021
郷	-11.0022
ron	-11.0025
フラッシュドライブ	-11.0025
の主要	-11.0026
ユーザの	-11.0026
出して	-11.0027
有効化	-11.0032
▁最新の	-11.0033
場合がございます	-11.0034
アカウントに	-11.0034
させるために	-11.0035
部署	-11.0036
暴	-11.0036
上級	-11.0037
熱帯	-11.0039
留め	-11.004
辞	-11.0043
dx	-11.0044
推薦	-11.0047
ッタ	-11.0049
視覚	-11.0051
ウス	-11.0052
!」	-11.0052
されず	-11.0055
退職	-11.0057
を背景に	-11.0057
トラッキング	-11.0058
クラッシュ	-11.0061
問題を解決する	-11.0062
ther	-11.0063
開催された	-11.0064
の目的は	-11.0065
耐性	-11.0065
ように見えます	-11.0066
mark	-11.0067
医療機器	-11.0067
第三者の	-11.0067
を行って	-11.0069
デル	-11.0074
伴	-11.0077
電動	-11.0078
根拠	-11.0079
スタッフが	-11.0079
委員会の	-11.0083
の言葉	-11.0084
出てくる	-11.0084
をお持ち	-11.0088
領	-11.0088
を決める	-11.0089
固	-11.0089
が含まれる	-11.009
株主総会	-11.0092
xml	-11.0094
海外で	-11.0095
ピース	-11.0096
持つ	-11.0096
昇	-11.0097
准教授	-11.0097
昔	-11.0098
手で	-11.0099
が行われた	-11.0099
連動	-11.01
意志	-11.0102
としている	-11.0103
トマト	-11.0103
ご提供	-11.0103
創作	-11.0104
arm	-11.0105
スタンプ	-11.0107
リアルタイムで	-11.0108
結局	-11.0109
したのは	-11.011
郎	-11.011
に接続する	-11.011
全体として	-11.0111
get	-11.0113
目的地	-11.0113
ストック	-11.0113
を明らかにし	-11.0115
急速な	-11.0117
ご使用	-11.0117
lf	-11.0117
▁air	-11.0118
排水	-11.0119
ワイヤ	-11.0119
がない場合	-11.012
委員会は	-11.0121
sen	-11.0122
ファイルを含め	-11.0124
得られる	-11.0126
に使用される	-11.0126
知られている	-11.0126
▁オーストラリア	-11.0126
自家製	-11.0128
わかる	-11.0129
を推進する	-11.0135
中毒	-11.0136
モスクワ	-11.0136
従業員が	-11.0139
年前に	-11.0141
sch	-11.0142
がございます	-11.0142
即座に	-11.0144
処方	-11.0144
ning	-11.0144
の話	-11.0147
car	-11.015
する事	-11.0152
ネル	-11.0152
流れる	-11.0152
▁キャンセル	-11.0153
決意	-11.0153
グレー	-11.0153
wan	-11.0154
化した	-11.0156
横断	-11.0156
イラスト	-11.0157
▁.▁,	-11.0157
生存	-11.0159
ミルク	-11.0163
ハンド	-11.0164
芽	-11.0164
則	-11.0164
をお楽しみください	-11.0165
を助ける	-11.0166
寒	-11.0167
スペイン語	-11.0167
する際	-11.0167
伊	-11.017
催	-11.0172
する機会	-11.0172
盗	-11.0172
を停止	-11.0172
が含まれている	-11.0173
tsu	-11.0173
勢	-11.0173
始	-11.0175
点は	-11.0176
ることなく	-11.0177
機能性	-11.0178
を選択すると	-11.0179
都市の	-11.0182
▁\	-11.0182
ボー	-11.0182
年代に	-11.0183
を紹介する	-11.0183
したときに	-11.0184
天体	-11.0185
かん	-11.0185
等に	-11.0186
状の	-11.0188
の合計	-11.0188
象	-11.0188
お勧め	-11.0189
がまだ	-11.019
code	-11.0193
長時間	-11.0193
しようとしている	-11.0195
黄色	-11.0195
について話し	-11.0196
フィンランド	-11.0196
中でも	-11.0198
を入力し	-11.0201
のセキュリティ	-11.0201
動的	-11.0201
関連付け	-11.0202
▁別の	-11.0202
包括的	-11.0203
esg	-11.0203
粒	-11.0204
ブリッジ	-11.0204
を達成	-11.0207
設計された	-11.0207
フレーズ	-11.0208
こだわり	-11.021
一切	-11.0211
何かを	-11.0213
の仕組み	-11.0213
祝	-11.0213
▁日時	-11.0214
控え	-11.0215
これらは	-11.0217
につれて	-11.0218
ファースト	-11.0218
理想	-11.0218
を適用	-11.022
を購入	-11.0221
▁当サイト	-11.0224
若しくは	-11.0227
離れ	-11.0229
もう少し	-11.0229
種子	-11.023
特有の	-11.0232
オル	-11.0232
格	-11.0233
と同様	-11.0234
を書き	-11.0234
イヤー	-11.0235
合金	-11.0237
▁bi	-11.0243
沼	-11.0244
造り	-11.0246
の姿	-11.0247
▁だまされてはいけません	-11.0249
者と	-11.0253
の多い	-11.0254
他者	-11.0254
視聴者	-11.0256
ご案内	-11.0257
疾患の	-11.0257
営業時間	-11.0257
私立探偵	-11.0257
▁manager	-11.0257
を防ぐために	-11.0258
大幅に	-11.0259
サポートする単一の	-11.0259
を決め	-11.0261
認可	-11.0261
pat	-11.0262
を展開し	-11.0265
へのファイル変換	-11.0265
放射	-11.0266
契約を締結	-11.0267
が完全に	-11.0268
の利点	-11.0269
識別子	-11.027
れない	-11.0271
微	-11.0271
運賃	-11.0273
を助け	-11.0275
▁国内	-11.0275
ネス	-11.0275
が正しく	-11.0276
たくない	-11.0277
迷	-11.0278
因子	-11.0279
日本では	-11.0279
遺産	-11.028
開拓	-11.0282
▁auto	-11.0284
積み	-11.0284
ヤン	-11.0285
を大きく	-11.029
ものでした	-11.029
どういう	-11.0291
迅速かつ	-11.0291
vc	-11.0292
を実現し	-11.0292
効率化	-11.0293
影響を与え	-11.0294
を支援し	-11.0294
矢印	-11.0294
しているため	-11.0297
より大きな	-11.0298
この機能	-11.0298
電波	-11.0301
我	-11.0301
リフト	-11.0303
ミリ	-11.0303
区域	-11.0306
走り	-11.0308
選ばれた	-11.0309
溝	-11.031
代謝	-11.0312
有効に	-11.0312
それによって	-11.0315
▁lab	-11.0317
技能	-11.0317
当連結会計年度	-11.0318
祝福	-11.0319
のなかで	-11.032
意思	-11.032
思想	-11.0321
マネージャ	-11.0324
で働く	-11.0324
sun	-11.0326
▁there	-11.0327
を減らし	-11.0327
未来の	-11.0328
相対	-11.0328
効率的に	-11.0334
っていく	-11.0336
フォン	-11.0338
先進国	-11.0338
トンネル	-11.0342
:▁「	-11.0344
を用意	-11.0345
努力を	-11.0346
を尊重し	-11.0347
サム	-11.0347
世界遺産	-11.035
ans	-11.0352
されてきた	-11.0353
させることができます	-11.0353
対象となる	-11.0353
払	-11.0354
工夫	-11.0354
sta	-11.0355
mg	-11.0356
を常に	-11.0357
▁ロシア	-11.0357
視点から	-11.0357
サーバの	-11.0359
の約	-11.036
生きている	-11.0362
▁一般	-11.0362
できれば	-11.0362
性格	-11.0364
両社	-11.0364
ヌー	-11.0364
を説明する	-11.0365
error	-11.0368
彼らを	-11.0371
トーン	-11.0372
就職	-11.0372
▁start	-11.0372
世界経済	-11.0373
成長する	-11.0373
するので	-11.0374
無駄	-11.0374
作動	-11.0376
フィット	-11.0377
発生した	-11.0378
netflix	-11.0379
煮	-11.0379
を実施しています	-11.038
障害者	-11.0381
の条件	-11.0382
景観	-11.0382
と言われ	-11.0382
またはその	-11.0383
の平均	-11.0383
没	-11.0384
でなければなりません	-11.0384
に適用されます	-11.0386
ことについて	-11.0386
世界最大の	-11.0388
建物の	-11.0388
文献	-11.0388
オプションは	-11.039
録画	-11.0395
クルマ	-11.0397
オンラインストア	-11.0397
スピン	-11.0397
一切の	-11.0398
gra	-11.0398
room	-11.0399
合法	-11.0401
模様	-11.0401
ラス	-11.0402
グルメ	-11.0402
lng	-11.0403
借	-11.0404
分かる	-11.0406
富士通	-11.0407
ビア	-11.0408
中期	-11.0408
所で	-11.0409
▁download	-11.0411
語り	-11.0413
mar	-11.0414
汁	-11.0414
るような	-11.0415
帽子	-11.0415
はっきりと	-11.0417
ペーパー	-11.0418
時間に	-11.0419
年後	-11.0423
zi	-11.0424
人員	-11.0425
素早く	-11.0426
pg	-11.043
を促す	-11.043
記号	-11.0431
‐	-11.0435
疑い	-11.0435
を実行し	-11.0436
理事	-11.0436
心地	-11.0436
カート	-11.0442
幸	-11.0443
にならない	-11.0443
熱い	-11.0445
ものがあります	-11.0446
扱う	-11.0446
収録	-11.0449
先行	-11.0454
譲	-11.0455
賀	-11.0456
の承認	-11.0456
直す	-11.0457
ページを	-11.0457
の影響を受け	-11.0459
ジェット	-11.0459
年度は	-11.046
edit	-11.046
ができ	-11.0461
仕事の	-11.0464
誤り	-11.0466
統括	-11.0469
成都	-11.0474
大いに	-11.0476
不要	-11.0477
ホールディングス	-11.0477
大量	-11.0478
二酸化炭素	-11.0479
さと	-11.0481
rd	-11.0485
税務	-11.0485
されたもの	-11.0485
▁もっと	-11.0486
グラフィックス	-11.0486
▁who	-11.0487
に資する	-11.0488
だからこそ	-11.0489
青い	-11.0489
環	-11.0489
を使います	-11.049
標準の	-11.049
search	-11.0491
が低い	-11.0491
新機能	-11.0491
試料	-11.0494
壁に	-11.0494
をしています	-11.0498
クライアントに	-11.0499
慶	-11.0499
を遵守し	-11.0499
ものではなく	-11.0502
を使用することで	-11.0509
ということで	-11.0515
セールス	-11.0516
は同じ	-11.0517
がありますか	-11.0517
手の	-11.0517
況	-11.0518
メニューから	-11.052
ただし	-11.0521
やかな	-11.0522
性の高い	-11.0522
ブレ	-11.0524
路線	-11.053
射	-11.053
重視	-11.053
勇気	-11.053
hs	-11.0531
織り	-11.0533
mini	-11.0534
list	-11.0534
隅	-11.0535
とにかく	-11.0535
詳細は	-11.0536
rom	-11.0538
続けます	-11.0538
ベルギー	-11.054
▁email	-11.054
減速	-11.0541
広告は	-11.0543
者として	-11.0543
▁ntt	-11.0544
で構成されています	-11.0545
の最大	-11.0546
情報提供	-11.0548
ではありませんが	-11.0548
事は	-11.0549
を避ける	-11.0549
のバックアップ	-11.0551
周年	-11.0551
▁本サイト	-11.0553
快	-11.0554
応援	-11.0556
アカウントを	-11.0556
産業用	-11.0557
可能性が高い	-11.0558
輝き	-11.0559
ほどの	-11.0561
本投資法人	-11.0561
物理的な	-11.0564
両者	-11.0565
北極	-11.0565
滑らか	-11.0566
ことと	-11.0566
▁ユーザ	-11.0566
時期に	-11.0567
を指定	-11.0568
式の	-11.0569
管理システム	-11.057
爪	-11.0574
を図っ	-11.0574
示す	-11.0575
友好	-11.0576
イニシアティブ	-11.0576
絶対	-11.0577
みる	-11.0579
を分析し	-11.0579
以下のとおり	-11.0581
記入	-11.0584
ーム	-11.0584
写真の	-11.0584
リム	-11.0586
彦	-11.0587
前から	-11.0587
フラット	-11.0587
俳優	-11.0588
があるため	-11.0588
シリコン	-11.0591
考察	-11.0591
漁業	-11.0594
日曜日	-11.0594
の調査	-11.0594
解決策は	-11.0594
を考慮し	-11.0598
社が	-11.0598
カリフォルニア州	-11.0599
に沿った	-11.0599
hr	-11.0601
ウィザード	-11.0603
事象	-11.0604
▁)▁「	-11.0606
審	-11.0607
日以内に	-11.0607
▁セクション	-11.0607
▁個人情報保護方針	-11.0607
極端な	-11.0607
の動向	-11.0608
元気	-11.0608
を出し	-11.0611
tics	-11.0612
部品の	-11.0613
及	-11.0614
動物の	-11.0614
▁ゼータ	-11.0615
ころ	-11.0615
▁電話	-11.0616
がよく	-11.0617
秩序	-11.0617
しさ	-11.0618
全体に	-11.0619
firefox	-11.0619
ファイルに関する問題の	-11.0619
表記	-11.062
以降の	-11.062
に起因する	-11.0621
リカバリ	-11.0621
ない限り	-11.0621
それまで	-11.0624
gdp	-11.0624
平等	-11.0625
額は	-11.0625
製品が	-11.0626
ときの	-11.0629
創出	-11.063
フィー	-11.063
入金	-11.0631
を設立	-11.0632
店内	-11.0632
を拡大し	-11.0633
ari	-11.0634
卓	-11.0636
っていました	-11.0637
キリスト教	-11.0637
の最適化	-11.0641
bios	-11.0642
復帰	-11.0643
訴え	-11.0643
上から	-11.0643
実質	-11.0644
▁off	-11.0644
こ▁と	-11.0645
を聞く	-11.0645
ことは不可能です	-11.0646
天然ガス	-11.0647
ade	-11.0647
ホー	-11.0647
文明	-11.0647
商用	-11.0647
私にとって	-11.0647
泡	-11.0648
ワイ	-11.0649
ロング	-11.0649
強さ	-11.065
を排除する	-11.0651
提供された	-11.0651
ボウル	-11.0652
清潔	-11.0653
支店	-11.0653
スティ	-11.0655
▁science	-11.0656
ごろ	-11.0656
劣化	-11.0657
新株予約権	-11.0657
dp	-11.0659
ding	-11.0661
苦労	-11.0662
の皆さま	-11.0663
ベルリン	-11.0663
量を	-11.0663
に寄与する	-11.0663
エンコーディング	-11.0663
取り組む	-11.0664
alt	-11.0665
影響力	-11.0666
再利用	-11.0666
皆様の	-11.0666
したいと思います	-11.0666
ken	-11.0666
の有効性	-11.0667
されていること	-11.0667
検索エンジン	-11.0668
効	-11.0668
に住む	-11.0676
肝臓	-11.0676
qui	-11.0678
代金	-11.068
ショート	-11.0681
▁彼らが	-11.0681
コンピュータに	-11.0682
どうぞ	-11.0682
日本企業	-11.0683
任意	-11.0683
最も人気のある	-11.0684
たく	-11.0686
帰国	-11.0687
▁イタリア	-11.0689
が続く	-11.0695
edge	-11.0696
ント	-11.0697
読み取り	-11.0698
que	-11.0699
行っている	-11.0701
お土産	-11.0702
use	-11.0702
杯	-11.0704
フライ	-11.0705
資金を	-11.0705
付加	-11.0706
オス	-11.0708
include	-11.0709
英国の	-11.0709
いずれ	-11.0711
引き出し	-11.0711
著しく	-11.0713
鉱物	-11.0713
旅客	-11.0714
それ自体	-11.0715
の美しさ	-11.0717
を追求し	-11.0723
クラスタ	-11.0723
セイ	-11.0724
解消	-11.0724
専	-11.0725
織	-11.0726
レモン	-11.0728
ace	-11.0729
操作が	-11.073
ユダヤ人	-11.073
チェックボックス	-11.0732
日本は	-11.0732
国際的	-11.0733
被害者	-11.0734
充填	-11.0736
動画を	-11.0736
ven	-11.0738
を備え	-11.0739
露	-11.0739
広大な	-11.0745
エディター	-11.0745
マッチング	-11.0745
サウジアラビア	-11.0745
を用い	-11.0747
▁name	-11.0749
の使い方	-11.075
を押し	-11.0751
禁	-11.0752
場合もあります	-11.0754
見えます	-11.0757
支え	-11.0757
デバッグ	-11.0758
間違った	-11.0759
ico	-11.0759
オートメーション	-11.0761
と思って	-11.0763
代表者	-11.0763
方も	-11.0763
ami	-11.0765
エンコード	-11.0765
小児	-11.0766
mod	-11.0766
sec	-11.0769
▁»	-11.0769
音響	-11.0773
のプロセス	-11.0774
ことが出来ます	-11.0775
タオル	-11.0776
の始まり	-11.0777
担	-11.0778
cho	-11.0778
範囲で	-11.0779
expressvpn	-11.0782
を楽しんで	-11.0782
中国人	-11.0783
を検討する	-11.0784
の性能	-11.0785
正常に	-11.0786
写真は	-11.0788
は主に	-11.0789
部長	-11.0795
そうでなければ	-11.0796
おき	-11.0797
語る	-11.0797
に影響を与え	-11.0797
press	-11.0801
aws	-11.0801
時まで	-11.0803
を務める	-11.0804
note	-11.0805
カム	-11.0806
誇り	-11.0806
▁bar	-11.0806
頂き	-11.0806
解明	-11.0807
のさらなる	-11.0808
を見ると	-11.0809
▁security	-11.0809
も可能です	-11.081
を飲む	-11.0811
ボル	-11.0813
に移動し	-11.0814
同志	-11.0814
バーチャルホスト	-11.0815
同士	-11.0817
選ぶ	-11.0817
フィード	-11.0817
それとも	-11.0817
突	-11.0818
ギター	-11.0818
object	-11.0818
サラ	-11.082
見せ	-11.0821
述	-11.0822
酵素	-11.0825
新宿	-11.0825
所定の	-11.0825
にご	-11.0826
カ月	-11.0826
関西	-11.0826
表情	-11.0827
とは何ですか	-11.0829
生物学	-11.0834
▁mime	-11.0835
デバイスは	-11.0835
質問を	-11.0836
名を	-11.0838
過ごす	-11.0839
に置かれ	-11.0841
若干	-11.0841
およびその	-11.0841
cal	-11.0842
地下鉄	-11.0844
スムーズに	-11.0844
見えない	-11.0845
▁〒	-11.0846
はなりません	-11.0846
論理	-11.0848
変わります	-11.085
庫	-11.085
にログイン	-11.0852
イル	-11.0852
の一部を	-11.0853
同国	-11.0853
pd	-11.0853
inc	-11.0854
一人で	-11.0856
日々の	-11.0858
上にある	-11.0859
▁ファイル拡張子	-11.0859
同じく	-11.086
▁以降	-11.086
患者は	-11.0861
発生します	-11.0863
シール	-11.0863
直面	-11.0865
誤った	-11.0865
面接	-11.0867
を使うと	-11.0868
一括	-11.0868
市場は	-11.087
出産	-11.0871
神が	-11.0871
は必要ありません	-11.0871
モジュールは	-11.0871
を開始しました	-11.0872
発足	-11.0872
によるものです	-11.0873
▁結局のところ	-11.0874
判定	-11.0875
慣れ	-11.0877
正直	-11.0879
▁ここに	-11.088
ものとし	-11.088
アドバイザー	-11.0882
は他の	-11.0883
どのようにして	-11.0884
を十分に	-11.0885
翌日	-11.0886
該当する	-11.0888
まって	-11.0888
する可能性があります	-11.0891
▁利用規約	-11.0891
領域の	-11.0895
を開け	-11.09
被災地	-11.0901
ぶり	-11.0901
用紙	-11.0903
研究では	-11.0903
pid	-11.0904
一貫性	-11.0906
現時点では	-11.091
ted	-11.0911
明示的に	-11.0915
湿度	-11.0915
幸運	-11.0915
ムー	-11.0916
領土	-11.0917
▁info	-11.0918
あらゆる種類の	-11.0922
創造性	-11.0923
発想	-11.0923
ホスティング	-11.0925
原因はそれだけではありません	-11.0925
るもの	-11.0927
どこで	-11.0931
ないよう	-11.0934
コミュニティの	-11.0935
▁po	-11.0936
穏やかな	-11.0936
▁この記事では	-11.0937
小規模	-11.0937
不快な	-11.0939
描写	-11.0944
混	-11.0948
ご覧	-11.0953
大切です	-11.0953
だという	-11.0955
若手	-11.0956
手配	-11.0956
内外	-11.0956
▁otfe	-11.0957
上げる	-11.0965
だれ	-11.0966
ada	-11.0966
live	-11.0966
を残す	-11.0968
に合わせた	-11.0968
の大部分は	-11.0969
途中	-11.097
▁ビット	-11.097
探し	-11.097
請	-11.0971
書いて	-11.0971
与え	-11.0972
わり	-11.0972
触	-11.0973
月より	-11.0973
説教	-11.0975
を読んで	-11.0975
lar	-11.0975
を恐れ	-11.0976
を飾る	-11.0976
インフラストラクチャ	-11.0977
参加者は	-11.0977
ポップアップ	-11.0978
似	-11.0979
エンティティ	-11.0981
てくれます	-11.0981
寿司	-11.0985
高品質な	-11.0986
}	-11.0987
天国	-11.0987
塊	-11.0994
判決	-11.0994
▁code	-11.0995
を結ぶ	-11.0995
代理人	-11.0995
臓器	-11.0999
の一部として	-11.0999
が同じ	-11.1
世帯	-11.1001
ことでしょう	-11.1002
持続可能性	-11.1005
向かい	-11.1006
ou	-11.1008
できるため	-11.1011
適正な	-11.1011
今も	-11.1012
説明した	-11.1013
選考	-11.1014
特別に	-11.1017
ik	-11.1017
有価証券	-11.1017
建て	-11.1019
ほしい	-11.1019
にまで	-11.1019
ness	-11.102
飾り	-11.1023
の総	-11.1024
その後の	-11.1024
したい場合	-11.1025
膨大な	-11.1025
と比較	-11.1029
▁sign	-11.1031
使い方	-11.1031
補完	-11.1041
かどうかを	-11.1041
はどのように	-11.1042
les	-11.1043
を確立する	-11.1044
知られ	-11.1045
エントリー	-11.1047
設定する	-11.1047
うちに	-11.1048
現在では	-11.1049
標的	-11.1049
壮大な	-11.1049
を意味します	-11.1049
をサポートしています	-11.1051
映画の	-11.1053
を目指しています	-11.1055
コンテキスト	-11.1057
と考えている	-11.1057
日立	-11.1058
歴史的な	-11.1059
モンゴル	-11.1059
人たちが	-11.1059
謎	-11.1062
払い戻し	-11.1062
位置づけ	-11.1063
の精神	-11.1065
過程で	-11.1066
戦闘	-11.1066
続けている	-11.1068
そうだ	-11.1069
重複	-11.1071
できず	-11.1071
が完了し	-11.1073
review	-11.1073
rest	-11.1073
ディレクティブは	-11.1074
みた	-11.1074
ビジネスモデル	-11.1074
児	-11.1074
オープンソース	-11.1075
ダイレクト	-11.1077
の旅	-11.1079
ご本人	-11.108
を返します	-11.108
dir	-11.108
▁team	-11.1081
▁はじめに	-11.1081
トラブルシューティング	-11.1081
業務執行	-11.1083
チョ	-11.1083
銘柄	-11.1083
すばらしい	-11.1084
amazon	-11.1084
男の子	-11.1086
いずれかの	-11.1087
ッキング	-11.1089
成長率	-11.109
カロリー	-11.109
pop	-11.109
を守り	-11.1091
どれ	-11.1097
コンピューティング	-11.1099
夜に	-11.1099
浴	-11.11
される場合	-11.1103
設定した	-11.1104
開かれた	-11.1105
に感謝	-11.1105
cent	-11.1106
ライフサイクル	-11.1106
facebook▁twitter	-11.1107
オーディエンス	-11.1109
を失う	-11.111
金融商品	-11.111
想い	-11.1111
曲線	-11.1112
▁更に	-11.1113
た場合は	-11.1113
アップル	-11.1114
代表取締役	-11.1115
街の	-11.1115
イタリアの	-11.1116
会計基準	-11.112
参画	-11.112
長期間	-11.112
仮定	-11.1121
高価	-11.1121
に適用	-11.1122
購入した	-11.1124
を教えてください	-11.1125
人類の	-11.1125
経費	-11.1126
ずつ	-11.1126
のもとで	-11.1126
eco	-11.1126
イベント情報	-11.1127
tro	-11.1127
機種	-11.1127
生活を	-11.1127
顧客が	-11.1129
★	-11.113
との間の	-11.113
test	-11.1133
利用目的	-11.1133
しまう	-11.1135
レジャー	-11.1135
テント	-11.1135
ロサンゼルス	-11.1136
サークル	-11.1138
と言われています	-11.1138
ホスト名	-11.1141
私自身	-11.1141
折り	-11.1144
を置き	-11.1145
▁最近の	-11.1145
の確立	-11.1145
バスルーム	-11.1147
▁昨年	-11.1147
締め	-11.1148
?」	-11.1148
クリーニング	-11.1149
カーソル	-11.115
足を	-11.1151
drive	-11.1151
変え	-11.1152
システムで	-11.1153
自分自身を	-11.1155
を送信する	-11.1157
▁タイ	-11.1157
立つ	-11.1161
アクティブな	-11.1166
九州	-11.1167
映	-11.1167
をテーマに	-11.1168
プロジェクトは	-11.1169
サイトに	-11.1169
投与	-11.1169
廃棄	-11.117
部分に	-11.117
者を	-11.1171
業種	-11.1172
静かに	-11.1173
絶縁	-11.1174
パンデミック	-11.1174
リスクを	-11.1175
を送信	-11.1176
を打ち	-11.1176
奨励	-11.1176
バックグラウンド	-11.1176
▁名前	-11.1179
▁ユーザーは	-11.1183
となっており	-11.1183
刻	-11.1184
方法があります	-11.1185
紛失	-11.1187
が必要となります	-11.1187
▁variant	-11.119
で約	-11.1192
東部	-11.1193
アフリカの	-11.1196
還元	-11.1198
シャン	-11.1199
水が	-11.1199
飲料	-11.1202
陸	-11.1203
年以来	-11.1204
を除去する	-11.1205
lic	-11.1206
履修	-11.1206
言葉を	-11.1207
ヶ月間	-11.1207
がとても	-11.1208
臨床試験	-11.1208
の上部	-11.1209
スタック	-11.121
ox	-11.1211
クルーズ	-11.1213
企業や	-11.1215
お気軽に	-11.1216
偶然	-11.1216
あなたのコンピュータ	-11.1216
個人的に	-11.1221
ピング	-11.1223
任命	-11.1229
が生まれ	-11.1231
]▁-▁¥	-11.1232
貸	-11.1232
するような	-11.1233
プライ	-11.1234
男女	-11.1236
逃	-11.1236
しかない	-11.1239
お申し込み	-11.1239
目次	-11.1239
を避けるために	-11.124
ではなかった	-11.124
ご覧ください	-11.1241
回目の	-11.1241
国が	-11.1241
なかった場合	-11.1241
専門的な	-11.1242
と考えられます	-11.1243
べきではありません	-11.1243
総会	-11.1243
設定された	-11.1245
共生	-11.1245
枚の	-11.1246
したものです	-11.1246
弓	-11.1247
ポーランド	-11.1249
エンゲージメント	-11.1249
キャンバス	-11.125
割引コード	-11.1252
ard	-11.1252
を考慮して	-11.1254
テクニカル	-11.1254
自体は	-11.1255
浸	-11.1256
張り	-11.1256
▁cd	-11.1256
能力を	-11.1258
さら	-11.1259
冷たい	-11.126
なくなります	-11.126
救済	-11.1261
輝く	-11.1262
明示	-11.1264
......	-11.1267
ツールバー	-11.1268
につながります	-11.1268
府	-11.127
skype	-11.1271
の共有	-11.1271
▁今日の	-11.1272
執	-11.1274
挙動	-11.1274
するのに役立ちます	-11.1275
ビッグ	-11.1275
までは	-11.1275
格納	-11.1276
づけ	-11.1277
僕の	-11.1277
機械学習	-11.1279
決断	-11.128
周期	-11.128
を繰り返し	-11.128
立体	-11.1281
を提示	-11.1282
を低減	-11.1284
寄与	-11.1286
駅から	-11.1286
の半分	-11.1287
ハート	-11.1289
シャー	-11.1291
協議会	-11.1291
ねじ	-11.1292
ってきた	-11.1292
を向上させ	-11.1293
の真ん中	-11.1294
ライブラリー	-11.1295
健全な	-11.1295
対象の	-11.1296
体験を	-11.1297
▁日付	-11.1297
メル	-11.1299
▁お客様が	-11.13
ピアノ	-11.1301
を評価し	-11.1302
不適切な	-11.1303
量が	-11.1303
を教え	-11.1304
エンターテイメント	-11.1306
最近では	-11.1307
変わった	-11.1307
遅い	-11.1307
フラグ	-11.1309
とは異なる	-11.1309
の入力	-11.131
cap	-11.131
の共同	-11.1311
を掲載	-11.1311
デュアル	-11.1311
▁cre	-11.1314
バルブ	-11.1314
行われている	-11.1315
故	-11.1315
沿い	-11.1317
楽しんでいただける	-11.1319
の現状	-11.1319
ィ	-11.1319
▁新規	-11.132
を作ること	-11.132
▁¶	-11.1321
シルバー	-11.1321
画面で	-11.1322
クライアントが	-11.1323
する場合があります	-11.1323
前回	-11.1326
ware	-11.133
少	-11.1332
予備	-11.1333
照	-11.1333
シリーズの	-11.1333
青年	-11.1334
作られています	-11.1334
矛盾	-11.1334
不良	-11.1335
から直接	-11.1335
もあった	-11.1336
桁	-11.1337
養成	-11.1338
二つ	-11.1338
系統	-11.1339
aw	-11.134
スライス	-11.134
仁	-11.134
支給	-11.134
短く	-11.1342
金型	-11.1342
学長	-11.1342
メッシュ	-11.1343
てまいりました	-11.1343
重要性	-11.1344
ash	-11.1345
落とし	-11.1347
の知識	-11.1348
効率性	-11.135
▁index	-11.1353
ore	-11.1353
チェコ	-11.1354
を決定し	-11.1356
代理	-11.1358
chrome	-11.1358
と考え	-11.1358
グループが	-11.1359
yu	-11.1359
ちゃん	-11.1359
▁san	-11.1361
かせ	-11.1361
の終わり	-11.1361
返却	-11.1362
新型コロナウイルス感染症	-11.1362
でさえも	-11.1364
tar	-11.1365
world	-11.1366
▁outlook	-11.1367
もありました	-11.1371
演出	-11.1377
細胞の	-11.1378
資源の	-11.1379
▁プロフェッショナル	-11.1379
の幅	-11.1381
設計されています	-11.1382
亡	-11.1384
リーグ	-11.1385
駆	-11.1388
を搭載した	-11.1388
アプリを	-11.1388
の伝統	-11.1392
のトップ	-11.1392
前年比	-11.1392
供	-11.1393
年代の	-11.1393
日より	-11.1394
pst	-11.1394
主題	-11.1396
このページ	-11.1396
amp	-11.1397
npo	-11.1398
どちらも	-11.14
を使うことができます	-11.1401
入札	-11.1402
らせる	-11.1402
吹	-11.1403
bank	-11.1405
どこでも	-11.1406
サービスを提供しています	-11.1409
聞こえ	-11.141
調製	-11.1411
世の中	-11.1411
目標は	-11.1413
当館	-11.1415
ビス	-11.1415
きれいな	-11.1415
首都	-11.1416
かのように	-11.1417
ンド	-11.1417
gn	-11.1417
iss	-11.1418
が良い	-11.1418
lon	-11.1419
place	-11.1419
多くの人々	-11.1419
剣	-11.1419
多くの人	-11.142
pan	-11.142
の基準	-11.142
るよう	-11.1421
なければならず	-11.1421
おか	-11.1423
機の	-11.1423
本来	-11.1424
されるため	-11.1424
cache	-11.1424
及びその	-11.1425
軒	-11.1427
利用可能です	-11.1427
と比べて	-11.1427
使用した	-11.1427
測	-11.1428
と主張し	-11.1428
マネー	-11.1428
グローバル化	-11.1429
隆	-11.1429
フィットネス	-11.1432
かけて	-11.1434
新興国	-11.1435
をサポートし	-11.1437
検	-11.1437
を満たし	-11.1437
倒	-11.1439
写真家	-11.1439
コントローラー	-11.1441
ッパー	-11.1444
オペレーター	-11.1445
嵐	-11.1446
ないため	-11.1446
知ら	-11.1448
抜き	-11.1448
今や	-11.1449
▁彼が	-11.1449
航空券	-11.1452
▁javascript	-11.1454
優秀な	-11.1457
器具	-11.1458
薬剤	-11.1459
延期	-11.1462
がいる	-11.1463
奇妙な	-11.1464
知り	-11.1466
削除されます	-11.1466
鉱山	-11.1466
ーション	-11.1467
情報や	-11.1467
グレード	-11.1468
▁国立天文台暦計算室	-11.1469
ホステル	-11.1471
粗	-11.1471
をチェックする	-11.1471
古代の	-11.1473
の期間	-11.1473
▁ところが	-11.1477
続けて	-11.148
▁@	-11.1482
滴	-11.1483
▁当社では	-11.1484
の見直し	-11.1484
グッズ	-11.1484
バッチ	-11.1485
aki	-11.1486
創立	-11.1486
自然災害	-11.1488
アイディア	-11.1488
national	-11.1491
`	-11.1491
立ち上げ	-11.1493
整	-11.1495
ほとんどの場合	-11.1496
抗議	-11.1497
容	-11.1497
▁america	-11.1499
と呼ばれます	-11.15
お得な	-11.15
寄せ	-11.1501
役に立つ	-11.1501
tal	-11.1502
長崎	-11.1503
ことがわかります	-11.1505
されていて	-11.1505
ウン	-11.1507
usa	-11.1508
▁if	-11.1508
ランダム	-11.151
給与	-11.1511
のあり方	-11.1512
平線に一致する時刻	-11.1513
億円の	-11.1513
計算機	-11.1513
▁ご利用にあたって出入りの時刻は	-11.1514
産業の	-11.1516
陣	-11.1518
法務	-11.1519
実用化	-11.152
続けています	-11.152
を許可する	-11.1521
のほとんどは	-11.1521
以外にも	-11.1521
▁このような場合	-11.1523
月まで	-11.1523
が実現	-11.1524
漏洩	-11.1524
プラズマ	-11.1525
確認できます	-11.1525
表面に	-11.1525
期の	-11.1529
新設	-11.153
現時点で	-11.153
に対しても	-11.1531
入った	-11.1531
server	-11.1531
なん	-11.1532
騒音	-11.1533
この場合	-11.1534
システムが自動的に	-11.1536
を紹介し	-11.1536
▁make	-11.1537
ストラ	-11.154
を取得します	-11.1541
走る	-11.1542
rn	-11.1545
lab	-11.1545
語学	-11.1547
▁シンガポール	-11.1547
ことにしました	-11.1548
日本文化	-11.1548
のご利用	-11.1549
全社	-11.1549
kyo	-11.1552
あわせて	-11.1554
回線	-11.1554
▁use	-11.1556
各地	-11.1557
▁csr	-11.1557
はなく	-11.1558
アシスタント	-11.1559
パスワードを	-11.1561
人間が	-11.1563
在住	-11.1564
を大切に	-11.1567
今の	-11.1567
上での	-11.1569
楽しんで	-11.157
▁パンドラ	-11.157
の充実	-11.157
軽く	-11.1573
みて	-11.1573
▁をご覧ください	-11.1574
快適さ	-11.1575
だろうか	-11.1577
いで	-11.1581
ソーラー	-11.1581
芸	-11.1581
戻る	-11.1582
はしばしば	-11.1585
洞察	-11.1585
を占める	-11.1586
小説	-11.1586
を始めた	-11.1587
運命	-11.1588
なもの	-11.1588
説明します	-11.1589
▁just	-11.1589
札幌	-11.159
一意	-11.159
に移	-11.159
説明する	-11.1591
成長し	-11.1591
率が	-11.1591
尚	-11.1595
余裕	-11.1595
はっきり	-11.1597
に反映	-11.1598
運送	-11.1599
の考え方	-11.1599
今でも	-11.1599
▁sd	-11.1599
どうして	-11.16
cell	-11.16
apec	-11.1602
晩	-11.1604
車載	-11.1604
ディナー	-11.1606
加盟	-11.1606
継続して	-11.1608
天皇	-11.1608
異なった	-11.1608
プラグ	-11.1609
を特定し	-11.1611
万人の	-11.1612
都合	-11.1612
▁image	-11.1612
▁個人情報の	-11.1612
ツールは	-11.1612
るでしょう	-11.1613
ものづくり	-11.1615
自体が	-11.1615
気圧	-11.1616
頃から	-11.1617
hy	-11.1618
お手伝い	-11.1618
▁デフォルトでは	-11.1619
鶏	-11.1619
通報	-11.1623
▁確かに	-11.1624
反対側	-11.1624
穀物	-11.1625
広げ	-11.1626
▁plan	-11.1626
は次のとおりです	-11.1627
色々な	-11.1627
バター	-11.1627
公募	-11.1627
を考慮する	-11.1627
このたび	-11.1628
こういう	-11.1631
▁!▁」	-11.1633
衣	-11.1634
を特定する	-11.1634
はできません	-11.1634
hu	-11.1635
s▁of	-11.1637
投げ	-11.1638
例として	-11.1639
midi	-11.1639
を持っていない	-11.164
だと思う	-11.164
直後	-11.1641
ご自身の	-11.1641
を作る方法	-11.1642
トリガー	-11.1642
ティン	-11.1643
ヘア	-11.1644
掃除	-11.1645
黄金	-11.1646
たのです	-11.1646
液晶	-11.1647
ファイアウォール	-11.1647
▁:▁「	-11.1647
たりする	-11.1648
ドライバをインストールする	-11.1649
腕時計	-11.165
ssi	-11.165
前年	-11.165
を含めて	-11.1651
相関	-11.1654
を復元する	-11.1656
▁tab	-11.1657
▁弊社の	-11.1658
自然と	-11.166
▁モバイル	-11.1661
西部	-11.1662
セクションで	-11.1663
eb	-11.1664
返し	-11.1664
漏れ	-11.1664
sys	-11.1665
に役立ちます	-11.1665
の一つである	-11.1666
リーフ	-11.1666
にあたっては	-11.1668
出口	-11.1669
であれ	-11.167
▁結論	-11.1672
とらえ	-11.1675
できるようにする	-11.1677
に関するお知らせ	-11.1678
を失い	-11.1678
外側	-11.1678
付ける	-11.168
▁この結果	-11.1682
への貢献	-11.1683
途上国	-11.1683
結び	-11.1685
境界	-11.169
くて	-11.1692
事業展開	-11.1693
そもそも	-11.1695
人にとって	-11.1695
助成	-11.1695
使用量	-11.1695
子供たちは	-11.1696
の建物	-11.1697
▁プロパティ	-11.1697
トレード	-11.1697
フェーズ	-11.1699
エクス	-11.1701
dav	-11.1702
に依存します	-11.1703
日本人の	-11.1705
国際的に	-11.1707
力が	-11.1707
ファイル形式	-11.1707
何でも	-11.1708
パイロット	-11.1712
国際空港	-11.1712
郵便	-11.1713
翌	-11.1715
を開催	-11.1715
を取って	-11.1716
適正	-11.1717
漁	-11.1718
物質の	-11.1719
への移行	-11.1719
わずかな	-11.172
笑い	-11.172
なかで	-11.1722
不明	-11.1722
を受けました	-11.1724
▁photo	-11.1725
▁may	-11.1726
ファンタジー	-11.1726
当て	-11.1726
場面	-11.1728
隠れ	-11.173
クー	-11.173
お客様の個人情報	-11.1731
▁platform	-11.1731
役立ちます	-11.1733
合格	-11.1734
gate	-11.1735
救い	-11.1736
英語の	-11.1738
工場の	-11.1739
覚え	-11.1741
思います	-11.1743
mf	-11.1743
位置情報	-11.1746
ガソリン	-11.1746
装置は	-11.1747
デンマーク	-11.1748
かなりの	-11.1748
らい	-11.1748
捉え	-11.175
そこには	-11.1751
どちらの	-11.1751
mic	-11.1752
確信	-11.1752
記者	-11.1754
いき	-11.1754
植物の	-11.1755
コロナ	-11.1759
ris	-11.1759
護	-11.1759
価値がある	-11.1759
滑り	-11.1759
嫌	-11.176
px	-11.176
micro	-11.1761
enter	-11.1762
頃に	-11.1764
子どもの	-11.1764
合同	-11.1766
インターネットに接続されている	-11.1766
スペ	-11.1766
内部の	-11.1766
認められ	-11.1767
儀式	-11.1768
トリー	-11.1768
▁eu	-11.1769
書籍	-11.1769
などから	-11.1771
どおり	-11.1775
店で	-11.1775
手作り	-11.1775
pre	-11.1775
▁メンバー	-11.1776
▁sdk	-11.1777
インテル	-11.1777
指定する	-11.1777
を確認します	-11.1779
のようなもの	-11.178
領域で	-11.1781
に入った	-11.1781
敬	-11.1781
紅葉	-11.1782
閉じ	-11.1782
の最後の	-11.1783
一人の	-11.1783
奏	-11.1783
不能	-11.1785
という名前	-11.1785
cer	-11.1786
憲法	-11.1786
del	-11.1787
に移行	-11.1787
はさらに	-11.1788
bar	-11.1788
魚の	-11.1789
▁企業情報	-11.179
澤	-11.179
適用されます	-11.179
を見つけること	-11.1794
帝国	-11.1796
ウィジェット	-11.1796
墓	-11.1796
知って	-11.1798
来日	-11.1799
call	-11.18
ちゃ	-11.18
▁、▁“	-11.1801
偽	-11.1801
request	-11.1805
best	-11.1807
観光地	-11.1807
てみましょう	-11.1808
優	-11.1808
の電源	-11.1808
des	-11.1809
▁当時	-11.181
次のステップ	-11.181
é	-11.181
トリック	-11.1811
ino	-11.1811
を越えて	-11.1813
tag	-11.1814
包	-11.1814
に備え	-11.1814
を開設	-11.1815
ソート	-11.1816
のとおり	-11.1817
フック	-11.1817
の報告	-11.1817
幾	-11.1817
まい	-11.1819
とう	-11.1819
塵	-11.1819
総合的な	-11.1821
その時	-11.1821
していただく	-11.1822
または他の	-11.1822
した後に	-11.1827
cn	-11.1827
キシ	-11.1828
スコープ	-11.183
違った	-11.1832
近くに	-11.1833
フォーク	-11.1834
受け取り	-11.1837
任務	-11.184
シーケンス	-11.184
▁このページ	-11.1841
を測定する	-11.1843
大衆	-11.1844
状況は	-11.1846
アメリカ合衆国	-11.1846
を起動し	-11.1846
チャーム	-11.1846
知られています	-11.1848
しておく	-11.1849
問題について	-11.185
リクエストを	-11.185
汎用	-11.185
の近くに	-11.1851
が大幅に	-11.1851
of	-11.1851
詳しい	-11.1851
優しい	-11.1854
ラップ	-11.1855
を修正する	-11.1855
を聞いて	-11.1855
secure	-11.1858
フィン	-11.186
不満	-11.186
▁構文	-11.186
見ることができます	-11.186
を獲得する	-11.186
を組み合わせた	-11.186
を反映し	-11.1862
お知らせいたします	-11.1862
お客様と	-11.1863
の要求	-11.1864
pf	-11.1864
works	-11.1865
ボン	-11.1865
拡張機能	-11.1865
を受け入れる	-11.1865
資材	-11.1866
ウォール	-11.1868
body	-11.1868
mag	-11.1868
で開催される	-11.1869
テクスチャ	-11.187
▁メソッド	-11.187
の業績	-11.1871
エラーメッセージ	-11.1871
連結財務諸表	-11.1873
を保つ	-11.1875
麺	-11.1875
の計算	-11.1876
▁other	-11.1877
あふれる	-11.1877
ゲン	-11.188
場所は	-11.1881
電子機器	-11.1886
割り	-11.1887
コントラスト	-11.1888
金融市場	-11.1889
を使えば	-11.1889
マリア	-11.189
共有する	-11.1891
install	-11.1892
増大	-11.1893
せない	-11.1893
進学	-11.1894
レジ	-11.1894
py	-11.1895
次へ	-11.1895
一般的	-11.1895
▁iso	-11.1895
シリアル	-11.1895
が持つ	-11.1901
単位で	-11.1901
できない場合	-11.1901
新型	-11.1902
を返す	-11.1902
aa	-11.1903
に制限	-11.1906
の要素	-11.1908
真空	-11.191
を起こす	-11.1911
に関する事項	-11.1912
見つけ	-11.1912
取り付けられ	-11.1912
前述	-11.1914
は次の	-11.1914
共同で	-11.1916
のうちの	-11.1917
存在しない	-11.1922
▁lu	-11.1922
健康的な	-11.1922
止	-11.1925
男は	-11.1926
の自由	-11.1926
の編集	-11.1928
装着	-11.1929
を発表しました	-11.193
を更新する	-11.1931
ザン	-11.1932
外国語	-11.1933
▁プライバシー	-11.1933
を作成できます	-11.1933
お互い	-11.1934
豊富	-11.1936
ナンバー	-11.1936
▁ver	-11.1937
バリエーション	-11.1941
を含める	-11.1941
ture	-11.1942
健全	-11.1942
sar	-11.1943
労	-11.1943
なんと	-11.1944
イギリスの	-11.1945
ユニ	-11.1945
ここから	-11.1946
一見	-11.1948
▁ドイツ	-11.195
▁key	-11.1951
交付	-11.1951
肝	-11.1951
に与える影響	-11.1951
趣味	-11.1951
クリエイター	-11.1952
日本経済	-11.1953
ッグ	-11.1953
句	-11.1953
に非常に	-11.1954
s▁and	-11.1954
に関わらず	-11.1955
集まり	-11.1957
離れて	-11.1957
ダイナミック	-11.1958
デスク	-11.1958
株式の	-11.1959
を引き起こし	-11.1961
クオリティ	-11.1962
付加価値	-11.1963
名は	-11.1965
コネクション	-11.1968
を入力して	-11.1968
することが可能	-11.1969
▁update	-11.1969
cy	-11.197
ブドウ	-11.1971
渡す	-11.1972
希望の	-11.1972
発電所	-11.1973
java	-11.1973
有効性	-11.1974
color	-11.1974
▁back	-11.1974
を接続する	-11.1974
を保持する	-11.1976
そのうち	-11.1976
down	-11.1976
裁	-11.1977
ご意見	-11.1978
ブート	-11.198
お菓子	-11.1981
の枠組み	-11.1983
こともあり	-11.1985
を明らかにする	-11.1987
地球温暖化	-11.1987
ロジック	-11.1987
であるという	-11.1988
言いました	-11.1988
リストから	-11.1988
pack	-11.1989
のを助ける	-11.1993
に分かれ	-11.1994
配線	-11.1995
tls	-11.1996
多大な	-11.1998
低コスト	-11.1998
保障	-11.1999
低く	-11.1999
cur	-11.2001
風味	-11.2001
ever	-11.2001
受賞者	-11.2002
前期	-11.2002
を求めて	-11.2003
瀬	-11.2003
はある	-11.2004
残る	-11.2005
非難	-11.2005
▁next	-11.2005
カルチャー	-11.2007
をつくり	-11.2007
▁cr	-11.201
の使用は	-11.201
の下の	-11.2011
csv	-11.2012
立案	-11.2014
ることを	-11.2014
気軽に	-11.2015
入る	-11.2015
国際会議	-11.2016
企業に	-11.2016
active	-11.2017
特色	-11.2019
flash	-11.202
提供されています	-11.202
lot	-11.202
und	-11.2022
どのくらい	-11.2023
賭け	-11.2023
▁help	-11.2024
しま	-11.2025
スプレー	-11.2026
か国	-11.2028
を最大限に	-11.2028
ov	-11.2029
▁min	-11.203
年度に	-11.203
たっぷり	-11.2032
あなたがあなたの	-11.2032
▁¥	-11.2033
メンズ	-11.2033
幼稚園	-11.2034
アダプタ	-11.2035
苦しみ	-11.2036
マリ	-11.2036
より一層	-11.2037
正式に	-11.2038
層の	-11.2039
破損した	-11.204
pin	-11.2042
塗り	-11.2042
定着	-11.2043
を集める	-11.2043
▁それでは	-11.2045
国際協力	-11.2045
の街	-11.2045
発注	-11.2046
時間がかかる	-11.2049
摩擦	-11.205
主として	-11.2051
遠い	-11.2051
に置く	-11.2054
軽い	-11.2056
を検討し	-11.2057
かわいい	-11.206
▁nvidia	-11.2061
期間中に	-11.2061
ler	-11.2061
換算	-11.2062
又	-11.2062
▁弊社	-11.2063
見逃	-11.2063
ポルノ	-11.2064
当期純利益	-11.2064
エピソード	-11.2064
国民の	-11.2065
鹿	-11.2065
住居	-11.2065
施	-11.2065
に住んでいる	-11.2066
飾	-11.2066
技術や	-11.2066
cas	-11.2067
散策	-11.2067
わら	-11.2069
生成された	-11.207
を使用している場合	-11.207
スカ	-11.2071
に取り組み	-11.2075
limu	-11.208
覚	-11.2082
着陸	-11.2083
▁。▁"	-11.2083
死ぬ	-11.2084
can	-11.2084
board	-11.2085
スーツ	-11.2085
対応の	-11.2086
を出す	-11.2087
の創出	-11.2087
▁day	-11.2087
肥料	-11.2087
の出力	-11.2088
できるようにします	-11.2088
推奨事項	-11.209
ローズ	-11.2093
は全く	-11.2094
ツールです	-11.2096
返済	-11.2096
ご家族	-11.2097
ソケット	-11.21
を制限	-11.21
セラミック	-11.2101
ガル	-11.2101
なんです	-11.2103
に就任	-11.2103
対立	-11.2104
快適	-11.2104
姿を	-11.2104
の要件	-11.2108
トヨタ	-11.2108
出場	-11.2108
水で	-11.2108
アイルランド	-11.2109
潜在	-11.211
申し込み	-11.2111
field	-11.2112
ステートメント	-11.2114
刑	-11.2114
ノルウェー	-11.2114
と言えます	-11.2114
▁もう	-11.2115
の意見	-11.2115
この地域	-11.2115
エコシステム	-11.2116
競	-11.2116
dll	-11.2117
を解決する	-11.2118
▁pri	-11.2119
搭乗	-11.212
中には	-11.212
に見える	-11.2121
落ちる	-11.2121
暗	-11.2121
効率的	-11.2122
指向	-11.2123
艦	-11.2124
を想定し	-11.2124
手がけ	-11.2125
仮想通貨	-11.2126
毒	-11.2127
変異	-11.2127
数週間	-11.2128
厚い	-11.2128
の進展	-11.2129
組み込まれ	-11.213
rel	-11.213
おいて	-11.213
増加し	-11.213
異なり	-11.2131
触媒	-11.2131
途	-11.2132
正規	-11.2132
▁enterprise	-11.2132
待機	-11.2132
を追加し	-11.2132
に努めます	-11.2135
デザート	-11.2135
前連結会計年度	-11.2137
キリストの	-11.2138
fire	-11.2138
を立て	-11.214
途中で	-11.2141
杉	-11.2142
銀座	-11.2142
その日	-11.2143
秀	-11.2144
の前で	-11.2145
ヴァン	-11.2145
samsung	-11.2146
レール	-11.2147
▁大阪	-11.2148
▁自動更新	-11.215
リバー	-11.2151
キャスト	-11.2151
hen	-11.2156
▁gb	-11.2157
鉛筆	-11.2158
知恵	-11.216
に焦点を当て	-11.2161
有効です	-11.2163
yama	-11.2168
一般の人々	-11.2168
gps	-11.2169
tb	-11.2171
注意深く	-11.2171
統治	-11.2172
カウント	-11.2172
ハーブ	-11.2174
呼び	-11.2176
ありがとうございます	-11.2177
▁control	-11.2178
入居	-11.2178
売上高は	-11.2178
韓	-11.2178
を形成し	-11.2178
モビリティ	-11.2179
はすぐに	-11.218
など様々な	-11.218
を活かし	-11.218
フィールドに	-11.2181
の通り	-11.2181
▁残念ながら	-11.2182
gg	-11.2182
主催者	-11.2183
メッセージの	-11.2185
▁amazon	-11.2186
増強	-11.2187
が使用されます	-11.2188
tin	-11.2188
付いて	-11.219
を楽しむことができます	-11.2192
営業利益は	-11.2195
お使いのコンピュータが	-11.2195
であることが	-11.2196
自社の	-11.2196
各社	-11.2197
シャル	-11.2198
が行われます	-11.2198
点字	-11.22
示された	-11.22
source	-11.22
の検討	-11.2202
に特化した	-11.2203
ite	-11.2203
付けられ	-11.2204
湿	-11.2204
の一人	-11.2204
部隊	-11.2204
▁まずは	-11.2205
音が	-11.2205
for	-11.2205
連盟	-11.2205
影響を受ける	-11.2206
master	-11.2206
コミュニティー	-11.2208
ご用意	-11.2212
title	-11.2212
考えられる	-11.2213
ダメージ	-11.2214
コスト削減	-11.2215
代表的な	-11.2216
を確認できます	-11.2218
望遠鏡	-11.2218
ttle	-11.2218
感度	-11.222
受託	-11.2223
を挿入	-11.2223
の遵守	-11.2225
渋谷	-11.2225
を抱え	-11.2227
▁ゼータトーク	-11.2227
機会を	-11.2228
を愛し	-11.2232
に関する研究	-11.2232
long	-11.2234
ミリメートル	-11.2235
プロデューサー	-11.2236
に参加した	-11.2237
suite	-11.2237
農場	-11.2238
語った	-11.2238
費や	-11.2238
▁クラウド	-11.2238
ショット	-11.2238
高効率	-11.224
▁xml	-11.224
無限	-11.2244
デバイスのドライバを	-11.2245
を定期的に	-11.2245
を指します	-11.2246
文脈	-11.2246
face	-11.2247
ダイニング	-11.2248
を手に入れ	-11.2249
説明会	-11.2249
手助け	-11.2249
最善の	-11.2249
アクセス制御	-11.2252
密接に	-11.2253
▁base	-11.2253
と言います	-11.2254
霧	-11.2255
濃	-11.2255
併せて	-11.2257
をベースに	-11.2257
すべての人	-11.226
額を	-11.2261
納入	-11.2262
ことを確認します	-11.2262
シュー	-11.2263
ごく	-11.2264
館内	-11.2265
物理的	-11.2266
blue	-11.2266
強力	-11.2266
台湾の	-11.2267
インターンシップ	-11.2268
金融政策	-11.2269
されるべきです	-11.227
なんだ	-11.2271
に属する	-11.2271
お互いに	-11.2271
集計	-11.2271
予想される	-11.2272
ファイルの拡張子	-11.2273
登山	-11.2274
モダンな	-11.2274
を回避	-11.2276
を無効に	-11.2277
お知らせします	-11.2278
▁pe	-11.2279
理解する	-11.2279
音源	-11.2279
たいという	-11.228
ついに	-11.2281
の速度	-11.2281
星の	-11.2282
管轄	-11.2282
誤解	-11.2283
を強く	-11.2284
同じように	-11.2285
再建	-11.2285
status	-11.2286
を覚え	-11.2287
適切なプログラム	-11.2287
寛	-11.2288
切れるか	-11.2292
の未来	-11.2293
になるように	-11.2293
あい	-11.2295
が存在し	-11.2295
行わ	-11.2295
添加	-11.2295
数分	-11.2295
わたしたち	-11.2296
マルウェア	-11.2297
オーストラリアの	-11.2299
怒	-11.2299
軍隊	-11.23
μ	-11.23
ftp	-11.23
食糧	-11.2301
に対応するため	-11.2303
落下	-11.2306
接近	-11.2306
▁smart	-11.2307
たい場合は	-11.2307
選び	-11.2309
価額	-11.231
活発な	-11.2311
ctrl	-11.2311
理事長	-11.2311
房	-11.2311
イスラム	-11.2313
真剣に	-11.2313
毎回	-11.2314
の一つとして	-11.2315
問い	-11.2317
super	-11.2317
見られます	-11.2318
▁some	-11.2318
こともある	-11.2318
多分	-11.2319
一貫して	-11.2319
カードを	-11.2322
妊娠中	-11.2323
いれば	-11.2323
求人	-11.2324
というのが	-11.2328
どんどん	-11.2328
テレ	-11.2329
が正常に機能するためには	-11.2329
するものとします	-11.233
を楽しみ	-11.233
が有効	-11.2331
ens	-11.2331
:▁"	-11.2331
ソニー	-11.2332
ない場合に表示されます	-11.2333
ッツ	-11.2333
自立	-11.2333
込め	-11.2333
も同じ	-11.2337
結果が	-11.2337
▁一般的には	-11.2338
を追跡	-11.2339
観点	-11.2339
当施設は	-11.234
雑	-11.2341
クリックしてください	-11.2342
車を	-11.2342
が好き	-11.2344
ポンド	-11.2345
をあなたのコンピュータに繋げた	-11.2346
pic	-11.2347
▁スポンサードリンク▁この	-11.2347
の運用	-11.2347
状態の良い	-11.2348
費用は	-11.2349
情報開示	-11.2349
起こっている	-11.2351
eg	-11.2351
番目	-11.2352
json	-11.2352
シニア	-11.2354
需要が	-11.2354
診療	-11.2354
に一時的にインターネット接続が	-11.2355
デバイスの接続後	-11.2355
信号が弱すぎて	-11.2356
ッカ	-11.2358
を除き	-11.2358
外部の	-11.2358
admin	-11.2359
の上で	-11.2359
▁、▁『	-11.2361
背中	-11.2361
一定期間更新	-11.2362
ボス	-11.2363
にご注意ください	-11.2364
ated	-11.2368
ッカー	-11.2369
の葉	-11.237
を認識する	-11.237
ax	-11.2371
page	-11.2372
が必要になる	-11.2374
まずは	-11.2381
依然として	-11.2381
提起	-11.2383
オプションの	-11.2383
いること	-11.2384
影響を及ぼし	-11.2384
▁multi	-11.2384
だけを	-11.2384
ことはできない	-11.2385
体を	-11.2385
ありがとう	-11.2386
気に	-11.2387
次のとおりです	-11.2387
イエス様	-11.2388
部分が	-11.2389
エキスパート	-11.2392
並列	-11.2393
style	-11.2394
▁詳細経路情報	-11.2395
際は	-11.2395
の原則	-11.2395
人で	-11.2395
▁だが	-11.2395
の周りに	-11.2396
完備	-11.2398
ゲイ	-11.2398
アナログレコード▁詳細ページ	-11.2399
ori	-11.24
メタル	-11.2401
学生は	-11.2402
したりする	-11.2402
ダル	-11.2402
▁但し	-11.2403
をめざし	-11.2405
を比較	-11.2406
ている場合は	-11.2406
▁今後は	-11.2406
▁real	-11.2406
を上回る	-11.2407
授与	-11.2409
第三者に	-11.2409
ホルダー	-11.2409
誠実	-11.2412
セール	-11.2413
サーバに	-11.2414
否	-11.2415
ship	-11.2415
レーター	-11.2416
tel	-11.2416
の多く	-11.2417
あれ	-11.2417
ray	-11.2419
に来た	-11.242
寒い	-11.242
ってください	-11.2421
孔	-11.2422
ダイビング	-11.2426
数千	-11.2428
阿	-11.2429
豪	-11.243
トータル	-11.243
▁pay	-11.2431
インフレ	-11.2432
で作られた	-11.2432
ネー	-11.2432
outlook	-11.2432
桃	-11.2432
即	-11.2436
書かれ	-11.2436
が少なく	-11.2437
だったので	-11.2438
がすでに	-11.2439
購買	-11.2442
議	-11.2443
社員の	-11.2444
逮捕	-11.2444
ルーティング	-11.2445
のテーマ	-11.2447
kw	-11.2447
宮殿	-11.2447
スマートフォンの	-11.2448
ませんか	-11.245
case	-11.245
があった場合	-11.2452
header	-11.2452
奈良	-11.2452
mov	-11.2453
怒り	-11.2453
免除	-11.2454
♪	-11.2456
この種の	-11.2457
ws	-11.2458
銀行の	-11.246
オブジェクトの	-11.2461
店舗を見て	-11.2461
手荷物	-11.2462
支	-11.2462
▁close	-11.2463
に該当する	-11.2464
に連絡	-11.2465
家庭用	-11.2466
について詳しく	-11.2466
発揮	-11.2466
の数は	-11.2466
パル	-11.2467
を用いる	-11.2467
告	-11.2467
厳格な	-11.2467
数年	-11.2468
厳密に	-11.247
という点	-11.247
唯一	-11.2471
与	-11.2472
cv	-11.2473
地に	-11.2475
運行	-11.2477
アラ	-11.2477
外務省	-11.2477
▁county	-11.2478
まだまだ	-11.2479
致	-11.248
ことを期待	-11.248
リクエストの	-11.2481
大幅な	-11.2482
グループでは	-11.2484
テーション	-11.2484
ロープ	-11.2485
▁health	-11.2485
サロン	-11.2485
兵士	-11.2485
▁version	-11.2486
発酵	-11.2487
家電	-11.2487
上下	-11.2489
に行きます	-11.2491
到達	-11.2491
を探している	-11.2492
』(	-11.2492
に至る	-11.2493
dl	-11.2494
がい	-11.2496
cor	-11.2496
モバイルデバイス	-11.2498
np	-11.2499
が得られる	-11.25
ez	-11.2501
土曜日	-11.2502
している場合は	-11.2502
するだけで	-11.2503
しないこと	-11.2503
tom	-11.2504
そのインストール	-11.2506
の自動	-11.2507
当ウェブサイト	-11.2508
ニス	-11.2508
精神的	-11.2508
技術革新	-11.2509
▁play	-11.2509
作物	-11.2509
▁product	-11.251
ろうと	-11.2513
kit	-11.2514
の基盤	-11.2515
日までに	-11.2515
は一切	-11.2516
ロビー	-11.2517
移動する	-11.2518
▁any	-11.2519
設立された	-11.2519
所有権	-11.252
ren	-11.2521
企業として	-11.2522
賞を受賞	-11.2524
が参加し	-11.2525
襲	-11.2525
再構築	-11.2528
▁da	-11.2528
を作成して	-11.2529
そのように	-11.253
以下のように	-11.2531
green	-11.2533
瓶	-11.2533
はどう	-11.2533
進行中	-11.2534
こちらの	-11.2535
引き上げ	-11.2535
▁重要	-11.2536
太陽光	-11.2537
トレ	-11.254
純粋な	-11.2542
を活用する	-11.2544
ブラウザの	-11.2544
手間	-11.2545
婚	-11.2545
nor	-11.2545
サンフランシスコ	-11.2545
豚	-11.2546
私も	-11.2546
に乗る	-11.2547
と協力して	-11.2548
アーツ	-11.2548
デプロイ	-11.2549
為替レート	-11.2551
キャッチ	-11.2551
mas	-11.2552
感じられる	-11.2555
持続的な	-11.2555
ゼータ	-11.2557
を得ること	-11.2557
厳しく	-11.2558
デバイスが	-11.2559
gpu	-11.2559
▁ok	-11.256
where	-11.2562
料理を	-11.2567
の交換	-11.2568
そういった	-11.2568
観光情報	-11.2568
卒業生	-11.2568
を保証する	-11.257
▁シェア	-11.2571
の痛み	-11.2572
まあ	-11.2572
並ぶ	-11.2573
の代表	-11.2573
頭の	-11.2574
を着用	-11.2576
違法	-11.2576
▁state	-11.2577
ions	-11.2577
レザー	-11.2577
を提供している	-11.2577
可能である	-11.2578
が進む	-11.2578
言います	-11.2578
の記録	-11.2578
踏み	-11.2578
▁サーバ設定ファイル	-11.258
行動を	-11.2581
申告	-11.2581
暖房	-11.2581
モバイルアプリ	-11.2581
▁lo	-11.2582
fm	-11.2582
波長	-11.2582
人種	-11.2582
▁show	-11.2586
悪く	-11.2587
のコピー	-11.2588
環境負荷	-11.259
腎臓	-11.2591
を受けている	-11.2592
課程	-11.2592
を入力してください	-11.2592
イト	-11.2593
顧客は	-11.2594
世界的	-11.2594
有用	-11.2594
注記	-11.2595
顕著な	-11.2595
▁over	-11.2596
▁development	-11.2597
多少	-11.2598
壊	-11.2602
日には	-11.2602
dra	-11.2602
デバイスがコンピュータに接続され	-11.2606
▁itunes	-11.2606
と考えております	-11.2606
言え	-11.2607
発表された	-11.2608
王国	-11.261
すべきである	-11.261
part	-11.2611
考えられ	-11.2614
置換	-11.2615
智	-11.2616
生じ	-11.2617
首脳	-11.2617
太陽系	-11.2617
技術力	-11.2618
て紹介しております	-11.2618
カクテル	-11.2619
実施した	-11.2619
▁スターアライアンス	-11.262
実用的な	-11.2621
太郎	-11.2621
なのだ	-11.2621
▁こちらの	-11.2621
神様の	-11.2621
事が	-11.2622
暮らす	-11.2622
充実した	-11.2622
ファイルを起動するだけです	-11.2623
人的	-11.2623
の思いの詰まった	-11.2624
雪の	-11.2626
の風景	-11.2626
コミット	-11.2626
rain	-11.2626
▁drivers	-11.2626
者である	-11.2626
合併症	-11.2627
皆様に届ける	-11.2627
ほとんどすべての	-11.2628
頼	-11.2628
収益性	-11.2628
ようなものを厳選し	-11.2628
素敵な音を	-11.2628
ドラム	-11.263
センチ	-11.2632
ek	-11.2632
▁我々はアーティスト	-11.2634
簡素化	-11.2635
を遵守する	-11.2635
ロケット	-11.2635
データ保護	-11.2636
立った	-11.2636
まち	-11.2638
直後に	-11.264
クラスター	-11.2644
開いた	-11.2645
温室効果ガス	-11.2646
が発生した	-11.2647
ium	-11.2648
敏	-11.2649
カーボン	-11.265
有害な	-11.265
福音	-11.265
cast	-11.265
基調	-11.2651
dia	-11.2652
進み	-11.2654
最新バージョン	-11.2654
マイクロソフト	-11.2654
を行なっ	-11.2654
の結果として	-11.2655
正常	-11.2658
インテグレーション	-11.2658
zen	-11.2659
van	-11.2663
統	-11.2663
影響を受け	-11.2666
ナショナル	-11.2667
ブロ	-11.2668
集積	-11.2669
日本から	-11.2669
使用方法	-11.267
所に	-11.2671
おい	-11.2672
を訪れる	-11.2672
いろいろ	-11.2673
メーター	-11.2673
選出	-11.2675
に基づいています	-11.2676
野球	-11.2677
ban	-11.2678
刊	-11.2681
ようにします	-11.2682
ファイルから	-11.2682
ors	-11.2684
を可能にし	-11.2684
夫婦	-11.2685
black	-11.2688
ご要望	-11.2688
か否か	-11.2688
株当たり	-11.2689
が発生します	-11.2693
サードパーティの	-11.2693
大事	-11.2696
▁systems	-11.2696
ミル	-11.2697
で使用される	-11.2697
を慎重に	-11.2697
人体	-11.2698
設定で	-11.2698
tcp	-11.27
via	-11.2703
ツー	-11.2703
デジタル化	-11.2703
冠	-11.2705
尽く	-11.2706
に提供する	-11.2706
ジム	-11.271
洞	-11.2711
曜	-11.2711
刑事	-11.2713
プロセスが	-11.2714
size	-11.2715
env	-11.2716
前半	-11.2717
公正な	-11.2718
を無効にする	-11.2719
デビュー	-11.2721
と思い	-11.2723
などについて	-11.2724
ali	-11.2724
ins	-11.2725
ソリューションは	-11.2725
遊ぶ	-11.2726
ご相談	-11.2728
仙台	-11.2728
ご注意	-11.2729
るための	-11.2729
正方形	-11.2729
ですよね	-11.273
との間に	-11.273
の最新	-11.273
に関連した	-11.273
有効期限	-11.2731
協	-11.2732
に努めています	-11.2734
効力	-11.2734
イスラエルの	-11.2736
撮影した	-11.2737
水中	-11.2738
デッキ	-11.2738
に進む	-11.2738
考えている	-11.2739
初期化	-11.274
壁の	-11.2742
するのか	-11.2742
タバコ	-11.2743
提供しています	-11.2744
地面	-11.2744
を開始した	-11.2744
を獲得し	-11.2745
使用可能な	-11.2749
core	-11.275
を果たし	-11.275
つもり	-11.2752
サーバが	-11.2752
影響を与える	-11.2754
play	-11.2757
受験	-11.2758
ことはない	-11.2758
に戻って	-11.276
▁実は	-11.276
切る	-11.276
ユーザー名	-11.2761
急激な	-11.2762
アナリスト	-11.2764
を決定します	-11.2765
を保存	-11.2767
再編	-11.2768
医師は	-11.2768
立っている	-11.2769
のうちに	-11.2771
学んだ	-11.2772
gh	-11.2773
休み	-11.2776
添え	-11.2778
見つける	-11.2778
ラインナップ	-11.2778
本質的に	-11.278
静的	-11.278
あなた自身の手で	-11.278
たちに	-11.2781
環境問題	-11.2782
開催されます	-11.2783
llc	-11.2783
編成	-11.2783
不安定	-11.2784
を記録し	-11.2785
seo	-11.2786
クリスタル	-11.2787
基本的	-11.2787
に貢献します	-11.2787
format	-11.2788
▁how	-11.2788
▁asia	-11.2789
したくない	-11.2789
wd	-11.2789
dan	-11.279
▁application	-11.279
送信されます	-11.2791
xp	-11.2792
遺	-11.2792
含まれ	-11.2792
にも対応	-11.2794
卒業後	-11.2794
ound	-11.2795
ゲームを	-11.2795
水道	-11.2796
慢性	-11.2796
▁ni	-11.2797
牧	-11.2798
上司	-11.2799
のだろうか	-11.2801
初めに	-11.2802
テンプレートを	-11.2802
bt	-11.2803
を経験し	-11.2803
と仮定	-11.2803
申し	-11.2803
かかり	-11.2804
しなさい	-11.2804
engine	-11.2805
山々	-11.2806
壊れ	-11.2807
を作り出す	-11.2808
の理解	-11.2808
当社に	-11.2809
望み	-11.2809
思って	-11.281
のコスト	-11.281
オペラ	-11.2811
ユーザは	-11.2811
教育機関	-11.2812
を起動する	-11.2815
毎	-11.2816
屋内	-11.2816
学校で	-11.2816
発見された	-11.2817
でなく	-11.2818
例は	-11.2818
ご理解	-11.2819
社会に	-11.2819
関連性	-11.282
様の	-11.282
威	-11.282
リニューアル	-11.2821
不可能な	-11.2823
筆	-11.2826
私たちはあなた	-11.2828
ベット	-11.283
違って	-11.2834
カスタマイズされた	-11.2835
数時間	-11.2835
無し	-11.2836
した結果	-11.2836
切って	-11.2837
奉仕	-11.284
選択します	-11.2842
複雑さ	-11.2842
も含め	-11.2842
python	-11.2843
をご紹介	-11.2844
今すぐ	-11.2846
を管理し	-11.2849
に入れて	-11.2849
掲げ	-11.285
で行われた	-11.285
に違反し	-11.2852
必要なもの	-11.2852
得意	-11.2853
脇	-11.2853
を選んで	-11.2854
かね	-11.2854
の本質	-11.2855
消費量	-11.2855
内での	-11.2856
クション	-11.2857
置き	-11.2857
スペクトル	-11.2859
博士は	-11.2861
ようとしている	-11.2862
応え	-11.2864
を開発しました	-11.2865
書かれている	-11.2865
ヨハネ	-11.2867
溶	-11.2867
を継続	-11.2867
ショートカット	-11.2868
バブル	-11.2869
見ている	-11.2871
このサイト	-11.2872
モデリング	-11.2872
kin	-11.2872
勧め	-11.2872
理由です	-11.2877
製品開発	-11.2878
量産	-11.2879
富士	-11.288
力学	-11.288
欲求	-11.288
真っ	-11.288
自分に	-11.2881
を展示	-11.2882
知的	-11.2882
権利を	-11.2882
付いた	-11.2883
ley	-11.2883
救	-11.2884
後も	-11.2884
どちらか	-11.2885
パラリンピック	-11.2885
いっぱい	-11.2886
されていない場合	-11.2887
増加した	-11.2888
ドリ	-11.2889
工場で	-11.2889
という意味	-11.289
インターネット接続	-11.289
資金の	-11.2891
正規表現	-11.2891
以外で	-11.2893
選択する	-11.2894
ヨー	-11.2895
収納	-11.2896
同一の	-11.2897
村の	-11.2898
めて	-11.2899
インストールしましょう	-11.29
許諾	-11.29
exp	-11.2901
の方は	-11.2903
束	-11.2904
github	-11.2906
目撃	-11.2907
処	-11.2908
開き	-11.2908
をご覧	-11.291
▁同社は	-11.2911
の終わりに	-11.2911
カス	-11.2911
することができない	-11.2912
パレット	-11.2913
――	-11.2915
ドイツ語	-11.2916
洞窟	-11.2916
そしてそれは	-11.2917
差異	-11.2918
機密	-11.2918
に触れる	-11.292
ペースト	-11.292
フォード	-11.292
に依存し	-11.2921
するものです	-11.2922
のみで	-11.2922
セー	-11.2922
詳細に	-11.2922
揃	-11.2923
高め	-11.2926
を知って	-11.2927
アラブ	-11.2927
偏	-11.2927
利用者が	-11.2928
億円となりました	-11.2929
中学校	-11.2929
機材	-11.293
留意	-11.2932
新作	-11.2932
を可能にします	-11.2933
ご自身で	-11.2933
を発行する	-11.2934
有効期間	-11.2934
粉末	-11.2935
に伝え	-11.2935
生態	-11.2935
磁場	-11.2936
防御	-11.2937
エロ	-11.2939
関連しています	-11.2941
画面に	-11.2942
注入	-11.2943
ことを目的としています	-11.2943
情報源	-11.2948
範囲内	-11.2948
妨害	-11.2949
蓋	-11.295
citrix	-11.2955
インク	-11.2956
を認め	-11.2956
css	-11.2956
累計	-11.2957
絞	-11.2957
bd	-11.2959
年目	-11.2959
▁when	-11.296
以	-11.2963
確かめ	-11.2963
ale	-11.2965
お母さん	-11.2966
pet	-11.2966
が容易	-11.2966
ise	-11.2968
側で	-11.2971
世界中から	-11.2971
最初から	-11.2971
たま	-11.2973
エンターテインメント	-11.2973
るので	-11.2974
スキップ	-11.2974
の症状	-11.2975
ことがわかりました	-11.2975
みました	-11.2975
扉	-11.2976
▁on▁the	-11.2976
ジオ	-11.2976
を要する	-11.2977
の削除	-11.2977
の供給	-11.2977
に移動する	-11.2977
あなた方	-11.2978
百万	-11.2979
ラーニング	-11.298
甘	-11.298
単純に	-11.2982
ばかりの	-11.2983
アライアンス	-11.2983
をチェックし	-11.2984
企業と	-11.2984
経営陣	-11.2987
ますので	-11.2988
に依存する	-11.2989
サンプリング	-11.2989
他方	-11.299
ひどい	-11.2992
トピックス	-11.2993
要求される	-11.2993
迎え	-11.2994
実習	-11.2994
研究活動	-11.2995
有害	-11.2995
顕著	-11.2998
example	-11.3
メタデータ	-11.3001
プロモーションコード	-11.3001
ドライバは正しくインストールされ	-11.3003
見つけることができます	-11.3004
機能がオフになっていると	-11.3004
ud	-11.3004
前年同期	-11.3007
もらえる	-11.3009
両面	-11.3011
ドライバの新しいバージョンが	-11.3011
のではないでしょうか	-11.3013
インスタレーション	-11.3014
迷わずそれを	-11.3014
業績予想	-11.3014
そうと	-11.3015
www	-11.3015
バイオマス	-11.3017
利用可能であることに気付いた	-11.3017
の底	-11.3017
ジョー	-11.3017
どれくらい	-11.3018
ダウンロードできます	-11.3019
されているので	-11.3024
ヒル	-11.3024
tele	-11.3025
base	-11.3025
▁express	-11.3026
しない場合	-11.3027
奴隷	-11.3028
休業	-11.3029
talk	-11.303
メートルの	-11.3031
システムでは	-11.3032
ジェンダー	-11.3033
産地	-11.3033
外で	-11.3033
豪華な	-11.3034
ペイント	-11.3034
たか	-11.3034
要素を	-11.3036
満足度	-11.3038
地形	-11.3038
望む	-11.3038
達の	-11.3039
track	-11.304
を提供するために	-11.304
申し上げます	-11.304
茎	-11.304
▁number	-11.3041
を入れて	-11.3041
沈	-11.3042
ルータ	-11.3043
活気	-11.3043
▁city	-11.3043
コーン	-11.3044
インフルエンザ	-11.3045
リコー	-11.3046
症候群	-11.3047
歴	-11.3048
のが良いです	-11.3048
全国の	-11.3049
mor	-11.3052
屈	-11.3054
細かく	-11.3055
ユーザ名	-11.3056
ウッド	-11.3056
ていましたが	-11.3056
を信じ	-11.3056
研究会	-11.3059
ことがない	-11.306
▁change	-11.3061
滑らかな	-11.3061
エグゼクティブ	-11.3062
▁accept	-11.3062
の採用	-11.3062
拘束	-11.3066
リティ	-11.3067
しゃ	-11.307
の比較	-11.307
inter	-11.3071
潤	-11.3071
納	-11.3072
usr	-11.3072
ウォー	-11.3073
機能と	-11.3075
ドラゴン	-11.3076
collect	-11.3078
本当	-11.3078
奇跡	-11.3079
悩み	-11.308
換気	-11.3081
ところです	-11.3081
課税	-11.3081
ros	-11.3082
を確保するため	-11.3082
macos	-11.3084
att	-11.3086
故郷	-11.3087
捧げ	-11.309
▁ヒント	-11.3091
ようにする	-11.3091
学院	-11.3092
置き換え	-11.3093
▁原則として	-11.3094
鋭い	-11.3095
filter	-11.3096
驚くべき	-11.3096
の他	-11.3099
ドーム	-11.31
両立	-11.3102
sony	-11.3105
表示された	-11.3106
機械的	-11.3108
航	-11.3109
のセット	-11.3109
bitcoin	-11.3109
クール	-11.311
▁mpm	-11.3112
salesforce	-11.3112
プレートの	-11.3114
ワークスペース	-11.3115
の顔	-11.3116
安価な	-11.3116
指揮	-11.3117
この点	-11.3117
進める	-11.3117
を聞き	-11.3118
与える	-11.3119
ありませんでした	-11.3121
わけ	-11.3122
聞いた	-11.3122
card	-11.3122
ほんの	-11.3123
正面	-11.3124
なくなり	-11.3124
▁java	-11.3125
あって	-11.3125
フィードバックを送信	-11.3125
サインアップ	-11.3127
参加した	-11.3127
麻	-11.3128
オーストリア	-11.3129
風の	-11.3129
詳しい情報	-11.313
賠償	-11.3131
に属し	-11.3131
basic	-11.3131
▁select	-11.3131
▁よくあるご質問	-11.3132
の創造	-11.3133
学問	-11.3134
の測定	-11.3135
を立ち上げ	-11.3136
ライター	-11.3137
aka	-11.3138
産物	-11.3138
子供は	-11.3139
泥	-11.3141
経緯	-11.3142
かない	-11.3142
いろんな	-11.3142
つの方法	-11.3143
にとり	-11.3143
独自	-11.3145
ロータリー	-11.3146
が可能になります	-11.3146
movie	-11.3147
ことを願っています	-11.3147
入口	-11.315
感じました	-11.3152
日系	-11.3152
内側	-11.3154
親会社	-11.3154
のヒント	-11.3157
が求められる	-11.3158
病気の	-11.3158
これからの	-11.3159
倍の	-11.316
貧しい	-11.3161
描く	-11.3161
されていますが	-11.3162
頭痛	-11.3162
▁test	-11.3163
力と	-11.3164
どうすればよいのですか	-11.3168
ことを示しています	-11.3168
に戻	-11.3168
南米	-11.3168
将	-11.3169
李	-11.317
グローバルに	-11.3173
audio	-11.3173
大容量	-11.3174
を強調し	-11.3174
を持っていた	-11.3175
敷地	-11.3176
yn	-11.3176
がすべて	-11.3176
人以上の	-11.3176
与えられる	-11.3178
プラットフォームで	-11.3178
video	-11.3178
上演	-11.3179
じゃ	-11.3181
幹部	-11.3181
パーソナル	-11.3183
メッセージが	-11.3184
出張	-11.3184
必要とする	-11.3184
マット	-11.3185
尊敬	-11.3186
を選び	-11.3186
地方の	-11.3188
チキン	-11.3189
レッ	-11.3189
date	-11.319
酢	-11.319
ソロ	-11.3194
世話	-11.3196
▁products	-11.3197
前期比	-11.3197
収集した	-11.3198
見ると	-11.3202
のかを	-11.3202
考	-11.3203
創造的な	-11.3203
乗客	-11.3204
正義	-11.3205
月期の	-11.3205
コロンビア	-11.3205
血圧	-11.3206
示されている	-11.321
メンバーの	-11.321
訴	-11.321
明るさ	-11.3212
てくれ	-11.3213
米軍	-11.3214
浅草	-11.3217
つ以上の	-11.3218
年末	-11.3219
てくれました	-11.3219
数多く	-11.322
▁war	-11.3221
作品が	-11.3221
省エネルギー	-11.3221
エンドユーザー	-11.3222
することはありません	-11.3224
デバイスに正しくインストールされ	-11.3226
john	-11.3229
▁北海道	-11.3229
を示している	-11.3229
引き起こされ	-11.323
マージ	-11.3231
▁technologies	-11.3232
さい	-11.3232
パーティ	-11.3233
fat	-11.3233
吸	-11.3234
df	-11.3235
▁今日は	-11.3237
▁description	-11.3239
モニタ	-11.324
砂漠	-11.3242
ウォレット	-11.3242
スペシャリスト	-11.3246
死んだ	-11.3248
認め	-11.325
描き	-11.325
情報システム	-11.3253
その中に	-11.3254
の保存	-11.3255
軍の	-11.3256
ていきたい	-11.3256
と共同で	-11.3257
隠し	-11.3257
互い	-11.3258
era	-11.3259
それはあなたが	-11.3259
○	-11.3259
▁プロモーションコード	-11.3259
文字通り	-11.3259
順に	-11.326
スマホ	-11.326
してくれた	-11.3261
どうすれば	-11.3262
矢	-11.3262
裕	-11.3263
少しずつ	-11.3263
と考えられ	-11.3264
トップページ	-11.3265
恵み	-11.3265
効果は	-11.3266
尋ねる	-11.3267
たいと	-11.3267
赤外線	-11.3268
手順は	-11.327
ハッシュ	-11.3271
回目	-11.3272
を回避する	-11.3272
揺れ	-11.3274
の育成	-11.3276
著	-11.3279
注目を集め	-11.328
サードパーティ	-11.3281
可用性	-11.3281
を占め	-11.3282
世代の	-11.3282
から構成され	-11.3282
原油	-11.3284
について説明します	-11.3285
スパム	-11.3288
に従ってください	-11.3288
back	-11.3291
の森	-11.3292
アパートメント	-11.3293
操業	-11.3294
▁than	-11.3299
医療機関	-11.3299
flow	-11.3299
ユース	-11.33
をキャンセル	-11.33
に提出	-11.3302
match	-11.3302
分からない	-11.3303
それだけ	-11.3303
を定義する	-11.3303
ジャーナル	-11.3303
▁shopify	-11.3304
に注意	-11.3304
特徴的な	-11.3305
save	-11.3306
てはいけません	-11.3307
竜	-11.3307
時価	-11.3308
▁閉じる	-11.3309
qr	-11.3309
鳴	-11.331
半島	-11.3311
▁suite	-11.3311
nature	-11.3311
サンド	-11.3312
ks	-11.3315
弘	-11.3315
をすばやく	-11.3316
ことが出来る	-11.3318
メンバーが	-11.332
もらう	-11.3321
そんなに	-11.3321
成果を	-11.3322
冷凍	-11.3322
たかった	-11.3322
不確実性	-11.3325
囲	-11.3325
バッテリ	-11.3325
でそれを	-11.3326
年度から	-11.3327
丁寧に	-11.3327
沸騰	-11.3327
magic	-11.3328
作者	-11.3328
▁本日	-11.3329
見た目	-11.3329
▁think	-11.333
と呼ぶ	-11.3331
親切	-11.3331
未だ	-11.3332
要素は	-11.3332
実態	-11.3335
アンインストール	-11.3335
の判断	-11.3336
イニシアチブ	-11.3336
実質的に	-11.3338
メールを	-11.3339
長方形	-11.3339
社債	-11.3339
してい	-11.3341
によるもの	-11.3341
残念ながら	-11.3343
日本における	-11.3343
に戻り	-11.3344
リターン	-11.3344
一般の	-11.3346
ごみ	-11.3348
優先順位	-11.3349
小麦粉	-11.3349
にしても	-11.335
▁school	-11.3352
することができました	-11.3352
オペレータ	-11.3355
専門家の	-11.3357
の最終	-11.3357
モチーフ	-11.3357
の人気	-11.3357
との交流	-11.3358
が適用されます	-11.3358
尊	-11.3358
数日	-11.3359
▁cha	-11.3362
トレイ	-11.3363
ブレード	-11.3363
に含まれ	-11.3365
に優れた	-11.3366
専門家は	-11.3366
レア	-11.3366
ベンチャー	-11.3366
削除する	-11.3369
は決して	-11.3371
渡し	-11.3372
順次	-11.3373
センチメートル	-11.3376
▁op	-11.3378
消化	-11.3381
アセンブリ	-11.3382
ruby	-11.3382
来場者	-11.3382
一年	-11.3383
似ている	-11.3383
災	-11.3384
決まり	-11.3384
様な	-11.3384
▁and▁the	-11.3384
敷地内	-11.3387
権威	-11.3389
▁そうした	-11.3389
ことを可能にする	-11.3389
を見つけます	-11.3389
腫	-11.3391
の提案	-11.3391
信念	-11.3391
誠	-11.3393
にぴったり	-11.3394
paypal	-11.3396
通期	-11.3397
せい	-11.3397
三角形	-11.3398
損害賠償	-11.3399
cisco	-11.3399
寒さ	-11.3403
の形状	-11.3403
四季	-11.3405
トライ	-11.3405
台所	-11.3406
総数	-11.3406
マドリード	-11.3406
を回復する	-11.3406
前述の	-11.3406
正確	-11.3407
会談	-11.3411
を止め	-11.3414
クライアントは	-11.3417
それぞれが	-11.3417
由来	-11.3418
インテリジェンス	-11.3419
洗濯	-11.3419
砲	-11.3419
並べ	-11.3419
を実現するために	-11.342
を訪問する	-11.3424
に相当する	-11.3425
格差	-11.3426
管理する	-11.3427
生産者	-11.3428
本格	-11.343
する予定	-11.343
てきている	-11.343
埋め込み	-11.3432
に応じ	-11.3432
をどう	-11.3435
米国で	-11.3436
高速化	-11.3436
行なわれ	-11.3437
ダウンロードできない場合	-11.3437
分で	-11.3437
使用可能	-11.3438
建築家	-11.3438
モール	-11.3438
恵	-11.3438
の詳細は	-11.3438
の両方で	-11.344
メーカーの	-11.344
国外	-11.3442
が見え	-11.3442
の設立	-11.3442
われわれ	-11.3442
を要求する	-11.3443
ヶ	-11.3444
たいと思っています	-11.3446
知りたい	-11.3448
目指	-11.3448
確認してください	-11.3448
遺跡	-11.3449
輪郭	-11.345
富士山	-11.345
ファイルに関する	-11.3451
▁tw	-11.3453
の展開	-11.3453
関わり	-11.3454
セキュア	-11.3455
ておく	-11.3457
シリーズは	-11.3457
shift	-11.3459
溶け	-11.3461
兆候	-11.3462
リヤ	-11.3462
の安定	-11.3462
を計算する	-11.3464
hub	-11.3465
大学大学院	-11.3465
先行き	-11.3465
のメリット	-11.3465
ゲートウェイ	-11.3465
以後	-11.347
がなされ	-11.347
パンダ	-11.3471
人たちは	-11.3473
ケル	-11.3475
マッ	-11.3475
の香り	-11.3477
いなかった	-11.3478
ご登録	-11.3479
をお勧めします	-11.348
つぶ	-11.3481
判	-11.3481
フー	-11.3485
シャットダウン	-11.3485
を購入し	-11.3486
ギア	-11.3487
ているのか	-11.3488
さ▁れ	-11.3488
ビリティ	-11.3488
サイクロン	-11.3488
食べて	-11.349
予め	-11.3492
認	-11.3492
ユニーク	-11.3492
違いは	-11.3494
知事	-11.3494
サービスプロバイダー	-11.3494
つつあります	-11.3495
実に	-11.3495
姉妹	-11.3495
gene	-11.3496
十字架	-11.3497
▁print	-11.3498
ガム	-11.3498
技法	-11.35
問題解決	-11.3501
るという	-11.3502
ソースコード	-11.3502
ibm	-11.3503
永遠に	-11.3503
出身の	-11.3504
ネジ	-11.3506
ハム	-11.3506
▁utc	-11.3507
に合った	-11.3508
香港の	-11.3513
を作った	-11.3513
無理	-11.3513
コンテンツの更新が行われる	-11.3513
重さ	-11.3513
係数	-11.3513
内にある	-11.3514
火星	-11.3514
▁dns	-11.3515
よりもはるかに	-11.3515
ウェブページ	-11.3516
が存在します	-11.3517
繁殖	-11.3523
混雑	-11.3524
提供されます	-11.3524
と非表示に戻	-11.3526
を取り除き	-11.3526
朝鮮	-11.3526
地獄	-11.3527
までご連絡ください	-11.3528
ことでした	-11.3528
bot	-11.3528
所長	-11.3528
に影響を及ぼす	-11.3529
元素	-11.3529
▁edition	-11.3534
を表現し	-11.3536
談	-11.3536
知っています	-11.3536
に変換する	-11.3536
あたりの	-11.3538
されているため	-11.3538
rm	-11.3538
を起こし	-11.3539
shop	-11.3539
起き	-11.354
した上で	-11.3542
されているか	-11.3543
が重要	-11.3545
アム	-11.3546
飯	-11.3546
cia	-11.3549
special	-11.355
誤差	-11.3551
わたしの	-11.3551
の内容を	-11.3552
こういった	-11.3553
▁日本では	-11.3554
ira	-11.3555
夕	-11.3555
機能します	-11.3556
てはいけない	-11.3558
べきか	-11.3558
の研究開発	-11.3558
アプリは	-11.3559
燃	-11.356
全面	-11.3561
主流	-11.3563
を設置する	-11.3563
の脆弱性	-11.3563
本プロジェクト	-11.3565
確実な	-11.3566
がたくさんあります	-11.3566
system	-11.3567
を搭載し	-11.3567
ストップ	-11.3568
こそが	-11.3569
暖かく	-11.3569
▁この方法は	-11.3569
ご支援	-11.357
お送り	-11.357
ウエ	-11.3571
顔を	-11.3571
在籍	-11.3571
over	-11.3572
定義された	-11.3572
▁high	-11.3572
電気自動車	-11.3573
良いです	-11.3574
▁social	-11.3574
ニンニク	-11.3575
地域における	-11.3575
鮮やかな	-11.3575
つ目の	-11.3576
ビッグデータ	-11.3576
も含めて	-11.3577
言っている	-11.3577
生き物	-11.3578
自分を	-11.358
このプロセス	-11.3582
事前の	-11.3583
全身	-11.3585
が追加され	-11.3585
内部統制	-11.3586
せて	-11.3589
ついて	-11.3589
ボタンをクリックしてください	-11.359
こちらは	-11.3592
がないこと	-11.3593
作成する	-11.3594
使用された	-11.3596
gmail	-11.3597
▁market	-11.3597
定められた	-11.3601
ミネラル	-11.3601
がほとんど	-11.3601
オフィシャルサイト	-11.3604
径	-11.3605
ベトナムの	-11.3605
インストールされている	-11.3606
アプリケーションで	-11.3607
明記	-11.3607
▁to▁the	-11.3608
に示す	-11.3609
単独	-11.361
ガイダンス	-11.3612
に関心	-11.3612
取り出し	-11.3613
拡充	-11.3615
夜間	-11.3615
代わり	-11.3617
安定化	-11.3619
非表示になります	-11.3619
いただけ	-11.3622
即時	-11.3625
供与	-11.3625
square	-11.3629
ey	-11.363
dec	-11.3633
を発見	-11.3633
思え	-11.3637
あなたのために	-11.3637
用いられる	-11.3638
徴候	-11.3638
で行われる	-11.3639
であるので	-11.3639
のセクション	-11.3639
ご存知	-11.364
それはまた	-11.3641
手段として	-11.3642
受け入れられ	-11.3643
を依頼	-11.3643
問題点	-11.3645
不思議な	-11.3646
内部監査	-11.3646
教会の	-11.3647
を知り	-11.3648
始めて	-11.3649
教職員	-11.365
長官	-11.3651
mission	-11.3652
を実施しました	-11.3652
不十分	-11.3652
las	-11.3653
壮	-11.3653
を元に	-11.3653
の策定	-11.3654
すごい	-11.3656
の損失	-11.3658
ていれば	-11.366
開業	-11.366
ジャガイモ	-11.3662
stream	-11.3662
電極	-11.3663
出現	-11.3664
phone	-11.3664
は全て	-11.3665
高齢化	-11.3667
構文	-11.3668
梱包	-11.3668
にお問い合わせください	-11.3668
受け取る	-11.3669
経営成績	-11.3669
雷	-11.3669
流動	-11.367
準拠	-11.367
しかも	-11.3672
カルシウム	-11.3673
再インストール	-11.3673
エリート	-11.3674
グラン	-11.3675
ブラウン	-11.3676
▁スペイン	-11.3678
かえ	-11.3678
スロー	-11.3678
無料ライブセックスチャット	-11.368
迅速	-11.368
ヴァー	-11.3682
てはならない	-11.3683
放棄	-11.3684
適用される法律	-11.3688
に属しています	-11.3689
first	-11.3689
▁.▁「	-11.369
ht	-11.369
去る	-11.369
もいい	-11.3691
巣	-11.3691
放電	-11.3693
春の	-11.3693
ご説明	-11.3695
市場における	-11.3696
関連情報	-11.3696
▁because	-11.3697
壁紙	-11.3698
をオフに	-11.3698
漢	-11.37
alias	-11.3701
を通過し	-11.3701
ボルト	-11.3703
狂	-11.3703
動作する	-11.3704
不正な	-11.3705
しかった	-11.3707
素子	-11.3707
含有量	-11.3708
字幕	-11.3708
添	-11.3709
浄化	-11.3709
植え	-11.3709
空き	-11.3709
減少し	-11.3709
環境保護	-11.371
臨時	-11.371
込	-11.3711
pv	-11.3711
▁digital	-11.3713
が必要な場合は	-11.3713
を制限する	-11.3713
みられる	-11.3714
世界中に	-11.3715
慣行	-11.3716
テクノロジ	-11.3716
ful	-11.3716
講演会	-11.3717
ロッ	-11.3717
▁環境変数	-11.3718
カレー	-11.3718
働いている	-11.3718
の修正	-11.3718
後期	-11.3719
少数	-11.3722
とのこと	-11.3722
を調理する	-11.3722
犠牲	-11.3724
体に	-11.3724
バレー	-11.3727
を呼び	-11.3728
塚	-11.3728
ization	-11.373
キロメートル	-11.3731
こんにちは	-11.3733
画像は	-11.3733
いきます	-11.3733
ワーカー	-11.3735
ディス	-11.3735
健康な	-11.3738
コンピューターに	-11.374
ran	-11.3742
設定されます	-11.3743
えない	-11.3743
trust	-11.3744
ポルトガル	-11.3745
右上	-11.3745
持って	-11.3745
分野での	-11.3747
画期的な	-11.3748
芸術家	-11.3751
トラン	-11.3752
ヨガ	-11.3752
伝える	-11.3753
シアター	-11.3753
kr	-11.3754
human	-11.3758
そのため	-11.376
レンガ	-11.3761
品目	-11.3763
私たちを	-11.3763
に乗り	-11.3763
財政状態	-11.3763
ative	-11.3764
やがて	-11.3765
gal	-11.3765
ことが可能	-11.3765
を押す	-11.3767
icon	-11.3769
はそれぞれ	-11.377
shu	-11.377
load	-11.3771
優位性	-11.3772
だし	-11.3774
コンバータ	-11.3778
高度化	-11.3778
▁mobile	-11.3778
を継続的に	-11.3781
を見ている	-11.3781
てみてください	-11.3782
を行っ	-11.3784
分化	-11.3785
が得られます	-11.3785
追加情報	-11.3787
の効率化	-11.3787
といえる	-11.379
カレッジ	-11.3792
くれ	-11.3792
ara	-11.3793
ないもの	-11.3796
サポートされている	-11.3796
干	-11.3796
相互に	-11.3797
可能性は	-11.3797
の更なる	-11.3797
ディズニー	-11.3798
ことを示す	-11.3802
の地位	-11.3804
必要となる	-11.3804
ドラ	-11.3806
お電話	-11.3807
ているのです	-11.3808
アレンジ	-11.3809
潜	-11.3809
述べています	-11.3809
鎮	-11.381
起源	-11.3812
到来	-11.3813
どの程度	-11.3813
は大きく	-11.3815
▁ビリヤード	-11.3816
が強く	-11.3817
bm	-11.382
格安ホテル予約	-11.382
であろうと	-11.382
会議室	-11.382
に対応しています	-11.3821
将来的には	-11.3822
▁世界のホテル情報	-11.3825
東洋	-11.3825
ヘルス	-11.3825
ホテルを探して最安値でホテル予約	-11.3826
雅	-11.3827
disk	-11.3827
悪魔	-11.3828
情報を収集	-11.3829
私はあなた	-11.383
経済的な	-11.383
来ました	-11.3832
イスラーム	-11.3833
遺伝	-11.3834
制裁	-11.3835
大事な	-11.3835
が設置され	-11.3837
コイル	-11.3837
mx	-11.3838
縮	-11.3839
▁options	-11.3839
の雰囲気	-11.3839
iz	-11.3839
wp	-11.384
スクリーニング	-11.384
国立公園	-11.384
ましたか	-11.3841
働いて	-11.3841
スカート	-11.3843
bus	-11.3843
レプリカが	-11.3844
多種多様な	-11.3845
さんに	-11.3846
やり取り	-11.3847
さんと	-11.3847
投資法人	-11.3847
クチコミから	-11.3848
有益	-11.3848
中長期的な	-11.3849
尽力	-11.385
疲労	-11.385
バングラデシュ	-11.3851
彼自身	-11.3852
たので	-11.3854
ことも可能です	-11.3854
を迎える	-11.3854
心理	-11.3857
power	-11.3857
動画の	-11.3857
less	-11.3857
さくら	-11.3859
保有する	-11.386
教えて	-11.386
古典	-11.386
まらない	-11.3861
できるだけ早く	-11.3861
番目に	-11.3861
を送り	-11.3862
コラム	-11.3863
秋の	-11.3863
デフォルト値	-11.3863
身に	-11.3863
同年	-11.3864
head	-11.3865
を呼び出す	-11.3865
ロイヤル	-11.3866
nes	-11.3867
▁その場合	-11.3867
を保持し	-11.3869
に関する法律	-11.3872
マジック	-11.3873
多言語	-11.3875
低温	-11.3877
公正価値	-11.3878
メー	-11.3878
争	-11.3879
奇	-11.3879
アピール	-11.388
ドメイン名	-11.3884
覆	-11.3885
を楽しめる	-11.3885
エキス	-11.3887
発掘	-11.3887
はそれほど	-11.3889
決定しました	-11.3889
申し上げ	-11.3889
あるもの	-11.389
されております	-11.3892
事実上	-11.3894
いずれの	-11.3895
に適用される	-11.3895
されるまで	-11.3896
について説明	-11.3896
しているのか	-11.3897
佐藤	-11.3897
の装飾	-11.3899
腐敗	-11.3899
ファーム	-11.39
んですよ	-11.3902
経常利益	-11.3902
中古	-11.3902
わけで	-11.3902
ギャ	-11.3902
新しいもの	-11.3902
マンション	-11.3903
を持ちます	-11.3903
細かい	-11.3903
シールド	-11.3904
訪れた	-11.3904
アメリカン	-11.3905
に到達	-11.3905
武装	-11.3905
sil	-11.3905
並び	-11.3905
監	-11.3907
いても	-11.3907
兵器	-11.391
戻って	-11.3911
給付	-11.3912
唐	-11.3913
オススメ	-11.3913
お越し	-11.3913
視点で	-11.3914
アワード	-11.3915
三井	-11.3916
は少し	-11.3916
に合わせ	-11.3917
良かった	-11.3918
カラム	-11.3918
があるかもしれません	-11.3919
sb	-11.392
契約書	-11.3922
の実装	-11.3923
レセプション	-11.3925
▁museum	-11.3926
拒絶	-11.3926
を組み合わせて	-11.3927
といえば	-11.3928
原発	-11.3929
を切る	-11.393
当事務所	-11.393
消毒	-11.3931
クライ	-11.3932
用いる	-11.3932
ていなかった	-11.3935
このプロジェクト	-11.3938
知覚	-11.3938
偶	-11.3938
ウル	-11.3939
財務諸表	-11.3939
禅	-11.394
でありながら	-11.3941
から約	-11.3942
もう一つ	-11.3942
抗体	-11.3944
main	-11.3944
にアクセスできます	-11.3944
が一番	-11.3948
hc	-11.3948
感想	-11.3948
わかりません	-11.3949
▁know	-11.395
言語で	-11.3951
展開する	-11.3952
著しい	-11.3955
例では	-11.3958
提供されている	-11.3963
急性	-11.3964
を再現	-11.3964
よくある	-11.3966
▁very	-11.3967
ping	-11.397
死者	-11.397
▁、▁"	-11.3971
併用	-11.3971
増殖	-11.3972
rate	-11.3973
▁jav	-11.3973
wave	-11.3974
新年	-11.3974
usd	-11.3976
削	-11.3976
side	-11.3978
する権利	-11.3978
ロレックス	-11.3979
ご希望の	-11.3979
ほう	-11.398
溢れ	-11.3981
よう努め	-11.3982
へ移動	-11.3983
咳	-11.3983
見られ	-11.3984
の中では	-11.3984
クラフト	-11.3985
地理的	-11.3985
精製	-11.3985
中国で	-11.3985
level	-11.3987
簡易	-11.3988
を迅速に	-11.399
使われています	-11.399
ローラー	-11.3991
に活用	-11.3991
▁pinterest	-11.3991
つ目は	-11.3993
モダン	-11.3993
専門性	-11.3994
男性は	-11.3995
ham	-11.3995
出品	-11.3995
重要な役割を果たし	-11.3995
と言える	-11.3997
今週	-11.3999
となること	-11.4001
に携わる	-11.4003
鋭	-11.4004
継	-11.4004
繋がり	-11.4007
からである	-11.4007
アーティストの	-11.4009
茶色	-11.4009
着物	-11.4009
企業価値	-11.4009
ペース	-11.4009
旬	-11.401
現実の	-11.401
粉砕	-11.401
史上	-11.4011
えた	-11.4012
インターネット上で	-11.4013
親戚	-11.4014
生産量	-11.4014
ことを目的として	-11.4014
日付で	-11.4015
郵送	-11.4016
たる	-11.4017
の際	-11.4017
行動計画	-11.4018
産の	-11.4018
に署名	-11.4019
foo	-11.4019
この世	-11.4019
を想像	-11.402
準備ができている	-11.4021
てる	-11.4022
と私は	-11.4022
スケート	-11.4023
われる	-11.4024
求められ	-11.4027
開け	-11.4027
いたり	-11.4028
ていない場合	-11.4029
未知の	-11.4029
ドローン	-11.4029
アイス	-11.4029
▁im	-11.4033
tf	-11.4033
悪意者	-11.4035
インセンティブ	-11.4036
プロット	-11.4037
pal	-11.4037
元々	-11.4038
伏	-11.4038
▁true	-11.4039
zu	-11.404
持続可能な開発	-11.404
がさらに	-11.4041
まわり	-11.4041
▁innovation	-11.4042
ome	-11.4042
の一つは	-11.4042
会社に	-11.4044
頂いた	-11.4045
▁step	-11.4045
繊細な	-11.4045
アスリート	-11.4045
消費者の	-11.4045
▁gre	-11.4046
経由	-11.4047
に戻ります	-11.4048
してもらう	-11.4049
匂い	-11.4049
恋人	-11.4049
金曜日	-11.405
ヘル	-11.4052
を検索する	-11.4053
▁htaccess	-11.4054
ウォーカー▁ビリヲカ	-11.4054
▁fax	-11.4055
ナル	-11.4056
カナダの	-11.4056
ポリマー	-11.4057
global	-11.4058
classes	-11.406
前面	-11.406
皮膚の	-11.4061
新しいアプリケーション	-11.4061
サイバー	-11.4063
時間帯	-11.4063
ブー	-11.4065
高速道路	-11.4066
mal	-11.4067
ジェン	-11.4068
が起き	-11.4068
訳注	-11.4068
を持たない	-11.4068
etc	-11.4068
陸上	-11.4068
苦しんでい	-11.4069
みたいな	-11.4069
汗	-11.4071
エリ	-11.4071
に取り	-11.4074
裁量	-11.4074
管理者は	-11.4075
提	-11.4075
取り組んでいます	-11.4076
緩やかな	-11.4076
▁時々	-11.4076
所蔵	-11.4077
hat	-11.4077
出版物	-11.4078
グレ	-11.4078
]▁|	-11.408
住友	-11.4081
今後とも	-11.4081
農村	-11.4082
居住者	-11.4082
のに十分です	-11.4082
責任を負う	-11.4087
ステンレス鋼	-11.409
平面	-11.409
っていて	-11.4092
自動車の	-11.4092
アプリケーションが	-11.4093
と同等	-11.4095
共感	-11.4097
jet	-11.4098
ダイジェスト	-11.41
照射	-11.41
マンガ	-11.4104
究極の	-11.4104
終わった	-11.4104
混ぜ	-11.4104
感じている	-11.4104
されるか	-11.4105
remo	-11.4106
お楽しみ	-11.4107
涙	-11.4107
劣	-11.4108
図表	-11.4108
思	-11.4108
を付与	-11.4109
大企業	-11.4111
▁extension	-11.4113
課題解決	-11.4114
楽しさ	-11.4114
ブローカー	-11.4115
皆さんの	-11.4117
取れ	-11.4117
シカゴ	-11.4118
商品は	-11.412
スキーマ	-11.4121
▁good	-11.4121
露出	-11.4122
ッター	-11.4123
直線	-11.4123
▁value	-11.4124
経済学	-11.4124
中です	-11.4125
関連付けられ	-11.4126
が困難	-11.4127
位の	-11.4128
▁jaea	-11.4128
ポップ	-11.4129
free	-11.4131
被災	-11.4132
昼食	-11.4134
時間で	-11.4135
ヨン	-11.4138
日本酒	-11.4138
suexec	-11.4138
滑	-11.4139
保安	-11.4139
と呼ばれています	-11.4139
強固な	-11.4143
都心	-11.4143
ライティング	-11.4147
と同様の	-11.4147
磁	-11.4148
欄に	-11.4148
になるまで	-11.4149
断片	-11.4151
不可欠な	-11.4152
転移	-11.4152
洗い	-11.4153
溶解	-11.4153
定款	-11.4154
▁プレミアムユーザー	-11.4154
▁order	-11.4158
ことのない	-11.4161
皆様に	-11.4161
jbic	-11.4161
のシンボル	-11.4161
集会	-11.4163
work	-11.4164
を向上	-11.4165
ニッ	-11.4165
楽曲	-11.4167
ご参加	-11.4167
と連携	-11.4168
nm	-11.4169
に含まれている	-11.4169
弟子	-11.4169
価値を	-11.417
care	-11.4171
の兆候	-11.4172
法第	-11.4172
技術の開発	-11.4173
巡	-11.4174
視察	-11.4174
週に	-11.4174
三井物産	-11.4177
本文	-11.4178
の出現	-11.4178
になると常に	-11.4179
lv	-11.4181
このタイプの	-11.4181
ito	-11.4181
くださ	-11.4183
大西洋	-11.4183
ティブ	-11.4184
を図るため	-11.4186
ラグ	-11.4187
▁str	-11.4187
▁video▁email	-11.4189
どれほど	-11.4189
インサイト	-11.419
会館	-11.4194
これにより	-11.4194
市況	-11.4196
組成物	-11.4197
この記事	-11.4197
を推進しています	-11.4197
音量	-11.4198
存在します	-11.4198
未定義	-11.4199
→	-11.4199
確かな	-11.42
を待つ	-11.4201
恋	-11.4202
気づき	-11.4202
どうか	-11.4203
福島県	-11.4203
scan	-11.4203
意見を	-11.4204
獣	-11.4204
▁har	-11.4205
ufj	-11.4205
大部分	-11.4207
っていう	-11.4207
体が	-11.4208
登録された	-11.4208
過剰な	-11.4209
を効果的に	-11.4211
カンファレンス	-11.4213
に準拠し	-11.4213
っち	-11.4215
起きた	-11.4215
積み重ね	-11.4217
の景色	-11.4217
現れる	-11.4218
カーネル	-11.4219
と予測	-11.4219
bel	-11.422
マスタークラス	-11.4221
の達成	-11.4223
続行	-11.4228
飽和	-11.4229
アイドル	-11.423
に寄与し	-11.423
委員は	-11.4231
を作るために	-11.4231
救助	-11.4231
エレガントな	-11.4232
最初は	-11.4232
タイの	-11.4232
に慣れ	-11.4232
細部	-11.4232
埋め	-11.4233
ストロ	-11.4234
らなかった	-11.4234
顧問	-11.4235
に続く	-11.4235
flex	-11.4237
用いられ	-11.4237
このプログラム	-11.4237
配偶者	-11.4238
現在も	-11.4242
encoding	-11.4242
子宮	-11.4244
advanced	-11.4246
文化財	-11.4246
グロ	-11.4246
の金額	-11.4247
鈴木	-11.4248
に囲まれ	-11.4248
を実行して	-11.4249
相違	-11.425
paper	-11.4251
国際機関	-11.4252
輝	-11.4252
の授業	-11.4253
南極	-11.4254
可能で	-11.4254
電磁	-11.4256
確実	-11.4258
アジア太平洋	-11.4259
アクチュエータ	-11.426
の方に	-11.426
プッシュ	-11.4261
ピッチ	-11.4262
をお願いします	-11.4266
発射	-11.4267
断層	-11.4271
をクリア	-11.4271
微細	-11.4272
oem	-11.4272
kawa	-11.4273
を持つこと	-11.4273
治療薬	-11.4274
順番	-11.4275
device	-11.4277
刺	-11.4281
がなかった	-11.4282
人びと	-11.4283
価格が	-11.4284
ボイス	-11.4284
続きます	-11.4285
並み	-11.4285
提供している	-11.4285
必要とされ	-11.4286
ご提案	-11.4287
代の	-11.4287
人や	-11.4288
ダーク	-11.4288
ring	-11.4289
犠牲者	-11.4289
暗号通貨	-11.429
需給	-11.4292
ことができるので	-11.4293
兆円	-11.4293
厚さ	-11.4293
買う	-11.4294
進んで	-11.4295
同じような	-11.4296
office	-11.4298
みます	-11.4298
等しい	-11.4298
を発	-11.4299
ゲージ	-11.43
左側の	-11.43
には多くの	-11.4303
随	-11.4303
磁石	-11.4305
ロシア語	-11.4306
お話し	-11.4308
順調に	-11.4308
エイリアン	-11.4309
出た	-11.431
を使うことで	-11.4311
に満ちた	-11.4312
待つ	-11.4312
アクリル	-11.4312
たいと思う	-11.4313
されなければなりません	-11.4313
オークション	-11.4313
ムーブメント	-11.4314
可能だった	-11.4314
カタ	-11.4315
ile	-11.4316
を記載	-11.4318
帰り	-11.4318
癒し	-11.4319
れます	-11.432
し続け	-11.432
おく	-11.4321
moto	-11.4322
促	-11.4322
万トン	-11.4324
▁last	-11.4324
]▁[	-11.4325
アブ	-11.4326
はありませんでした	-11.4326
食事を	-11.4328
激しく	-11.4328
革新的	-11.433
サービス提供	-11.4333
お選び	-11.4335
jun	-11.4336
▁(▁「	-11.4337
で行う	-11.4337
出来ない	-11.4338
浅	-11.4338
メイ	-11.434
滅	-11.4341
▁files	-11.4341
方面	-11.4343
バックエンド	-11.4344
言われ	-11.4345
ことを可能にします	-11.4345
てほしい	-11.4346
個人情報の保護	-11.4346
知識と	-11.4346
社外	-11.4347
を表現する	-11.4351
神話	-11.4352
デート	-11.4355
スルー	-11.4355
良いでしょう	-11.4355
が低下し	-11.4355
いった	-11.4355
bri	-11.4356
忠	-11.4357
卓越した	-11.4357
選手権	-11.4357
当面	-11.4358
任せ	-11.4359
優秀	-11.4361
袖	-11.4361
サービスを提供	-11.4361
多様	-11.4364
▁driver	-11.4367
ことになりました	-11.4368
のは難しい	-11.4368
幼児	-11.437
ems	-11.4371
頂けます	-11.4371
を深め	-11.4372
スプリング	-11.4376
最先端	-11.4376
値段	-11.4376
数年間	-11.4376
の方向	-11.4377
日光	-11.4381
ていない場合は	-11.4381
忙しい	-11.4382
待って	-11.4382
やっている	-11.4384
stra	-11.4384
ae	-11.4385
▁limited	-11.4385
▁word	-11.4386
存続	-11.439
pool	-11.4391
ことが必要です	-11.4392
ジャズ	-11.4392
を自由に	-11.4393
西側	-11.4394
ことになった	-11.4394
できる限り	-11.4395
永遠の	-11.4396
外国の	-11.4397
封	-11.4398
を描き	-11.4399
---	-11.44
で初めて	-11.4403
コーチ	-11.4404
動作します	-11.4404
上空	-11.4405
衛	-11.4406
期間が	-11.4407
行動規範	-11.4408
スリランカ	-11.4409
あなた方は	-11.4409
キス	-11.4411
入会	-11.4411
へ戻る	-11.4412
とみなされます	-11.4412
されなかった	-11.4414
自動運転	-11.4415
皆さま	-11.4415
彼女に	-11.4417
ワット	-11.4417
料金は	-11.4417
イーサネット	-11.4418
を編集する	-11.4418
紅	-11.4418
完全性	-11.4418
見積	-11.442
繰り	-11.4421
独自に	-11.4422
安く	-11.4422
示した	-11.4424
世紀に	-11.4424
河川	-11.4425
ブラン	-11.4428
を見つけた	-11.4428
vis	-11.4428
ell	-11.4429
大学生	-11.4429
座標	-11.4431
ay	-11.4432
すばやく	-11.4432
を策定し	-11.4434
▁)▁,	-11.4434
深さ	-11.4434
なくなって	-11.4436
塗	-11.444
木製の	-11.4441
とは何か	-11.4441
ハラ	-11.4441
化学的	-11.4442
をカスタマイズ	-11.4443
軟	-11.4443
愛好家	-11.4444
エコノミー	-11.4444
借入	-11.4444
変わらない	-11.4444
ある種の	-11.4445
に適応	-11.4447
を取り除きます	-11.4448
に与える	-11.4449
灰色	-11.445
等による	-11.445
加入者	-11.4452
志向	-11.4452
タングステン	-11.4453
数ヶ月	-11.4453
を削除します	-11.4454
するために必要な	-11.4455
にあたる	-11.4456
山脈	-11.4456
玉ねぎ	-11.4458
だけに	-11.4458
しているのは	-11.4458
ことが望ましい	-11.4458
の中心部	-11.4459
マインド	-11.446
症例	-11.4461
hou	-11.4462
異なる場合があります	-11.4463
電話で	-11.4463
▁いいえ	-11.4464
に進みます	-11.4469
ここまで	-11.4469
罰	-11.447
それはおそらく	-11.447
ように設計されています	-11.447
逃げ	-11.447
スラ	-11.4471
辞書	-11.4471
col	-11.4472
を掲げ	-11.4473
なしの	-11.4474
を参考に	-11.4475
増収	-11.4476
共同体	-11.4477
大量に	-11.4478
注力	-11.4479
mis	-11.4479
チー	-11.448
non	-11.4481
イエスの	-11.4482
ウェル	-11.4484
アミノ酸	-11.4485
安価	-11.4486
薬品	-11.4486
アプリケーションのインストール	-11.4486
▁hkey	-11.4486
話し合い	-11.4489
人生を	-11.4489
モーション	-11.4489
を開催し	-11.449
に位置しています	-11.449
控除	-11.4491
に及ぶ	-11.4493
建築物	-11.4494
アナリティクス	-11.4494
子会社の	-11.4495
たまま	-11.4496
vimeo	-11.4497
▁link▁to	-11.4498
sync	-11.4498
ドキュメントの	-11.4499
マルチメディア	-11.4499
夕方	-11.45
別々に	-11.45
nk	-11.45
▁しかも	-11.4501
始まりました	-11.4502
自動で	-11.4502
季	-11.4502
んでいます	-11.4502
ないという	-11.4503
就任	-11.4504
library	-11.4504
ソル	-11.4505
目覚め	-11.4506
を目的に	-11.4507
にも関わらず	-11.4507
一時停止	-11.4509
トレーディング	-11.451
手頃な価格	-11.4511
og	-11.4511
に当たって	-11.4512
hal	-11.4514
動脈	-11.4514
wer	-11.4514
auto	-11.4515
になっていた	-11.4515
製薬	-11.4516
の基本的な	-11.4517
部分的に	-11.4519
上がって	-11.4519
生物学的	-11.452
国際線	-11.4522
を適用することができます	-11.4522
新鮮	-11.4523
ier	-11.4524
をめぐる	-11.4524
location	-11.4525
ドット	-11.4526
国債	-11.4526
できるようになる	-11.4526
ライダー	-11.4527
fit	-11.4529
舌	-11.4529
共存	-11.453
ファイルを新しい	-11.453
膝	-11.4533
鉄鋼	-11.4535
暖	-11.4535
ニュ	-11.4536
地理	-11.4537
ぐらつき	-11.4537
evernote	-11.4538
新株予約権の	-11.454
合理化	-11.454
rock	-11.454
▁shop	-11.4541
のアイコン	-11.4541
coin	-11.4542
を達成するために	-11.4542
ast	-11.4543
採取	-11.4543
狭	-11.4544
ファイルを取り扱う	-11.4544
開館	-11.4545
一貫した	-11.4545
画家	-11.4545
勝ち	-11.4546
公益財団法人	-11.4546
の信頼性	-11.4547
ベクトル	-11.4548
が出る	-11.4548
アプリで	-11.4548
が始まる	-11.4549
rna	-11.455
討論	-11.4552
ghz	-11.4552
リュー	-11.4552
ジャック	-11.4553
部屋に	-11.4553
だけではありません	-11.4555
定めた	-11.4556
昆虫	-11.4558
rant	-11.4559
鶴	-11.4561
を準備し	-11.4562
self	-11.4563
豊かに	-11.4565
無償	-11.4565
が好きな	-11.4567
落ち着いた	-11.4569
text	-11.457
▁create	-11.457
肥	-11.4571
誘致	-11.4576
の中にある	-11.4577
消費税	-11.4578
目指す	-11.4578
非常	-11.4579
式典	-11.4581
▁list	-11.4582
永久	-11.4582
を使用するには	-11.4583
者達は	-11.4583
ロジー	-11.4583
を終了	-11.4584
緊急事態	-11.4584
受ける	-11.4584
商業施設	-11.4585
▁foo	-11.4586
展望台	-11.4586
帯域幅	-11.4586
powerpoint	-11.459
vin	-11.4591
処理されます	-11.4591
存在している	-11.4592
コンパイラ	-11.4593
を与えた	-11.4593
をかけて	-11.4594
受取	-11.4595
すら	-11.4598
トラベル	-11.4599
yan	-11.4599
oh	-11.46
ura	-11.4602
会計処理	-11.4602
の強い	-11.4602
〉	-11.4603
公平	-11.4604
▁foundation	-11.4606
市長	-11.4608
茂	-11.4608
の大部分	-11.4608
ホン	-11.461
億人	-11.4611
届く	-11.4612
低価格	-11.4613
田中	-11.4613
と信じています	-11.4613
を参照して	-11.4613
トルク	-11.4614
早期に	-11.4614
正常な	-11.4614
imp	-11.4614
政治家	-11.4615
その理由	-11.4617
anti	-11.4618
▁profile	-11.4619
プレスリリース	-11.4622
校正	-11.4622
運転手	-11.4622
を見てみましょう	-11.4625
透過	-11.4626
持分	-11.4626
これも	-11.4627
china	-11.4627
ママ	-11.4628
に努める	-11.4628
を置いて	-11.4629
を受け取った	-11.463
深刻	-11.463
が常に	-11.4631
ric	-11.4631
row	-11.4632
同盟	-11.4633
感染拡大	-11.4633
トレース	-11.4633
sex	-11.4633
解体	-11.4634
重要な要素	-11.4635
臭い	-11.4635
リクエストが	-11.4636
インタラクティブ	-11.4636
補助金	-11.4637
康	-11.4637
怪我	-11.4637
ステレオ	-11.4637
最後まで	-11.4638
かわ	-11.4639
を好む	-11.464
好奇心	-11.4641
なさ	-11.4641
を重視し	-11.4641
フリ	-11.4642
かという	-11.4643
に与え	-11.4644
正当な	-11.4645
を有しています	-11.4646
の下部	-11.4647
日以降	-11.4647
プローブ	-11.4649
正当な利益	-11.4649
ストレッチ	-11.4649
専門の	-11.465
になることができます	-11.4651
部位	-11.4651
ハンガリー	-11.4652
同等	-11.4653
教訓	-11.4653
読んで	-11.4653
fd	-11.4655
メモリー	-11.4658
税込	-11.4659
build	-11.4659
ボタンを押して	-11.4659
発音	-11.4659
育て	-11.4659
独立性	-11.466
ドリル	-11.466
メニューの	-11.466
このような状況	-11.466
栄養素	-11.4661
イメージを	-11.4663
カプセル	-11.4664
エンドポイント	-11.4664
▁learn	-11.4666
limit	-11.4666
遅	-11.4668
オーク	-11.4669
回る	-11.467
一次	-11.467
内装	-11.4671
に搭載	-11.4671
どれも	-11.4671
ヒーロー	-11.4672
濃い	-11.4673
震	-11.4675
入社	-11.4677
読み込む	-11.4677
複合体	-11.4677
ラブ	-11.4677
▁here	-11.4677
ハイキング	-11.4678
の脅威	-11.4681
ゆえに	-11.4681
を安全に	-11.4681
方法については	-11.4681
と連携し	-11.4681
申し立て	-11.4682
フラワー	-11.4683
事由	-11.4683
なくてはならない	-11.4685
台北	-11.4687
このファイルは	-11.4687
ないか	-11.4688
指定します	-11.4688
構成要素	-11.469
の差	-11.469
ナス	-11.4693
アメリカで	-11.4693
を適用し	-11.4695
神奈川県	-11.4695
ユネスコ	-11.4697
施工	-11.4698
女の子は	-11.4698
することも可能です	-11.47
だけでも	-11.47
想像力	-11.47
pen	-11.4701
響	-11.4701
はありませんが	-11.4703
造船	-11.4703
抗生物質	-11.4703
接種	-11.4703
を保護し	-11.4704
▁―▁―	-11.4705
まっている	-11.4707
の指示	-11.4707
メモリカード	-11.4709
を含み	-11.4709
粘土	-11.471
行われました	-11.4711
石鹸	-11.4711
を受け取り	-11.4711
処理します	-11.4712
スラッシュ	-11.4712
に達した	-11.4712
畳	-11.4713
ニーズに	-11.4713
の多くが	-11.4713
漆	-11.4715
をつなぐ	-11.4717
▁these	-11.4717
くれる	-11.4717
に限り	-11.4718
の過程で	-11.4718
扱っ	-11.472
▁ヘルプセンター	-11.4721
〈	-11.4722
パール	-11.4723
利用者は	-11.4723
▁最初は	-11.4725
とのコミュニケーション	-11.4726
腐食	-11.4726
調査結果	-11.4727
を徹底	-11.4728
sig	-11.4728
した際に	-11.4728
できて	-11.4729
最低限	-11.473
数え	-11.4731
取られ	-11.4732
hol	-11.4732
▁会社情報	-11.4733
学研究科	-11.4736
参照してください	-11.4736
を妨げる	-11.4737
架	-11.4738
私には	-11.4738
を使用する必要があります	-11.4738
次世代の	-11.474
外付け	-11.4741
gon	-11.4742
▁ディレクティブ▁説明	-11.4742
を有している	-11.4743
取って	-11.4743
▁%▁、	-11.4745
rad	-11.4746
ていますか	-11.4747
絶景	-11.4747
傾	-11.4747
は限らないことに注意してください	-11.4747
ョ	-11.4748
負け	-11.4748
排気	-11.4748
▁wordpress	-11.475
捕	-11.475
を止める	-11.475
べきだ	-11.4751
度に	-11.4753
アジア太平洋地域	-11.4754
影響を及ぼす	-11.4755
look	-11.4756
出血	-11.4757
購入する	-11.4757
の大半	-11.4758
の公式	-11.4759
ポータブル	-11.4759
ワクチン接種	-11.476
オリーブオイル	-11.476
で始まる	-11.476
営業日	-11.476
dis	-11.4761
の強み	-11.4762
成功する	-11.4765
レコーダー	-11.4765
が異なります	-11.4765
の検証	-11.4765
魔	-11.4766
デバイスから	-11.4766
で覆われ	-11.4766
▁notebook	-11.4766
関東	-11.4768
ドロ	-11.4769
登場する	-11.477
と一致	-11.477
ディレクティブを	-11.477
を聞いた	-11.477
困	-11.4771
リンポチェ	-11.4772
ダウンロードした	-11.4772
ことができなかった	-11.4772
課金	-11.4773
]▁:	-11.4776
ウィーン	-11.4776
と言われる	-11.4777
ology	-11.4778
啓発	-11.4779
光景	-11.4781
出来ます	-11.4782
構	-11.4784
他のすべての	-11.4785
tec	-11.4785
ute	-11.4788
▁sea	-11.4788
お願いします	-11.4789
作戦	-11.479
温暖化	-11.479
プログラムでサポートされている	-11.479
似ています	-11.4791
センス	-11.4792
▁experience	-11.4792
本来の	-11.4794
透明な	-11.4798
等に関する	-11.4798
を築い	-11.4798
ッジ	-11.4799
add	-11.4799
サイトでは	-11.48
種別	-11.48
とくに	-11.48
最小限の	-11.4801
餌	-11.4802
media	-11.4803
ピックアップ	-11.4804
急激に	-11.4804
ジェイ	-11.4805
線量	-11.4805
お酒	-11.4806
デュー	-11.4806
嘘	-11.4806
改修	-11.4809
▁will	-11.481
プリセット	-11.481
編集が可能である	-11.481
などがあります	-11.481
取り入れ	-11.481
隔離	-11.4811
ステート	-11.4811
パニック	-11.4813
メダル	-11.4813
必ずしもそのデータ	-11.4813
▁enable	-11.4813
gc	-11.4813
探している	-11.4815
といって	-11.4817
残っています	-11.4818
ようやく	-11.4819
シューズ	-11.4819
を追求する	-11.482
上がった	-11.4821
魔法の	-11.4821
腎	-11.4821
▁global▁nav	-11.4822
の進化	-11.4822
ムービー	-11.4822
月中旬	-11.4822
札	-11.4824
先進的な	-11.4825
それについて	-11.4826
覆い	-11.4827
伸ば	-11.4828
障壁	-11.4828
▁institute	-11.4828
whatsapp	-11.483
海軍	-11.4831
データ復旧	-11.4831
ビート	-11.4831
見込まれ	-11.4831
信じられないほど	-11.4832
人口の	-11.4834
ニット	-11.4834
▁特定の拡張子が	-11.4835
学生たち	-11.4836
わが国	-11.4837
への接続	-11.4837
と思っている	-11.4838
するときは	-11.4838
乗車	-11.4839
実感	-11.4841
が無い	-11.4842
とパスワード	-11.4844
ガジェット	-11.4844
hel	-11.4844
羅	-11.4845
機能する	-11.4846
dt	-11.4847
ual	-11.4847
mv	-11.4848
bridge	-11.4848
行うこと	-11.4849
oda	-11.4851
dg	-11.4851
充分	-11.4852
人々と	-11.4853
あなた方の	-11.4854
注射	-11.4856
になっており	-11.4856
看板	-11.4856
を要求し	-11.4857
xxx	-11.4858
勢い	-11.4858
法案	-11.4858
最大限の	-11.4858
document	-11.4859
届け	-11.4859
ているのは	-11.4861
の継続	-11.4861
dar	-11.4861
▁standard	-11.4861
硬化	-11.4866
心理学	-11.4867
の規模	-11.4868
て下さい	-11.487
天使	-11.487
そしてその	-11.487
に注意を払う	-11.487
新興	-11.4871
ツイン	-11.4872
パズル	-11.4872
▁詳細はこちら	-11.4873
プロトタイプ	-11.4874
同社は	-11.4874
博士課程	-11.4874
汚	-11.4875
物品	-11.4875
図書	-11.4879
ジャーナリスト	-11.488
培養	-11.488
三つの	-11.4881
のみが可能で	-11.4881
悪影響	-11.4881
を測定し	-11.4881
減少する	-11.4885
外出	-11.4886
dic	-11.4886
ments	-11.4887
を指す	-11.4888
の先頭	-11.489
非常に高い	-11.4891
の防止	-11.4891
カーブ	-11.4892
という点で	-11.4892
sol	-11.4893
メンバーシップ	-11.4893
考えています	-11.4893
ファイルを開くことのできる	-11.4894
と異なる	-11.4894
を維持するために	-11.4894
▁for▁the	-11.4894
の見通し	-11.4895
不思議	-11.4896
が開きます	-11.4896
を繰り返す	-11.4897
缶	-11.4898
保存されます	-11.4898
に置き換え	-11.4901
リスクマネジメント	-11.4903
する必要があり	-11.4903
歳未満の	-11.4903
選ばれ	-11.4904
持参	-11.4905
の中で最も	-11.4906
▁その原因	-11.4906
致しました	-11.4907
ご確認	-11.4908
ux	-11.4908
儀	-11.4909
ダンサー	-11.4909
送る	-11.4909
あふれ	-11.491
されたり	-11.4911
または手動	-11.4911
流入	-11.4912
周年記念	-11.4912
を拡大する	-11.4913
不可欠です	-11.4915
寮	-11.4916
出店	-11.4919
ベータ	-11.4919
次第に	-11.4919
セルフ	-11.4919
集め	-11.4921
dns	-11.4922
自分自身の	-11.4923
を支援するため	-11.4924
磨	-11.4925
預言者	-11.4926
発症	-11.4926
邪魔	-11.4927
をお届け	-11.4928
できるので	-11.493
消費電力	-11.493
ボタンを押す	-11.4931
演算	-11.4933
の売上	-11.4935
に連絡してください	-11.4937
正確性	-11.4938
を失った	-11.4939
扱われ	-11.494
ユニクロ	-11.4941
kan	-11.4941
条件で	-11.4942
認められた	-11.4942
を作成すること	-11.4943
説明しています	-11.4944
述べている	-11.4944
且つ	-11.4946
格安	-11.4946
性のある	-11.4946
エレ	-11.4947
を閉じる	-11.4948
緩	-11.4949
広告主	-11.495
チェン	-11.4951
文字セット	-11.4951
開発途上国	-11.4952
が豊富	-11.4952
の過程	-11.4953
出会う	-11.4954
になりたい	-11.4954
シェアハウス	-11.4955
パンフレット	-11.4956
受け取った	-11.4958
の物語	-11.4959
が楽しめる	-11.496
と思われます	-11.4961
で構成され	-11.4961
tive	-11.4962
出会った	-11.4962
中心部	-11.4962
常時	-11.4964
教えてくれ	-11.4965
守る	-11.4965
を加速	-11.4966
フォロワー	-11.4969
緑色の	-11.497
別々の	-11.497
遮断	-11.4972
を確保するために	-11.4972
されるべき	-11.4972
のロゴ	-11.4974
アプリケーションからその	-11.4974
幸せな	-11.4974
マラソン	-11.4975
脈	-11.4976
作製	-11.4976
パウロ	-11.4976
のインポートがサポートされてい	-11.4977
寄り	-11.4977
形式へのデータのエクスポート	-11.4978
ない場合もよくあります	-11.4978
term	-11.4979
先頭	-11.4981
どうしたら	-11.4982
希	-11.4982
スカーフ	-11.4984
ンズ	-11.4985
中核	-11.4986
月下旬	-11.4988
▁無料ライブセックスチャット	-11.4989
ire	-11.4993
mos	-11.4996
産業界	-11.4996
認められる	-11.4997
危険性	-11.4998
ッピング	-11.4999
理論的	-11.4999
けて	-11.5
が正常に	-11.5001
リットル	-11.5001
折りたたみ	-11.5002
僕が	-11.5002
トーナメント	-11.5003
興味のある	-11.5003
ama	-11.5003
何故	-11.5004
専門的	-11.5004
▁foodion	-11.5005
我が国の	-11.5005
▁こうして	-11.5005
開花	-11.5006
に対処し	-11.5008
同士の	-11.501
フレキシブル	-11.501
のアイデア	-11.501
中継	-11.5011
を参照する必要があります	-11.5011
今年度	-11.5011
trade	-11.5016
臭	-11.5016
生成される	-11.5017
起こり	-11.5019
陳	-11.5019
を学びます	-11.502
をかける	-11.502
瞬間に	-11.5021
人気があります	-11.5022
テラ	-11.5023
しませんでした	-11.5023
望んでいる	-11.5023
ホワイトハウス	-11.5024
を取り付ける	-11.5025
膣	-11.5025
納期	-11.5026
を飲み	-11.5027
をご用意	-11.5028
リッチ	-11.5028
栄	-11.5031
ブラウザで	-11.5031
薄く	-11.5032
を定義する必要があり	-11.5032
ストーン	-11.5032
今度は	-11.5033
含	-11.5033
あげる	-11.5037
届き	-11.5038
を取り巻く	-11.5038
全然	-11.5039
ストローク	-11.5039
前提条件	-11.5042
ようになっています	-11.5043
無効化	-11.5044
魔法	-11.5044
歩み	-11.5045
スナック	-11.5045
や社会	-11.5046
ハノイ	-11.505
pri	-11.5052
顔の	-11.5053
のに十分な	-11.5053
ース	-11.5053
共催	-11.5054
bro	-11.5055
賞賛	-11.5056
側から	-11.5058
を希望する	-11.5059
▁dso	-11.5059
ペイ	-11.5061
法定	-11.5061
▁壁紙	-11.5061
に変え	-11.5061
暑い	-11.5062
ご利用ください	-11.5063
ミュージシャン	-11.5063
告げ	-11.5064
からもう一度ダウンロードしてみ	-11.5066
▁comp	-11.5068
sport	-11.5069
キャピタル	-11.507
きれいに	-11.507
也	-11.5073
開くことができないファイル	-11.5075
高く評価され	-11.5076
載	-11.5076
を行っており	-11.5076
の内側	-11.5077
をしたり	-11.5078
を救う	-11.5079
真珠	-11.5082
兄	-11.5082
を受賞	-11.5083
▁park	-11.5083
の精度	-11.5083
を使用する場合	-11.5084
ってしまう	-11.5084
に大きく	-11.5084
会員登録	-11.5085
▁she	-11.5087
force	-11.5088
平方メートル	-11.5088
サク	-11.5089
実効性	-11.5091
れて	-11.5091
世界各国	-11.5092
east	-11.5092
第二の	-11.5092
フォーカス	-11.5094
分かって	-11.5095
附属	-11.5095
準備を	-11.5095
ベースで	-11.5095
を取り入れ	-11.5095
宛先	-11.5095
lite	-11.5096
明白	-11.5097
▁guide	-11.5098
の予防	-11.5101
に囲まれた	-11.5101
ために使用されます	-11.5102
取消	-11.5102
いたしません	-11.5102
ident	-11.5102
自慢	-11.5103
の最後に	-11.5103
ムスリム	-11.5104
language	-11.5107
ラク	-11.5107
メディカル	-11.5107
開いて	-11.511
お使い	-11.5113
ベストプラクティス	-11.5115
▁お問合せ	-11.5117
であるべきです	-11.5117
hot	-11.5119
としたら	-11.512
闘	-11.5121
▁model	-11.5123
組織が	-11.5123
がインストールされている	-11.5123
民俗	-11.5125
大学院生	-11.5125
証言	-11.5126
と同じくらい	-11.5127
項の規定	-11.5128
社会的な	-11.5129
分裂	-11.513
取得したい場合は	-11.513
ネーム	-11.5131
option	-11.5131
ことができるでしょう	-11.5132
政府機関	-11.5133
▁azure	-11.5135
cha	-11.5135
を作り出し	-11.5135
をタップします	-11.5136
山口	-11.5138
刀	-11.5138
▁ipv	-11.5138
を保ち	-11.5138
された後	-11.5139
not	-11.5139
fun	-11.5139
を探して	-11.514
ipod	-11.5141
が開催され	-11.5142
確認する	-11.5143
電子メールアドレス	-11.5144
に帰	-11.5145
pon	-11.5145
アルゼンチン	-11.5145
▁kddi	-11.5145
smart	-11.5146
para	-11.5146
msi	-11.5146
異常な	-11.5147
千葉	-11.5148
言わ	-11.5148
菓子	-11.515
タブで	-11.515
そのバージョン	-11.515
カーテン	-11.5151
カントリー	-11.5153
ディーゼル	-11.5153
丹	-11.5153
▁まず第一に	-11.5153
met	-11.5153
っぱ	-11.5154
可能性があります▁このような場合	-11.5154
創り	-11.5155
のうえ	-11.5155
を把握する	-11.5156
を選びます	-11.5157
勢力	-11.5158
顕微鏡	-11.516
推	-11.5161
gm	-11.5161
▁big	-11.5162
を果た	-11.5163
いくら	-11.5168
失敗した	-11.5169
マラ	-11.5169
に使用されます	-11.517
を投げ	-11.5171
が記載されています	-11.5172
行えます	-11.5172
現れます	-11.5172
mix	-11.5172
参加者の	-11.5173
ファイルをサポートしている	-11.5174
lex	-11.5175
十分です	-11.5175
失われ	-11.5176
を提案する	-11.5177
を中心とする	-11.5177
クルー	-11.5177
ないし	-11.5178
が生じた場合	-11.5179
が原因で	-11.5181
を発見し	-11.5183
パノラマ	-11.5184
負の	-11.5184
dos	-11.5185
サービスを提供し	-11.5185
燃え	-11.5186
退屈	-11.5186
を実行するために必要な	-11.5186
コーポレートガバナンス	-11.5186
先ほど	-11.5189
オリーブ	-11.5191
掘削	-11.5191
てもらう	-11.5191
されている場合は	-11.5192
以内に	-11.5194
愛情	-11.5196
規	-11.5196
に分類	-11.5197
示されています	-11.5198
社員が	-11.52
タイムライン	-11.52
ジング	-11.52
アドレスを	-11.52
version	-11.5202
非常に重要な	-11.5203
出された	-11.5204
往復料金	-11.5206
駆け	-11.5206
が保有する	-11.5206
柳	-11.5208
oracle	-11.5208
礼拝	-11.5209
終了します	-11.521
含有	-11.521
あなたはそれを	-11.521
▁slack	-11.5213
承認された	-11.5213
サムスン	-11.5216
ベビー	-11.5216
コンパクトな	-11.5217
は適用されない可能性があります	-11.5218
局所	-11.5219
聖霊	-11.5219
債券	-11.522
娯楽	-11.522
アクセスできます	-11.5221
身近な	-11.5221
太陽電池	-11.5221
▁私も	-11.5223
優れている	-11.5223
ポルシェ	-11.5223
で起こりうる	-11.5223
時間以内に予約	-11.5224
を注ぎ	-11.5225
vol	-11.5228
zh	-11.5229
伸	-11.5229
工房	-11.523
初回	-11.5231
自発的	-11.5231
と述べました	-11.5231
要素が	-11.5232
右の	-11.5232
できない場合は	-11.5232
孫	-11.5232
金額は過去	-11.5233
テニス	-11.5234
に連絡する	-11.5234
アイデアを	-11.5235
住む	-11.5235
yahoo	-11.5236
▁machine	-11.5236
低迷	-11.5236
かどうかは	-11.524
不可能です	-11.5241
を促し	-11.5242
spring	-11.5242
に注力し	-11.5242
ことば	-11.5242
ラオス	-11.5243
アンダー	-11.5244
td	-11.5244
▁)▁.	-11.5245
印象的な	-11.5245
脚本	-11.5245
で撮影	-11.5248
▁::	-11.5249
メジャー	-11.525
処置	-11.525
を引き起こします	-11.525
それはあなたの	-11.5251
アトラクション	-11.5251
万台	-11.5251
たいです	-11.5252
少しでも	-11.5252
趣旨	-11.5253
納得	-11.5254
compute	-11.5255
リーディング	-11.5256
は単に	-11.5257
ブレンド	-11.5258
彗星	-11.5258
の生成	-11.5259
本書	-11.5259
cloud	-11.5259
殻	-11.526
ネイ	-11.5261
きわめて	-11.5261
ペル	-11.5261
翻訳者	-11.5262
その中身	-11.5262
死刑	-11.5262
出生	-11.5262
われた	-11.5263
ナッツ	-11.5264
を作成するには	-11.5264
造形	-11.5264
はまったく	-11.5265
髪の	-11.5265
雇用主	-11.5266
情報処理	-11.5267
普通株式	-11.5267
様々	-11.5267
pad	-11.5268
表示されている	-11.5269
バナー	-11.527
栄光	-11.527
に関するお問い合わせ	-11.5271
双日	-11.5271
ダブルクリック	-11.5272
コム	-11.5273
ポーズ	-11.5273
入院	-11.5274
fix	-11.5274
▁right	-11.5276
アムステルダム	-11.5276
成田	-11.5276
ミラノ	-11.5276
耕	-11.5278
言うと	-11.528
徹底的に	-11.528
ノートパソコン	-11.5281
詳細を	-11.5282
自律	-11.5282
越え	-11.5284
をインストールした後に	-11.5284
シャッター	-11.5285
つま	-11.5286
あなたはおそらく	-11.5286
をそのまま	-11.5286
セントラル	-11.5288
を監視する	-11.5289
勝つ	-11.5289
駐車	-11.529
ネパール	-11.529
らす	-11.529
block	-11.5291
全域	-11.5291
設定されている	-11.5292
に掲載されている	-11.5292
全額	-11.5292
大切に	-11.5293
関連付ける必要があります	-11.5294
dom	-11.5295
が得られ	-11.5296
しまい	-11.5297
ボタンをタッチ	-11.5298
rfc	-11.5298
その内容	-11.5299
以外は	-11.5299
を考慮した	-11.5299
®▁*	-11.53
信じ	-11.53
古くから	-11.5303
俊	-11.5303
支部	-11.5304
サイトから	-11.5304
おもてなし	-11.5305
荷重	-11.5305
増の	-11.5305
を与えること	-11.5306
を伸ばし	-11.5306
個体	-11.5306
ゼン	-11.5307
fast	-11.5307
地球に	-11.5307
▁以下は	-11.5308
融	-11.5309
商品が	-11.5311
を開催しました	-11.5313
オーガニック	-11.5313
年前の	-11.5315
▁had	-11.5316
しなければ	-11.5316
この時点で	-11.5317
成熟	-11.5317
窒素	-11.5318
lg	-11.5318
借入金	-11.5318
blog	-11.5319
および他の	-11.532
bp	-11.532
生まれる	-11.5322
方法を参照してください	-11.5323
レジストリに手動で	-11.5323
の真	-11.5323
導き	-11.5323
存在感	-11.5325
善意者	-11.5326
裸	-11.5326
調味料	-11.5326
ご飯	-11.5326
戻し	-11.5327
▁ディレクティブで	-11.5328
看護	-11.5328
があるか	-11.5328
sat	-11.5331
の際は	-11.5334
acer▁aspire	-11.5334
の象徴	-11.5334
斜面	-11.5337
このゲーム	-11.534
リーチ	-11.534
焼く	-11.534
ピット	-11.5341
ハイテク	-11.5343
地域では	-11.5343
標高	-11.5343
思った	-11.5347
企業活動	-11.5347
最も簡単な方法	-11.5348
行列	-11.5349
年後に	-11.5349
に応える	-11.5351
期日	-11.5352
ことを目指しています	-11.5352
ご相談ください	-11.5352
会計監査人	-11.5353
受信者	-11.5353
の皆様に	-11.5353
を取り戻す	-11.5355
を担当する	-11.5357
cg	-11.5358
従業員は	-11.5358
を踏まえて	-11.5359
の後ろに	-11.536
包み	-11.5361
▁has	-11.5361
してくれ	-11.5362
を変更します	-11.5363
スナップショット	-11.5363
と考えます	-11.5363
に到達する	-11.5366
ことなど	-11.5368
process	-11.5369
高等	-11.5371
プライマリ	-11.5372
ことを意味し	-11.5373
の詳細ページ	-11.5375
有り	-11.5375
アプリケーションに関連付けさせる	-11.5376
が形成され	-11.5377
世界中	-11.5378
med	-11.5378
its	-11.5379
置く	-11.5379
高圧	-11.5379
月曜日	-11.5382
配当金	-11.5383
数十年	-11.5384
の関連付けが間違ってい	-11.5384
sap	-11.5385
を引き起こす可能性があります	-11.5387
行える	-11.5387
基本的には	-11.5388
直前	-11.5388
lia	-11.5389
▁日本は	-11.539
家計	-11.539
後押し	-11.5393
頭を	-11.5397
採掘	-11.5397
を強調する	-11.5397
を把握	-11.5398
台数	-11.5398
歌舞伎	-11.5398
last	-11.5398
責任ある	-11.54
女優	-11.5405
ファイルを開こうとするとき	-11.5406
京都市	-11.5407
品質保証	-11.5408
心理的	-11.541
乗馬	-11.5412
を行うことで	-11.5413
しておりません	-11.5414
▁ディレクティブの	-11.5414
に恵まれ	-11.5416
作成してみてください	-11.5418
ことではありません	-11.5419
貼	-11.542
は以下のとおりです	-11.542
ファイルが壊れている	-11.5422
bay	-11.5422
見つけられ	-11.5422
ハッキング	-11.5423
tes	-11.5423
する可能性	-11.5424
soc	-11.5425
ことを意味する	-11.5426
が多数	-11.5426
燃料電池	-11.5426
東芝	-11.5426
ディア	-11.5426
の仕方	-11.5427
▁弊社では	-11.5428
にいた	-11.5428
ウェブサーバ	-11.543
を選択する必要があります	-11.5431
文法	-11.5431
を手に入れる	-11.5432
レンジ	-11.5433
空調	-11.5435
モンスター	-11.5436
一人一人	-11.544
かれた	-11.5441
最新版	-11.5441
男が	-11.5443
合った	-11.5443
tex	-11.5443
ano	-11.5444
を継続する	-11.5444
描かれた	-11.5448
エレベーター	-11.5448
ほこり	-11.545
をお願い	-11.5452
kk	-11.5453
間接的	-11.5453
を受けること	-11.5456
hoimi	-11.5457
一郎	-11.5458
たいとしましょう	-11.5458
インドネシアの	-11.5458
風に	-11.5458
spect	-11.5459
怠	-11.546
パレスチナ	-11.5461
表示されません	-11.5461
リビア	-11.5461
旅館	-11.5462
対策を講じ	-11.5462
遷移	-11.5462
役割を果たす	-11.5463
識	-11.5463
にアクセスし	-11.5465
キャベツ	-11.5467
を見つけることができないと	-11.5467
トム	-11.5467
のでご注意ください	-11.5468
教える	-11.5468
述べる	-11.5469
国立研究開発法人	-11.547
home	-11.547
適宜	-11.547
▁その時	-11.5473
▁module	-11.5473
田舎	-11.5474
を高めるために	-11.5475
を整え	-11.5475
優れています	-11.5476
に浸	-11.5477
を装備	-11.5477
高解像度	-11.5478
に向かう	-11.5478
期待される	-11.5479
接合	-11.5479
を歓迎し	-11.548
▁would	-11.548
育った	-11.548
立って	-11.5481
個展	-11.5481
したように	-11.5481
リビング	-11.5482
の低い	-11.5483
させていただく	-11.5483
だけど	-11.5484
tre	-11.5484
学期	-11.5485
有名です	-11.5487
ことができますか	-11.5488
▁education	-11.5488
を図っています	-11.5489
ゴールデン	-11.549
タイムスタンプ	-11.5492
を押して	-11.5493
原価	-11.5494
紹介します	-11.5494
レーン	-11.5494
塗布	-11.5496
卒	-11.5496
ナプキン	-11.5499
スプーン	-11.55
日本での	-11.55
超過	-11.55
を選んだ	-11.5501
を受け取ります	-11.5502
▁were	-11.5503
不快感	-11.5503
を最適化する	-11.5504
ベンチ	-11.5504
uv	-11.5505
hip	-11.5506
を推察する	-11.5506
を調整し	-11.5506
嘆	-11.5509
の危険性	-11.5509
を支持し	-11.5511
精神的な	-11.5512
筒	-11.5514
mil	-11.5515
の強さ	-11.5515
背面	-11.5516
理由から	-11.5517
グーグル	-11.5517
に包まれ	-11.5517
聞かせ	-11.5518
ky	-11.5518
ub	-11.5518
長い拡張子	-11.5519
general	-11.552
を置きます	-11.5522
着色	-11.5523
を捉え	-11.5523
惑	-11.5526
便利で	-11.5526
実施している	-11.5526
を発表した	-11.5526
ファイバー	-11.5527
ズーム	-11.5527
▁戸越銀座商店街	-11.5528
いただきたい	-11.5528
由	-11.5528
に限定	-11.5528
表示されることです	-11.5528
隣接する	-11.5529
レータ	-11.5529
ワーキング	-11.5529
簡単な方法	-11.5529
いや	-11.5529
飲食店	-11.553
▁わかりやすい例	-11.553
シャープ	-11.5531
と思いますが	-11.5531
▁hu	-11.5532
プロモーター	-11.5532
入れる	-11.5533
衣服	-11.5538
読んだ	-11.5539
マニキュア	-11.5539
アラーム	-11.5539
client	-11.5539
のタイトル	-11.5539
を展開する	-11.554
使徒	-11.554
に適	-11.5541
帰って	-11.5542
飲んで	-11.5542
車両の	-11.5542
停電	-11.5545
travel	-11.5545
指定されている	-11.5546
利活用	-11.5546
名様	-11.5546
ステップバイステップの	-11.5547
▁virtual	-11.5548
マガジン	-11.5548
デス	-11.5548
続けた	-11.555
をはじめとした	-11.555
の数が多くなるため	-11.555
アプリケーションによってサポート	-11.555
を制作	-11.5551
中国語に翻訳して	-11.5551
アプリケーションで開き	-11.5551
s▁for	-11.5553
ewbo	-11.5553
するよう努めましょう	-11.5553
▁当ホームページについて	-11.5554
バージョンが新しいほど	-11.5555
full	-11.5555
自信を持って	-11.5556
いる内容が含まれ	-11.5558
地中海	-11.5558
温かい	-11.5558
方向性	-11.5559
メンバーは	-11.5559
自動翻訳により	-11.5559
お問い合わせフォーム	-11.556
録	-11.5561
プログラムの最新バージョンを入手	-11.5561
先日	-11.5561
お使いのコンピュータにインス	-11.5562
頂	-11.5562
インディ	-11.5564
ique	-11.5564
をご覧下さい	-11.5564
大変な	-11.5565
cz	-11.5565
対面	-11.5567
他の方から	-11.5567
にあって	-11.5568
が使用され	-11.5568
クラン	-11.5569
子供たちが	-11.5569
製品やサービス	-11.557
住み	-11.557
の名称	-11.557
▁hand	-11.5571
際にエラーが発生した	-11.5572
込まれた	-11.5573
のインストール済	-11.5573
now	-11.5575
ファイルとアプリケーションを	-11.5575
ておらず	-11.5576
っぽ	-11.5576
研磨	-11.5577
を持っており	-11.5578
大人の	-11.5579
著名な	-11.5579
オプションがあります	-11.5579
▁professional	-11.5579
次のようなメッセージが表示され	-11.558
キャビネット	-11.5581
されるファイル拡張子	-11.5581
に挑戦し	-11.5581
登録されている	-11.5582
バルコニー	-11.5582
レジストリエントリで	-11.5582
チル	-11.5583
を受け取ったことがあります	-11.5583
mba	-11.5585
ファイルを取得した場合	-11.5585
システムが指定された	-11.5586
取り込み	-11.5587
方法論	-11.5589
しない場合は	-11.5589
を交換する	-11.559
沈黙	-11.559
に関連するファイルを削除	-11.5591
典型的な問題は	-11.5592
レジストリ項目	-11.5592
▁this▁is	-11.5592
を行ってください	-11.5592
で初めて取り扱う	-11.5593
▁そのための構文	-11.5594
冊	-11.5594
再送してもら	-11.5594
した後にもう一度	-11.5594
サブキーを作成する	-11.5595
はじめて	-11.5595
ファイルを開こうとした時	-11.5595
指定するアプリケーションの	-11.5596
レジストリに短い拡張子	-11.5596
が高まり	-11.5597
の定義に関する情報を	-11.5597
取得する	-11.5597
のシステムは通常	-11.5597
プログラムの識別子	-11.5598
かかって	-11.5598
を開いたり読み込んだりする	-11.5598
中に自動的に追加され	-11.5598
拡張子およびファイルテーブル	-11.5598
ファイルの別のコピーを見つけるか	-11.5599
トールされているプログラムと	-11.5599
ファイルで起こりうる問題▁拡張子	-11.56
悲	-11.56
に広がる	-11.5601
短い拡張子	-11.5602
jica	-11.5602
▁thing	-11.5603
キャンドル	-11.5604
離婚	-11.5604
太鼓	-11.5604
分から	-11.5605
が見られる	-11.5605
プログラム又は	-11.5606
選んだ	-11.5606
メイド	-11.5607
が必要となる	-11.5607
プログラムとの関連付け	-11.5608
ソフトウエア	-11.5609
する能力	-11.561
三菱重工	-11.561
小学生	-11.561
してくれます	-11.5612
否定的な	-11.5612
を持つファイルを	-11.5612
リアン	-11.5612
情報交換	-11.5613
を装備しているか	-11.5613
の提出	-11.5614
交わ	-11.5615
を使っている	-11.5616
併設	-11.5616
夜景	-11.5616
レク	-11.5619
イス	-11.562
増加しました	-11.562
進んでいる	-11.5621
時間以内に	-11.5621
ことが明らか	-11.5621
を持つファイルには	-11.5622
均一	-11.5623
抑え	-11.5623
残念	-11.5623
模型	-11.5623
前まで	-11.5624
せた	-11.5624
アプリケーション選択	-11.5625
ハリ	-11.5625
独占	-11.5626
どのように行うのですか	-11.5626
歳で	-11.5627
使えます	-11.5627
金沢	-11.5628
バーコード	-11.5628
の中核	-11.5628
の送信	-11.5628
原子炉	-11.5629
それ以上	-11.5629
教授は	-11.563
進捗状況	-11.563
mhz	-11.5632
を書いて	-11.5632
クリックして	-11.5633
ウール	-11.5635
上昇する	-11.5635
経済発展	-11.5638
カナ	-11.5638
official	-11.5639
含め	-11.5641
躍	-11.5642
▁)▁・	-11.5643
鎖	-11.5644
既定	-11.5645
▁yu	-11.5646
めた	-11.5647
右側に	-11.5647
英語版	-11.5648
敷設	-11.5648
wr	-11.5649
したところ	-11.5649
嬉しい	-11.565
▁洋楽	-11.565
を乗り越え	-11.565
function	-11.565
とすぐに	-11.5651
クチコミ	-11.5652
ave	-11.5653
lay	-11.5653
リュ	-11.5653
▁gallery	-11.5653
ニュアンス	-11.5654
について議論	-11.5655
データセット	-11.5656
機内	-11.5656
見積もり	-11.5657
▁フォームに入力して	-11.5657
同定	-11.5659
身体的	-11.5661
当たり前	-11.5662
coll	-11.5662
スイーツ	-11.5666
何らかの理由によりこの	-11.5667
ニャ	-11.5667
てしまいました	-11.5667
xx	-11.5668
を記録する	-11.5669
スケッチ	-11.567
寄贈	-11.567
pol	-11.5672
他の多くの	-11.5672
を通って	-11.5672
ト調	-11.5672
にリンク	-11.5672
講	-11.5672
奪	-11.5672
リンチェンドルジェ	-11.5673
とのことです	-11.5673
関連付けを追加する	-11.5674
働き方	-11.5675
上手く行かなかった場合	-11.5675
警報	-11.5676
脂	-11.5676
エラーを直すことが	-11.5676
なるべく迅速に対応	-11.5676
には次のようなものが挙げられ	-11.5676
使った	-11.5677
バトル	-11.5677
カウンタ	-11.5678
刑務所	-11.5679
マイニング	-11.568
情報を提供する	-11.568
恐ろしい	-11.5681
隠された	-11.5682
と長い拡張子	-11.5682
想	-11.5682
方法により	-11.5683
討議	-11.5683
騒	-11.5684
広々とした	-11.5684
違います	-11.5685
との対話	-11.5685
を必要とし	-11.5688
をもっと	-11.5689
拝	-11.569
を活かした	-11.5691
や文化	-11.5691
に記載された	-11.5692
nternet▁explorer	-11.5693
フィルタリング	-11.5694
fax	-11.5694
子供達	-11.5695
hiro	-11.5695
ケーション	-11.5698
ヴォ	-11.5699
しているもの	-11.5699
ホル	-11.57
セミ	-11.57
見つからない	-11.5701
こともできる	-11.5702
捕虜	-11.5702
を行う場合	-11.5703
が来る	-11.5704
ファイルを起動すると	-11.5705
られるように	-11.5705
信号を	-11.5706
工学部	-11.5707
を手に	-11.5707
真理	-11.5707
お湯	-11.5707
すべてのドライバをインストール	-11.571
に統合	-11.571
under	-11.571
キッズ	-11.5711
具体的	-11.5712
ディーラー	-11.5713
を指定して	-11.5714
ラマ	-11.5715
に精通し	-11.5715
water	-11.5715
少量の	-11.5717
を下げる	-11.5717
コラボ	-11.5717
好ましい	-11.5719
を掲載しております	-11.5719
▁上記のリストにある	-11.5719
敗	-11.5721
▁wrapper	-11.5723
プログラムを関連付ける	-11.5723
聞	-11.5723
taka	-11.5723
撤退	-11.5724
ifrs	-11.5725
体積	-11.5726
っこ	-11.5727
開いている	-11.5727
サマー	-11.5727
復	-11.5728
ご利用の	-11.5728
主人公	-11.5729
機能により	-11.5729
成し遂げ	-11.573
を再開	-11.573
——	-11.5731
len	-11.5731
を監視し	-11.5731
opera	-11.5731
rin	-11.5733
learning	-11.5733
が期待される	-11.5734
解決することができます	-11.5734
service	-11.5735
copy	-11.5735
ファイルとインストールされ	-11.5735
ヒュー	-11.5736
多くの人々が	-11.5736
tl	-11.5737
と協力し	-11.5737
鎌倉	-11.5737
傾斜	-11.5739
仮説	-11.5739
渡航	-11.5739
るべきです	-11.574
の活性化	-11.574
本投資法人の	-11.5741
申請書	-11.5742
jpeg	-11.5742
を提供するため	-11.5744
誘	-11.5744
タス	-11.5745
各自	-11.5746
集まった	-11.575
モル	-11.5754
自国の	-11.5754
を愛する	-11.5755
環境の変化	-11.5756
と同じです	-11.5756
▁bio	-11.5756
この作品	-11.5757
敏感	-11.5758
日本国	-11.576
苗	-11.5762
だろうと	-11.5763
ピーター	-11.5764
決勝	-11.5766
vel	-11.5767
功	-11.5769
広さ	-11.5769
の両方の	-11.5771
人から	-11.5772
風呂	-11.5772
が含まれ	-11.5772
▁その際	-11.5773
bet	-11.5774
も様々であること	-11.5774
実現する	-11.5775
への支援	-11.5775
名所	-11.5775
シェー	-11.5776
ロット	-11.5776
サポートする拡張子	-11.5777
まし▁た	-11.5778
チャンピオン	-11.5778
を排除し	-11.5779
南北	-11.5779
わせ	-11.578
が初めて	-11.578
ではないか	-11.5785
又は古い	-11.5785
はいけません	-11.5785
が強い	-11.5786
た結果	-11.5786
を無視し	-11.5786
盗難	-11.5787
コントロールパネル	-11.5787
湿気	-11.5788
統合された	-11.5788
経済活動	-11.5789
蜂蜜	-11.5791
協力関係	-11.5791
壊れた	-11.5791
▁この機能は	-11.5794
意外	-11.5795
更	-11.5796
まつり	-11.5796
非表示	-11.5797
必要な情報	-11.5798
を追加して	-11.58
▁閣僚は	-11.5801
していない場合	-11.5802
開きます	-11.5803
熊本	-11.5803
したのです	-11.5804
したりできます	-11.5804
チェンジ	-11.5804
収支	-11.5805
マリン	-11.5805
麦	-11.5806
の首都	-11.5808
ick	-11.5809
ヒラリー	-11.5809
気をつけ	-11.5809
▁player	-11.5809
お花	-11.581
▁さんの投稿	-11.581
いましたが	-11.581
迷惑	-11.5811
の多様性	-11.5813
を果たす	-11.5813
人道	-11.5813
味が	-11.5814
恩恵	-11.5818
に配置され	-11.5818
が実際に	-11.5819
社会貢献	-11.582
組立	-11.582
node	-11.582
混ぜる	-11.582
ドバイ	-11.5822
エルサレム	-11.5822
面での	-11.5822
て参ります	-11.5825
問題の解決	-11.5826
利用される	-11.5826
整合性	-11.5827
探す	-11.5827
に携わっ	-11.5828
ble	-11.5828
添付ファイル	-11.5829
を考えると	-11.5829
その実行	-11.583
支払われ	-11.583
粘膜	-11.5831
の代表者	-11.5831
が出来	-11.5832
昨今	-11.5832
右側の	-11.5832
を築く	-11.5832
が増加し	-11.5833
推計	-11.5833
手掛け	-11.5833
教科書	-11.5834
私はそれを	-11.5834
が高まる	-11.5836
焼け	-11.5837
置いて	-11.5838
を把握し	-11.5838
現れた	-11.5839
数秒	-11.584
ことができず	-11.584
▁class	-11.584
にどのように	-11.584
▁この度	-11.5843
標本	-11.5844
▁take	-11.5846
の起源	-11.5847
人のために	-11.5847
をお願いいたします	-11.5848
積極的	-11.5849
いただければ	-11.5849
design	-11.585
果たし	-11.585
ism	-11.5852
を拒否する	-11.5852
イタリア語	-11.5854
print	-11.5856
ball	-11.5856
当時は	-11.5859
▁userdir	-11.5859
の悪化	-11.586
呼び出され	-11.5861
sub	-11.5861
あなたも	-11.5861
▁which	-11.5861
エール	-11.5862
徒	-11.5862
fandom	-11.5863
▁適切なプログラムバージョン	-11.5864
に見えます	-11.5864
▁mode	-11.5864
半分に	-11.5864
を実現しています	-11.5865
順番に	-11.5866
sis	-11.5867
残った	-11.5869
接点	-11.5869
コック	-11.5872
装飾的な	-11.5872
期末	-11.5873
対抗	-11.5874
協業	-11.5874
を図ります	-11.5874
[...]
